{
    "<s>": 0,
    "<pad>": 1,
    "</s>": 2,
    "<unk>": 3,
    "の": 4,
    "、": 5,
    "。": 6,
    "に": 7,
    "は": 8,
    "を": 9,
    "年": 10,
    "た": 11,
    "が": 12,
    "）": 13,
    "で": 14,
    "（": 15,
    "と": 16,
    "て": 17,
    "-": 18,
    "し": 19,
    "月": 20,
    "日": 21,
    ".": 22,
    "・": 23,
    "「": 24,
    "」": 25,
    "れ": 26,
    "さ": 27,
    "(": 28,
    "^": 29,
    "する": 30,
    "いる": 31,
    "1": 32,
    "も": 33,
    "ある": 34,
    "『": 35,
    "』": 36,
    "2": 37,
    "から": 38,
    "3": 39,
    "い": 40,
    ",": 41,
    "/": 42,
    "4": 43,
    ")": 44,
    "こと": 45,
    "：": 46,
    "な": 47,
    "第": 48,
    ":": 49,
    "として": 50,
    "5": 51,
    "や": 52,
    "人": 53,
    "10": 54,
    "6": 55,
    "れる": 56,
    "7": 57,
    "ない": 58,
    "なっ": 59,
    "8": 60,
    "9": 61,
    "市": 62,
    "日本": 63,
    "“": 64,
    "など": 65,
    "閲覧": 66,
    "a": 67,
    "者": 68,
    "12": 69,
    "ため": 70,
    "的": 71,
    "県": 72,
    "11": 73,
    "この": 74,
    "子": 75,
    "その": 76,
    "へ": 77,
    "なる": 78,
    ").": 79,
    "一": 80,
    "中": 81,
    "町": 82,
    "大@@": 83,
    "後": 84,
    "駅": 85,
    "か": 86,
    "”": 87,
    "まで": 88,
    "号": 89,
    "あっ": 90,
    "S@@": 91,
    "よう": 92,
    "部": 93,
    "版": 94,
    "あり": 95,
    "という": 96,
    "ア@@": 97,
    "られ": 98,
    "b": 99,
    "線": 100,
    "家": 101,
    "もの": 102,
    "だ": 103,
    "また": 104,
    "リ@@": 105,
    "ス@@": 106,
    "回": 107,
    "大": 108,
    "会": 109,
    "より": 110,
    "村": 111,
    "B@@": 112,
    "マ@@": 113,
    "D@@": 114,
    "C@@": 115,
    "時": 116,
    "本": 117,
    "山": 118,
    "名": 119,
    "T@@": 120,
    "放送": 121,
    "川": 122,
    "カ@@": 123,
    "っ": 124,
    "田": 125,
    "P@@": 126,
    "き": 127,
    "上": 128,
    "大学": 129,
    "社": 130,
    "20": 131,
    "L@@": 132,
    "2016": 133,
    "H@@": 134,
    "う": 135,
    "M@@": 136,
    "ク@@": 137,
    "昭和": 138,
    "F@@": 139,
    "s@@": 140,
    "2015": 141,
    "2017": 142,
    "二": 143,
    "A": 144,
    "p": 145,
    "おり": 146,
    "〜": 147,
    "ら": 148,
    "e": 149,
    "ト@@": 150,
    "2014": 151,
    "内": 152,
    "G@@": 153,
    "2013": 154,
    "化": 155,
    "ラ@@": 156,
    "s": 157,
    "り": 158,
    "により": 159,
    "2012": 160,
    "2018": 161,
    "15": 162,
    "R@@": 163,
    "による": 164,
    "of": 165,
    "30": 166,
    "英語": 167,
    "i": 168,
    "前": 169,
    "間": 170,
    "東京": 171,
    "2011": 172,
    "オ@@": 173,
    "K@@": 174,
    "せ": 175,
    "ド@@": 176,
    "エ@@": 177,
    "道": 178,
    "国": 179,
    "ん": 180,
    "サ@@": 181,
    "シ@@": 182,
    "数": 183,
    "バ@@": 184,
    "2010": 185,
    "タ@@": 186,
    "ロ@@": 187,
    "m@@": 188,
    "元": 189,
    "ず": 190,
    "N@@": 191,
    "戦": 192,
    "コ@@": 193,
    "島": 194,
    "話": 195,
    "分": 196,
    "性": 197,
    "平成": 198,
    "地": 199,
    "世界": 200,
    "\"": 201,
    "t@@": 202,
    "ナ@@": 203,
    "c@@": 204,
    "三": 205,
    "学校": 206,
    "c": 207,
    "位": 208,
    "によって": 209,
    "b@@": 210,
    "16": 211,
    "13": 212,
    "2009": 213,
    "18": 214,
    "イ@@": 215,
    "これ": 216,
    "25": 217,
    "現在": 218,
    "郡": 219,
    "る": 220,
    "く": 221,
    "21": 222,
    "E@@": 223,
    "目": 224,
    "み": 225,
    "ミ@@": 226,
    "所": 227,
    "14": 228,
    "17": 229,
    "一@@": 230,
    "区": 231,
    "19": 232,
    "2008": 233,
    "ISBN": 234,
    "レ@@": 235,
    "://": 236,
    "長": 237,
    "ル@@": 238,
    "n@@": 239,
    "d@@": 240,
    "ば": 241,
    "小@@": 242,
    "h@@": 243,
    "in": 244,
    "語": 245,
    "新": 246,
    "'": 247,
    "W@@": 248,
    "役": 249,
    "局": 250,
    "22": 251,
    "なり": 252,
    "p@@": 253,
    "つ": 254,
    "軍": 255,
    "ハ@@": 256,
    "・@@": 257,
    "d": 258,
    "だっ": 259,
    "2007": 260,
    "法": 261,
    "原": 262,
    "時代": 263,
    "o": 264,
    "州": 265,
    "y": 266,
    "度": 267,
    "24": 268,
    "O@@": 269,
    "l@@": 270,
    "ラ": 271,
    "J@@": 272,
    "er": 273,
    "型": 274,
    "23": 275,
    "場": 276,
    "学": 277,
    "m": 278,
    "ウ@@": 279,
    "A@@": 280,
    "中@@": 281,
    "映画": 282,
    "ー": 283,
    "the": 284,
    "デ@@": 285,
    "ビ@@": 286,
    "について": 287,
    "ノ@@": 288,
    "t": 289,
    "i@@": 290,
    "研究": 291,
    "2@@": 292,
    "3@@": 293,
    "g@@": 294,
    "作": 295,
    "用": 296,
    "18@@": 297,
    "野": 298,
    "!": 299,
    "キ@@": 300,
    "登場": 301,
    "発売": 302,
    "f@@": 303,
    "C": 304,
    "使用": 305,
    "機": 306,
    "なく": 307,
    "S": 308,
    "セ@@": 309,
    "物": 310,
    "”.": 311,
    "高@@": 312,
    "0": 313,
    "力": 314,
    "ニ@@": 315,
    "下": 316,
    "なかっ": 317,
    "他": 318,
    "場合": 319,
    "新@@": 320,
    "The": 321,
    "パ@@": 322,
    "&": 323,
    "曲": 324,
    "す": 325,
    "車": 326,
    "28": 327,
    "お@@": 328,
    "26": 329,
    "2006": 330,
    "形": 331,
    "ッ@@": 332,
    "見": 333,
    "es": 334,
    "作品": 335,
    "and": 336,
    "E": 337,
    "27": 338,
    "en": 339,
    "B": 340,
    "a@@": 341,
    "できる": 342,
    "番組": 343,
    "初": 344,
    "モ@@": 345,
    "ン": 346,
    "メ@@": 347,
    "生": 348,
    "5@@": 349,
    "ス": 350,
    "事": 351,
    "k@@": 352,
    "賞": 353,
    "y@@": 354,
    "フ@@": 355,
    "等": 356,
    "い@@": 357,
    "鉄道": 358,
    "上@@": 359,
    "V@@": 360,
    "ム@@": 361,
    "本@@": 362,
    "http": 363,
    "ディ@@": 364,
    "られる": 365,
    "え": 366,
    "29": 367,
    "監督": 368,
    "com": 369,
    "ン@@": 370,
    "er@@": 371,
    "e@@": 372,
    "体": 373,
    "選手": 374,
    "において": 375,
    "ブ@@": 376,
    "=": 377,
    "系": 378,
    "ク": 379,
    "ジ@@": 380,
    "in@@": 381,
    "ダ@@": 382,
    "手": 383,
    "出演": 384,
    "ing": 385,
    "たち": 386,
    "次": 387,
    "公式": 388,
    "巻": 389,
    "I@@": 390,
    "それ": 391,
    "行わ": 392,
    "か@@": 393,
    "4@@": 394,
    "ル": 395,
    "ガ@@": 396,
    "2005": 397,
    "のみ": 398,
    "ン・@@": 399,
    "その後": 400,
    "面": 401,
    "v@@": 402,
    "D": 403,
    "テレビ": 404,
    "[": 405,
    "式": 406,
    "あ@@": 407,
    "お": 408,
    "シリーズ": 409,
    "三@@": 410,
    "6@@": 411,
    "科": 412,
    "南": 413,
    "T": 414,
    "on": 415,
    "ネ@@": 416,
    "水": 417,
    "M": 418,
    "グ@@": 419,
    "同": 420,
    "31": 421,
    "チ@@": 422,
    "u@@": 423,
    "ナ": 424,
    "約": 425,
    "開始": 426,
    "ベ@@": 427,
    "め": 428,
    "西@@": 429,
    "r@@": 430,
    "史": 431,
    "東": 432,
    "F": 433,
    "編": 434,
    "水@@": 435,
    "方": 436,
    "万": 437,
    "東@@": 438,
    "ズ@@": 439,
    "ティ@@": 440,
    "歳": 441,
    "作曲": 442,
    "リ": 443,
    "声": 444,
    "しかし": 445,
    "ボ@@": 446,
    "城": 447,
    "存在": 448,
    "al@@": 449,
    "受け": 450,
    "し@@": 451,
    "ar@@": 452,
    "期": 453,
    "17@@": 454,
    "時間": 455,
    "出": 456,
    "～": 457,
    "アメリカ": 458,
    "多く": 459,
    "2004": 460,
    "w@@": 461,
    "頁": 462,
    "全": 463,
    "U@@": 464,
    "寺": 465,
    "代": 466,
    "山@@": 467,
    "井": 468,
    "テ@@": 469,
    "金": 470,
    "7@@": 471,
    "木": 472,
    "活動": 473,
    "G": 474,
    "R": 475,
    "P": 476,
    "見@@": 477,
    "国@@": 478,
    "当時": 479,
    "谷": 480,
    "世": 481,
    "可能": 482,
    "プ@@": 483,
    "下@@": 484,
    "ツ@@": 485,
    "長@@": 486,
    "色": 487,
    "www": 488,
    "リー": 489,
    "点": 490,
    "き@@": 491,
    "I": 492,
    "2000": 493,
    "アン@@": 494,
    "ホ@@": 495,
    "大会": 496,
    "不@@": 497,
    "王": 498,
    "o@@": 499,
    "北": 500,
    "代表": 501,
    "一部": 502,
    "n": 503,
    "書": 504,
    "主": 505,
    "ed": 506,
    "際": 507,
    "ム": 508,
    "O": 509,
    "夫": 510,
    "an": 511,
    "マン": 512,
    "ソ@@": 513,
    "わ": 514,
    "十": 515,
    "ま": 516,
    "株式会社": 517,
    "明治": 518,
    "タ": 519,
    "f": 520,
    "行": 521,
    "バス": 522,
    "神": 523,
    "ゲーム": 524,
    "it@@": 525,
    "サン@@": 526,
    "ール": 527,
    "一覧": 528,
    "情報": 529,
    "ヒ@@": 530,
    "出版": 531,
    "真@@": 532,
    "大阪": 533,
    "an@@": 534,
    "k": 535,
    "→": 536,
    "西": 537,
    "2003": 538,
    "館": 539,
    "でき": 540,
    "公@@": 541,
    "美": 542,
    "at@@": 543,
    "および": 544,
    "日@@": 545,
    "or@@": 546,
    "天@@": 547,
    "開発": 548,
    "ケ@@": 549,
    "彼": 550,
    "男": 551,
    "た@@": 552,
    "ゴ@@": 553,
    "Y@@": 554,
    "%": 555,
    "正@@": 556,
    "ピ@@": 557,
    "h": 558,
    "委員": 559,
    "9@@": 560,
    "J": 561,
    "つ@@": 562,
    "氏": 563,
    "ス・@@": 564,
    "国際": 565,
    "8@@": 566,
    "ま@@": 567,
    "り@@": 568,
    "ア": 569,
    "en@@": 570,
    "ロ": 571,
    "地域": 572,
    "アル@@": 573,
    "呼ば": 574,
    "み@@": 575,
    "出身": 576,
    "ノ": 577,
    "屋": 578,
    "せる": 579,
    "X": 580,
    "美@@": 581,
    "イン@@": 582,
    "ック": 583,
    "海": 584,
    "音楽": 585,
    "L": 586,
    "旧": 587,
    "官": 588,
    "発表": 589,
    "教育": 590,
    "女": 591,
    "室": 592,
    "–": 593,
    "さ@@": 594,
    "高": 595,
    "の@@": 596,
    "K": 597,
    "北@@": 598,
    "橋": 599,
    "2002": 600,
    "口": 601,
    "にて": 602,
    "小学校": 603,
    "なお": 604,
    "2001": 605,
    "級": 606,
    "チーム": 607,
    "サイト": 608,
    "ドイツ": 609,
    "出@@": 610,
    "文": 611,
    "番": 612,
    "生@@": 613,
    "同@@": 614,
    "]": 615,
    "南@@": 616,
    "リー@@": 617,
    "における": 618,
    "変更": 619,
    "on@@": 620,
    "店": 621,
    "センター": 622,
    "ワ@@": 623,
    "台": 624,
    "イ": 625,
    "コ": 626,
    "関係": 627,
    "g": 628,
    "優勝": 629,
    "スト": 630,
    "行っ": 631,
    "50": 632,
    "事業": 633,
    "平@@": 634,
    "00": 635,
    "高等": 636,
    "x": 637,
    "リーグ": 638,
    "ザ@@": 639,
    "担当": 640,
    "ポ@@": 641,
    "星": 642,
    "光": 643,
    "ル・@@": 644,
    "ロー@@": 645,
    "開催": 646,
    "コン@@": 647,
    "H": 648,
    "さん": 649,
    "け": 650,
    "こ": 651,
    "フェ@@": 652,
    "el@@": 653,
    "平": 654,
    "バー@@": 655,
    "じ": 656,
    "だけ": 657,
    "側": 658,
    "re@@": 659,
    "隊": 660,
    "ット": 661,
    "参加": 662,
    "神@@": 663,
    "！": 664,
    "作詞": 665,
    "+": 666,
    "収録": 667,
    "フ": 668,
    "試合": 669,
    "ズ": 670,
    "チ": 671,
    "以降": 672,
    "和@@": 673,
    "別": 674,
    "ヴィ@@": 675,
    "都": 676,
    "野@@": 677,
    "く@@": 678,
    "所属": 679,
    "たり": 680,
    "ペ@@": 681,
    "キ": 682,
    "アルバム": 683,
    "978": 684,
    "ro@@": 685,
    "無@@": 686,
    "沢": 687,
    "事件": 688,
    "える": 689,
    "0@@": 690,
    "馬": 691,
    "スト@@": 692,
    "＝": 693,
    "ー@@": 694,
    "ch@@": 695,
    "有@@": 696,
    "10@@": 697,
    "歌": 698,
    "出場": 699,
    "種": 700,
    "員": 701,
    "am@@": 702,
    "明": 703,
    "／": 704,
    "16@@": 705,
    "田@@": 706,
    "st@@": 707,
    "z@@": 708,
    "ブ": 709,
    "年度": 710,
    "al": 711,
    "手@@": 712,
    "会社": 713,
    "円": 714,
    "ジャ@@": 715,
    "l": 716,
    "以下": 717,
    "Y": 718,
    "※": 719,
    "設置": 720,
    "利用": 721,
    "同年": 722,
    "マ": 723,
    "歴史": 724,
    "現": 725,
    "中国": 726,
    "is": 727,
    "記録": 728,
    "心": 729,
    "同じ": 730,
    "U": 731,
    "いう": 732,
    "ツ": 733,
    "権": 734,
    "々": 735,
    "持つ": 736,
    "100": 737,
    "中心": 738,
    "う@@": 739,
    "一般": 740,
    "風": 741,
    "社会": 742,
    "中央": 743,
    "頃": 744,
    "以上": 745,
    "_": 746,
    "j@@": 747,
    "ター": 748,
    ")@@": 749,
    "00@@": 750,
    "石": 751,
    "野球": 752,
    "ド・@@": 753,
    "…": 754,
    "40": 755,
    "ic@@": 756,
    "アニメ": 757,
    "安@@": 758,
    "金@@": 759,
    "多い": 760,
    "時点": 761,
    "カ": 762,
    "ギ@@": 763,
    "市立": 764,
    "名@@": 765,
    "制": 766,
    "シュ@@": 767,
    "アー@@": 768,
    "派": 769,
    "文化": 770,
    "年代": 771,
    "院": 772,
    "W": 773,
    "省": 774,
    "1999": 775,
    "制作": 776,
    "集": 777,
    "地方": 778,
    "外": 779,
    "艦": 780,
    "及び": 781,
    "直@@": 782,
    "自分": 783,
    "ド": 784,
    "っ@@": 785,
    "ート": 786,
    "jp": 787,
    "問題": 788,
    "ジェ@@": 789,
    "都市": 790,
    "協会": 791,
    "宮": 792,
    "V": 793,
    "un@@": 794,
    "ol@@": 795,
    "Ch@@": 796,
    "レ": 797,
    "崎": 798,
    "プロ": 799,
    "女性": 800,
    "花": 801,
    "us": 802,
    "多@@": 803,
    "ac@@": 804,
    "さらに": 805,
    "父": 806,
    "なら": 807,
    "計画": 808,
    "et@@": 809,
    "シャ@@": 810,
    "編曲": 811,
    "ic": 812,
    "u": 813,
    "ライ@@": 814,
    "頭": 815,
    "攻撃": 816,
    "文@@": 817,
    "シーズン": 818,
    "フランス": 819,
    "ほか": 820,
    "ヤ@@": 821,
    "15@@": 822,
    "ドラマ": 823,
    "津": 824,
    "ラン@@": 825,
    "団": 826,
    "音": 827,
    "N": 828,
    "ん@@": 829,
    "NHK": 830,
    "わ@@": 831,
    "之": 832,
    "自@@": 833,
    "pp": 834,
    "ち@@": 835,
    "1998": 836,
    "和": 837,
    "オリジナル": 838,
    "イン": 839,
    "白@@": 840,
    "な@@": 841,
    "に関する": 842,
    "出し": 843,
    "石@@": 844,
    "カー@@": 845,
    "行う": 846,
    "to": 847,
    "公開": 848,
    "雄": 849,
    "重@@": 850,
    "明@@": 851,
    "ち": 852,
    "里": 853,
    "各": 854,
    "久@@": 855,
    "勝": 856,
    "Z@@": 857,
    "郎": 858,
    "ファ@@": 859,
    "ri@@": 860,
    "条": 861,
    "ながら": 862,
    "ヘ@@": 863,
    "内@@": 864,
    "オ": 865,
    "達": 866,
    "よ": 867,
    "km": 868,
    "ックス": 869,
    "原@@": 870,
    "門": 871,
    "付": 872,
    "でも": 873,
    "ラー": 874,
    "堂": 875,
    "St@@": 876,
    "来": 877,
    "{\\": 878,
    "アイ@@": 879,
    "こ@@": 880,
    "必要": 881,
    "士": 882,
    "技術": 883,
    "発@@": 884,
    "船": 885,
    "正": 886,
    "フィ@@": 887,
    "自身": 888,
    "に対して": 889,
    "論": 890,
    "中学校": 891,
    "す@@": 892,
    "京都": 893,
    "記念": 894,
    "四": 895,
    "de": 896,
    "実@@": 897,
    "太郎": 898,
    "設立": 899,
    "ur@@": 900,
    "丁目": 901,
    "全国": 902,
    "1997": 903,
    "ター@@": 904,
    "ゲ@@": 905,
    "分@@": 906,
    "両": 907,
    "信@@": 908,
    "発": 909,
    "世紀": 910,
    "川@@": 911,
    "人物": 912,
    "結果": 913,
    "イギリス": 914,
    "党": 915,
    "卒業": 916,
    "は@@": 917,
    "ia": 918,
    "通り": 919,
    "〈": 920,
    "入@@": 921,
    "海@@": 922,
    "ニ": 923,
    "師": 924,
    "ひ@@": 925,
    "ミ": 926,
    "〉": 927,
    "うち": 928,
    "流": 929,
    "得": 930,
    "),": 931,
    "経済": 932,
    "治": 933,
    "ー・@@": 934,
    "ウ": 935,
    "特別": 936,
    "文庫": 937,
    "機関": 938,
    "シングル": 939,
    "最終": 940,
    "リア": 941,
    "愛": 942,
    "om@@": 943,
    "th@@": 944,
    "ソン": 945,
    "尾": 946,
    "1996": 947,
    "松@@": 948,
    "1990": 949,
    "武@@": 950,
    "用い": 951,
    "et": 952,
    "教授": 953,
    "総合": 954,
    "木@@": 955,
    "グループ": 956,
    "販売": 957,
    "@@": 958,
    "ーズ": 959,
    "終了": 960,
    "ユ@@": 961,
    "ース": 962,
    "校": 963,
    "トン": 964,
    "府": 965,
    ";": 966,
    "光@@": 967,
    "決定": 968,
    "朝": 969,
    "む": 970,
    "道路": 971,
    "地区": 972,
    "戦争": 973,
    "ut@@": 974,
    "キャ@@": 975,
    "と@@": 976,
    "取り@@": 977,
    "14@@": 978,
    "キャラクター": 979,
    "組": 980,
    "政": 981,
    "とき": 982,
    "人間": 983,
    "劇場": 984,
    "マー@@": 985,
    "1995": 986,
    "科学": 987,
    "成": 988,
    "オー@@": 989,
    "チャ@@": 990,
    "考え": 991,
    "高校": 992,
    "重": 993,
    "スポーツ": 994,
    "例": 995,
    "ト": 996,
    "記": 997,
    "le": 998,
    "と共に": 999,
    "at": 1000,
    "news": 1001,
    "ト・@@": 1002,
    "人@@": 1003,
    "ラジオ": 1004,
    "AR@@": 1005,
    "システム": 1006,
    "司": 1007,
    "id@@": 1008,
    "#": 1009,
    "ra@@": 1010,
    "同様": 1011,
    "量": 1012,
    "森": 1013,
    "廃止": 1014,
    "全@@": 1015,
    "訳": 1016,
    "em@@": 1017,
    "ほど": 1018,
    "選挙": 1019,
    "女子": 1020,
    "知ら": 1021,
    "政治": 1022,
    "000": 1023,
    "ダ": 1024,
    "母": 1025,
    "業": 1026,
    "米": 1027,
    "気@@": 1028,
    "五": 1029,
    "リン": 1030,
    "千@@": 1031,
    "再": 1032,
    "気": 1033,
    "章": 1034,
    "ers": 1035,
    "小": 1036,
    "太": 1037,
    "が@@": 1038,
    "新聞": 1039,
    "モデル": 1040,
    "江": 1041,
    "60": 1042,
    "建設": 1043,
    "im@@": 1044,
    "選手権": 1045,
    "35": 1046,
    "ット@@": 1047,
    "シ": 1048,
    "族": 1049,
    "波": 1050,
    "岡": 1051,
    "当初": 1052,
    "1994": 1053,
    "カル@@": 1054,
    "着": 1055,
    "メンバー": 1056,
    "総": 1057,
    "空": 1058,
    "ら@@": 1059,
    "身": 1060,
    "名古屋": 1061,
    "プ": 1062,
    "ニュース": 1063,
    "古@@": 1064,
    "通@@": 1065,
    "当": 1066,
    "前@@": 1067,
    "サッカー": 1068,
    "クラ@@": 1069,
    "字": 1070,
    "務め": 1071,
    "コー@@": 1072,
    "路": 1073,
    "以外": 1074,
    "il@@": 1075,
    "html": 1076,
    "ふ@@": 1077,
    "兵": 1078,
    "部分": 1079,
    "林": 1080,
    "ゼ@@": 1081,
    "AN@@": 1082,
    "政府": 1083,
    "ント": 1084,
    "務": 1085,
    "最後": 1086,
    "や@@": 1087,
    "ッド": 1088,
    "【": 1089,
    "レイ@@": 1090,
    "ダム": 1091,
    "製作": 1092,
    "サイ@@": 1093,
    "自動車": 1094,
    "X@@": 1095,
    "とともに": 1096,
    "as@@": 1097,
    "影響": 1098,
    "たい": 1099,
    "日本語": 1100,
    "経": 1101,
    "位置": 1102,
    "器": 1103,
    "管理": 1104,
    "宮@@": 1105,
    "公園": 1106,
    "1993": 1107,
    "海軍": 1108,
    "20@@": 1109,
    "義@@": 1110,
    "場所": 1111,
    "トリ@@": 1112,
    "カー": 1113,
    "地@@": 1114,
    "生まれ": 1115,
    "ック@@": 1116,
    "施設": 1117,
    "レー@@": 1118,
    "指定": 1119,
    "学@@": 1120,
    "娘": 1121,
    "妻": 1122,
    "48": 1123,
    "外@@": 1124,
    "交通": 1125,
    "路線": 1126,
    "】": 1127,
    "ただし": 1128,
    "1992": 1129,
    "or": 1130,
    "最初": 1131,
    "港": 1132,
    "ので": 1133,
    "TV": 1134,
    "丸": 1135,
    "th": 1136,
    "リリース": 1137,
    "ad@@": 1138,
    "類": 1139,
    "ール@@": 1140,
    "座": 1141,
    "ヴァ@@": 1142,
    "彦": 1143,
    "英": 1144,
    "ダー": 1145,
    "ーン": 1146,
    "赤@@": 1147,
    "ろ": 1148,
    "祭": 1149,
    "アーカイブ": 1150,
    "教@@": 1151,
    "獲得": 1152,
    "ハイ@@": 1153,
    "議員": 1154,
    "スター": 1155,
    "春": 1156,
    "is@@": 1157,
    "立@@": 1158,
    "日本@@": 1159,
    "年@@": 1160,
    "調査": 1161,
    "ルー@@": 1162,
    "CD": 1163,
    "後@@": 1164,
    "企画": 1165,
    "フォ@@": 1166,
    "ジョ@@": 1167,
    "介": 1168,
    "え@@": 1169,
    "ね": 1170,
    "何": 1171,
    "向け": 1172,
    "特に": 1173,
    "北海道": 1174,
    "志": 1175,
    "JR": 1176,
    "参照": 1177,
    "そして": 1178,
    "車両": 1179,
    "構成": 1180,
    "清@@": 1181,
    "加@@": 1182,
    "じ@@": 1183,
    "状態": 1184,
    "土@@": 1185,
    "エン@@": 1186,
    "13@@": 1187,
    "パー@@": 1188,
    "樹": 1189,
    "ed@@": 1190,
    "TBS": 1191,
    "1991": 1192,
    "引き@@": 1193,
    "める": 1194,
    "45": 1195,
    "かつて": 1196,
    "マイ@@": 1197,
    "戦闘": 1198,
    "マル@@": 1199,
    "それぞれ": 1200,
    "生活": 1201,
    "クラブ": 1202,
    "愛@@": 1203,
    "ation": 1204,
    "01": 1205,
    "発生": 1206,
    "主義": 1207,
    "物語": 1208,
    "バー": 1209,
    "品": 1210,
    "通": 1211,
    "ガン": 1212,
    "ir@@": 1213,
    "一方": 1214,
    "デザイン": 1215,
    "定": 1216,
    "ig@@": 1217,
    "\\": 1218,
    "ロシア": 1219,
    "列車": 1220,
    "年間": 1221,
    "リング": 1222,
    "命": 1223,
    "ab@@": 1224,
    "ード": 1225,
    "デビュー": 1226,
    "航空": 1227,
    "葉": 1228,
    "国道": 1229,
    "レン@@": 1230,
    "法人": 1231,
    "受賞": 1232,
    "プロ@@": 1233,
    "意味": 1234,
    "ガ": 1235,
    "発行": 1236,
    "1989": 1237,
    "だ@@": 1238,
    "園": 1239,
    "32": 1240,
    "アメリカ合衆国": 1241,
    "スタ@@": 1242,
    "率": 1243,
    "製": 1244,
    "彼女": 1245,
    "夏": 1246,
    "12@@": 1247,
    "el": 1248,
    "説": 1249,
    "死": 1250,
    "枚": 1251,
    "漫画": 1252,
    "ブラ@@": 1253,
    "ag@@": 1254,
    "33": 1255,
    "または": 1256,
    "r": 1257,
    "研究所": 1258,
    "v": 1259,
    "×": 1260,
    "広@@": 1261,
    "実": 1262,
    "一つ": 1263,
    "動": 1264,
    "ヨ@@": 1265,
    "主@@": 1266,
    "設定": 1267,
    "成@@": 1268,
    "花@@": 1269,
    "対": 1270,
    "1980": 1271,
    "合": 1272,
    "転@@": 1273,
    "ent@@": 1274,
    "とも": 1275,
    "界": 1276,
    "夜": 1277,
    "le@@": 1278,
    "立": 1279,
    "合併": 1280,
    "代@@": 1281,
    "吉@@": 1282,
    "付け": 1283,
    "製造": 1284,
    "敵": 1285,
    "知@@": 1286,
    "紹介": 1287,
    "as": 1288,
    "ウィ@@": 1289,
    "法@@": 1290,
    "ネット": 1291,
    "営業": 1292,
    "ネ": 1293,
    "ップ": 1294,
    "名前": 1295,
    "特@@": 1296,
    "就任": 1297,
    "秒": 1298,
    "しまう": 1299,
    "八@@": 1300,
    "編集": 1301,
    "国立": 1302,
    "吉": 1303,
    "六": 1304,
    "ディ": 1305,
    "co@@": 1306,
    "80": 1307,
    "シン@@": 1308,
    "契約": 1309,
    "超": 1310,
    "しい": 1311,
    "に@@": 1312,
    "実施": 1313,
    "広島": 1314,
    "?": 1315,
    "総@@": 1316,
    "クロ@@": 1317,
    "持っ": 1318,
    "能力": 1319,
    "八": 1320,
    "岩@@": 1321,
    "運行": 1322,
    "れ@@": 1323,
    "信": 1324,
    "勝@@": 1325,
    "家@@": 1326,
    "民": 1327,
    "かけ": 1328,
    "道@@": 1329,
    "先": 1330,
    "for": 1331,
    "企業": 1332,
    "ジュ@@": 1333,
    "常@@": 1334,
    "天": 1335,
    "ご": 1336,
    "これら": 1337,
    "誌": 1338,
    "ot@@": 1339,
    "カード": 1340,
    "小説": 1341,
    "連@@": 1342,
    "1987": 1343,
    "二@@": 1344,
    "チェ@@": 1345,
    "1988": 1346,
    "55": 1347,
    "co": 1348,
    "全て": 1349,
    "神社": 1350,
    "行@@": 1351,
    "佐@@": 1352,
    "イタリア": 1353,
    "ライブ": 1354,
    "入り": 1355,
    "黒@@": 1356,
    "増@@": 1357,
    "組織": 1358,
    "機能": 1359,
    "34": 1360,
    "ページ": 1361,
    "職": 1362,
    "風@@": 1363,
    "戦い": 1364,
    "x@@": 1365,
    "es@@": 1366,
    "撮影": 1367,
    "ルト": 1368,
    "高い": 1369,
    "z": 1370,
    "通常": 1371,
    "帝国": 1372,
    "蔵": 1373,
    "教": 1374,
    "採用": 1375,
    "姿": 1376,
    "PDF": 1377,
    "FC": 1378,
    "瀬": 1379,
    "リン@@": 1380,
    "ば@@": 1381,
    "対応": 1382,
    "街": 1383,
    "志@@": 1384,
    "御@@": 1385,
    "マン@@": 1386,
    "任": 1387,
    "名称": 1388,
    "Re@@": 1389,
    "クリ@@": 1390,
    "-@@": 1391,
    "w": 1392,
    "連続": 1393,
    "群": 1394,
    "ちゃん": 1395,
    "ジ": 1396,
    "フジテレビ": 1397,
    "ものの": 1398,
    "弾": 1399,
    "os@@": 1400,
    "最@@": 1401,
    "サービス": 1402,
    "宗": 1403,
    "伊@@": 1404,
    "対@@": 1405,
    "生産": 1406,
    "{": 1407,
    "也": 1408,
    "宇宙": 1409,
    "ST@@": 1410,
    "運転": 1411,
    "義": 1412,
    "ザ・@@": 1413,
    "少年": 1414,
    "ウェ@@": 1415,
    "36": 1416,
    "1@@": 1417,
    "70": 1418,
    "に対する": 1419,
    "合@@": 1420,
    "通信": 1421,
    "専門": 1422,
    "理": 1423,
    "Sh@@": 1424,
    "領": 1425,
    "最大": 1426,
    "1986": 1427,
    "末": 1428,
    "ナー": 1429,
    "病院": 1430,
    "河@@": 1431,
    "写真": 1432,
    "ul@@": 1433,
    "相手": 1434,
    "ak@@": 1435,
    "今@@": 1436,
    "福岡": 1437,
    "目的": 1438,
    ">": 1439,
    "基本": 1440,
    "め@@": 1441,
    "び": 1442,
    "AS@@": 1443,
    "相@@": 1444,
    "サ": 1445,
    "プラ@@": 1446,
    "グ": 1447,
    "ハー@@": 1448,
    "ところ": 1449,
    "人口": 1450,
    "親@@": 1451,
    "38": 1452,
    "42": 1453,
    "強@@": 1454,
    "百": 1455,
    "理@@": 1456,
    "IN@@": 1457,
    "要": 1458,
    "市@@": 1459,
    ")、": 1460,
    "部隊": 1461,
    "坂": 1462,
    "像": 1463,
    "久": 1464,
    "ーク": 1465,
    "li@@": 1466,
    "青@@": 1467,
    "um@@": 1468,
    "勝利": 1469,
    "かっ": 1470,
    "初めて": 1471,
    "白": 1472,
    "郷": 1473,
    "ch": 1474,
    "ラー@@": 1475,
    "完全": 1476,
    "ニー": 1477,
    "37": 1478,
    "II": 1479,
    "経営": 1480,
    "先@@": 1481,
    "大正": 1482,
    "サー@@": 1483,
    "di@@": 1484,
    "独立": 1485,
    "タイ@@": 1486,
    "真": 1487,
    "使わ": 1488,
    "ランド": 1489,
    "AT@@": 1490,
    "la@@": 1491,
    "ダイ@@": 1492,
    "Z": 1493,
    "搭載": 1494,
    "25@@": 1495,
    "https": 1496,
    "公": 1497,
    "技": 1498,
    "のち": 1499,
    "原作": 1500,
    "40@@": 1501,
    "現代": 1502,
    "最も": 1503,
    "表": 1504,
    "ぎ": 1505,
    "1985": 1506,
    "しく": 1507,
    "39": 1508,
    "永": 1509,
    "装": 1510,
    "警察": 1511,
    "状": 1512,
    "ap@@": 1513,
    "テーマ": 1514,
    "ニア": 1515,
    "メ": 1516,
    "紀": 1517,
    "千葉": 1518,
    "庁": 1519,
    "伝": 1520,
    "最高": 1521,
    "産": 1522,
    "アン": 1523,
    "ベル@@": 1524,
    "ion": 1525,
    "編成": 1526,
    "江@@": 1527,
    "上げ": 1528,
    "電@@": 1529,
    "ロー": 1530,
    "☆": 1531,
    "バン@@": 1532,
    "アジア": 1533,
    "41": 1534,
    "城@@": 1535,
    "進": 1536,
    "び@@": 1537,
    "46": 1538,
    "夢": 1539,
    "公演": 1540,
    "流@@": 1541,
    "ステ@@": 1542,
    "戸": 1543,
    "銀行": 1544,
    "良@@": 1545,
    "ar": 1546,
    "カン@@": 1547,
    "端": 1548,
    "us@@": 1549,
    "根": 1550,
    "トゥ@@": 1551,
    "テ": 1552,
    "ノー@@": 1553,
    "競技": 1554,
    "福@@": 1555,
    "七": 1556,
    "学園": 1557,
    "運動": 1558,
    "報": 1559,
    "与え": 1560,
    "1984": 1561,
    "県立": 1562,
    "30@@": 1563,
    "ジョン": 1564,
    "ヴ@@": 1565,
    "ph@@": 1566,
    "協力": 1567,
    "IC": 1568,
    "け@@": 1569,
    "シー@@": 1570,
    "盤": 1571,
    "質": 1572,
    "開@@": 1573,
    "入": 1574,
    "44": 1575,
    "横浜": 1576,
    "予定": 1577,
    "元@@": 1578,
    "様": 1579,
    "内容": 1580,
    "演": 1581,
    "楽": 1582,
    "書@@": 1583,
    "47": 1584,
    "以前": 1585,
    "含む": 1586,
    "完成": 1587,
    "江戸": 1588,
    "90": 1589,
    "今": 1590,
    "不明": 1591,
    "}": 1592,
    "著": 1593,
    "番号": 1594,
    "反@@": 1595,
    "ニュー@@": 1596,
    "言": 1597,
    "ング@@": 1598,
    "調": 1599,
    "トラ@@": 1600,
    "いく": 1601,
    "ます": 1602,
    "RE@@": 1603,
    "韓国": 1604,
    "環境": 1605,
    "選": 1606,
    "主演": 1607,
    "階": 1608,
    "間@@": 1609,
    "井@@": 1610,
    "and@@": 1611,
    "レス": 1612,
    "ッシュ": 1613,
    "エンジン": 1614,
    "ッチ": 1615,
    "火": 1616,
    "松": 1617,
    "連合": 1618,
    "ou@@": 1619,
    "43": 1620,
    "農@@": 1621,
    "1970": 1622,
    "共同": 1623,
    "実際": 1624,
    "電": 1625,
    "絵": 1626,
    "安": 1627,
    "画": 1628,
    "1983": 1629,
    "タイトル": 1630,
    "表記": 1631,
    "砲": 1632,
    "バ": 1633,
    "香": 1634,
    "ダー@@": 1635,
    "提供": 1636,
    "イベント": 1637,
    "ヤ": 1638,
    "06": 1639,
    "子@@": 1640,
    "太@@": 1641,
    "初@@": 1642,
    "id": 1643,
    "藩": 1644,
    "ム・@@": 1645,
    "会議": 1646,
    "藤@@": 1647,
    "郵便": 1648,
    "1982": 1649,
    "支援": 1650,
    "高速": 1651,
    "始め": 1652,
    "聖": 1653,
    "席": 1654,
    "THE": 1655,
    "ティ": 1656,
    "続け": 1657,
    "ロン": 1658,
    "In@@": 1659,
    "ど@@": 1660,
    "_{": 1661,
    "ビル": 1662,
    "ける": 1663,
    "ラン": 1664,
    "豊@@": 1665,
    "大きな": 1666,
    "空港": 1667,
    "限定": 1668,
    "イー@@": 1669,
    "ec@@": 1670,
    "結婚": 1671,
    "ガー": 1672,
    "エル@@": 1673,
    "ドル": 1674,
    "構造": 1675,
    "バンド": 1676,
    "学生": 1677,
    "文学": 1678,
    "脚本": 1679,
    "集@@": 1680,
    "武": 1681,
    "発見": 1682,
    "伴い": 1683,
    "期間": 1684,
    "理由": 1685,
    "－": 1686,
    "社長": 1687,
    "英@@": 1688,
    "その他": 1689,
    "教会": 1690,
    "映像": 1691,
    "cm": 1692,
    "開業": 1693,
    "食": 1694,
    "工業": 1695,
    "京@@": 1696,
    "なし": 1697,
    "層": 1698,
    "移籍": 1699,
    "設計": 1700,
    "指導": 1701,
    "200": 1702,
    "私": 1703,
    "BS": 1704,
    "指揮": 1705,
    "つけ": 1706,
    "活躍": 1707,
    "04": 1708,
    "も@@": 1709,
    "基": 1710,
    "1981": 1711,
    "スーパー": 1712,
    "セン@@": 1713,
    "建築": 1714,
    "ア・@@": 1715,
    "解@@": 1716,
    "舞台": 1717,
    "op@@": 1718,
    "足": 1719,
    "といった": 1720,
    "電気": 1721,
    "by": 1722,
    "ぐ@@": 1723,
    "iv@@": 1724,
    "掲載": 1725,
    "displaystyle": 1726,
    "ev@@": 1727,
    "ング": 1728,
    "ぶ@@": 1729,
    "重要": 1730,
    "48@@": 1731,
    "成功": 1732,
    "スペシャル": 1733,
    "副": 1734,
    "トロ@@": 1735,
    "統計": 1736,
    "ここ": 1737,
    "術": 1738,
    "少女": 1739,
    "早@@": 1740,
    ".@@": 1741,
    "利@@": 1742,
    "都@@": 1743,
    "対象": 1744,
    "あ": 1745,
    "四@@": 1746,
    "行動": 1747,
    "節": 1748,
    "角": 1749,
    "運営": 1750,
    "シェ@@": 1751,
    "団体": 1752,
    "しか": 1753,
    "宇@@": 1754,
    "国内": 1755,
    "にかけて": 1756,
    "и@@": 1757,
    "軍@@": 1758,
    "国家": 1759,
    "}@@": 1760,
    "賀": 1761,
    "qu@@": 1762,
    "倉": 1763,
    "ブル@@": 1764,
    "レース": 1765,
    "51": 1766,
    "ション": 1767,
    "すべて": 1768,
    "王@@": 1769,
    "ほとんど": 1770,
    "子供": 1771,
    "作戦": 1772,
    "工場": 1773,
    "02": 1774,
    "｜": 1775,
    "文字": 1776,
    "ズ・@@": 1777,
    "eg@@": 1778,
    "よる": 1779,
    "DVD": 1780,
    "改称": 1781,
    "守": 1782,
    "ホーム": 1783,
    "表示": 1784,
    "加え": 1785,
    "主人公": 1786,
    "自由": 1787,
    "1979": 1788,
    "26@@": 1789,
    "ゴ": 1790,
    "|": 1791,
    "千": 1792,
    "評価": 1793,
    "ヴェ@@": 1794,
    "モン@@": 1795,
    "鉄@@": 1796,
    "為": 1797,
    "変@@": 1798,
    "よ@@": 1799,
    "ンド@@": 1800,
    "ハ": 1801,
    "会長": 1802,
    "河": 1803,
    "資料": 1804,
    "OR@@": 1805,
    "演出": 1806,
    "入っ": 1807,
    "愛知": 1808,
    "IS@@": 1809,
    "自ら": 1810,
    "鈴木": 1811,
    "配信": 1812,
    "ゾ@@": 1813,
    "ie": 1814,
    "ケ": 1815,
    "て@@": 1816,
    "新た": 1817,
    "データ": 1818,
    "時期": 1819,
    "スペイン": 1820,
    "造": 1821,
    "代目": 1822,
    "薬": 1823,
    "利": 1824,
    "そ@@": 1825,
    "導入": 1826,
    "Th@@": 1827,
    "浜": 1828,
    "追@@": 1829,
    "統合": 1830,
    "特徴": 1831,
    "リー・@@": 1832,
    "進@@": 1833,
    "54": 1834,
    "異なる": 1835,
    "性格": 1836,
    "08": 1837,
    "ine": 1838,
    "遊@@": 1839,
    "ず@@": 1840,
    "AM@@": 1841,
    "浦": 1842,
    "人気": 1843,
    "区間": 1844,
    "エ": 1845,
    "無": 1846,
    "ハン@@": 1847,
    "観光": 1848,
    "産業": 1849,
    "整備": 1850,
    "マー": 1851,
    "若@@": 1852,
    "成績": 1853,
    "初期": 1854,
    "古": 1855,
    "録": 1856,
    "03": 1857,
    "右": 1858,
    "49": 1859,
    "泉": 1860,
    "しまっ": 1861,
    "リンク": 1862,
    "よく": 1863,
    "ぶり": 1864,
    "シー": 1865,
    "ヌ@@": 1866,
    "書房": 1867,
    "目@@": 1868,
    "ンス": 1869,
    "同時に": 1870,
    "eb@@": 1871,
    "ホール": 1872,
    "移動": 1873,
    "mm": 1874,
    "関連": 1875,
    "良": 1876,
    "コーナー": 1877,
    "未": 1878,
    "モ": 1879,
    "事務所": 1880,
    "ブリ@@": 1881,
    "ょう@@": 1882,
    "報告": 1883,
    "部@@": 1884,
    "好@@": 1885,
    "学会": 1886,
    "黒": 1887,
    "ファン": 1888,
    "居": 1889,
    "ist@@": 1890,
    "ステージ": 1891,
    "oc@@": 1892,
    "09": 1893,
    "オリンピック": 1894,
    "フォー@@": 1895,
    "島@@": 1896,
    "о@@": 1897,
    "05": 1898,
    "月@@": 1899,
    "追加": 1900,
    "政@@": 1901,
    "自然": 1902,
    "52": 1903,
    "地球": 1904,
    "様々": 1905,
    "民@@": 1906,
    "塚": 1907,
    "再び": 1908,
    "劇": 1909,
    "ビー@@": 1910,
    "言わ": 1911,
    "半@@": 1912,
    "部門": 1913,
    "新潟": 1914,
    "大臣": 1915,
    "est@@": 1916,
    "Mar@@": 1917,
    "くる": 1918,
    "56": 1919,
    "1978": 1920,
    "紙": 1921,
    "27@@": 1922,
    "ent": 1923,
    "j": 1924,
    "輪": 1925,
    "男子": 1926,
    "定@@": 1927,
    "戦@@": 1928,
    "―": 1929,
    "ール・@@": 1930,
    "ッツ": 1931,
    "勢": 1932,
    "域": 1933,
    "に対し": 1934,
    "感": 1935,
    "テレビ朝日": 1936,
    "展開": 1937,
    "陸軍": 1938,
    "スティ@@": 1939,
    "物@@": 1940,
    "500": 1941,
    "まま": 1942,
    "パン@@": 1943,
    "枠": 1944,
    "ウス": 1945,
    "ボー@@": 1946,
    "知": 1947,
    "周年": 1948,
    "一郎": 1949,
    "クス": 1950,
    "球": 1951,
    "過去": 1952,
    "多": 1953,
    "国民": 1954,
    "跡": 1955,
    "羽@@": 1956,
    "課": 1957,
    "岸": 1958,
    "死去": 1959,
    "パー": 1960,
    "ate": 1961,
    "プロデューサー": 1962,
    "友": 1963,
    "学者": 1964,
    "体@@": 1965,
    "令": 1966,
    "クレ@@": 1967,
    "走": 1968,
    "敗": 1969,
    "58": 1970,
    "労働": 1971,
    "登録": 1972,
    "佐藤": 1973,
    "急@@": 1974,
    "帯": 1975,
    "53": 1976,
    "言葉": 1977,
    "田中": 1978,
    "計": 1979,
    "認め": 1980,
    "装備": 1981,
    "弟": 1982,
    "いっ": 1983,
    "学科": 1984,
    "男性": 1985,
    "陽": 1986,
    "方法": 1987,
    "1972": 1988,
    "深@@": 1989,
    "徳": 1990,
    "競馬": 1991,
    "幸@@": 1992,
    "多数": 1993,
    "大戦": 1994,
    "動物": 1995,
    "交@@": 1996,
    "lo@@": 1997,
    "ク・@@": 1998,
    "億": 1999,
    "!@@": 2000,
    "右@@": 2001,
    "どう": 2002,
    "レン": 2003,
    "講談社": 2004,
    "）@@": 2005,
    "土": 2006,
    "ベル": 2007,
    "属": 2008,
    "時@@": 2009,
    "料": 2010,
    "恋": 2011,
    "源": 2012,
    "age": 2013,
    "関": 2014,
    "日本テレビ": 2015,
    "る@@": 2016,
    "1975": 2017,
    "関@@": 2018,
    "差": 2019,
    "伝@@": 2020,
    "1976": 2021,
    "段": 2022,
    "もと": 2023,
    "スク@@": 2024,
    "中継": 2025,
    "制度": 2026,
    "京": 2027,
    "28@@": 2028,
    "横@@": 2029,
    "ラ・@@": 2030,
    "誕生": 2031,
    "天皇": 2032,
    "当@@": 2033,
    "um": 2034,
    "保@@": 2035,
    "IC@@": 2036,
    "芸術": 2037,
    "初代": 2038,
    "剣": 2039,
    "61": 2040,
    "ほ@@": 2041,
    "1977": 2042,
    "sh@@": 2043,
    "方面": 2044,
    "62": 2045,
    "モン": 2046,
    "ヨーロッパ": 2047,
    "ぎ@@": 2048,
    "決@@": 2049,
    "阿@@": 2050,
    "﻿": 2051,
    "便": 2052,
    "ary": 2053,
    "ドラ@@": 2054,
    "07": 2055,
    "é@@": 2056,
    "恵": 2057,
    "山口": 2058,
    "ね@@": 2059,
    "大統領": 2060,
    "好き": 2061,
    "忠@@": 2062,
    "本部": 2063,
    "魔": 2064,
    "歌@@": 2065,
    "澤": 2066,
    "学部": 2067,
    "非常": 2068,
    "龍": 2069,
    "1973": 2070,
    "形式": 2071,
    "産@@": 2072,
    "女優": 2073,
    "連盟": 2074,
    "出す": 2075,
    "結成": 2076,
    "鉄": 2077,
    "作家": 2078,
    "個人": 2079,
    "試験": 2080,
    "君": 2081,
    "New": 2082,
    "周辺": 2083,
    "57": 2084,
    "空@@": 2085,
    "森@@": 2086,
    "満@@": 2087,
    "寄@@": 2088,
    "ライン": 2089,
    "大きく": 2090,
    "地名": 2091,
    "聖@@": 2092,
    "神戸": 2093,
    "楽@@": 2094,
    "普通": 2095,
    "健@@": 2096,
    "演奏": 2097,
    "65": 2098,
    "藤": 2099,
    "it": 2100,
    "込み": 2101,
    "バイ@@": 2102,
    "59": 2103,
    "遠@@": 2104,
    "口@@": 2105,
    "生徒": 2106,
    "越": 2107,
    "列": 2108,
    "ブレ@@": 2109,
    "入れ": 2110,
    "五@@": 2111,
    "事故": 2112,
    "博士": 2113,
    "保": 2114,
    "デジタル": 2115,
    "1974": 2116,
    "鳥": 2117,
    "由来": 2118,
    "if@@": 2119,
    "楽曲": 2120,
    "ゆ@@": 2121,
    "幸": 2122,
    "別@@": 2123,
    "効果": 2124,
    "撃": 2125,
    "湖": 2126,
    "秀@@": 2127,
    "飛@@": 2128,
    "UN@@": 2129,
    "以来": 2130,
    "ザ": 2131,
    "美術": 2132,
    "スカ@@": 2133,
    "ry": 2134,
    "変化": 2135,
    "埼玉": 2136,
    "ER": 2137,
    "ざ@@": 2138,
    "装置": 2139,
    "ボ": 2140,
    "ヌ": 2141,
    "非": 2142,
    "圧": 2143,
    "雪": 2144,
    "仕@@": 2145,
    "専用": 2146,
    "フレ@@": 2147,
    "項": 2148,
    "です": 2149,
    "状況": 2150,
    "相": 2151,
    "av@@": 2152,
    "連邦": 2153,
    "似": 2154,
    "コース": 2155,
    "短@@": 2156,
    "素@@": 2157,
    "受@@": 2158,
    "ユー@@": 2159,
    "):": 2160,
    "а@@": 2161,
    "そう": 2162,
    "決勝": 2163,
    "強い": 2164,
    "まり": 2165,
    "グラ@@": 2166,
    "図": 2167,
    "エー@@": 2168,
    "ワ": 2169,
    "図書館": 2170,
    "麻@@": 2171,
    "CM": 2172,
    "組合": 2173,
    "洋@@": 2174,
    "org": 2175,
    "病": 2176,
    "ザー": 2177,
    "ご@@": 2178,
    "九": 2179,
    "ゲスト": 2180,
    "29@@": 2181,
    "工@@": 2182,
    "1971": 2183,
    "津@@": 2184,
    "支@@": 2185,
    "喜@@": 2186,
    "行政": 2187,
    "An@@": 2188,
    "der": 2189,
    "1960": 2190,
    "共和": 2191,
    "引退": 2192,
    "リア@@": 2193,
    "47@@": 2194,
    "会@@": 2195,
    "馬@@": 2196,
    "いい": 2197,
    "合わせ": 2198,
    "中村": 2199,
    "ob@@": 2200,
    "児": 2201,
    "春@@": 2202,
    "ウム": 2203,
    "!（": 2204,
    "弘": 2205,
    "動@@": 2206,
    "19@@": 2207,
    "メン@@": 2208,
    "極@@": 2209,
    "]@@": 2210,
    "64": 2211,
    "息子": 2212,
    "要@@": 2213,
    "額": 2214,
    "連載": 2215,
    "従@@": 2216,
    "両@@": 2217,
    "pl@@": 2218,
    "異@@": 2219,
    "工事": 2220,
    "姫": 2221,
    "兄": 2222,
    "コン": 2223,
    "細@@": 2224,
    "Pro@@": 2225,
    "紀@@": 2226,
    "顔": 2227,
    "留@@": 2228,
    "値": 2229,
    "用@@": 2230,
    "所@@": 2231,
    "Q": 2232,
    "全体": 2233,
    "1969": 2234,
    "意": 2235,
    "クラス": 2236,
    "込ん": 2237,
    "張": 2238,
    "エル": 2239,
    "秋": 2240,
    "仕事": 2241,
    "神奈川": 2242,
    "げ": 2243,
    "ik@@": 2244,
    "フラン@@": 2245,
    "家族": 2246,
    "市民": 2247,
    "着@@": 2248,
    "ウォ@@": 2249,
    "俳優": 2250,
    "香@@": 2251,
    "個": 2252,
    "ほぼ": 2253,
    "ワー@@": 2254,
    "む@@": 2255,
    "優@@": 2256,
    "記事": 2257,
    "本人": 2258,
    "ive": 2259,
    "距離": 2260,
    "退@@": 2261,
    "ファイ@@": 2262,
    "系統": 2263,
    "トル@@": 2264,
    "福島": 2265,
    "ギャ@@": 2266,
    "運用": 2267,
    "清": 2268,
    "業務": 2269,
    "議会": 2270,
    "ベスト": 2271,
    "羽": 2272,
    "圏": 2273,
    "永@@": 2274,
    "ライト": 2275,
    "女@@": 2276,
    "血": 2277,
    "系列": 2278,
    "インターネット": 2279,
    "いずれ": 2280,
    "客": 2281,
    "ter": 2282,
    "あるいは": 2283,
    "タイプ": 2284,
    "雑誌": 2285,
    "63": 2286,
    "奈": 2287,
    "秋@@": 2288,
    "タイ": 2289,
    "直": 2290,
    "プレ@@": 2291,
    "キー": 2292,
    "沖縄": 2293,
    "ーム": 2294,
    "取": 2295,
    "王国": 2296,
    "造@@": 2297,
    "移転": 2298,
    "ヶ@@": 2299,
    "本社": 2300,
    "違い": 2301,
    "ure": 2302,
    "Al@@": 2303,
    "心@@": 2304,
    "ッチ@@": 2305,
    "od@@": 2306,
    "医療": 2307,
    "症": 2308,
    "まっ": 2309,
    "破@@": 2310,
    "長野": 2311,
    "刑事": 2312,
    "Ar@@": 2313,
    "ニー@@": 2314,
    "修@@": 2315,
    "食@@": 2316,
    "首": 2317,
    "火@@": 2318,
    "準": 2319,
    "べき": 2320,
    "ンド": 2321,
    "飛行": 2322,
    "富@@": 2323,
    "ical": 2324,
    "工": 2325,
    "発足": 2326,
    "静岡": 2327,
    "規模": 2328,
    "雲": 2329,
    "こう": 2330,
    "201@@": 2331,
    "アップ": 2332,
    "web": 2333,
    "No": 2334,
    "メートル": 2335,
    "由@@": 2336,
    "対戦": 2337,
    "出典": 2338,
    "船@@": 2339,
    "近@@": 2340,
    "助": 2341,
    "管": 2342,
    "輸送": 2343,
    "本線": 2344,
    "1968": 2345,
    "未@@": 2346,
    "左": 2347,
    "十@@": 2348,
    "ts": 2349,
    "てる": 2350,
    "成立": 2351,
    "ロッ@@": 2352,
    "玉": 2353,
    "挙げ": 2354,
    "チョ@@": 2355,
    "高橋": 2356,
    "奥@@": 2357,
    "板": 2358,
    "熱": 2359,
    "oo@@": 2360,
    "九州": 2361,
    "ロック": 2362,
    "宝": 2363,
    "左@@": 2364,
    "結@@": 2365,
    "ge": 2366,
    "山田": 2367,
    "服": 2368,
    "味": 2369,
    "ant@@": 2370,
    "オリ@@": 2371,
    "リスト": 2372,
    "共@@": 2373,
    "配@@": 2374,
    "ity": 2375,
    "アル": 2376,
    "チュ@@": 2377,
    "程度": 2378,
    "温泉": 2379,
    "データベース": 2380,
    "岡山": 2381,
    "リス": 2382,
    "件": 2383,
    "彼ら": 2384,
    "ビ": 2385,
    "草": 2386,
    "持ち": 2387,
    "表現": 2388,
    "ルス": 2389,
    "ep@@": 2390,
    "俊@@": 2391,
    "防@@": 2392,
    "保護": 2393,
    "料理": 2394,
    "RA@@": 2395,
    "е@@": 2396,
    "まる": 2397,
    "使っ": 2398,
    "辞典": 2399,
    "長崎": 2400,
    "渡@@": 2401,
    "sp@@": 2402,
    "経験": 2403,
    "仙台": 2404,
    "途中": 2405,
    "プリ@@": 2406,
    "速": 2407,
    "ガン@@": 2408,
    "ベース": 2409,
    "確認": 2410,
    "AC@@": 2411,
    "母@@": 2412,
    "打@@": 2413,
    "旅": 2414,
    "ER@@": 2415,
    "坂@@": 2416,
    "冷@@": 2417,
    "アナウンサー": 2418,
    "Twitter": 2419,
    "遺@@": 2420,
    "オープン": 2421,
    "キング": 2422,
    "片@@": 2423,
    "支配": 2424,
    "pro@@": 2425,
    "政策": 2426,
    "メイン": 2427,
    "舞@@": 2428,
    "○": 2429,
    "切れ": 2430,
    "ぶ": 2431,
    "モー@@": 2432,
    "ショ@@": 2433,
    "種類": 2434,
    "王座": 2435,
    "Con@@": 2436,
    "しよ": 2437,
    "って": 2438,
    "ソフト": 2439,
    "AL": 2440,
    "スキー": 2441,
    "75": 2442,
    "38@@": 2443,
    "伝説": 2444,
    "タン": 2445,
    "ごと": 2446,
    "NE@@": 2447,
    "有": 2448,
    "ルド": 2449,
    "放@@": 2450,
    "ンズ": 2451,
    "機@@": 2452,
    "行い": 2453,
    "施行": 2454,
    "沼": 2455,
    "草@@": 2456,
    "スペ@@": 2457,
    "ツアー": 2458,
    "博@@": 2459,
    "解説": 2460,
    "果たし": 2461,
    "同じく": 2462,
    "ボール": 2463,
    "生物": 2464,
    "kg": 2465,
    "スタジオ": 2466,
    "ib@@": 2467,
    "素": 2468,
    "受ける": 2469,
    "かし": 2470,
    "逆": 2471,
    "吉田": 2472,
    "なけれ": 2473,
    "ce": 2474,
    "熱@@": 2475,
    "?@@": 2476,
    "音@@": 2477,
    "翼": 2478,
    "新しい": 2479,
    "絶@@": 2480,
    "ぼ@@": 2481,
    "EN@@": 2482,
    "酸": 2483,
    "ポー@@": 2484,
    "1967": 2485,
    "翌": 2486,
    "ov@@": 2487,
    "ay@@": 2488,
    "複数": 2489,
    "CO@@": 2490,
    "関東": 2491,
    "根@@": 2492,
    "ne@@": 2493,
    "朝鮮": 2494,
    "村@@": 2495,
    "電子": 2496,
    "店舗": 2497,
    "死亡": 2498,
    "インド": 2499,
    "ブル": 2500,
    "案": 2501,
    "魔法": 2502,
    "н@@": 2503,
    "ey": 2504,
    "町@@": 2505,
    "面@@": 2506,
    "ies": 2507,
    "護": 2508,
    "現@@": 2509,
    "主要": 2510,
    "ろ@@": 2511,
    "破壊": 2512,
    "uc@@": 2513,
    "補@@": 2514,
    "植物": 2515,
    "含ま": 2516,
    "ian": 2517,
    "せ@@": 2518,
    "述べ": 2519,
    "Sp@@": 2520,
    "電車": 2521,
    "精@@": 2522,
    "悪@@": 2523,
    "取得": 2524,
    "改正": 2525,
    "失@@": 2526,
    "カップ": 2527,
    "べ": 2528,
    "機構": 2529,
    "台@@": 2530,
    "台湾": 2531,
    "製品": 2532,
    "バル@@": 2533,
    "唯一": 2534,
    "，": 2535,
    "情": 2536,
    "アイドル": 2537,
    "レッ@@": 2538,
    "亜": 2539,
    "安全": 2540,
    "言語": 2541,
    "TO@@": 2542,
    "そこ": 2543,
    "方式": 2544,
    "専@@": 2545,
    "犬": 2546,
    "ガー@@": 2547,
    "電話": 2548,
    "アク@@": 2549,
    "材": 2550,
    "トップ": 2551,
    "断@@": 2552,
    "山本": 2553,
    "共演": 2554,
    "ex@@": 2555,
    "兵庫": 2556,
    "正式": 2557,
    "在": 2558,
    "Vol": 2559,
    "治@@": 2560,
    "年生": 2561,
    "プロジェクト": 2562,
    "谷@@": 2563,
    "仁": 2564,
    "東京@@": 2565,
    "og@@": 2566,
    "門@@": 2567,
    "事@@": 2568,
    "稲@@": 2569,
    "ローマ": 2570,
    "松本": 2571,
    "ud@@": 2572,
    "条件": 2573,
    "単@@": 2574,
    "たら": 2575,
    "ニューヨーク": 2576,
    "ロス": 2577,
    "付近": 2578,
    "67": 2579,
    "−": 2580,
    "LE@@": 2581,
    "ran@@": 2582,
    "RO@@": 2583,
    "格": 2584,
    "札幌": 2585,
    "丘": 2586,
    "ジャパン": 2587,
    "元年": 2588,
    "メディア": 2589,
    "裏": 2590,
    "外国": 2591,
    "広": 2592,
    "展": 2593,
    "親": 2594,
    "げる": 2595,
    "形成": 2596,
    "暦": 2597,
    "万@@": 2598,
    "篇": 2599,
    "南部": 2600,
    "捕@@": 2601,
    "小林": 2602,
    "熊本": 2603,
    "防衛": 2604,
    "再@@": 2605,
    "能": 2606,
    "比@@": 2607,
    "司令": 2608,
    "裕@@": 2609,
    "主張": 2610,
    "ill@@": 2611,
    "言う": 2612,
    "華": 2613,
    "寺@@": 2614,
    "ON@@": 2615,
    "Ne@@": 2616,
    "ass@@": 2617,
    "極": 2618,
    "art@@": 2619,
    "収@@": 2620,
    "サー": 2621,
    "人々": 2622,
    "ow@@": 2623,
    "陸上": 2624,
    "将軍": 2625,
    "まし": 2626,
    "グリ@@": 2627,
    "300": 2628,
    "経由": 2629,
    "スター@@": 2630,
    "竹@@": 2631,
    "助@@": 2632,
    "開設": 2633,
    "以後": 2634,
    "テン@@": 2635,
    "博物館": 2636,
    "99": 2637,
    "商@@": 2638,
    "住民": 2639,
    "発展": 2640,
    "投@@": 2641,
    "市内": 2642,
    "奈@@": 2643,
    "次@@": 2644,
    ")”.": 2645,
    "友@@": 2646,
    "障害": 2647,
    "ケー@@": 2648,
    "!!": 2649,
    "レコード": 2650,
    "ック・@@": 2651,
    "精神": 2652,
    "欠@@": 2653,
    "入る": 2654,
    "ON": 2655,
    "旧@@": 2656,
    "ベン@@": 2657,
    "程": 2658,
    "表@@": 2659,
    "巡@@": 2660,
    "矢@@": 2661,
    "異": 2662,
    "with": 2663,
    "1966": 2664,
    "アド@@": 2665,
    "ory": 2666,
    "雅@@": 2667,
    "大型": 2668,
    "返@@": 2669,
    "署": 2670,
    "石川": 2671,
    "名誉": 2672,
    "消@@": 2673,
    "連": 2674,
    "鳥@@": 2675,
    "66": 2676,
    "芸": 2677,
    "レギュラー": 2678,
    "朝@@": 2679,
    "秋田": 2680,
    "調@@": 2681,
    "日本人": 2682,
    "ay": 2683,
    "フリー": 2684,
    "苦@@": 2685,
    "御": 2686,
    "徳@@": 2687,
    "世@@": 2688,
    "ブログ": 2689,
    "反対": 2690,
    "復活": 2691,
    "08@@": 2692,
    "県@@": 2693,
    "休@@": 2694,
    "炎": 2695,
    "難@@": 2696,
    ".,": 2697,
    "ナー@@": 2698,
    "順": 2699,
    "ッ": 2700,
    "米@@": 2701,
    "トー@@": 2702,
    "69": 2703,
    "営": 2704,
    "編入": 2705,
    "鬼": 2706,
    "オル@@": 2707,
    "洋": 2708,
    "赤": 2709,
    "尾@@": 2710,
    "交差点": 2711,
    "共": 2712,
    "波@@": 2713,
    "ea@@": 2714,
    "待@@": 2715,
    "はじめ": 2716,
    "銀": 2717,
    "戸@@": 2718,
    "求め": 2719,
    "セット": 2720,
    "妹": 2721,
    "望": 2722,
    "ット・@@": 2723,
    "ホテル": 2724,
    "柄": 2725,
    "皇@@": 2726,
    "歌手": 2727,
    "葉@@": 2728,
    "過@@": 2729,
    "候補": 2730,
    "岩": 2731,
    "Ma@@": 2732,
    "閉@@": 2733,
    "ビー": 2734,
    "st": 2735,
    "玉@@": 2736,
    "艦隊": 2737,
    "浅@@": 2738,
    "FM": 2739,
    "ff@@": 2740,
    "特定": 2741,
    "週": 2742,
    "オン": 2743,
    "弾@@": 2744,
    "1965": 2745,
    "壁": 2746,
    "ug@@": 2747,
    "ing@@": 2748,
    "ガス": 2749,
    "方向": 2750,
    "法律": 2751,
    "マッ@@": 2752,
    "復帰": 2753,
    "man": 2754,
    "得点": 2755,
    "スラ@@": 2756,
    "シーン": 2757,
    "事典": 2758,
    "CH@@": 2759,
    "観": 2760,
    "1964": 2761,
    "ポイント": 2762,
    "ics": 2763,
    "化学": 2764,
    "近く": 2765,
    "帰@@": 2766,
    "est": 2767,
    "円@@": 2768,
    "塩@@": 2769,
    "毛": 2770,
    "在@@": 2771,
    "青": 2772,
    "タイム": 2773,
    "銃": 2774,
    "ビデオ": 2775,
    "各@@": 2776,
    "選出": 2777,
    "伊藤": 2778,
    "内閣": 2779,
    "好": 2780,
    "雨": 2781,
    "乱": 2782,
    "害": 2783,
    "37@@": 2784,
    "かい": 2785,
    "LO@@": 2786,
    "記述": 2787,
    "武器": 2788,
    "夜@@": 2789,
    "DE@@": 2790,
    "意@@": 2791,
    "軽@@": 2792,
    "パ": 2793,
    "World": 2794,
    "ok@@": 2795,
    "イ・@@": 2796,
    "死@@": 2797,
    "SH@@": 2798,
    "全日本": 2799,
    "拡大": 2800,
    "断": 2801,
    "岐阜": 2802,
    "帝": 2803,
    "宝@@": 2804,
    "陣": 2805,
    "ワールド": 2806,
    "引@@": 2807,
    "インタビュー": 2808,
    "大学院": 2809,
    "詳細": 2810,
    "新設": 2811,
    "貴@@": 2812,
    "将": 2813,
    "シア": 2814,
    "車@@": 2815,
    "市場": 2816,
    "隆@@": 2817,
    "杯": 2818,
    "岡@@": 2819,
    "竜": 2820,
    "商品": 2821,
    "房": 2822,
    "SS": 2823,
    "ダン@@": 2824,
    "カル": 2825,
    "隆": 2826,
    "デ": 2827,
    "(@@": 2828,
    "参@@": 2829,
    "罪": 2830,
    "腕": 2831,
    "栄": 2832,
    "説明": 2833,
    "ブロ@@": 2834,
    "次郎": 2835,
    "売@@": 2836,
    "分類": 2837,
    "扱い": 2838,
    "フル@@": 2839,
    "鹿児島": 2840,
    "83": 2841,
    "兄弟": 2842,
    "なか": 2843,
    "塔": 2844,
    "ds": 2845,
    "特殊": 2846,
    "チュー@@": 2847,
    "取@@": 2848,
    "乗@@": 2849,
    "影": 2850,
    "かつ": 2851,
    "トレ@@": 2852,
    "進出": 2853,
    "パン": 2854,
    "ard": 2855,
    "近代": 2856,
    "合い": 2857,
    "回@@": 2858,
    "週刊": 2859,
    "丸@@": 2860,
    "事実": 2861,
    "書店": 2862,
    "持ち@@": 2863,
    "立て": 2864,
    "IT@@": 2865,
    "そ": 2866,
    "博": 2867,
    "az@@": 2868,
    "典": 2869,
    "q": 2870,
    "東映": 2871,
    "セ": 2872,
    "プレス": 2873,
    "血@@": 2874,
    "仮@@": 2875,
    "＆": 2876,
    "桜": 2877,
    "興": 2878,
    "理事": 2879,
    "ヒ": 2880,
    "ナイ@@": 2881,
    "布": 2882,
    "池": 2883,
    "キー@@": 2884,
    "出さ": 2885,
    "Press": 2886,
    "il": 2887,
    "費": 2888,
    "ell@@": 2889,
    "作@@": 2890,
    "ワイ@@": 2891,
    "ad": 2892,
    "続い": 2893,
    "平均": 2894,
    "描か": 2895,
    "批判": 2896,
    "回戦": 2897,
    "刊": 2898,
    "AL@@": 2899,
    "被害": 2900,
    "探@@": 2901,
    "舎": 2902,
    "フラ@@": 2903,
    "ぐ": 2904,
    "パイ@@": 2905,
    "LI@@": 2906,
    "題": 2907,
    "東北": 2908,
    "付き": 2909,
    "で@@": 2910,
    "IN": 2911,
    "ディー@@": 2912,
    "福": 2913,
    "告": 2914,
    "とう": 2915,
    "後半": 2916,
    "諸": 2917,
    "骨": 2918,
    "ドゥ@@": 2919,
    "記載": 2920,
    "タウン": 2921,
    "半": 2922,
    "父親": 2923,
    "渡辺": 2924,
    "彩": 2925,
    "有名": 2926,
    "～@@": 2927,
    "98": 2928,
    "ice": 2929,
    "DO@@": 2930,
    "習@@": 2931,
    "ギター": 2932,
    "算": 2933,
    "殺人": 2934,
    "メーカー": 2935,
    "」@@": 2936,
    "称": 2937,
    "？": 2938,
    "かり": 2939,
    "海外": 2940,
    "示す": 2941,
    "ソング": 2942,
    "そのまま": 2943,
    "望@@": 2944,
    "来@@": 2945,
    "起@@": 2946,
    "one": 2947,
    "東日本": 2948,
    "住宅": 2949,
    "廃@@": 2950,
    "1963": 2951,
    "含め": 2952,
    "1945": 2953,
    "髪": 2954,
    "園@@": 2955,
    "宿": 2956,
    "速度": 2957,
    "デュ@@": 2958,
    "兼": 2959,
    "投票": 2960,
    "95": 2961,
    "テレビ@@": 2962,
    "悪": 2963,
    "具": 2964,
    "声優": 2965,
    "北緯": 2966,
    "浮@@": 2967,
    "視": 2968,
    "基@@": 2969,
    "}}@@": 2970,
    "ase": 2971,
    "続": 2972,
    "穂": 2973,
    "近い": 2974,
    "ペン@@": 2975,
    "縁": 2976,
    "加藤": 2977,
    "運@@": 2978,
    "地震": 2979,
    "古代": 2980,
    "栄@@": 2981,
    "変": 2982,
    "ラス": 2983,
    "衆議院": 2984,
    "ゴー@@": 2985,
    "作ら": 2986,
    "向@@": 2987,
    "基地": 2988,
    "BO@@": 2989,
    "屋@@": 2990,
    "兵@@": 2991,
    "SE@@": 2992,
    "ub@@": 2993,
    "残@@": 2994,
    "実験": 2995,
    "育@@": 2996,
    "取締役": 2997,
    "Q@@": 2998,
    "son": 2999,
    "デイ@@": 3000,
    "1950": 3001,
    "ユニット": 3002,
    "all@@": 3003,
    "終@@": 3004,
    "薬@@": 3005,
    "Ph@@": 3006,
    "直接": 3007,
    "シティ": 3008,
    "1962": 3009,
    "アニ@@": 3010,
    "メー@@": 3011,
    "チャンネル": 3012,
    "林@@": 3013,
    "念": 3014,
    "礼": 3015,
    "延長": 3016,
    "採@@": 3017,
    "1955": 3018,
    "ect@@": 3019,
    "ルト@@": 3020,
    "込ま": 3021,
    "傷": 3022,
    "テレビ東京": 3023,
    "92": 3024,
    "不": 3025,
    "混@@": 3026,
    "土地": 3027,
    "ハウス": 3028,
    "竹": 3029,
    "AK@@": 3030,
    "陸": 3031,
    "暴@@": 3032,
    "衣": 3033,
    "1961": 3034,
    "農業": 3035,
    "プロフィール": 3036,
    "パリ": 3037,
    "規定": 3038,
    "夏@@": 3039,
    "戦士": 3040,
    "社@@": 3041,
    "にとって": 3042,
    "受け@@": 3043,
    "ホー@@": 3044,
    "新宿": 3045,
    "七@@": 3046,
    "スーパー@@": 3047,
    "強": 3048,
    "仕様": 3049,
    "肉": 3050,
    "ィ": 3051,
    "近": 3052,
    "住@@": 3053,
    "積@@": 3054,
    "商業": 3055,
    "os": 3056,
    "行為": 3057,
    "周": 3058,
    "地元": 3059,
    "想": 3060,
    "つい": 3061,
    "戦後": 3062,
    "行き": 3063,
    "之@@": 3064,
    "刊行": 3065,
    "革命": 3066,
    "追い@@": 3067,
    "離@@": 3068,
    "論@@": 3069,
    "に関して": 3070,
    "入学": 3071,
    "清水": 3072,
    "発電": 3073,
    "加": 3074,
    "富山": 3075,
    "ッド@@": 3076,
    "end@@": 3077,
    "ショー": 3078,
    "奈良": 3079,
    "霊": 3080,
    "よれ": 3081,
    "建": 3082,
    "トル": 3083,
    "分け": 3084,
    "改造": 3085,
    "加入": 3086,
    "起": 3087,
    "抜@@": 3088,
    "見る": 3089,
    "切@@": 3090,
    "エイ@@": 3091,
    "価": 3092,
    "茨城": 3093,
    "機械": 3094,
    "幅": 3095,
    "ケン@@": 3096,
    "原因": 3097,
    "ナ・@@": 3098,
    "可@@": 3099,
    "捜査": 3100,
    "82": 3101,
    "冬": 3102,
    "地上": 3103,
    "1000": 3104,
    "らい": 3105,
    "ens@@": 3106,
    "頭@@": 3107,
    "SP@@": 3108,
    "エネルギー": 3109,
    "刀": 3110,
    "感@@": 3111,
    "do@@": 3112,
    "枝": 3113,
    "all": 3114,
    "ど": 3115,
    "アラ@@": 3116,
    "獣": 3117,
    "予選": 3118,
    "撃@@": 3119,
    "ロンドン": 3120,
    "陸@@": 3121,
    "なさ": 3122,
    "名義": 3123,
    "荒@@": 3124,
    "ブランド": 3125,
    "脳": 3126,
    "報道": 3127,
    "ly": 3128,
    "税": 3129,
    "大分": 3130,
    "1959": 3131,
    "事務": 3132,
    "機動": 3133,
    "ial": 3134,
    "戦隊": 3135,
    "ひとつ": 3136,
    "適@@": 3137,
    "81": 3138,
    "Ex@@": 3139,
    "乗り@@": 3140,
    "号線": 3141,
    "ell": 3142,
    "処理": 3143,
    "競走": 3144,
    "仲間": 3145,
    "務める": 3146,
    "スタン@@": 3147,
    "スク": 3148,
    "Bi@@": 3149,
    "部屋": 3150,
    "取り": 3151,
    "つつ": 3152,
    "デル@@": 3153,
    "積": 3154,
    "ナイト": 3155,
    "留": 3156,
    "AN": 3157,
    "from": 3158,
    "呼ぶ": 3159,
    "足@@": 3160,
    "理論": 3161,
    "密@@": 3162,
    "配置": 3163,
    "医": 3164,
    "剤": 3165,
    "宗@@": 3166,
    "満": 3167,
    "doi": 3168,
    "史上": 3169,
    "三郎": 3170,
    "激@@": 3171,
    "里@@": 3172,
    "フ・@@": 3173,
    "スタッフ": 3174,
    "残っ": 3175,
    "所有": 3176,
    "選択": 3177,
    "ジー": 3178,
    "魚": 3179,
    "備@@": 3180,
    "!!@@": 3181,
    "キュ@@": 3182,
    "パラ@@": 3183,
    "ドン": 3184,
    "流れ": 3185,
    "ムービー": 3186,
    "井上": 3187,
    "ブルク": 3188,
    "De@@": 3189,
    "達成": 3190,
    "取っ": 3191,
    "96": 3192,
    "空間": 3193,
    "91": 3194,
    "挑戦": 3195,
    "基準": 3196,
    "すぐ": 3197,
    "上記": 3198,
    "ジャー": 3199,
    "酒": 3200,
    "李": 3201,
    "スタート": 3202,
    "警@@": 3203,
    "課程": 3204,
    "400": 3205,
    "交流": 3206,
    "券": 3207,
    "イメージ": 3208,
    "則": 3209,
    "制御": 3210,
    "Gu@@": 3211,
    "マーク": 3212,
    "修": 3213,
    "無い": 3214,
    "思わ": 3215,
    "DS": 3216,
    "翌年": 3217,
    "代わり": 3218,
    "方@@": 3219,
    "語@@": 3220,
    "07@@": 3221,
    "re": 3222,
    "老@@": 3223,
    "朝日新聞": 3224,
    "残し": 3225,
    "選ば": 3226,
    "成長": 3227,
    "モード": 3228,
    "購入": 3229,
    "ウン@@": 3230,
    "離れ": 3231,
    "カラー": 3232,
    "旗": 3233,
    "官@@": 3234,
    "軍事": 3235,
    "オン@@": 3236,
    "通称": 3237,
    "メント": 3238,
    "身長": 3239,
    "\"@@": 3240,
    "バージョン": 3241,
    "テレ@@": 3242,
    "派遣": 3243,
    "歩": 3244,
    "殿": 3245,
    "ギ": 3246,
    "93": 3247,
    "･": 3248,
    "’": 3249,
    "85": 3250,
    "設け": 3251,
    "強化": 3252,
    "突@@": 3253,
    "羅": 3254,
    "ter@@": 3255,
    "68": 3256,
    "ミュージック": 3257,
    "コロ@@": 3258,
    "ang@@": 3259,
    "ドリ@@": 3260,
    "認定": 3261,
    "л@@": 3262,
    "con@@": 3263,
    "指@@": 3264,
    "分野": 3265,
    "act@@": 3266,
    "米国": 3267,
    "ぬ": 3268,
    "保険": 3269,
    "関西": 3270,
    "隻": 3271,
    "条約": 3272,
    "政権": 3273,
    "北部": 3274,
    "Un@@": 3275,
    "直後": 3276,
    "支持": 3277,
    "伸@@": 3278,
    "詩": 3279,
    "落": 3280,
    "Par@@": 3281,
    "ベー@@": 3282,
    "se@@": 3283,
    "For@@": 3284,
    "面積": 3285,
    "切り": 3286,
    "茶@@": 3287,
    "（*": 3288,
    "未来": 3289,
    "智@@": 3290,
    "那@@": 3291,
    "新人": 3292,
    "ight": 3293,
    "クション": 3294,
    "メイ@@": 3295,
    "University": 3296,
    "ダン": 3297,
    "余@@": 3298,
    "製@@": 3299,
    "孫": 3300,
    "出来": 3301,
    "PS": 3302,
    "幕": 3303,
    "核": 3304,
    "迎え": 3305,
    "救@@": 3306,
    "反": 3307,
    "ホームページ": 3308,
    "ノン": 3309,
    "1956": 3310,
    "支店": 3311,
    "区域": 3312,
    "デ・@@": 3313,
    "ストーリー": 3314,
    "美術館": 3315,
    "1958": 3316,
    "停止": 3317,
    "康@@": 3318,
    "アリ@@": 3319,
    "例えば": 3320,
    "仏": 3321,
    "失敗": 3322,
    "誰": 3323,
    "サン": 3324,
    "談": 3325,
    "ow": 3326,
    "スタ": 3327,
    "集団": 3328,
    "従来": 3329,
    "使う": 3330,
    "移@@": 3331,
    ")。": 3332,
    "ヒット": 3333,
    "立ち": 3334,
    "養@@": 3335,
    "奪@@": 3336,
    "図@@": 3337,
    "招@@": 3338,
    "文書": 3339,
    "クト": 3340,
    "巨大": 3341,
    "送": 3342,
    "増加": 3343,
    "越@@": 3344,
    "著作": 3345,
    "標準": 3346,
    "クー@@": 3347,
    "龍@@": 3348,
    "our@@": 3349,
    "しょ": 3350,
    "改@@": 3351,
    "誠": 3352,
    "雄@@": 3353,
    "Car@@": 3354,
    "デン@@": 3355,
    "希": 3356,
    "明らか": 3357,
    "先生": 3358,
    "ers@@": 3359,
    "裏@@": 3360,
    "堀@@": 3361,
    "らしい": 3362,
    "教師": 3363,
    "94": 3364,
    "貴": 3365,
    "フル": 3366,
    "接続": 3367,
    "宮崎": 3368,
    "MO@@": 3369,
    "数@@": 3370,
    "順@@": 3371,
    "ヘル@@": 3372,
    "宗教": 3373,
    "1954": 3374,
    "主催": 3375,
    "づ@@": 3376,
    "Cl@@": 3377,
    "畑": 3378,
    "佐": 3379,
    "推進": 3380,
    "ミニ@@": 3381,
    "ast@@": 3382,
    "88": 3383,
    "作業": 3384,
    "ゼ": 3385,
    "文化財": 3386,
    "応@@": 3387,
    "ワン@@": 3388,
    "建物": 3389,
    "RI@@": 3390,
    "仁@@": 3391,
    "ブック": 3392,
    "老": 3393,
    "86": 3394,
    "作成": 3395,
    "選@@": 3396,
    "ピアノ": 3397,
    "虫": 3398,
    "各地": 3399,
    "拠点": 3400,
    "鶴@@": 3401,
    "辺": 3402,
    "財団": 3403,
    "プレイ": 3404,
    "ソ": 3405,
    "決め": 3406,
    "姓": 3407,
    "ソー@@": 3408,
    "—": 3409,
    "民族": 3410,
    "解散": 3411,
    "iz@@": 3412,
    "飯@@": 3413,
    "統一": 3414,
    "軌道": 3415,
    "湾": 3416,
    "ジー@@": 3417,
    "MA@@": 3418,
    "医@@": 3419,
    "マリ@@": 3420,
    "р@@": 3421,
    "97": 3422,
    "除く": 3423,
    "形態": 3424,
    "言っ": 3425,
    "覧": 3426,
    "細胞": 3427,
    "首@@": 3428,
    "オ・@@": 3429,
    "語っ": 3430,
    "市長": 3431,
    "スピ@@": 3432,
    "ティング": 3433,
    "高く": 3434,
    "富士@@": 3435,
    "対策": 3436,
    "裁判所": 3437,
    "our": 3438,
    "グラン@@": 3439,
    "起こし": 3440,
    "エンディング": 3441,
    "ip@@": 3442,
    "ore": 3443,
    "クト@@": 3444,
    "恵@@": 3445,
    "旅行": 3446,
    "net": 3447,
    "グレ@@": 3448,
    "国鉄": 3449,
    "責任": 3450,
    "六@@": 3451,
    "軸": 3452,
    "バック": 3453,
    "res@@": 3454,
    "レベル": 3455,
    "いわ": 3456,
    "敗れ": 3457,
    "タル@@": 3458,
    "ヴ": 3459,
    "カナダ": 3460,
    "売": 3461,
    "ust@@": 3462,
    "飲@@": 3463,
    "2019": 3464,
    "エリア": 3465,
    "祖": 3466,
    "乗車": 3467,
    "独自": 3468,
    "ィ@@": 3469,
    "自動": 3470,
    "替え": 3471,
    "ウェブサイト": 3472,
    "家庭": 3473,
    "ion@@": 3474,
    "注@@": 3475,
    "PC": 3476,
    "杉@@": 3477,
    "部長": 3478,
    "ドロ@@": 3479,
    "角川": 3480,
    "ウル@@": 3481,
    "学院": 3482,
    "少ない": 3483,
    "コミック": 3484,
    "ポ": 3485,
    "72": 3486,
    "１": 3487,
    "AI@@": 3488,
    "色@@": 3489,
    "化@@": 3490,
    "強く": 3491,
    "弁": 3492,
    "ヶ": 3493,
    "長い": 3494,
    "寿": 3495,
    "探偵": 3496,
    "フト": 3497,
    "基礎": 3498,
    "創設": 3499,
    "もう": 3500,
    "Ad@@": 3501,
    "交換": 3502,
    "ナル@@": 3503,
    "本名": 3504,
    "まだ": 3505,
    "実現": 3506,
    "百@@": 3507,
    "宮城": 3508,
    "散@@": 3509,
    "打ち@@": 3510,
    "ot": 3511,
    "Bo@@": 3512,
    "ボル@@": 3513,
    "カイ@@": 3514,
    "試@@": 3515,
    "Se@@": 3516,
    "竜@@": 3517,
    "1957": 3518,
    "がっ": 3519,
    "分離": 3520,
    "ビア": 3521,
    "漢": 3522,
    "コレクション": 3523,
    "役@@": 3524,
    "徳島": 3525,
    "覚": 3526,
    "MC": 3527,
    "相当": 3528,
    "af@@": 3529,
    "レット": 3530,
    "守@@": 3531,
    "タル": 3532,
    "III": 3533,
    "クル@@": 3534,
    "経@@": 3535,
    "浩@@": 3536,
    "制限": 3537,
    "貨物": 3538,
    "東経": 3539,
    "テン": 3540,
    "配": 3541,
    "同社": 3542,
    "居@@": 3543,
    "智": 3544,
    "改革": 3545,
    "展示": 3546,
    "降@@": 3547,
    "矢": 3548,
    "格@@": 3549,
    "ひ": 3550,
    "減@@": 3551,
    "印": 3552,
    "ゅう@@": 3553,
    "景": 3554,
    "スタイル": 3555,
    "垣": 3556,
    "低@@": 3557,
    "ナン@@": 3558,
    "77": 3559,
    "いくつ": 3560,
    "太陽": 3561,
    "登@@": 3562,
    "猫": 3563,
    "ランキング": 3564,
    "勝ち": 3565,
    "Ac@@": 3566,
    "本来": 3567,
    "伝え": 3568,
    "納@@": 3569,
    "首相": 3570,
    "連絡": 3571,
    "急": 3572,
    "東海": 3573,
    "UR@@": 3574,
    "uk@@": 3575,
    "病@@": 3576,
    "鏡": 3577,
    "浜@@": 3578,
    "末@@": 3579,
    "ver": 3580,
    "ッツ@@": 3581,
    "トラック": 3582,
    "鎮@@": 3583,
    "共通": 3584,
    "割@@": 3585,
    "AP@@": 3586,
    "伝統": 3587,
    "スコ@@": 3588,
    "コード": 3589,
    "!」": 3590,
    "ニック": 3591,
    "案内": 3592,
    "オランダ": 3593,
    "宏": 3594,
    "一時": 3595,
    "須@@": 3596,
    "プレイヤー": 3597,
    "豊": 3598,
    "つき": 3599,
    "見せ": 3600,
    "取引": 3601,
    "ワン": 3602,
    "コーチ": 3603,
    "単位": 3604,
    "開通": 3605,
    "同盟": 3606,
    "静@@": 3607,
    "ast": 3608,
    "指摘": 3609,
    "児童": 3610,
    "盛": 3611,
    "負@@": 3612,
    "ピー@@": 3613,
    "菜": 3614,
    "行く": 3615,
    "ica": 3616,
    "及@@": 3617,
    "限り": 3618,
    "興@@": 3619,
    "機体": 3620,
    "発言": 3621,
    ")（": 3622,
    "標@@": 3623,
    "茶": 3624,
    "比": 3625,
    "BC": 3626,
    "射": 3627,
    "ks": 3628,
    "推@@": 3629,
    "柳@@": 3630,
    "大陸": 3631,
    "朗": 3632,
    "バッ@@": 3633,
    "更新": 3634,
    "かなり": 3635,
    "スティー@@": 3636,
    "スパ@@": 3637,
    "訓練": 3638,
    "至る": 3639,
    "皇帝": 3640,
    "与": 3641,
    "境": 3642,
    "/@@": 3643,
    "89": 3644,
    "電力": 3645,
    "MI@@": 3646,
    "孝@@": 3647,
    "置": 3648,
    "ロボット": 3649,
    "プログラム": 3650,
    "ING": 3651,
    "隠@@": 3652,
    "スケ@@": 3653,
    "SP": 3654,
    "安定": 3655,
    "三重": 3656,
    "オーストラリア": 3657,
    "向": 3658,
    "SO@@": 3659,
    "忠": 3660,
    "LE": 3661,
    "per@@": 3662,
    "全員": 3663,
    "71": 3664,
    "頼@@": 3665,
    "母親": 3666,
    "創@@": 3667,
    "魔@@": 3668,
    "喜": 3669,
    "SU@@": 3670,
    "シル@@": 3671,
    "込む": 3672,
    "町立": 3673,
    "わる": 3674,
    "1947": 3675,
    "競@@": 3676,
    "操作": 3677,
    "魂": 3678,
    "大字": 3679,
    "性能": 3680,
    "ドー@@": 3681,
    "書か": 3682,
    "柳": 3683,
    "78": 3684,
    "^{": 3685,
    "定義": 3686,
    "セル": 3687,
    "意識": 3688,
    "通算": 3689,
    "視@@": 3690,
    "最": 3691,
    "投手": 3692,
    "使い": 3693,
    "AT": 3694,
    "体制": 3695,
    "華@@": 3696,
    "青森": 3697,
    "vs": 3698,
    "航": 3699,
    "84": 3700,
    "IG@@": 3701,
    "str@@": 3702,
    "76": 3703,
    "ess@@": 3704,
    "禁止": 3705,
    "低": 3706,
    "甲@@": 3707,
    "あまり": 3708,
    "カン": 3709,
    "首都": 3710,
    "Qu@@": 3711,
    "近年": 3712,
    "特急": 3713,
    "脱@@": 3714,
    "姉": 3715,
    "ネー@@": 3716,
    "闘": 3717,
    "使@@": 3718,
    "保存": 3719,
    "略": 3720,
    "大賞": 3721,
    "参戦": 3722,
    "川崎": 3723,
    "io": 3724,
    "ah@@": 3725,
    "倍": 3726,
    "会員": 3727,
    "西部": 3728,
    "きっかけ": 3729,
    "昇格": 3730,
    "チャー@@": 3731,
    "article": 3732,
    "地下": 3733,
    "建@@": 3734,
    "イズ": 3735,
    "監修": 3736,
    "ニング": 3737,
    "継承": 3738,
    "お知らせ": 3739,
    "おら": 3740,
    "1948": 3741,
    "ウェイ": 3742,
    "セー@@": 3743,
    "反応": 3744,
    "命令": 3745,
    "長官": 3746,
    "カリ@@": 3747,
    "置か": 3748,
    "付@@": 3749,
    "商": 3750,
    "広く": 3751,
    "折": 3752,
    "ぷ@@": 3753,
    "番@@": 3754,
    "73": 3755,
    "物理": 3756,
    "!』": 3757,
    "チャー": 3758,
    "自体": 3759,
    "パーク": 3760,
    "集め": 3761,
    "藤原": 3762,
    "ころ": 3763,
    "わけ": 3764,
    "we@@": 3765,
    "ップ@@": 3766,
    "復@@": 3767,
    "1940": 3768,
    "87": 3769,
    "1941": 3770,
    "Di@@": 3771,
    "作っ": 3772,
    "欧州": 3773,
    "落@@": 3774,
    "憲法": 3775,
    "ダンス": 3776,
    "福井": 3777,
    "1944": 3778,
    "示し": 3779,
    "05@@": 3780,
    "殺害": 3781,
    "ann@@": 3782,
    "バン": 3783,
    "よし": 3784,
    "中学": 3785,
    "嶋": 3786,
    "45@@": 3787,
    "シン": 3788,
    "続く": 3789,
    "たる": 3790,
    "願": 3791,
    "焼@@": 3792,
    "タン@@": 3793,
    "新聞社": 3794,
    ",@@": 3795,
    "平和": 3796,
    "ゲン": 3797,
    "ue": 3798,
    "山形": 3799,
    "思想": 3800,
    "aw@@": 3801,
    "阪神": 3802,
    "廃": 3803,
    "宣言": 3804,
    "察": 3805,
    "総務": 3806,
    "画@@": 3807,
    "危険": 3808,
    "延": 3809,
    "ü@@": 3810,
    "星@@": 3811,
    "ヴォ@@": 3812,
    "秘密": 3813,
    "番目": 3814,
    "アナ": 3815,
    "Wh@@": 3816,
    "ale": 3817,
    "酒@@": 3818,
    "わり": 3819,
    "出来る": 3820,
    "舞": 3821,
    "1949": 3822,
    "ソ連": 3823,
    "艇": 3824,
    "ジュ": 3825,
    "ヶ月": 3826,
    "検@@": 3827,
    "少@@": 3828,
    "あれ": 3829,
    "峰": 3830,
    "謎": 3831,
    "ina": 3832,
    "済": 3833,
    "向上": 3834,
    "らし": 3835,
    "年齢": 3836,
    "コンピュータ": 3837,
    "治療": 3838,
    "維持": 3839,
    "養": 3840,
    "US@@": 3841,
    "回転": 3842,
    "徒歩": 3843,
    "ric@@": 3844,
    "(@": 3845,
    "En@@": 3846,
    "街道": 3847,
    "バル": 3848,
    "除@@": 3849,
    "ment": 3850,
    "1953": 3851,
    "友人": 3852,
    "逮捕": 3853,
    "勢力": 3854,
    "接@@": 3855,
    "現役": 3856,
    "冠": 3857,
    "綱": 3858,
    "毎年": 3859,
    "貴族": 3860,
    "自治体": 3861,
    "ローズ": 3862,
    "思@@": 3863,
    "々@@": 3864,
    "伊": 3865,
    "健康": 3866,
    "ティー@@": 3867,
    "やか": 3868,
    "予@@": 3869,
    "land": 3870,
    "ions": 3871,
    "ュー": 3872,
    "世代": 3873,
    "巨@@": 3874,
    "月刊": 3875,
    "レッド": 3876,
    "観@@": 3877,
    "亀@@": 3878,
    "会場": 3879,
    "結": 3880,
    "描い": 3881,
    "康": 3882,
    "駆逐": 3883,
    "証": 3884,
    "披露": 3885,
    "緑": 3886,
    "善": 3887,
    "生命": 3888,
    "沢@@": 3889,
    "駅前": 3890,
    "テル@@": 3891,
    "業@@": 3892,
    "筋": 3893,
    "要素": 3894,
    "ong": 3895,
    "騎士": 3896,
    "蔵@@": 3897,
    "ュ@@": 3898,
    "通過": 3899,
    "湯@@": 3900,
    "978@@": 3901,
    "誘@@": 3902,
    "福祉": 3903,
    "渋谷": 3904,
    "鶴": 3905,
    "策": 3906,
    "範囲": 3907,
    "土曜": 3908,
    "ージ": 3909,
    "青年": 3910,
    "ルート": 3911,
    "カバー": 3912,
    "進め": 3913,
    "1952": 3914,
    "制定": 3915,
    "現れ": 3916,
    "1943": 3917,
    "内部": 3918,
    "奥": 3919,
    "ウォー@@": 3920,
    "解": 3921,
    "池田": 3922,
    "\\@@": 3923,
    ".;": 3924,
    "Le@@": 3925,
    "ite": 3926,
    "アレ@@": 3927,
    "乱@@": 3928,
    "もっ": 3929,
    "非@@": 3930,
    "砲@@": 3931,
    "周囲": 3932,
    "戦車": 3933,
    "弘@@": 3934,
    "タレント": 3935,
    "継続": 3936,
    "初回": 3937,
    "74": 3938,
    "油": 3939,
    "医学": 3940,
    "オープニング": 3941,
    "吾": 3942,
    "専攻": 3943,
    "納": 3944,
    "兵衛": 3945,
    "ゆう": 3946,
    "延@@": 3947,
    "筑@@": 3948,
    "晴@@": 3949,
    "筆": 3950,
    "情@@": 3951,
    "東京大学": 3952,
    "yn@@": 3953,
    "com@@": 3954,
    "ES": 3955,
    "cl@@": 3956,
    "歩@@": 3957,
    "200@@": 3958,
    "カメラ": 3959,
    "前後": 3960,
    "かん": 3961,
    "制@@": 3962,
    "哲学": 3963,
    "pdf": 3964,
    "組@@": 3965,
    "裕": 3966,
    "マク@@": 3967,
    "Am@@": 3968,
    "am": 3969,
    "切り@@": 3970,
    "プライ@@": 3971,
    "記者": 3972,
    "AM": 3973,
    "性@@": 3974,
    "運": 3975,
    "容": 3976,
    "he": 3977,
    "建造": 3978,
    "さい": 3979,
    "帳": 3980,
    "リアル": 3981,
    "茂": 3982,
    "自己": 3983,
    "}}}": 3984,
    "役割": 3985,
    "和田": 3986,
    "リオ": 3987,
    "かる": 3988,
    "怪@@": 3989,
    "兵器": 3990,
    "記憶": 3991,
    "陽@@": 3992,
    "ファイル": 3993,
    "LIVE": 3994,
    "議": 3995,
    "荘": 3996,
    "結ぶ": 3997,
    "ペル@@": 3998,
    "くん": 3999,
    "段階": 4000,
    "全く": 4001,
    "甲": 4002,
    "布@@": 4003,
    "裁": 4004,
    "貢献": 4005,
    "Gre@@": 4006,
    "トラン@@": 4007,
    "メン": 4008,
    "独@@": 4009,
    "ST": 4010,
    "電鉄": 4011,
    "News": 4012,
    "じる": 4013,
    "メル@@": 4014,
    "オール": 4015,
    "達@@": 4016,
    "分割": 4017,
    "食品": 4018,
    "ian@@": 4019,
    "Sch@@": 4020,
    "それら": 4021,
    "マシン": 4022,
    "ホル@@": 4023,
    "日記": 4024,
    "県道": 4025,
    "出る": 4026,
    "移行": 4027,
    "ネットワーク": 4028,
    "速@@": 4029,
    "応": 4030,
    "ポーランド": 4031,
    "ゲ": 4032,
    "観測": 4033,
    "ルド@@": 4034,
    "倉@@": 4035,
    "準@@": 4036,
    "東宝": 4037,
    "ace": 4038,
    "グランプリ": 4039,
    "DE": 4040,
    "オス": 4041,
    "殺": 4042,
    "1951": 4043,
    "単独": 4044,
    "187@@": 4045,
    "西日本": 4046,
    "la": 4047,
    "ション@@": 4048,
    "フォード": 4049,
    "吹@@": 4050,
    "純@@": 4051,
    "出力": 4052,
    "鳴@@": 4053,
    "<": 4054,
    "眼": 4055,
    "難": 4056,
    "イル": 4057,
    "繰り@@": 4058,
    "仲@@": 4059,
    "知っ": 4060,
    "ワード": 4061,
    "メジャー": 4062,
    "常": 4063,
    "au@@": 4064,
    "動画": 4065,
    "遺産": 4066,
    "灯": 4067,
    "デン": 4068,
    "判断": 4069,
    "創立": 4070,
    "週間": 4071,
    "tr@@": 4072,
    "カラ@@": 4073,
    "ミー": 4074,
    "諸島": 4075,
    "亜@@": 4076,
    "視聴": 4077,
    "国土": 4078,
    "因@@": 4079,
    "消滅": 4080,
    "録音": 4081,
    "純": 4082,
    "張@@": 4083,
    "サイズ": 4084,
    "ir": 4085,
    "ャ@@": 4086,
    "打": 4087,
    "（@@": 4088,
    "医師": 4089,
    "仲": 4090,
    "再開": 4091,
    "ata": 4092,
    "僕": 4093,
    "ニコ@@": 4094,
    "ath@@": 4095,
    "ドラゴン": 4096,
    "機器": 4097,
    "慶": 4098,
    "ジョージ": 4099,
    "コミ@@": 4100,
    "ルフ": 4101,
    "79": 4102,
    "季": 4103,
    "校舎": 4104,
    "クター": 4105,
    "もしくは": 4106,
    "ジャ": 4107,
    "ファー": 4108,
    "プロデュース": 4109,
    "バトル": 4110,
    "審査": 4111,
    "主題歌": 4112,
    "進行": 4113,
    "ur": 4114,
    "得る": 4115,
    "+@@": 4116,
    "ence": 4117,
    "剛": 4118,
    "要求": 4119,
    "管轄": 4120,
    "後期": 4121,
    "1942": 4122,
    "レー": 4123,
    "IM@@": 4124,
    "資格": 4125,
    "床": 4126,
    "ザー@@": 4127,
    "桃@@": 4128,
    "横": 4129,
    "プレー": 4130,
    "減": 4131,
    "２": 4132,
    "立つ": 4133,
    "Be@@": 4134,
    "邦@@": 4135,
    "辞@@": 4136,
    "能@@": 4137,
    "織": 4138,
    "グル@@": 4139,
    "★": 4140,
    "port": 4141,
    "犯罪": 4142,
    "臨時": 4143,
    "開": 4144,
    "FI@@": 4145,
    "ess": 4146,
    "小型": 4147,
    "ゆ": 4148,
    "微@@": 4149,
    "司会": 4150,
    "トリー": 4151,
    "アフリカ": 4152,
    "優": 4153,
    "紀元前": 4154,
    "急行": 4155,
    "被@@": 4156,
    "建て": 4157,
    "橋@@": 4158,
    "退": 4159,
    "習": 4160,
    "姉妹": 4161,
    "領@@": 4162,
    "マガジン": 4163,
    "背@@": 4164,
    "立ち@@": 4165,
    "テイ@@": 4166,
    "アカデミー": 4167,
    "小さな": 4168,
    "堀": 4169,
    "衆": 4170,
    "呼び@@": 4171,
    "《": 4172,
    "動き": 4173,
    "劇団": 4174,
    "脚": 4175,
    "可": 4176,
    "ver@@": 4177,
    "けん": 4178,
    "昭": 4179,
    "US": 4180,
    "ムー@@": 4181,
    "孝": 4182,
    "善@@": 4183,
    "06@@": 4184,
    "消費": 4185,
    "実行": 4186,
    "キン@@": 4187,
    "わっ": 4188,
    "ング・@@": 4189,
    "鹿": 4190,
    "イス": 4191,
    "呂": 4192,
    "少": 4193,
    "球@@": 4194,
    "徳川": 4195,
    "OS": 4196,
    "用いる": 4197,
    "良い": 4198,
    "Col@@": 4199,
    "改良": 4200,
    "宿@@": 4201,
    "フロ@@": 4202,
    "更に": 4203,
    "何@@": 4204,
    "感じ": 4205,
    "河川": 4206,
    "ミン": 4207,
    "自": 4208,
    "vol": 4209,
    "指す": 4210,
    "EN": 4211,
    "ys@@": 4212,
    "中止": 4213,
    "計算": 4214,
    "木村": 4215,
    "ED": 4216,
    "桜@@": 4217,
    "》": 4218,
    "度目": 4219,
    "並@@": 4220,
    "使": 4221,
    "技@@": 4222,
    "フランス語": 4223,
    "減少": 4224,
    "しまい": 4225,
    "de@@": 4226,
    "97@@": 4227,
    "史@@": 4228,
    "執@@": 4229,
    "演@@": 4230,
    "セル@@": 4231,
    "ist": 4232,
    "人生": 4233,
    "キャラ": 4234,
    "生まれる": 4235,
    "ヴァー@@": 4236,
    "ジャー@@": 4237,
    "他@@": 4238,
    "ne": 4239,
    "せい": 4240,
    "住": 4241,
    "ブラジル": 4242,
    "シュ": 4243,
    "発射": 4244,
    "スト・@@": 4245,
    "スー@@": 4246,
    "深夜": 4247,
    "ょ@@": 4248,
    "比較": 4249,
    "岳": 4250,
    "ジュニア": 4251,
    "地下鉄": 4252,
    "今日": 4253,
    "狭@@": 4254,
    "ブルー": 4255,
    "没": 4256,
    "ホーム@@": 4257,
    "子会社": 4258,
    "座@@": 4259,
    "設": 4260,
    "Music": 4261,
    "輝@@": 4262,
    "BA": 4263,
    "麗": 4264,
    "ings": 4265,
    "設備": 4266,
    "すれ": 4267,
    "思っ": 4268,
    "判定": 4269,
    "岩手": 4270,
    "再生": 4271,
    "ict@@": 4272,
    "秀": 4273,
    "York": 4274,
    "栗@@": 4275,
    "Pr@@": 4276,
    "ボン": 4277,
    "連隊": 4278,
    "前作": 4279,
    "聴@@": 4280,
    "昌@@": 4281,
    "棒": 4282,
    "一緒": 4283,
    "ッグ": 4284,
    "ユダヤ": 4285,
    "1930": 4286,
    "ber@@": 4287,
    "爆@@": 4288,
    "得意": 4289,
    "免許": 4290,
    "ジャン@@": 4291,
    "セン": 4292,
    "〔": 4293,
    "ネイ@@": 4294,
    "営@@": 4295,
    "じゃ": 4296,
    "諸@@": 4297,
    "半島": 4298,
    "年鑑": 4299,
    "オンライン": 4300,
    "窓": 4301,
    "特集": 4302,
    "定め": 4303,
    "票": 4304,
    "Or@@": 4305,
    "冒険": 4306,
    "切": 4307,
    "群馬": 4308,
    "芸能": 4309,
    "1939": 4310,
    "定期": 4311,
    "ヴァン@@": 4312,
    "〕": 4313,
    "鎌倉": 4314,
    "ain@@": 4315,
    "練習": 4316,
    "ゴール": 4317,
    "向かっ": 4318,
    "網": 4319,
    "フィールド": 4320,
    "11@@": 4321,
    "ain": 4322,
    "ポジション": 4323,
    "イド": 4324,
    "幕府": 4325,
    "ぱ@@": 4326,
    "態": 4327,
    "血液": 4328,
    "板@@": 4329,
    "レイ": 4330,
    "限": 4331,
    "ern@@": 4332,
    "後述": 4333,
    "se": 4334,
    "ブラン@@": 4335,
    "金曜": 4336,
    "転": 4337,
    "洗@@": 4338,
    "角@@": 4339,
    "プロレス": 4340,
    "あい": 4341,
    "身@@": 4342,
    "体重": 4343,
    "ブレイ@@": 4344,
    "ire": 4345,
    "師団": 4346,
    "エク@@": 4347,
    "т@@": 4348,
    "取る": 4349,
    "無料": 4350,
    "AR": 4351,
    "ぜ": 4352,
    "太平洋": 4353,
    "1946": 4354,
    "ents": 4355,
    "当選": 4356,
    "既に": 4357,
    "アウ@@": 4358,
    "自治": 4359,
    "スタジアム": 4360,
    "archive": 4361,
    "臨@@": 4362,
    "しん": 4363,
    "逃@@": 4364,
    "ide": 4365,
    "殺@@": 4366,
    "咲": 4367,
    "くれ": 4368,
    "幼稚園": 4369,
    "工学": 4370,
    "ビジネス": 4371,
    "ach@@": 4372,
    "提案": 4373,
    "Bl@@": 4374,
    "刻": 4375,
    "持@@": 4376,
    "ai": 4377,
    "協議": 4378,
    "sk@@": 4379,
    "同日": 4380,
    "乳@@": 4381,
    "鬼@@": 4382,
    "振興": 4383,
    "没@@": 4384,
    "ヨー@@": 4385,
    "砂@@": 4386,
    "立っ": 4387,
    "ビン": 4388,
    "公共": 4389,
    "с@@": 4390,
    "増": 4391,
    "03@@": 4392,
    "栃木": 4393,
    "終わっ": 4394,
    "組み": 4395,
    "残り": 4396,
    "モンスター": 4397,
    "茂@@": 4398,
    "しばしば": 4399,
    "備え": 4400,
    "エンター@@": 4401,
    "ズム": 4402,
    "一番": 4403,
    "ert@@": 4404,
    "Fl@@": 4405,
    "味@@": 4406,
    "導@@": 4407,
    "誤@@": 4408,
    "サポート": 4409,
    "ジャンプ": 4410,
    "Mon@@": 4411,
    "伯": 4412,
    "ツィ@@": 4413,
    "ッカー": 4414,
    "ルズ": 4415,
    "読@@": 4416,
    "心理": 4417,
    "臣": 4418,
    "共著": 4419,
    "ill": 4420,
    "150": 4421,
    "慶@@": 4422,
    "イオン": 4423,
    "書い": 4424,
    "菌": 4425,
    "09@@": 4426,
    "ロード": 4427,
    "弥@@": 4428,
    "常に": 4429,
    "源@@": 4430,
    "疑@@": 4431,
    "異なり": 4432,
    "ance": 4433,
    "ストラ@@": 4434,
    "ult@@": 4435,
    "等@@": 4436,
    "築@@": 4437,
    "始@@": 4438,
    "チン": 4439,
    "穴": 4440,
    "芳@@": 4441,
    "充@@": 4442,
    "店@@": 4443,
    "比べ": 4444,
    "対抗": 4445,
    "ずつ": 4446,
    "コンサート": 4447,
    "回復": 4448,
    "ボーカル": 4449,
    "丹@@": 4450,
    "東部": 4451,
    "敏@@": 4452,
    "sc@@": 4453,
    "分析": 4454,
    "権@@": 4455,
    "植@@": 4456,
    "к@@": 4457,
    "乃": 4458,
    "イングランド": 4459,
    "IS": 4460,
    "香港": 4461,
    "un": 4462,
    "信号": 4463,
    "History": 4464,
    "ポール": 4465,
    "後継": 4466,
    "ブロック": 4467,
    "潜@@": 4468,
    "向かう": 4469,
    "休止": 4470,
    "アナ@@": 4471,
    "デー@@": 4472,
    "MS": 4473,
    "いわゆる": 4474,
    "抱@@": 4475,
    "Pl@@": 4476,
    "車体": 4477,
    "あなた": 4478,
    "止め": 4479,
    "スクール": 4480,
    "勤務": 4481,
    "思い": 4482,
    "意見": 4483,
    "Har@@": 4484,
    "ett@@": 4485,
    "接": 4486,
    "勇@@": 4487,
    "und": 4488,
    "毎週": 4489,
    "指名": 4490,
    "ファー@@": 4491,
    "弁護士": 4492,
    "ost": 4493,
    "任務": 4494,
    "プロダクション": 4495,
    "'@@": 4496,
    "大量": 4497,
    "処分": 4498,
    "ベルト": 4499,
    "戻っ": 4500,
    "トンネル": 4501,
    "ムス": 4502,
    "健": 4503,
    "執筆": 4504,
    "for@@": 4505,
    "厚@@": 4506,
    "溶@@": 4507,
    "防御": 4508,
    "ix": 4509,
    "趣味": 4510,
    "mar@@": 4511,
    "荷": 4512,
    "スターズ": 4513,
    "ジャン": 4514,
    "儀": 4515,
    "UT@@": 4516,
    "依頼": 4517,
    "愛称": 4518,
    "訪れ": 4519,
    "始": 4520,
    "絵@@": 4521,
    "沖": 4522,
    "命名": 4523,
    "海岸": 4524,
    "浩": 4525,
    "一定": 4526,
    "ュー@@": 4527,
    "検討": 4528,
    "ack@@": 4529,
    "古墳": 4530,
    "樹@@": 4531,
    "つける": 4532,
    "解放": 4533,
    "弁@@": 4534,
    "長男": 4535,
    "始める": 4536,
    "始まる": 4537,
    "問": 4538,
    "負け": 4539,
    "衛": 4540,
    "共に": 4541,
    "ルール": 4542,
    "哉": 4543,
    "到着": 4544,
    "Ab@@": 4545,
    "リュ@@": 4546,
    "Fran@@": 4547,
    "リーダー": 4548,
    "校@@": 4549,
    "ゲー@@": 4550,
    "浦@@": 4551,
    "キン": 4552,
    "理解": 4553,
    "金融": 4554,
    "芸@@": 4555,
    "au": 4556,
    "サラ@@": 4557,
    "在籍": 4558,
    "キャン@@": 4559,
    "職員": 4560,
    "隣接": 4561,
    "books": 4562,
    "迷@@": 4563,
    "グリーン": 4564,
    "いち": 4565,
    "鳥取": 4566,
    "600": 4567,
    "潜水": 4568,
    "ear": 4569,
    "Bro@@": 4570,
    "襲": 4571,
    "庭": 4572,
    "800": 4573,
    "鹿@@": 4574,
    "桑@@": 4575,
    "短期大学": 4576,
    "密": 4577,
    "ッキー": 4578,
    "むら": 4579,
    "戦国": 4580,
    "ファン@@": 4581,
    "柱": 4582,
    "大和": 4583,
    "押@@": 4584,
    "会館": 4585,
    "物質": 4586,
    "踏@@": 4587,
    "四国": 4588,
    "クライ@@": 4589,
    "如@@": 4590,
    "評論": 4591,
    "財@@": 4592,
    "講師": 4593,
    "対立": 4594,
    "停車": 4595,
    "画面": 4596,
    "遺跡": 4597,
    "給@@": 4598,
    "領域": 4599,
    "JAPAN": 4600,
    "進学": 4601,
    "太田": 4602,
    "毎日新聞": 4603,
    "注": 4604,
    "知識": 4605,
    "和歌山": 4606,
    "有する": 4607,
    "っと": 4608,
    "*": 4609,
    "ニュー": 4610,
    "燃@@": 4611,
    "アー": 4612,
    "黄": 4613,
    "ベルク": 4614,
    "注目": 4615,
    "振@@": 4616,
    "民主": 4617,
    "こう@@": 4618,
    "嵐": 4619,
    "携帯": 4620,
    "らす": 4621,
    "ゴン": 4622,
    "奪": 4623,
    "破": 4624,
    "ish@@": 4625,
    "団地": 4626,
    "演じ": 4627,
    "戦略": 4628,
    "民間": 4629,
    "ym@@": 4630,
    "カット": 4631,
    "寛@@": 4632,
    "殺し": 4633,
    "朝日": 4634,
    "ティー": 4635,
    "湯": 4636,
    "惑星": 4637,
    "置く": 4638,
    "射@@": 4639,
    "新書": 4640,
    "狙@@": 4641,
    "ネス": 4642,
    "ポート": 4643,
    "斗": 4644,
    "リズム": 4645,
    "ボス": 4646,
    "ash@@": 4647,
    "棟": 4648,
    "直前": 4649,
    "球団": 4650,
    "ION": 4651,
    "ジン": 4652,
    "オブ": 4653,
    "帰国": 4654,
    "up": 4655,
    "埋@@": 4656,
    "アーティスト": 4657,
    "私@@": 4658,
    "泉@@": 4659,
    "アニメーション": 4660,
    "秘@@": 4661,
    "こそ": 4662,
    "様子": 4663,
    "ブー@@": 4664,
    "王子": 4665,
    "目標": 4666,
    "エア@@": 4667,
    "やすい": 4668,
    "ht@@": 4669,
    "シュー@@": 4670,
    "坊": 4671,
    "ve": 4672,
    "ミサイル": 4673,
    "出現": 4674,
    "温@@": 4675,
    "rit@@": 4676,
    "客@@": 4677,
    "テー@@": 4678,
    "身体": 4679,
    "だい": 4680,
    "困難": 4681,
    "価格": 4682,
    "ザン@@": 4683,
    "テル": 4684,
    "ただ": 4685,
    "容@@": 4686,
    "北海道@@": 4687,
    "Ed@@": 4688,
    "砂": 4689,
    "翻訳": 4690,
    "ミン@@": 4691,
    "VE": 4692,
    "集合": 4693,
    "裁判": 4694,
    "普及": 4695,
    "トーク": 4696,
    "詞": 4697,
    "与@@": 4698,
    "マイル": 4699,
    "封@@": 4700,
    "中島": 4701,
    "佐々木": 4702,
    "]。": 4703,
    "確保": 4704,
    "ョ@@": 4705,
    "我@@": 4706,
    "伴う": 4707,
    "@": 4708,
    "新幹線": 4709,
    "ps": 4710,
    "九@@": 4711,
    "起用": 4712,
    "ology": 4713,
    "敬": 4714,
    "Nor@@": 4715,
    "民主党": 4716,
    "池@@": 4717,
    "ムズ": 4718,
    "銀@@": 4719,
    "ソロ": 4720,
    "吸@@": 4721,
    "点@@": 4722,
    "地図": 4723,
    "ブラック": 4724,
    "天使": 4725,
    "まち": 4726,
    "前述": 4727,
    "ディー": 4728,
    "館@@": 4729,
    "任@@": 4730,
    "イラスト": 4731,
    "助け": 4732,
    "哲@@": 4733,
    "Inter@@": 4734,
    "周@@": 4735,
    "アート": 4736,
    "自衛隊": 4737,
    "籍": 4738,
    "空軍": 4739,
    "始まっ": 4740,
    "賢@@": 4741,
    "%@@": 4742,
    "49@@": 4743,
    "ミル@@": 4744,
    "MA": 4745,
    "立場": 4746,
    "歴代": 4747,
    "1937": 4748,
    "クロ": 4749,
    "作る": 4750,
    "アス@@": 4751,
    "がり": 4752,
    "供給": 4753,
    "吸収": 4754,
    "生き@@": 4755,
    "知事": 4756,
    "作画": 4757,
    "John": 4758,
    "検査": 4759,
    "洲": 4760,
    "ru@@": 4761,
    "集英社": 4762,
    "ディ・@@": 4763,
    "クリー@@": 4764,
    "レーション": 4765,
    "与える": 4766,
    "enn@@": 4767,
    "テク@@": 4768,
    "底": 4769,
    "カール": 4770,
    "ビル@@": 4771,
    "120": 4772,
    "軽": 4773,
    "ヤマ@@": 4774,
    "シャル@@": 4775,
    "講@@": 4776,
    "In": 4777,
    "佳@@": 4778,
    "Sc@@": 4779,
    "論文": 4780,
    "危機": 4781,
    "藩主": 4782,
    "賀@@": 4783,
    "種@@": 4784,
    "日曜": 4785,
    "麻": 4786,
    "希望": 4787,
    "クイズ": 4788,
    "プリン@@": 4789,
    "パル@@": 4790,
    "作り": 4791,
    "入団": 4792,
    "模様": 4793,
    "句": 4794,
    "ハル@@": 4795,
    "らく": 4796,
    "箱": 4797,
    "クロー@@": 4798,
    "キャスト": 4799,
    "エピソード": 4800,
    "渡": 4801,
    "中部": 4802,
    "創業": 4803,
    "県内": 4804,
    "iss@@": 4805,
    "脇": 4806,
    "im": 4807,
    "ind@@": 4808,
    "解決": 4809,
    "anc@@": 4810,
    "バラ": 4811,
    "）-": 4812,
    "作用": 4813,
    "弱@@": 4814,
    "Japan": 4815,
    "完@@": 4816,
    "メダル": 4817,
    "中野": 4818,
    "傾向": 4819,
    "加盟": 4820,
    "本塁打": 4821,
    "ロ・@@": 4822,
    "交": 4823,
    "広告": 4824,
    "リアン": 4825,
    "柔道": 4826,
    "篠@@": 4827,
    "％": 4828,
    "収め": 4829,
    "ハイ": 4830,
    "執行": 4831,
    "ack": 4832,
    "照@@": 4833,
    "ミニ": 4834,
    "歴": 4835,
    "虎": 4836,
    "陵": 4837,
    "禁@@": 4838,
    "Comm@@": 4839,
    "開幕": 4840,
    "以@@": 4841,
    "昭@@": 4842,
    "コミックス": 4843,
    "を通じて": 4844,
    "応じ": 4845,
    "les": 4846,
    "ックス@@": 4847,
    "寿@@": 4848,
    "当たり": 4849,
    "金属": 4850,
    "闇": 4851,
    "プル": 4852,
    "拳": 4853,
    "克@@": 4854,
    "交渉": 4855,
    "富": 4856,
    "23@@": 4857,
    "輝": 4858,
    "サイド": 4859,
    "創": 4860,
    "中世": 4861,
    "就@@": 4862,
    "アップ@@": 4863,
    "日間": 4864,
    "同時": 4865,
    "男@@": 4866,
    "準備": 4867,
    "収": 4868,
    "セイ@@": 4869,
    "労": 4870,
    "片": 4871,
    "中山": 4872,
    "絶": 4873,
    "毒": 4874,
    "迫@@": 4875,
    "ハッ@@": 4876,
    "1936": 4877,
    "陰@@": 4878,
    "TR@@": 4879,
    "引": 4880,
    "me": 4881,
    "そこで": 4882,
    "譲@@": 4883,
    "所在": 4884,
    "全集": 4885,
    "衛星": 4886,
    "オーストリア": 4887,
    "Dis@@": 4888,
    "人員": 4889,
    "低い": 4890,
    "固定": 4891,
    "雑@@": 4892,
    "金沢": 4893,
    "ストン": 4894,
    "ail@@": 4895,
    "しま": 4896,
    "婦": 4897,
    "ron@@": 4898,
    "46@@": 4899,
    "セレ@@": 4900,
    "適用": 4901,
    "便@@": 4902,
    "上位": 4903,
    "教室": 4904,
    "特": 4905,
    "市町村": 4906,
    "期待": 4907,
    "戦艦": 4908,
    "備": 4909,
    "ブ・@@": 4910,
    "王者": 4911,
    ")」": 4912,
    "刺@@": 4913,
    "最優秀": 4914,
    "ケン": 4915,
    "繋@@": 4916,
    "岡田": 4917,
    "梅@@": 4918,
    "消防": 4919,
    "付い": 4920,
    "属する": 4921,
    "クロス": 4922,
    "ッター": 4923,
    "ダイヤ": 4924,
    "ut": 4925,
    "資金": 4926,
    "レス@@": 4927,
    "スウェーデン": 4928,
    "雷": 4929,
    "双@@": 4930,
    "撤退": 4931,
    "読売新聞": 4932,
    "マス": 4933,
    "商店": 4934,
    "元々": 4935,
    "襲@@": 4936,
    "アフ@@": 4937,
    "終点": 4938,
    "考える": 4939,
    "統": 4940,
    "佐賀": 4941,
    "オール@@": 4942,
    "黄@@": 4943,
    "瀬@@": 4944,
    "歌詞": 4945,
    "豪": 4946,
    "入れる": 4947,
    "ブルー@@": 4948,
    "掛@@": 4949,
    "調整": 4950,
    "パス": 4951,
    "管@@": 4952,
    "割": 4953,
    "奏": 4954,
    "闘@@": 4955,
    "新田": 4956,
    "合計": 4957,
    "仮面ライダー": 4958,
    "補": 4959,
    "武装": 4960,
    "悪魔": 4961,
    "国会": 4962,
    "貸@@": 4963,
    "way": 4964,
    "Tr@@": 4965,
    "ステーション": 4966,
    "飛び@@": 4967,
    "Love": 4968,
    "祭@@": 4969,
    "各種": 4970,
    "エア": 4971,
    "附属": 4972,
    "ケース": 4973,
    "OF": 4974,
    "須": 4975,
    "どの": 4976,
    "階級": 4977,
    "妃": 4978,
    "AD": 4979,
    "ペ": 4980,
    "小学館": 4981,
    "Man@@": 4982,
    "学習": 4983,
    "スキ@@": 4984,
    "研": 4985,
    "功": 4986,
    "美子": 4987,
    "応援": 4988,
    "ra": 4989,
    "厳@@": 4990,
    "しみ": 4991,
    "ベイ@@": 4992,
    "■": 4993,
    "ユニ@@": 4994,
    "oun@@": 4995,
    "燃料": 4996,
    "神経": 4997,
    "ばかり": 4998,
    "マグ@@": 4999,
    "-（": 5000,
    "比較的": 5001,
    "背景": 5002,
    "耐@@": 5003,
    "＞": 5004,
    "ほ": 5005,
    "テスト": 5006,
    "変え": 5007,
    "形状": 5008,
    "曲@@": 5009,
    "アン・@@": 5010,
    "山崎": 5011,
    "起き": 5012,
    "所在地": 5013,
    "寺院": 5014,
    "とり": 5015,
    "上げる": 5016,
    "コル@@": 5017,
    "兼@@": 5018,
    "up@@": 5019,
    "崩壊": 5020,
    "略称": 5021,
    "テニス": 5022,
    "記@@": 5023,
    "ちゃ@@": 5024,
    "だが": 5025,
    "タ・@@": 5026,
    "GP": 5027,
    "ゃ@@": 5028,
    "ネーム": 5029,
    "敬@@": 5030,
    "アイテム": 5031,
    "ロン@@": 5032,
    "目指し": 5033,
    "昌": 5034,
    "呼ん": 5035,
    "現場": 5036,
    "87@@": 5037,
    "ちゃ": 5038,
    "out": 5039,
    "Mo@@": 5040,
    "本格": 5041,
    "上野": 5042,
    "ックス・@@": 5043,
    "考@@": 5044,
    "劉": 5045,
    "株": 5046,
    "フリー@@": 5047,
    "1938": 5048,
    "ight@@": 5049,
    "ile": 5050,
    "税@@": 5051,
    "ポン@@": 5052,
    "日刊": 5053,
    "в@@": 5054,
    "ジェイ@@": 5055,
    "討@@": 5056,
    "ダウン": 5057,
    "クラ": 5058,
    "権利": 5059,
    "Cor@@": 5060,
    "ダ・@@": 5061,
    "高知": 5062,
    "а": 5063,
    "ins": 5064,
    "滝": 5065,
    "蘭": 5066,
    "海上": 5067,
    "OP": 5068,
    "バリ@@": 5069,
    "Com@@": 5070,
    "ol": 5071,
    "規制": 5072,
    "エリ@@": 5073,
    "付属": 5074,
    "山梨": 5075,
    "前田": 5076,
    "訴": 5077,
    "マスター": 5078,
    "ディレクター": 5079,
    "計@@": 5080,
    "惑": 5081,
    "爆発": 5082,
    "1920": 5083,
    "倒": 5084,
    "自転車": 5085,
    "閉鎖": 5086,
    "開校": 5087,
    "スカ": 5088,
    "ター・@@": 5089,
    "frac": 5090,
    "大使": 5091,
    "沙": 5092,
    "一族": 5093,
    "証券": 5094,
    "書籍": 5095,
    "man@@": 5096,
    "わずか": 5097,
    "牛": 5098,
    "教え": 5099,
    "体育": 5100,
    "こちら": 5101,
    "ネタ": 5102,
    "書き": 5103,
    "月曜": 5104,
    "町村": 5105,
    "ポル@@": 5106,
    "任命": 5107,
    "IR@@": 5108,
    "ほう": 5109,
    "組み@@": 5110,
    "メキシコ": 5111,
    "und@@": 5112,
    "息": 5113,
    "op": 5114,
    "紅": 5115,
    "松竹": 5116,
    "（+": 5117,
    "規則": 5118,
    "大阪@@": 5119,
    "ナタリー": 5120,
    "注意": 5121,
    "登板": 5122,
    "かさ": 5123,
    "のり": 5124,
    "シア@@": 5125,
    "ポリ@@": 5126,
    "ドル@@": 5127,
    "ドーム": 5128,
    "数学": 5129,
    "述": 5130,
    "指": 5131,
    "‐": 5132,
    "リック": 5133,
    "ish": 5134,
    "ガイ@@": 5135,
    "音声": 5136,
    "体験": 5137,
    "尚": 5138,
    "ゅう": 5139,
    "大きい": 5140,
    "実業": 5141,
    "1934": 5142,
    "貞": 5143,
    "フェル@@": 5144,
    "』@@": 5145,
    "American": 5146,
    "旨": 5147,
    "回り": 5148,
    "写": 5149,
    "ティア": 5150,
    "露": 5151,
    "ヴァ": 5152,
    "1935": 5153,
    "Web": 5154,
    "富士": 5155,
    "武田": 5156,
    "許可": 5157,
    "処@@": 5158,
    "占領": 5159,
    "enc@@": 5160,
    "em": 5161,
    "帝@@": 5162,
    "用語": 5163,
    "違@@": 5164,
    "威": 5165,
    "生き": 5166,
    "給": 5167,
    "Res@@": 5168,
    "重量": 5169,
    "判決": 5170,
    "呉": 5171,
    "合格": 5172,
    "キリスト": 5173,
    "弟子": 5174,
    "コール": 5175,
    "呼称": 5176,
    "SC": 5177,
    "広場": 5178,
    "sch@@": 5179,
    "演劇": 5180,
    "英国": 5181,
    "エン": 5182,
    "表す": 5183,
    "外交": 5184,
    "見える": 5185,
    "メール": 5186,
    "換@@": 5187,
    "ラル": 5188,
    "ミー@@": 5189,
    "滅": 5190,
    "潮": 5191,
    "防": 5192,
    "中央@@": 5193,
    "杉": 5194,
    "ant": 5195,
    "竣工": 5196,
    "ワイド": 5197,
    "村上": 5198,
    "バイ": 5199,
    "牛@@": 5200,
    "ember": 5201,
    "起点": 5202,
    "個@@": 5203,
    "盗@@": 5204,
    "資本": 5205,
    "買収": 5206,
    "区@@": 5207,
    "TH@@": 5208,
    "カリフォルニア": 5209,
    "仮面": 5210,
    "務@@": 5211,
    "National": 5212,
    "聞@@": 5213,
    "大橋": 5214,
    "ェ@@": 5215,
    "前身": 5216,
    "編纂": 5217,
    "べく": 5218,
    "北京": 5219,
    "認識": 5220,
    "丁": 5221,
    "学術": 5222,
    "示": 5223,
    "略@@": 5224,
    "上昇": 5225,
    "若": 5226,
    "nd": 5227,
    "國": 5228,
    "イト": 5229,
    "譜": 5230,
    "マル": 5231,
    "ファ": 5232,
    "方針": 5233,
    "シャー@@": 5234,
    "分布": 5235,
    "前半": 5236,
    "MLB": 5237,
    "ワールドカップ": 5238,
    "ティ・@@": 5239,
    "シャ": 5240,
    "宅": 5241,
    "ft": 5242,
    "碑": 5243,
    "腹": 5244,
    "SF": 5245,
    "幾@@": 5246,
    "悟": 5247,
    "101": 5248,
    "BE@@": 5249,
    "持た": 5250,
    "守る": 5251,
    "緒": 5252,
    "優秀": 5253,
    "合成": 5254,
    "遅@@": 5255,
    "暗@@": 5256,
    "HP": 5257,
    "牧@@": 5258,
    "書き@@": 5259,
    "ゅ@@": 5260,
    "ations": 5261,
    "排@@": 5262,
    "フィルム": 5263,
    "メディ@@": 5264,
    "NEWS": 5265,
    "葛@@": 5266,
    "だろ": 5267,
    "スペース": 5268,
    "エレ@@": 5269,
    "連れ": 5270,
    "Co@@": 5271,
    "嘉": 5272,
    "室@@": 5273,
    "白い": 5274,
    "ミュ@@": 5275,
    "募集": 5276,
    "シャー": 5277,
    "環": 5278,
    "巨人": 5279,
    "嫌@@": 5280,
    "ME": 5281,
    "どこ": 5282,
    "ヤー": 5283,
    "ポルトガル": 5284,
    "int@@": 5285,
    "強制": 5286,
    "歩兵": 5287,
    "夕@@": 5288,
    "収容": 5289,
    "沈@@": 5290,
    "edia": 5291,
    "変身": 5292,
    "ーム@@": 5293,
    "橋本": 5294,
    "原則": 5295,
    "両親": 5296,
    "べる": 5297,
    "尊@@": 5298,
    "ょう": 5299,
    "銀河": 5300,
    "人類": 5301,
    "ジン@@": 5302,
    "パワー": 5303,
    "アダ@@": 5304,
    "д@@": 5305,
    "札": 5306,
    "放映": 5307,
    "als": 5308,
    "振り@@": 5309,
    "表明": 5310,
    "まとめ": 5311,
    "ライ": 5312,
    "平日": 5313,
    "思い@@": 5314,
    "188@@": 5315,
    "泰": 5316,
    "提出": 5317,
    "証明": 5318,
    "地位": 5319,
    "スリ@@": 5320,
    "改善": 5321,
    "襲撃": 5322,
    "毎日": 5323,
    "乳": 5324,
    "祭り": 5325,
    "然": 5326,
    "原画": 5327,
    "単": 5328,
    "ern": 5329,
    "護衛": 5330,
    "松山": 5331,
    "魚@@": 5332,
    "有効": 5333,
    "官報": 5334,
    "乗り": 5335,
    "現象": 5336,
    "GO@@": 5337,
    "温": 5338,
    "食べ": 5339,
    "どちら": 5340,
    "実は": 5341,
    "トム": 5342,
    "1933": 5343,
    "卒": 5344,
    "地点": 5345,
    "宣@@": 5346,
    "俺": 5347,
    "かける": 5348,
    "結局": 5349,
    "同士": 5350,
    "min@@": 5351,
    "線@@": 5352,
    "Bar@@": 5353,
    "［": 5354,
    "育成": 5355,
    "選抜": 5356,
    "やや": 5357,
    "ワー": 5358,
    "\".": 5359,
    "祐": 5360,
    "染@@": 5361,
    "鎮": 5362,
    "看護": 5363,
    "カタ@@": 5364,
    "Pol@@": 5365,
    "大幅": 5366,
    "カス": 5367,
    "人形": 5368,
    "相互": 5369,
    "ame": 5370,
    "チャンピオン": 5371,
    "←": 5372,
    "暮らし": 5373,
    "べ@@": 5374,
    "概念": 5375,
    "リュー@@": 5376,
    "幕@@": 5377,
    "ボクシング": 5378,
    "パート": 5379,
    "LA@@": 5380,
    "ヒュー@@": 5381,
    "ロード@@": 5382,
    "鋼": 5383,
    "弥": 5384,
    "却": 5385,
    "無線": 5386,
    "前年": 5387,
    "頼": 5388,
    "ss@@": 5389,
    "アクション": 5390,
    "スコ": 5391,
    "触@@": 5392,
    "泰@@": 5393,
    "往復": 5394,
    "ふ": 5395,
    "少し": 5396,
    "TOKYO": 5397,
    "みんな": 5398,
    "次元": 5399,
    "香川": 5400,
    "スタン": 5401,
    "PA": 5402,
    "駆@@": 5403,
    "尻": 5404,
    "滑@@": 5405,
    "ピー": 5406,
    "拡張": 5407,
    "戦う": 5408,
    "否定": 5409,
    "判明": 5410,
    "仏@@": 5411,
    "Fre@@": 5412,
    "崎@@": 5413,
    "Her@@": 5414,
    "ガル@@": 5415,
    "場面": 5416,
    "ミス": 5417,
    "チャート": 5418,
    "職業": 5419,
    "路@@": 5420,
    "ソフトウェア": 5421,
    "ショップ": 5422,
    "入社": 5423,
    "ton": 5424,
    "先発": 5425,
    "ベトナム": 5426,
    "］": 5427,
    "青春": 5428,
    "基づく": 5429,
    "菊@@": 5430,
    "沼@@": 5431,
    "免@@": 5432,
    "徹": 5433,
    "濃@@": 5434,
    "続ける": 5435,
    "英雄": 5436,
    "ドア": 5437,
    "話題": 5438,
    "さくら": 5439,
    "あたる": 5440,
    "事情": 5441,
    "少なく": 5442,
    "GO": 5443,
    "庫": 5444,
    "組ん": 5445,
    "遅れ": 5446,
    "ニー・@@": 5447,
    "弱": 5448,
    "翔": 5449,
    "項目": 5450,
    "ley": 5451,
    "霊@@": 5452,
    "ヲ": 5453,
    "シアター": 5454,
    "team": 5455,
    "ぞ": 5456,
    "International": 5457,
    "輔": 5458,
    "憲": 5459,
    "露@@": 5460,
    "笑@@": 5461,
    "1928": 5462,
    "愛媛": 5463,
    "座標": 5464,
    "識": 5465,
    "失っ": 5466,
    "1932": 5467,
    "包@@": 5468,
    "1929": 5469,
    "写@@": 5470,
    "か月": 5471,
    "子ども": 5472,
    "易": 5473,
    "Windows": 5474,
    "知る": 5475,
    "兵士": 5476,
    "流れる": 5477,
    "ich@@": 5478,
    "稿": 5479,
    "提携": 5480,
    "α": 5481,
    "監@@": 5482,
    "ä@@": 5483,
    "ビュー@@": 5484,
    "うた": 5485,
    "ME@@": 5486,
    "1889": 5487,
    "中日": 5488,
    "多かっ": 5489,
    "株式": 5490,
    "規格": 5491,
    "ぼ": 5492,
    "Fin@@": 5493,
    "軍人": 5494,
    "画像": 5495,
    "尚@@": 5496,
    "静": 5497,
    "ie@@": 5498,
    "塩": 5499,
    "ディア": 5500,
    "進ん": 5501,
    "男女": 5502,
    "必殺": 5503,
    "中間": 5504,
    "憲@@": 5505,
    "エス@@": 5506,
    "見え": 5507,
    "ジア": 5508,
    "銃@@": 5509,
    "本編": 5510,
    "ナル": 5511,
    "アウト": 5512,
    "作中": 5513,
    "｢": 5514,
    "負傷": 5515,
    "1931": 5516,
    "用意": 5517,
    "AC": 5518,
    "不足": 5519,
    "とっ": 5520,
    "梨": 5521,
    "夫人": 5522,
    "五郎": 5523,
    "描写": 5524,
    "高田": 5525,
    "左右": 5526,
    "バイパス": 5527,
    "合流": 5528,
    "漁@@": 5529,
    "読売": 5530,
    "送@@": 5531,
    "区別": 5532,
    "除": 5533,
    "始まり": 5534,
    "ated": 5535,
    "やっ": 5536,
    "雪@@": 5537,
    "楽器": 5538,
    "旅@@": 5539,
    "いっ@@": 5540,
    "峠": 5541,
    "赤い": 5542,
    "He@@": 5543,
    "高度": 5544,
    "ガイド": 5545,
    "35@@": 5546,
    "警備": 5547,
    "イエ@@": 5548,
    "公立": 5549,
    "卿": 5550,
    "亭": 5551,
    "緑@@": 5552,
    "卵": 5553,
    "TS": 5554,
    "滋賀": 5555,
    "人民": 5556,
    "ヴェル@@": 5557,
    "画家": 5558,
    "二つ": 5559,
    "アカ@@": 5560,
    "央": 5561,
    "投資": 5562,
    "返し": 5563,
    "硬@@": 5564,
    "皇": 5565,
    "統治": 5566,
    "なん@@": 5567,
    "桂": 5568,
    "恋愛": 5569,
    "百科": 5570,
    "ロケット": 5571,
    "奇@@": 5572,
    "サル@@": 5573,
    "om": 5574,
    "ゼロ": 5575,
    "扉": 5576,
    "地理": 5577,
    "省@@": 5578,
    "ニン@@": 5579,
    "すなわち": 5580,
    "悲@@": 5581,
    "寝@@": 5582,
    "塁": 5583,
    "力@@": 5584,
    "折@@": 5585,
    "恋人": 5586,
    "敗北": 5587,
    "ae": 5588,
    "ツェ@@": 5589,
    "沙@@": 5590,
    "活@@": 5591,
    "ハンド@@": 5592,
    "CA": 5593,
    "それ@@": 5594,
    "ガール": 5595,
    "俊": 5596,
    "球場": 5597,
    "逆@@": 5598,
    "Gen@@": 5599,
    "ゥ@@": 5600,
    "形@@": 5601,
    "滝@@": 5602,
    "ディング": 5603,
    "神話": 5604,
    "移管": 5605,
    "氷@@": 5606,
    "小川": 5607,
    "率いる": 5608,
    "律": 5609,
    "250": 5610,
    "よい": 5611,
    "巣": 5612,
    "La@@": 5613,
    "ハート": 5614,
    "現地": 5615,
    "芸人": 5616,
    "駒": 5617,
    "伊勢": 5618,
    "入門": 5619,
    "院@@": 5620,
    "講座": 5621,
    "機会": 5622,
    "市役所": 5623,
    "HE@@": 5624,
    "able": 5625,
    "評": 5626,
    "覆@@": 5627,
    "You": 5628,
    "フォン": 5629,
    "por@@": 5630,
    "提@@": 5631,
    "ウィリアム": 5632,
    "犯": 5633,
    "深": 5634,
    "旬": 5635,
    "セント": 5636,
    "El@@": 5637,
    "アム": 5638,
    "岐": 5639,
    "ティブ": 5640,
    "報@@": 5641,
    "婚": 5642,
    "分の": 5643,
    "メイト": 5644,
    "湖@@": 5645,
    "ジャック": 5646,
    "脈": 5647,
    "航空機": 5648,
    "向き": 5649,
    "しゃ@@": 5650,
    "求める": 5651,
    "沿い": 5652,
    "整@@": 5653,
    "EC@@": 5654,
    "プール": 5655,
    "年版": 5656,
    "yl@@": 5657,
    "奉@@": 5658,
    "独": 5659,
    "ヒーロー": 5660,
    "バック@@": 5661,
    "掛け": 5662,
    "患者": 5663,
    "薄@@": 5664,
    "冊": 5665,
    "尊": 5666,
    "至@@": 5667,
    "墓": 5668,
    "すでに": 5669,
    "マッチ": 5670,
    "支部": 5671,
    "寄せ": 5672,
    "忍": 5673,
    "DJ": 5674,
    "戦時": 5675,
    "植民": 5676,
    "文献": 5677,
    "ans": 5678,
    "祐@@": 5679,
    "ぴ@@": 5680,
    "寛": 5681,
    "参議院": 5682,
    "生涯": 5683,
    "ous": 5684,
    "軍団": 5685,
    "VS": 5686,
    "交響": 5687,
    "あげ": 5688,
    "高松": 5689,
    "HO@@": 5690,
    "陣@@": 5691,
    "貞@@": 5692,
    "女王": 5693,
    "早く": 5694,
    "十分": 5695,
    "貿易": 5696,
    "ッシ@@": 5697,
    "爆": 5698,
    "投": 5699,
    "過ぎ": 5700,
    "フォーム": 5701,
    "発達": 5702,
    "ゲーム@@": 5703,
    "be": 5704,
    "ake": 5705,
    "ソウル": 5706,
    "上映": 5707,
    "ood": 5708,
    "良く": 5709,
    "失": 5710,
    "去": 5711,
    "pr@@": 5712,
    "北西": 5713,
    "各国": 5714,
    "南北": 5715,
    "EX@@": 5716,
    "LOVE": 5717,
    "}}": 5718,
    "祝@@": 5719,
    "優れ": 5720,
    "落ち": 5721,
    "摂@@": 5722,
    "私立": 5723,
    "幹": 5724,
    "又は": 5725,
    "災害": 5726,
    "推定": 5727,
    "有限": 5728,
    "キシ@@": 5729,
    "将棋": 5730,
    "アクセス": 5731,
    "トラ": 5732,
    "バスケットボール": 5733,
    "課@@": 5734,
    "顕@@": 5735,
    "耳": 5736,
    "快": 5737,
    "あの": 5738,
    "社員": 5739,
    "ID": 5740,
    "1927": 5741,
    "届@@": 5742,
    "キャスター": 5743,
    "取材": 5744,
    "Sm@@": 5745,
    "添@@": 5746,
    "液": 5747,
    "スケート": 5748,
    "走行": 5749,
    "帯@@": 5750,
    "洞": 5751,
    "甘@@": 5752,
    "党@@": 5753,
    "まい": 5754,
    "パイロット": 5755,
    "現実": 5756,
    "通っ": 5757,
    "価値": 5758,
    "レーベル": 5759,
    "絶対": 5760,
    "残る": 5761,
    "確@@": 5762,
    "ゴルフ": 5763,
    "シス": 5764,
    "あき": 5765,
    "合っ": 5766,
    "ナス": 5767,
    "モノ@@": 5768,
    "緊急": 5769,
    "置い": 5770,
    "果たす": 5771,
    "ハウ@@": 5772,
    "朝刊": 5773,
    "勇": 5774,
    "入口": 5775,
    "がる": 5776,
    "エース": 5777,
    "涙": 5778,
    "複@@": 5779,
    "mon@@": 5780,
    "ays": 5781,
    "ロック@@": 5782,
    "Journal": 5783,
    "叢書": 5784,
    "最新": 5785,
    "まず": 5786,
    "Wil@@": 5787,
    "骨@@": 5788,
    "世帯": 5789,
    "プス": 5790,
    "読み@@": 5791,
    "ペット": 5792,
    "ごろ": 5793,
    "装甲": 5794,
    "幼@@": 5795,
    "あと": 5796,
    "改名": 5797,
    "進化": 5798,
    "ボタン": 5799,
    "扱う": 5800,
    "ブス": 5801,
    "決": 5802,
    "係@@": 5803,
    "即@@": 5804,
    "器@@": 5805,
    "氷": 5806,
    "1924": 5807,
    "上海": 5808,
    "We@@": 5809,
    "スイス": 5810,
    "＜": 5811,
    "ean": 5812,
    "取ら": 5813,
    "Comp@@": 5814,
    "検索": 5815,
    "衣@@": 5816,
    "協定": 5817,
    "閣": 5818,
    "韓": 5819,
    "シート": 5820,
    "政党": 5821,
    "命@@": 5822,
    "たく": 5823,
    "副@@": 5824,
    "ランク": 5825,
    "VI@@": 5826,
    "チャン": 5827,
    "110@@": 5828,
    "ABC": 5829,
    "配給": 5830,
    "送っ": 5831,
    "ノル@@": 5832,
    "04@@": 5833,
    "1926": 5834,
    "生じ": 5835,
    "イン・@@": 5836,
    "整理": 5837,
    "さま": 5838,
    "ö@@": 5839,
    "空気": 5840,
    "午後": 5841,
    "』（": 5842,
    "我": 5843,
    "石井": 5844,
    "那": 5845,
    "インター@@": 5846,
    "アム@@": 5847,
    "コミュニティ": 5848,
    "くり": 5849,
    "合う": 5850,
    "エル・@@": 5851,
    "ホ": 5852,
    "アシ@@": 5853,
    "大野": 5854,
    "当て": 5855,
    "編@@": 5856,
    "こうした": 5857,
    "FIFA": 5858,
    "敗退": 5859,
    "山下": 5860,
    "積極": 5861,
    "大半": 5862,
    "激": 5863,
    "リティ": 5864,
    "コメント": 5865,
    "クル": 5866,
    "暗殺": 5867,
    "拒否": 5868,
    "110": 5869,
    "エンタテインメント": 5870,
    "増え": 5871,
    "共産党": 5872,
    "YouTube": 5873,
    "感染": 5874,
    "議長": 5875,
    "長く": 5876,
    "カトリック": 5877,
    "柏@@": 5878,
    "住む": 5879,
    "Ag@@": 5880,
    "ement": 5881,
    "託": 5882,
    "サウ@@": 5883,
    "三菱@@": 5884,
    "関数": 5885,
    "称し": 5886,
    "Min@@": 5887,
    "替@@": 5888,
    "デス": 5889,
    "浪@@": 5890,
    "ボン@@": 5891,
    "信頼": 5892,
    "語る": 5893,
    "問@@": 5894,
    "AG@@": 5895,
    "映@@": 5896,
    "ear@@": 5897,
    "トン@@": 5898,
    "箇所": 5899,
    "Tra@@": 5900,
    "Official": 5901,
    "発着": 5902,
    "ョ": 5903,
    "磨": 5904,
    "譲渡": 5905,
    "1925": 5906,
    "バンク": 5907,
    "36@@": 5908,
    "AD@@": 5909,
    "ard@@": 5910,
    "父@@": 5911,
    "ゆき": 5912,
    "ma": 5913,
    "オフ": 5914,
    "Per@@": 5915,
    "ジ・@@": 5916,
    "げ@@": 5917,
    "ma@@": 5918,
    "ロバート": 5919,
    "概要": 5920,
    "アレクサン@@": 5921,
    "貫@@": 5922,
    "マイケル": 5923,
    "丹": 5924,
    "争@@": 5925,
    "中川": 5926,
    "岸@@": 5927,
    "全長": 5928,
    "綾@@": 5929,
    "審": 5930,
    "仮": 5931,
    "KO": 5932,
    "orn@@": 5933,
    "log": 5934,
    "上田": 5935,
    "プラス": 5936,
    "古典": 5937,
    "承認": 5938,
    "ise": 5939,
    "eth@@": 5940,
    "服@@": 5941,
    "市川": 5942,
    "侯": 5943,
    "結ん": 5944,
    "ond@@": 5945,
    "集中": 5946,
    "アンド@@": 5947,
    "止@@": 5948,
    "恋@@": 5949,
    "ノ・@@": 5950,
    "古い": 5951,
    "Reference": 5952,
    "Sou@@": 5953,
    "仏教": 5954,
    "資": 5955,
    "圧@@": 5956,
    "益": 5957,
    "豪@@": 5958,
    "バラ@@": 5959,
    "PMID": 5960,
    "手紙": 5961,
    "抵抗": 5962,
    "北東": 5963,
    "紫": 5964,
    "晴": 5965,
    "怪獣": 5966,
    "いた@@": 5967,
    "ミング": 5968,
    "青山": 5969,
    "故@@": 5970,
    "詩@@": 5971,
    "連携": 5972,
    "ツァ@@": 5973,
    "職@@": 5974,
    "完了": 5975,
    "ょ": 5976,
    "駐車": 5977,
    "ome": 5978,
    "コンビ": 5979,
    "皮": 5980,
    "旗@@": 5981,
    "1923": 5982,
    "かも": 5983,
    "ろう": 5984,
    "手段": 5985,
    "群@@": 5986,
    "ハンガリー": 5987,
    "ナレーション": 5988,
    "ONE": 5989,
    ":@@": 5990,
    "トレー@@": 5991,
    "フィリ@@": 5992,
    "――": 5993,
    "ディスク": 5994,
    "せよ": 5995,
    "若い": 5996,
    "佳": 5997,
    "ベルリン": 5998,
    "干@@": 5999,
    "驚@@": 6000,
    "変わっ": 6001,
    "部下": 6002,
    "広報": 6003,
    "住ん": 6004,
    "予備": 6005,
    "機種": 6006,
    "諸国": 6007,
    "rig@@": 6008,
    "マニ@@": 6009,
    "庄": 6010,
    "イル@@": 6011,
    "しき": 6012,
    "やがて": 6013,
    "悩@@": 6014,
    "坂本": 6015,
    "晋": 6016,
    "イング": 6017,
    "ボー": 6018,
    "仙@@": 6019,
    "孤@@": 6020,
    "読": 6021,
    "やし": 6022,
    "オリコン": 6023,
    "国王": 6024,
    "86@@": 6025,
    "命じ": 6026,
    "..": 6027,
    "改修": 6028,
    "アイルランド": 6029,
    "投げ": 6030,
    "最多": 6031,
    "尉": 6032,
    "侵攻": 6033,
    "全米": 6034,
    "ana": 6035,
    "眠@@": 6036,
    "束": 6037,
    "答": 6038,
    "南西": 6039,
    "お笑い": 6040,
    "さえ": 6041,
    "禁": 6042,
    "組み合わせ": 6043,
    "授業": 6044,
    "払@@": 6045,
    "歯": 6046,
    "訪問": 6047,
    "処": 6048,
    "差し@@": 6049,
    "ギリシャ": 6050,
    "are": 6051,
    "勤@@": 6052,
    "正体": 6053,
    "低下": 6054,
    "締結": 6055,
    "唐": 6056,
    "La": 6057,
    "終わり": 6058,
    "バレーボール": 6059,
    "すぎ": 6060,
    "目指す": 6061,
    "ゼン@@": 6062,
    "Me@@": 6063,
    "衛門": 6064,
    "現存": 6065,
    "鉱@@": 6066,
    "Ann@@": 6067,
    "ection": 6068,
    "ニャ@@": 6069,
    "刑": 6070,
    "AKB": 6071,
    "クス@@": 6072,
    "下車": 6073,
    "料金": 6074,
    "view": 6075,
    "参考": 6076,
    "指示": 6077,
    "去@@": 6078,
    "クエスト": 6079,
    "言い@@": 6080,
    "彦@@": 6081,
    "貧@@": 6082,
    "かかわら": 6083,
    "字@@": 6084,
    "乗": 6085,
    "せん": 6086,
    "ステークス": 6087,
    "告示": 6088,
    "啓@@": 6089,
    "境界": 6090,
    "焼": 6091,
    "うえ": 6092,
    "同一": 6093,
    "残さ": 6094,
    "コピー": 6095,
    "WA": 6096,
    "休": 6097,
    "倒@@": 6098,
    "挙@@": 6099,
    "代理": 6100,
    "挿入": 6101,
    "ターズ": 6102,
    "}\\": 6103,
    "運輸": 6104,
    "be@@": 6105,
    "田村": 6106,
    "衝突": 6107,
    "礼@@": 6108,
    "ライフ": 6109,
    "近藤": 6110,
    "ベ": 6111,
    "Is@@": 6112,
    "超え": 6113,
    "肉@@": 6114,
    "ねる": 6115,
    "Br@@": 6116,
    "ビット": 6117,
    "三浦": 6118,
    "rec@@": 6119,
    "まさ@@": 6120,
    "旅客": 6121,
    "ヴァル@@": 6122,
    "Live": 6123,
    "クリア": 6124,
    "つまり": 6125,
    "生放送": 6126,
    "相談": 6127,
    "fl@@": 6128,
    "ick": 6129,
    "oth@@": 6130,
    "袋": 6131,
    "そのもの": 6132,
    "Mat@@": 6133,
    "登": 6134,
    "Gr@@": 6135,
    "信仰": 6136,
    "走@@": 6137,
    "直し": 6138,
    "摩@@": 6139,
    "特典": 6140,
    "業界": 6141,
    "景@@": 6142,
    "é": 6143,
    "晶": 6144,
    "鷹": 6145,
    "IA": 6146,
    "ジェン@@": 6147,
    "バード": 6148,
    "青木": 6149,
    "作者": 6150,
    "捨て": 6151,
    "印@@": 6152,
    "生息": 6153,
    "幅@@": 6154,
    "AF@@": 6155,
    "int": 6156,
    "広い": 6157,
    "ウィン@@": 6158,
    "地帯": 6159,
    "願@@": 6160,
    "岡崎": 6161,
    "死後": 6162,
    "淳": 6163,
    "コス@@": 6164,
    "載": 6165,
    "駐": 6166,
    "ws": 6167,
    "対決": 6168,
    "崩@@": 6169,
    "wh@@": 6170,
    "過程": 6171,
    "バーグ": 6172,
    "胸": 6173,
    "Op@@": 6174,
    "深い": 6175,
    "図書": 6176,
    "必@@": 6177,
    "近鉄": 6178,
    "コム": 6179,
    "許@@": 6180,
    "賛": 6181,
    "駅舎": 6182,
    "ブレーキ": 6183,
    "入手": 6184,
    "Mc@@": 6185,
    "リカ": 6186,
    "Em@@": 6187,
    "amp@@": 6188,
    "いち@@": 6189,
    "インディ@@": 6190,
    "糸": 6191,
    "ke": 6192,
    "買@@": 6193,
    "大人": 6194,
    "回避": 6195,
    "淡@@": 6196,
    "ユ": 6197,
    "アイ": 6198,
    "想@@": 6199,
    "打ち": 6200,
    "約束": 6201,
    "爆弾": 6202,
    "動作": 6203,
    "トルコ": 6204,
    "ord@@": 6205,
    "app@@": 6206,
    "たび": 6207,
    "幹部": 6208,
    "ere": 6209,
    "ェ": 6210,
    "ウェア": 6211,
    "実力": 6212,
    "唐@@": 6213,
    "下げ": 6214,
    "生成": 6215,
    "局長": 6216,
    "ぬ@@": 6217,
    "自宅": 6218,
    "梅": 6219,
    "後藤": 6220,
    "勝負": 6221,
    "昔": 6222,
    "属し": 6223,
    "金曜日": 6224,
    "保有": 6225,
    "ET": 6226,
    "AV": 6227,
    "NN": 6228,
    "将来": 6229,
    "ors": 6230,
    "ミュージカル": 6231,
    "呪@@": 6232,
    "Baseball": 6233,
    "班": 6234,
    "さまざま": 6235,
    "ニャ": 6236,
    "Times": 6237,
    "氏@@": 6238,
    "社名": 6239,
    "オブ・@@": 6240,
    "エジプト": 6241,
    "\",": 6242,
    "昇@@": 6243,
    "印刷": 6244,
    "最強": 6245,
    "脱出": 6246,
    "肥@@": 6247,
    "合戦": 6248,
    "快速": 6249,
    "ros@@": 6250,
    "モール": 6251,
    "結合": 6252,
    "col@@": 6253,
    "oh@@": 6254,
    "トマ@@": 6255,
    "ock": 6256,
    "アッ@@": 6257,
    "トーナメント": 6258,
    "ハン": 6259,
    "活用": 6260,
    "狂@@": 6261,
    "補助": 6262,
    "幻": 6263,
    "中国語": 6264,
    "平野": 6265,
    "屋敷": 6266,
    "ret@@": 6267,
    "パーソナリティ": 6268,
    "装@@": 6269,
    "{{{": 6270,
    "序": 6271,
    "line": 6272,
    "IV": 6273,
    "題@@": 6274,
    "東洋": 6275,
    "国勢調査": 6276,
    "強力": 6277,
    "なぜ": 6278,
    "いき": 6279,
    "祖父": 6280,
    "アス": 6281,
    "カ・@@": 6282,
    "Ser@@": 6283,
    "人事": 6284,
    "ノー": 6285,
    "ner": 6286,
    "東海@@": 6287,
    "カウン@@": 6288,
    "多様": 6289,
    "ker": 6290,
    "大島": 6291,
    "朝日放送": 6292,
    "ke@@": 6293,
    "ケット": 6294,
    "United": 6295,
    "oph@@": 6296,
    "IT": 6297,
    "駅@@": 6298,
    "当たる": 6299,
    "遠": 6300,
    "団@@": 6301,
    "メリ@@": 6302,
    "下り": 6303,
    "番地": 6304,
    "タッグ": 6305,
    "嘉@@": 6306,
    "ストロ@@": 6307,
    "投入": 6308,
    "浄@@": 6309,
    "斉": 6310,
    "落ち@@": 6311,
    "転換": 6312,
    "ぽ": 6313,
    "メロ@@": 6314,
    "もつ": 6315,
    "テナ": 6316,
    "ールド": 6317,
    "農": 6318,
    "妖怪": 6319,
    "ラント": 6320,
    "ition": 6321,
    "ケイ@@": 6322,
    "聞い": 6323,
    "75@@": 6324,
    "大佐": 6325,
    "反乱": 6326,
    "飛": 6327,
    "局@@": 6328,
    "Lin@@": 6329,
    "慎@@": 6330,
    "キュー@@": 6331,
    "東西": 6332,
    "事態": 6333,
    "700": 6334,
    "つなが@@": 6335,
    "超える": 6336,
    "玄": 6337,
    "固@@": 6338,
    "ネル": 6339,
    "AB@@": 6340,
    "斬@@": 6341,
    "堺": 6342,
    "誠@@": 6343,
    "end": 6344,
    "移住": 6345,
    "モニ@@": 6346,
    "修正": 6347,
    "南東": 6348,
    "顧問": 6349,
    "ty": 6350,
    "阿部": 6351,
    "雅": 6352,
    "London": 6353,
    "ウント": 6354,
    "リア・@@": 6355,
    "記さ": 6356,
    "ドライバー": 6357,
    "巻@@": 6358,
    "ソビエト": 6359,
    "亮": 6360,
    "復興": 6361,
    "大震災": 6362,
    "bo@@": 6363,
    "雨@@": 6364,
    "遊": 6365,
    "長期": 6366,
    "議論": 6367,
    "長谷川": 6368,
    "ールズ": 6369,
    "1922": 6370,
    "グ・@@": 6371,
    "宝塚": 6372,
    "祥": 6373,
    "タワー": 6374,
    "手法": 6375,
    "烈": 6376,
    "Wor@@": 6377,
    "コ・@@": 6378,
    "開か": 6379,
    "des": 6380,
    "借@@": 6381,
    "トライ@@": 6382,
    "チン@@": 6383,
    "曽@@": 6384,
    "CE": 6385,
    "乃@@": 6386,
    "ボード": 6387,
    "ウクライナ": 6388,
    "キャンパス": 6389,
    "ウェイ@@": 6390,
    "替": 6391,
    "ウス・@@": 6392,
    "実質": 6393,
    "黒い": 6394,
    "角川書店": 6395,
    "構想": 6396,
    "Win@@": 6397,
    "At@@": 6398,
    "はじ@@": 6399,
    "居住": 6400,
    "越え": 6401,
    "初め": 6402,
    "邸": 6403,
    "申し@@": 6404,
    "かす": 6405,
    "わら": 6406,
    "ピン": 6407,
    "順位": 6408,
    "オペラ": 6409,
    "輸入": 6410,
    "解体": 6411,
    "グロー@@": 6412,
    "桐@@": 6413,
    "拝": 6414,
    "欲@@": 6415,
    "創刊": 6416,
    "読み": 6417,
    "女子@@": 6418,
    "感情": 6419,
    "CO": 6420,
    "挑@@": 6421,
    "州@@": 6422,
    "再建": 6423,
    "у@@": 6424,
    "をもって": 6425,
    "至っ": 6426,
    "レオ@@": 6427,
    "上がっ": 6428,
    "ッセ@@": 6429,
    "メッセージ": 6430,
    "á@@": 6431,
    "煙": 6432,
    "ライター": 6433,
    "分子": 6434,
    "藤田": 6435,
    "産経新聞": 6436,
    "快@@": 6437,
    "先行": 6438,
    "EC": 6439,
    "連結": 6440,
    "該当": 6441,
    "ler": 6442,
    "覚@@": 6443,
    "q@@": 6444,
    "マリア": 6445,
    "合同": 6446,
    "ハリ@@": 6447,
    "とも@@": 6448,
    "八幡": 6449,
    "脅@@": 6450,
    "時計": 6451,
    "たっ": 6452,
    "articles": 6453,
    "範": 6454,
    "ung": 6455,
    "原子力": 6456,
    "ギリシア": 6457,
    "限ら": 6458,
    "候": 6459,
    "観客": 6460,
    "Ro@@": 6461,
    "ウル": 6462,
    "リニューアル": 6463,
    "=@@": 6464,
    "殺さ": 6465,
    "有し": 6466,
    "笠@@": 6467,
    "秘": 6468,
    "デジ@@": 6469,
    "偽@@": 6470,
    "当日": 6471,
    "浪": 6472,
    "斎藤": 6473,
    "ヒロイン": 6474,
    "恩@@": 6475,
    "亀": 6476,
    "ダル@@": 6477,
    "午前": 6478,
    "二郎": 6479,
    "奇": 6480,
    "起こす": 6481,
    "大き": 6482,
    "率い": 6483,
    "ea": 6484,
    "司@@": 6485,
    "著@@": 6486,
    "査": 6487,
    "進む": 6488,
    "下記": 6489,
    "インターチェンジ": 6490,
    "集落": 6491,
    "庄@@": 6492,
    "クレジット": 6493,
    "飼@@": 6494,
    "中華人民共和国": 6495,
    "スル@@": 6496,
    "レート": 6497,
    "末期": 6498,
    "三島": 6499,
    "小野": 6500,
    "塾": 6501,
    "蓮": 6502,
    "公表": 6503,
    "キング@@": 6504,
    "att@@": 6505,
    "まれ": 6506,
    "養子": 6507,
    "往@@": 6508,
    "筋@@": 6509,
    "FA": 6510,
    "岩波書店": 6511,
    "ro": 6512,
    "リオ@@": 6513,
    "ust": 6514,
    "悪い": 6515,
    "阪@@": 6516,
    "My": 6517,
    "操縦": 6518,
    "膜": 6519,
    "己": 6520,
    "表面": 6521,
    "早稲田大学": 6522,
    "of@@": 6523,
    "夫婦": 6524,
    "貨@@": 6525,
    "文学部": 6526,
    "DI@@": 6527,
    "幼少": 6528,
    "拓@@": 6529,
    "駒@@": 6530,
    "標高": 6531,
    "切っ": 6532,
    "興行": 6533,
    "リーズ": 6534,
    "レーター": 6535,
    "勲": 6536,
    "道具": 6537,
    "ビジョン": 6538,
    "狼": 6539,
    "外部": 6540,
    "頭部": 6541,
    "双": 6542,
    "ライダー": 6543,
    "導": 6544,
    "蒸気": 6545,
    "、@@": 6546,
    "着用": 6547,
    "old@@": 6548,
    "つく": 6549,
    "ii": 6550,
    "いつも": 6551,
    "越し": 6552,
    "描く": 6553,
    "eng@@": 6554,
    "ブレー@@": 6555,
    "ang": 6556,
    "無く": 6557,
    "拠": 6558,
    "ガラス": 6559,
    "差別": 6560,
    "解釈": 6561,
    "乗っ": 6562,
    "協同": 6563,
    "離脱": 6564,
    "シナリオ": 6565,
    "瑞@@": 6566,
    "従事": 6567,
    "合意": 6568,
    "ケイ": 6569,
    "Ber@@": 6570,
    "シング@@": 6571,
    "継い": 6572,
    "ラブ": 6573,
    "自殺": 6574,
    "サウンド": 6575,
    "43@@": 6576,
    "歴任": 6577,
    "盗": 6578,
    "停留所": 6579,
    "占@@": 6580,
    "３": 6581,
    "ピエ@@": 6582,
    "係": 6583,
    "かく": 6584,
    "翌日": 6585,
    "死ん": 6586,
    "デー": 6587,
    "ier": 6588,
    "貯@@": 6589,
    "知り": 6590,
    "ファミ@@": 6591,
    "操@@": 6592,
    "北朝鮮": 6593,
    "コレ@@": 6594,
    "The@@": 6595,
    "蒲@@": 6596,
    "ミュージシャン": 6597,
    "泣@@": 6598,
    "徒": 6599,
    "wor@@": 6600,
    "国会図書館": 6601,
    "不可能": 6602,
    "るみ": 6603,
    "引き続き": 6604,
    "地獄": 6605,
    "プレイ@@": 6606,
    "ゲート": 6607,
    "盛@@": 6608,
    "ヒー@@": 6609,
    "参謀": 6610,
    "磁@@": 6611,
    "防止": 6612,
    "校長": 6613,
    "隠し": 6614,
    "Ge@@": 6615,
    "童@@": 6616,
    "協": 6617,
    "陰": 6618,
    "メガ@@": 6619,
    "CS": 6620,
    "一種": 6621,
    "研修": 6622,
    "ヘッド": 6623,
    "м@@": 6624,
    "inc@@": 6625,
    "パウ@@": 6626,
    "交通省": 6627,
    "初版": 6628,
    "ハー": 6629,
    "par@@": 6630,
    "彰": 6631,
    "厚": 6632,
    "ひろ": 6633,
    "Ste@@": 6634,
    "しん@@": 6635,
    "正確": 6636,
    "祈@@": 6637,
    "1918": 6638,
    "告@@": 6639,
    "And@@": 6640,
    "石油": 6641,
    "付ける": 6642,
    "大宮": 6643,
    "材料": 6644,
    "側面": 6645,
    "規@@": 6646,
    "浴@@": 6647,
    "ファイナル": 6648,
    "紫@@": 6649,
    "数字": 6650,
    "仙": 6651,
    "象": 6652,
    "人工": 6653,
    "黄金": 6654,
    "要請": 6655,
    "130": 6656,
    "痛@@": 6657,
    "会話": 6658,
    "侍": 6659,
    "づけ": 6660,
    "収入": 6661,
    "押し@@": 6662,
    "グラフィ@@": 6663,
    "ery": 6664,
    "河内": 6665,
    "かかる": 6666,
    "僧": 6667,
    "yst@@": 6668,
    "摩": 6669,
    "サン・@@": 6670,
    "プレミアム": 6671,
    "来る": 6672,
    "Wal@@": 6673,
    "財政": 6674,
    "続き": 6675,
    "戻る": 6676,
    "はず": 6677,
    "ビン@@": 6678,
    "弓": 6679,
    "ニッ@@": 6680,
    "｣": 6681,
    "確立": 6682,
    "鈴@@": 6683,
    "ベスト@@": 6684,
    "ek@@": 6685,
    "循環": 6686,
    "OW@@": 6687,
    "支払@@": 6688,
    "公認": 6689,
    "宣": 6690,
    "学ぶ": 6691,
    "見つ@@": 6692,
    "リーン": 6693,
    "一切": 6694,
    "バス停": 6695,
    "曹@@": 6696,
    "my": 6697,
    "設@@": 6698,
    "函館": 6699,
    "フィア": 6700,
    "社団": 6701,
    "協@@": 6702,
    "п@@": 6703,
    "起こっ": 6704,
    "北九州": 6705,
    "ローカル": 6706,
    "ヤク@@": 6707,
    "散": 6708,
    "個体": 6709,
    "...": 6710,
    "貫": 6711,
    "ホワイト": 6712,
    "品@@": 6713,
    "教員": 6714,
    "紅@@": 6715,
    "業者": 6716,
    "すら": 6717,
    "オフィシャルブログ": 6718,
    "ちなみに": 6719,
    "LL@@": 6720,
    "致": 6721,
    "変換": 6722,
    "120@@": 6723,
    "放": 6724,
    "リード": 6725,
    "1921": 6726,
    "チャ": 6727,
    "ガル": 6728,
    "攻@@": 6729,
    "預@@": 6730,
    "ワシントン": 6731,
    "洞@@": 6732,
    "スピード": 6733,
    "短": 6734,
    "ラク@@": 6735,
    "合唱": 6736,
    "あたり": 6737,
    "グランド": 6738,
    "ong@@": 6739,
    "いえ": 6740,
    "随@@": 6741,
    "ick@@": 6742,
    "之助": 6743,
    "交代": 6744,
    "ピ": 6745,
    "守備": 6746,
    "クラシック": 6747,
    "ラル@@": 6748,
    "声@@": 6749,
    "ミッション": 6750,
    "夢@@": 6751,
    "銅": 6752,
    "封": 6753,
    "DA": 6754,
    "使い@@": 6755,
    "ign@@": 6756,
    "申請": 6757,
    "ium": 6758,
    "相撲": 6759,
    "葬@@": 6760,
    "当該": 6761,
    "修了": 6762,
    "雲@@": 6763,
    "織田": 6764,
    "ッド・@@": 6765,
    "新規": 6766,
    "」（": 6767,
    "ya": 6768,
    "違う": 6769,
    "堤": 6770,
    "売却": 6771,
    "概@@": 6772,
    "争い": 6773,
    "およそ": 6774,
    "果": 6775,
    "野村": 6776,
    "聖書": 6777,
    "確定": 6778,
    "リッ@@": 6779,
    "Sk@@": 6780,
    "ダル": 6781,
    "戦死": 6782,
    "資源": 6783,
    "東北@@": 6784,
    "htm": 6785,
    "いけ": 6786,
    "０": 6787,
    "勧@@": 6788,
    "引き": 6789,
    "vol@@": 6790,
    "uk": 6791,
    "輪@@": 6792,
    "参": 6793,
    "野田": 6794,
    "ost@@": 6795,
    "ユース": 6796,
    "ナンバー": 6797,
    "マジ@@": 6798,
    "SA": 6799,
    "厚生": 6800,
    "性質": 6801,
    "国有": 6802,
    "SD": 6803,
    "OT@@": 6804,
    "ませ": 6805,
    "WE@@": 6806,
    "発揮": 6807,
    "辻": 6808,
    "コス": 6809,
    "te": 6810,
    "興味": 6811,
    "ヤン@@": 6812,
    "擁@@": 6813,
    "1919": 6814,
    "予想": 6815,
    "フォル@@": 6816,
    "慣@@": 6817,
    "挟@@": 6818,
    "欧": 6819,
    "新潮社": 6820,
    "東洋@@": 6821,
    "受け入れ": 6822,
    "移": 6823,
    "フォン・@@": 6824,
    "88@@": 6825,
    "西側": 6826,
    "ames": 6827,
    "マイ": 6828,
    "恐れ": 6829,
    "キャリア": 6830,
    "cont@@": 6831,
    "傘下": 6832,
    "措置": 6833,
    "ひとり": 6834,
    "トリック": 6835,
    "ys": 6836,
    "Im@@": 6837,
    "福田": 6838,
    "隣": 6839,
    "邦": 6840,
    "持": 6841,
    "ラグビー": 6842,
    "みる": 6843,
    "基づい": 6844,
    "パック": 6845,
    "ta": 6846,
    "mer": 6847,
    "アレンジ": 6848,
    "どう@@": 6849,
    "チャイ@@": 6850,
    "ウィル@@": 6851,
    "敏": 6852,
    "ホールディングス": 6853,
    "ッジ": 6854,
    "%、": 6855,
    "普段": 6856,
    "フィル@@": 6857,
    "ass": 6858,
    "ラム": 6859,
    "敷地": 6860,
    "02@@": 6861,
    "半分": 6862,
    "熊": 6863,
    "増刊": 6864,
    "最近": 6865,
    "斎": 6866,
    "ギー": 6867,
    "ゲル": 6868,
    "ストリート": 6869,
    "gen@@": 6870,
    "ボックス": 6871,
    "堂@@": 6872,
    "分かれ": 6873,
    "早": 6874,
    "ason": 6875,
    "んな": 6876,
    "貨": 6877,
    "実況": 6878,
    "ray": 6879,
    "リート": 6880,
    "決戦": 6881,
    "明治@@": 6882,
    "毛@@": 6883,
    "サル": 6884,
    "高山": 6885,
    "版@@": 6886,
    "廷": 6887,
    "不詳": 6888,
    "垂@@": 6889,
    "ジョー": 6890,
    "壊@@": 6891,
    "史料": 6892,
    "1914": 6893,
    "ヌス": 6894,
    "繰り返し": 6895,
    "古く": 6896,
    "予算": 6897,
    "小倉": 6898,
    "スポンサー": 6899,
    "寄り": 6900,
    "還": 6901,
    "入れ@@": 6902,
    "180": 6903,
    "准": 6904,
    "鎖": 6905,
    "咲@@": 6906,
    "ォ@@": 6907,
    "フライ@@": 6908,
    "本体": 6909,
    "NTT": 6910,
    "笠": 6911,
    "更@@": 6912,
    "As@@": 6913,
    "庁舎": 6914,
    "判": 6915,
    "晃": 6916,
    "答え": 6917,
    "ling": 6918,
    "昇進": 6919,
    "NET": 6920,
    "剣@@": 6921,
    "経緯": 6922,
    "電動": 6923,
    "手術": 6924,
    "WA@@": 6925,
    "its": 6926,
    "アルバ@@": 6927,
    "ama": 6928,
    "冬@@": 6929,
    "ポスト": 6930,
    "日曜日": 6931,
    "NA": 6932,
    "コア": 6933,
    "作り@@": 6934,
    "ブラ": 6935,
    "ユーザー": 6936,
    "訴訟": 6937,
    "イスラエル": 6938,
    "試み": 6939,
    "ire@@": 6940,
    "戦線": 6941,
    "獄": 6942,
    "奴隷": 6943,
    "次第に": 6944,
    "リオン": 6945,
    "達し": 6946,
    "文明": 6947,
    "dis@@": 6948,
    "渡し": 6949,
    "ニッポン": 6950,
    "都道府県": 6951,
    "AA@@": 6952,
    "大隊": 6953,
    "高原": 6954,
    "寮": 6955,
    "たま": 6956,
    "終盤": 6957,
    "銭": 6958,
    "国境": 6959,
    "銅@@": 6960,
    "りん": 6961,
    "にあたる": 6962,
    "販": 6963,
    "区画": 6964,
    "プル@@": 6965,
    "承": 6966,
    "スマ@@": 6967,
    "石田": 6968,
    "ヘン@@": 6969,
    "油@@": 6970,
    "琴": 6971,
    "先輩": 6972,
    "allcinema": 6973,
    "育て": 6974,
    "エド@@": 6975,
    "とる": 6976,
    "木曜": 6977,
    "沿岸": 6978,
    "USS": 6979,
    "編著": 6980,
    "ジム": 6981,
    "攻": 6982,
    "俗": 6983,
    "ぞ@@": 6984,
    "肩": 6985,
    "書院": 6986,
    "une": 6987,
    "ロゴ": 6988,
    "具体": 6989,
    "ファミリー": 6990,
    "カテゴリ": 6991,
    "隔@@": 6992,
    "タクシー": 6993,
    "携@@": 6994,
    "終え": 6995,
    "士官": 6996,
    "説@@": 6997,
    "不動産": 6998,
    "ution": 6999,
    "阪": 7000,
    "TE@@": 7001,
    "大将": 7002,
    "松田": 7003,
    "マラソン": 7004,
    "区分": 7005,
    "栽培": 7006,
    "モンゴル": 7007,
    "さら@@": 7008,
    "担@@": 7009,
    "準決勝": 7010,
    "ジャケット": 7011,
    "エット": 7012,
    "レストラン": 7013,
    "ショー@@": 7014,
    "続@@": 7015,
    "PAR@@": 7016,
    "辰@@": 7017,
    "ボディ": 7018,
    "ライバル": 7019,
    "糖": 7020,
    "極めて": 7021,
    "Reg@@": 7022,
    "敗@@": 7023,
    "異常": 7024,
    "恒@@": 7025,
    "ソン・@@": 7026,
    "単行本": 7027,
    "ダメージ": 7028,
    "GT": 7029,
    "装着": 7030,
    "own": 7031,
    "違反": 7032,
    "構築": 7033,
    "劣@@": 7034,
    "ドラフト": 7035,
    "AND": 7036,
    "ばし": 7037,
    "時刻": 7038,
    "祥@@": 7039,
    "体育館": 7040,
    "海洋": 7041,
    "キャンペーン": 7042,
    "おか@@": 7043,
    "議@@": 7044,
    "四郎": 7045,
    "原子": 7046,
    "併設": 7047,
    "そう@@": 7048,
    "レンズ": 7049,
    "につ@@": 7050,
    "罰": 7051,
    "挙": 7052,
    "--": 7053,
    "原田": 7054,
    "76@@": 7055,
    "落語": 7056,
    "全線": 7057,
    "ドライブ": 7058,
    "恐@@": 7059,
    "フィギュア": 7060,
    "秩@@": 7061,
    "ネル@@": 7062,
    "ワークス": 7063,
    "HT": 7064,
    "ッション": 7065,
    "玄@@": 7066,
    "落とし": 7067,
    "因": 7068,
    "浜松": 7069,
    "方言": 7070,
    "ストー@@": 7071,
    "モスクワ": 7072,
    "go": 7073,
    "加工": 7074,
    "日本経済新聞": 7075,
    "レール": 7076,
    "助手": 7077,
    "保健": 7078,
    "Sec@@": 7079,
    "ign": 7080,
    "ach": 7081,
    "のに": 7082,
    "ミラ@@": 7083,
    "プレ": 7084,
    "ual": 7085,
    "ets": 7086,
    "やま": 7087,
    "もり": 7088,
    "漢字": 7089,
    "脱退": 7090,
    "境@@": 7091,
    "ターミナル": 7092,
    "著書": 7093,
    "Gir@@": 7094,
    "ミュー@@": 7095,
    "架@@": 7096,
    "ドリー@@": 7097,
    "徐々に": 7098,
    "リエ": 7099,
    "ATION": 7100,
    "熊@@": 7101,
    "ノート": 7102,
    "授与": 7103,
    "宣伝": 7104,
    "小学": 7105,
    "芝": 7106,
    "ゼン": 7107,
    "前期": 7108,
    "tim@@": 7109,
    "電波": 7110,
    "一家": 7111,
    "3000": 7112,
    "0000@@": 7113,
    "SI@@": 7114,
    "ヤング": 7115,
    "押し": 7116,
    "念@@": 7117,
    "下部": 7118,
    "曰く": 7119,
    "ens": 7120,
    "赴@@": 7121,
    "保障": 7122,
    "供@@": 7123,
    "太子": 7124,
    "ek": 7125,
    "電撃": 7126,
    "ざる": 7127,
    "小さい": 7128,
    "1900": 7129,
    "へ@@": 7130,
    "直通": 7131,
    "ングル": 7132,
    "稼@@": 7133,
    "リウス": 7134,
    "回数": 7135,
    "あり@@": 7136,
    "北条": 7137,
    "島根": 7138,
    "菓子": 7139,
    "ソフト@@": 7140,
    "no": 7141,
    "こと@@": 7142,
    "現れる": 7143,
    "育": 7144,
    "士@@": 7145,
    "bl@@": 7146,
    "迫": 7147,
    "AS": 7148,
    "少将": 7149,
    "改訂": 7150,
    "将@@": 7151,
    "飾": 7152,
    "1917": 7153,
    "土曜日": 7154,
    "訳@@": 7155,
    "了": 7156,
    "ハム": 7157,
    "開局": 7158,
    "抽@@": 7159,
    "索": 7160,
    "守護": 7161,
    "複雑": 7162,
    "繁@@": 7163,
    "禄": 7164,
    "棄": 7165,
    "そんな": 7166,
    "併@@": 7167,
    "City": 7168,
    "＋": 7169,
    "ひろ@@": 7170,
    "たん": 7171,
    "ターン": 7172,
    "一致": 7173,
    "会見": 7174,
    "アメリカ@@": 7175,
    "寧": 7176,
    "次男": 7177,
    "衛生": 7178,
    "まえ": 7179,
    "もっとも": 7180,
    "絵画": 7181,
    "ロット": 7182,
    "充": 7183,
    "yp@@": 7184,
    "監視": 7185,
    "馬場": 7186,
    "！”.": 7187,
    "140": 7188,
    "権力": 7189,
    "がん": 7190,
    "ダイ": 7191,
    "爆撃": 7192,
    "Life": 7193,
    "唄": 7194,
    "~": 7195,
    "ock@@": 7196,
    "BBC": 7197,
    "炭@@": 7198,
    "平安": 7199,
    "償": 7200,
    "済@@": 7201,
    "込め": 7202,
    "とど@@": 7203,
    "スリー": 7204,
    "類似": 7205,
    "水戸": 7206,
    "祖@@": 7207,
    "ジェット": 7208,
    "ワル@@": 7209,
    "にわたって": 7210,
    "態度": 7211,
    "おこ@@": 7212,
    "槻": 7213,
    "危@@": 7214,
    "old": 7215,
    "ペン": 7216,
    "ゴル@@": 7217,
    "攻略": 7218,
    "mat@@": 7219,
    "ドラ": 7220,
    "詩人": 7221,
    "任意": 7222,
    "走る": 7223,
    "FO@@": 7224,
    "5000": 7225,
    "ちょう": 7226,
    "呼び": 7227,
    "上陸": 7228,
    "まつり": 7229,
    "換え": 7230,
    "号機": 7231,
    "amb@@": 7232,
    "渡っ": 7233,
    "信長": 7234,
    "エディ@@": 7235,
    "外科": 7236,
    "ゲン@@": 7237,
    "然@@": 7238,
    "養成": 7239,
    "衣装": 7240,
    "改札": 7241,
    "優先": 7242,
    "接触": 7243,
    "笑": 7244,
    "測定": 7245,
    "魔女": 7246,
    "ストライ@@": 7247,
    "喫@@": 7248,
    "日経": 7249,
    "一度": 7250,
    "改": 7251,
    "霧": 7252,
    "ee": 7253,
    "主力": 7254,
    "軒": 7255,
    "混乱": 7256,
    "悠": 7257,
    "履@@": 7258,
    "カッ@@": 7259,
    "閣@@": 7260,
    "審議": 7261,
    "Facebook": 7262,
    "尋常": 7263,
    "TA": 7264,
    "ジェームズ": 7265,
    "85@@": 7266,
    "フィリピン": 7267,
    "平凡社": 7268,
    "塚@@": 7269,
    "UEFA": 7270,
    "バラエティ": 7271,
    "暮@@": 7272,
    "わし": 7273,
    "言い": 7274,
    "投稿": 7275,
    "きょう": 7276,
    "サブ": 7277,
    "フィー@@": 7278,
    "家臣": 7279,
    "献@@": 7280,
    "上下": 7281,
    "委託": 7282,
    "留学": 7283,
    "澄": 7284,
    "資@@": 7285,
    "横須賀": 7286,
    "再現": 7287,
    "出会い": 7288,
    "広域": 7289,
    "帰っ": 7290,
    "全域": 7291,
    "ino": 7292,
    "倶楽部": 7293,
    "ダイナ@@": 7294,
    "ola": 7295,
    "を通して": 7296,
    "保持": 7297,
    "陳": 7298,
    "跡地": 7299,
    "応用": 7300,
    "ヒト": 7301,
    "狩@@": 7302,
    "松井": 7303,
    "滅@@": 7304,
    "ソロ@@": 7305,
    "クリスマス": 7306,
    "節@@": 7307,
    "彼@@": 7308,
    "トス": 7309,
    "ロサンゼルス": 7310,
    "ミステリー": 7311,
    "盾": 7312,
    "BOX": 7313,
    "遠藤": 7314,
    "パートナー": 7315,
    "Char@@": 7316,
    "条@@": 7317,
    "いわ@@": 7318,
    "アミ@@": 7319,
    "．": 7320,
    "bur@@": 7321,
    "初頭": 7322,
    "クシ@@": 7323,
    "David": 7324,
    "久保": 7325,
    "39@@": 7326,
    "ケーブル": 7327,
    "怒@@": 7328,
    "帰還": 7329,
    "上り": 7330,
    "顔@@": 7331,
    "授@@": 7332,
    "1912": 7333,
    "空中": 7334,
    "大手": 7335,
    "Ap@@": 7336,
    "名付け": 7337,
    "ペー@@": 7338,
    "明確": 7339,
    "ich": 7340,
    "騎手": 7341,
    "除い": 7342,
    "ヒル": 7343,
    "推薦": 7344,
    "ons": 7345,
    "チャールズ": 7346,
    "サム@@": 7347,
    "解除": 7348,
    "度@@": 7349,
    "秦": 7350,
    "Cent@@": 7351,
    "フー@@": 7352,
    "菅@@": 7353,
    "護@@": 7354,
    "標": 7355,
    "市街地": 7356,
    "press": 7357,
    "所蔵": 7358,
    "stat@@": 7359,
    "ベースボール": 7360,
    "Ver@@": 7361,
    "福山": 7362,
    "振り": 7363,
    "ウッド": 7364,
    "ゾーン": 7365,
    "ゼル@@": 7366,
    "ッシュ@@": 7367,
    "DA@@": 7368,
    "ヘイ@@": 7369,
    "乙女": 7370,
    "両方": 7371,
    "カメ@@": 7372,
    "親王": 7373,
    "FE@@": 7374,
    "俳@@": 7375,
    "セブン": 7376,
    "ul": 7377,
    "出発": 7378,
    "頂@@": 7379,
    "流通": 7380,
    "Mi@@": 7381,
    "欲": 7382,
    "図鑑": 7383,
    "府@@": 7384,
    "東方": 7385,
    "日常": 7386,
    "1911": 7387,
    "格闘": 7388,
    "短編": 7389,
    "the@@": 7390,
    "NS": 7391,
    "ead@@": 7392,
    "債@@": 7393,
    "丈": 7394,
    "モチーフ": 7395,
    "勤": 7396,
    "置@@": 7397,
    "pol@@": 7398,
    "г@@": 7399,
    "叩@@": 7400,
    "珠": 7401,
    "おお@@": 7402,
    "ポケット": 7403,
    "ざ": 7404,
    "オー": 7405,
    "宇都宮": 7406,
    "決意": 7407,
    "梨@@": 7408,
    "科@@": 7409,
    "われ": 7410,
    "繁": 7411,
    "Ind@@": 7412,
    "含@@": 7413,
    "牧": 7414,
    "漢@@": 7415,
    "川口": 7416,
    "収集": 7417,
    "課長": 7418,
    "涼": 7419,
    "姿勢": 7420,
    "ゴールド": 7421,
    "YO@@": 7422,
    "学ん": 7423,
    "Can@@": 7424,
    "24@@": 7425,
    "検": 7426,
    "渡り": 7427,
    "生み@@": 7428,
    "da": 7429,
    "離婚": 7430,
    "松平": 7431,
    "ボーイ": 7432,
    "真実": 7433,
    "ジョー@@": 7434,
    "酸化": 7435,
    "Hz": 7436,
    "オブ@@": 7437,
    "皆@@": 7438,
    "称号": 7439,
    "利益": 7440,
    "炭": 7441,
    "退職": 7442,
    "ミッド@@": 7443,
    "享": 7444,
    "得@@": 7445,
    "Pre@@": 7446,
    "見せる": 7447,
    "抜け": 7448,
    "戻し": 7449,
    "アシスタント": 7450,
    "悪化": 7451,
    "スチ@@": 7452,
    "フットボール": 7453,
    "踊@@": 7454,
    "西村": 7455,
    "キス": 7456,
    "差@@": 7457,
    "犯@@": 7458,
    "なす": 7459,
    "上がり": 7460,
    "重視": 7461,
    "両者": 7462,
    "著名": 7463,
    "様式": 7464,
    "Ger@@": 7465,
    "google": 7466,
    "スル": 7467,
    "MP": 7468,
    "病気": 7469,
    "明日": 7470,
    "市営": 7471,
    "一人@@": 7472,
    "簡易": 7473,
    "握@@": 7474,
    "Pe@@": 7475,
    "あらゆる": 7476,
    "郵@@": 7477,
    "MI": 7478,
    "有力": 7479,
    "リ・@@": 7480,
    "中将": 7481,
    "アリ": 7482,
    "ゥ": 7483,
    "コマ": 7484,
    "著者": 7485,
    "搭乗": 7486,
    "以内": 7487,
    "VER@@": 7488,
    "ead": 7489,
    "正義": 7490,
    "伊勢@@": 7491,
    "安打": 7492,
    "アンド・@@": 7493,
    "アサ@@": 7494,
    "伯爵": 7495,
    "ヌ・@@": 7496,
    "豊田": 7497,
    "先端": 7498,
    "来日": 7499,
    "幻@@": 7500,
    "ism": 7501,
    "ごく": 7502,
    "Machine": 7503,
    "染": 7504,
    "取り上げ": 7505,
    "ビッグ": 7506,
    "同期": 7507,
    "ara": 7508,
    "遺伝子": 7509,
    "lin@@": 7510,
    "古川": 7511,
    "深く": 7512,
    "マラ@@": 7513,
    "war@@": 7514,
    "必ず": 7515,
    "傾@@": 7516,
    "創造": 7517,
    "自社": 7518,
    "Hol@@": 7519,
    "当主": 7520,
    "各駅": 7521,
    "フェン@@": 7522,
    "right": 7523,
    "芦@@": 7524,
    "ガード": 7525,
    "パソコン": 7526,
    "ブルース": 7527,
    "追放": 7528,
    "辺@@": 7529,
    "改め": 7530,
    "まさ": 7531,
    "小惑星": 7532,
    "幣": 7533,
    "サム": 7534,
    "警視庁": 7535,
    "労@@": 7536,
    "1910": 7537,
    "ロウ": 7538,
    "願い": 7539,
    "MBS": 7540,
    "めぐ@@": 7541,
    "言@@": 7542,
    "ウルトラ": 7543,
    ")』": 7544,
    "Ang@@": 7545,
    "起源": 7546,
    "短い": 7547,
    "チェコ": 7548,
    "足利": 7549,
    "ak": 7550,
    "フランク": 7551,
    "模@@": 7552,
    "天然": 7553,
    "デンマーク": 7554,
    "成田": 7555,
    "勲章": 7556,
    "巡洋艦": 7557,
    "熟": 7558,
    "ドン@@": 7559,
    "彩@@": 7560,
    "たか": 7561,
    "斉藤": 7562,
    "分岐": 7563,
    "蓮@@": 7564,
    "流行": 7565,
    "遠征": 7566,
    "キット": 7567,
    "失わ": 7568,
    "武蔵": 7569,
    "Jo@@": 7570,
    "活性": 7571,
    "痛": 7572,
    "ジュール": 7573,
    "スパイ@@": 7574,
    "さいたま": 7575,
    "藤井": 7576,
    "やす": 7577,
    "day": 7578,
    "横山": 7579,
    "マックス": 7580,
    "KS": 7581,
    "itt@@": 7582,
    "九州@@": 7583,
    "同級生": 7584,
    "許さ": 7585,
    "ウルトラマン": 7586,
    "鈴": 7587,
    "由": 7588,
    "SE": 7589,
    "イヤー": 7590,
    "証言": 7591,
    "ライン@@": 7592,
    "佐野": 7593,
    "宋": 7594,
    "アリス": 7595,
    "グレー@@": 7596,
    "ワイン": 7597,
    "ポン": 7598,
    "紗": 7599,
    "rd": 7600,
    "ベルギー": 7601,
    "music": 7602,
    "倒し": 7603,
    "ound": 7604,
    "ナビ@@": 7605,
    "CG": 7606,
    "激しい": 7607,
    "105": 7608,
    "大塚": 7609,
    "異なっ": 7610,
    "送信": 7611,
    "学院大学": 7612,
    "主体": 7613,
    "1915": 7614,
    "モア": 7615,
    "開い": 7616,
    "IAL": 7617,
    "160": 7618,
    "容易": 7619,
    "KE@@": 7620,
    "tra@@": 7621,
    "輸出": 7622,
    "入力": 7623,
    "獲": 7624,
    "ガールズ": 7625,
    "アキ@@": 7626,
    "bi@@": 7627,
    "Pri@@": 7628,
    "ウィリア@@": 7629,
    "レンス": 7630,
    "大輔": 7631,
    "TER": 7632,
    "オーディション": 7633,
    "и": 7634,
    "Archived": 7635,
    "ure@@": 7636,
    "記号": 7637,
    "薫": 7638,
    "オフィス": 7639,
    "rat@@": 7640,
    "DC": 7641,
    "嫁": 7642,
    "音響": 7643,
    "別冊": 7644,
    "泊": 7645,
    "音源": 7646,
    "文芸": 7647,
    "即位": 7648,
    "arts": 7649,
    "じん": 7650,
    "らん": 7651,
    "妙": 7652,
    "ヨハ@@": 7653,
    "125": 7654,
    "甲子園": 7655,
    "デル": 7656,
    "沖@@": 7657,
    "本拠地": 7658,
    "小山": 7659,
    "LU@@": 7660,
    "高級": 7661,
    "存": 7662,
    "寒@@": 7663,
    "称さ": 7664,
    "ree": 7665,
    "航@@": 7666,
    "歌っ": 7667,
    "ぜ@@": 7668,
    "紙@@": 7669,
    "79@@": 7670,
    "パッケージ": 7671,
    "軌@@": 7672,
    "中国@@": 7673,
    "西武": 7674,
    "話@@": 7675,
    "Met@@": 7676,
    "豆": 7677,
    "部品": 7678,
    "なか@@": 7679,
    "発掘": 7680,
    "オペ@@": 7681,
    "ドリーム": 7682,
    "今井": 7683,
    "通学": 7684,
    "イェ@@": 7685,
    "言え": 7686,
    "103": 7687,
    "キロ": 7688,
    "デイ": 7689,
    "オーバー": 7690,
    "粉": 7691,
    "忘れ": 7692,
    "All": 7693,
    "受験": 7694,
    "1913": 7695,
    "笹@@": 7696,
    "スコット": 7697,
    "Air@@": 7698,
    "States": 7699,
    "照明": 7700,
    "賢": 7701,
    "ケル@@": 7702,
    "コート": 7703,
    "テロ": 7704,
    "武将": 7705,
    "傷@@": 7706,
    "ber": 7707,
    "レンジャー": 7708,
    "ティス": 7709,
    "フリ@@": 7710,
    "ロイ@@": 7711,
    "Mor@@": 7712,
    "再度": 7713,
    "意思": 7714,
    "町名": 7715,
    "水道": 7716,
    "途@@": 7717,
    "グラス": 7718,
    "広島@@": 7719,
    "気象": 7720,
    "武蔵@@": 7721,
    "嫌い": 7722,
    "●": 7723,
    "死刑": 7724,
    "ファンタジー": 7725,
    "上部": 7726,
    "打撃": 7727,
    "テレ": 7728,
    "騒@@": 7729,
    "しばらく": 7730,
    "タス": 7731,
    "発動": 7732,
    "ベン": 7733,
    "分校": 7734,
    "多摩": 7735,
    "Phil@@": 7736,
    "フェリー": 7737,
    "KI": 7738,
    "診断": 7739,
    "〇": 7740,
    "消え": 7741,
    "屋根": 7742,
    "War": 7743,
    "尽@@": 7744,
    "ウイルス": 7745,
    "らえ": 7746,
    "日報": 7747,
    "Wat@@": 7748,
    "神宮": 7749,
    "水曜": 7750,
    "遭@@": 7751,
    "モス": 7752,
    "子孫": 7753,
    "並": 7754,
    "親友": 7755,
    "単純": 7756,
    "小松": 7757,
    "住居": 7758,
    "fin@@": 7759,
    "岡本": 7760,
    "昼": 7761,
    "ography": 7762,
    "TO": 7763,
    "リチャード": 7764,
    "婚@@": 7765,
    "宏@@": 7766,
    "打率": 7767,
    "突破": 7768,
    "メモ@@": 7769,
    "徴@@": 7770,
    "歌う": 7771,
    "ザン": 7772,
    "County": 7773,
    "停車場": 7774,
    "フェスティバル": 7775,
    "伊達": 7776,
    "問わ": 7777,
    "役員": 7778,
    "MUSIC": 7779,
    "89@@": 7780,
    "クロス@@": 7781,
    "考慮": 7782,
    "日々": 7783,
    "ビール": 7784,
    "ا@@": 7785,
    "山脈": 7786,
    "Su@@": 7787,
    "LINE": 7788,
    "突き@@": 7789,
    "デザイナー": 7790,
    "織@@": 7791,
    "らしく": 7792,
    "かかっ": 7793,
    "逆転": 7794,
    "解消": 7795,
    "ヘビー": 7796,
    "謀": 7797,
    "損@@": 7798,
    "過": 7799,
    "й": 7800,
    "rip@@": 7801,
    "射撃": 7802,
    "レコーディング": 7803,
    "ドラム": 7804,
    "女神": 7805,
    "請@@": 7806,
    "歯@@": 7807,
    "マン・@@": 7808,
    "発明": 7809,
    "On": 7810,
    "出走": 7811,
    "博多": 7812,
    "課題": 7813,
    "ピン@@": 7814,
    "インチ": 7815,
    "高木": 7816,
    "端末": 7817,
    "阿": 7818,
    "ハンター": 7819,
    "送ら": 7820,
    "メイク": 7821,
    "負担": 7822,
    "ゆり": 7823,
    "port@@": 7824,
    "バーン": 7825,
    "高校生": 7826,
    "怒り": 7827,
    "パブリ@@": 7828,
    "瞳": 7829,
    "修理": 7830,
    "ニング@@": 7831,
    "ac": 7832,
    "Christ@@": 7833,
    "中隊": 7834,
    "締@@": 7835,
    "行方": 7836,
    "邪@@": 7837,
    "ジャズ": 7838,
    "world": 7839,
    "Vol@@": 7840,
    "一員": 7841,
    "講演": 7842,
    "郭": 7843,
    "啓": 7844,
    "振": 7845,
    "外見": 7846,
    "マップ": 7847,
    "KA": 7848,
    "フジ": 7849,
    "解析": 7850,
    "照": 7851,
    "ls": 7852,
    "造船": 7853,
    "決まっ": 7854,
    "ニア@@": 7855,
    "掲@@": 7856,
    "War@@": 7857,
    "スミス": 7858,
    "出来事": 7859,
    "阪急": 7860,
    "務省": 7861,
    "重ね": 7862,
    "プラザ": 7863,
    "もん": 7864,
    "線路": 7865,
    "逸@@": 7866,
    "Stu@@": 7867,
    "!!（": 7868,
    "インターナショナル": 7869,
    "築": 7870,
    "効率": 7871,
    "エフ@@": 7872,
    "期限": 7873,
    "毎": 7874,
    "じめ": 7875,
    "北側": 7876,
    "象徴": 7877,
    "掃@@": 7878,
    "女の子": 7879,
    "タンク": 7880,
    "費用": 7881,
    "牙": 7882,
    "複合": 7883,
    "火曜": 7884,
    "況": 7885,
    "ラッ@@": 7886,
    "返す": 7887,
    "OK": 7888,
    "内田": 7889,
    "ヴォル@@": 7890,
    "おお": 7891,
    "フロン@@": 7892,
    "岩波": 7893,
    "癖": 7894,
    "梁": 7895,
    "feat": 7896,
    "ACK": 7897,
    "離": 7898,
    "釈": 7899,
    "土木": 7900,
    "殻": 7901,
    "CC": 7902,
    "カナ@@": 7903,
    "暴力": 7904,
    "釈@@": 7905,
    "希@@": 7906,
    "ニックス": 7907,
    "質問": 7908,
    "とおり": 7909,
    "ルー": 7910,
    "誇@@": 7911,
    "今後": 7912,
    "Cal@@": 7913,
    "Rel@@": 7914,
    "日誌": 7915,
    "倫": 7916,
    "公社": 7917,
    "火山": 7918,
    "もともと": 7919,
    "トロ": 7920,
    "資産": 7921,
    "やり": 7922,
    "港@@": 7923,
    "故障": 7924,
    "艦長": 7925,
    "オート@@": 7926,
    "温度": 7927,
    "抗": 7928,
    "ママ": 7929,
    "マネ@@": 7930,
    "求": 7931,
    "umb@@": 7932,
    "恐怖": 7933,
    "同上": 7934,
    "勅": 7935,
    "ream": 7936,
    "継ぎ": 7937,
    "くれる": 7938,
    "五輪": 7939,
    "依存": 7940,
    "file": 7941,
    "練": 7942,
    "ALL": 7943,
    "ラウンド": 7944,
    "づくり": 7945,
    "屈@@": 7946,
    "飯": 7947,
    "桃": 7948,
    "科大学": 7949,
    "した": 7950,
    "謙@@": 7951,
    "揃@@": 7952,
    "柔@@": 7953,
    "102": 7954,
    "開店": 7955,
    "吉川": 7956,
    "ライセンス": 7957,
    "青い": 7958,
    "出馬": 7959,
    "師@@": 7960,
    "スポーツ@@": 7961,
    "ゴールデン": 7962,
    "辞任": 7963,
    "学年": 7964,
    "連覇": 7965,
    "PV": 7966,
    "臨床": 7967,
    "総理": 7968,
    "まり@@": 7969,
    "益@@": 7970,
    "デモ": 7971,
    "139": 7972,
    "風景": 7973,
    "アラビア": 7974,
    "特性": 7975,
    "零": 7976,
    "送り": 7977,
    "桜井": 7978,
    "大谷": 7979,
    "火災": 7980,
    "天正": 7981,
    "介@@": 7982,
    "ヨ": 7983,
    "伝承": 7984,
    "変形": 7985,
    "Cont@@": 7986,
    "発音": 7987,
    "あら@@": 7988,
    "贈@@": 7989,
    "促進": 7990,
    "1916": 7991,
    "ヤー@@": 7992,
    "柴田": 7993,
    "援助": 7994,
    "я": 7995,
    "橘": 7996,
    "西洋": 7997,
    "eral": 7998,
    "クルー@@": 7999,
    "支社": 8000,
    "関与": 8001,
    "工作": 8002,
    "渋@@": 8003,
    "イラン": 8004,
    "旋@@": 8005,
    "付き@@": 8006,
    "けい": 8007,
    "グル": 8008,
    "シー・@@": 8009,
    "植": 8010,
    "Af@@": 8011,
    "考": 8012,
    "再会": 8013,
    "トー": 8014,
    "込": 8015,
    "Coun@@": 8016,
    "侵入": 8017,
    "ISO": 8018,
    "紋": 8019,
    "Ol@@": 8020,
    "余": 8021,
    "児@@": 8022,
    "話し": 8023,
    "ony": 8024,
    "在学": 8025,
    "ちょ@@": 8026,
    "あろ": 8027,
    "働い": 8028,
    "トリ": 8029,
    "天才": 8030,
    "ヴォー@@": 8031,
    "塗@@": 8032,
    "ピア": 8033,
    "推理": 8034,
    "後方": 8035,
    "Trans@@": 8036,
    "パターン": 8037,
    "AV@@": 8038,
    "AST": 8039,
    "皮@@": 8040,
    "事例": 8041,
    "記し": 8042,
    "レ・@@": 8043,
    "1906": 8044,
    "戦っ": 8045,
    "1907": 8046,
    "南海": 8047,
    "試作": 8048,
    "勘@@": 8049,
    "続編": 8050,
    "ond": 8051,
    "フィンランド": 8052,
    "パナ@@": 8053,
    "継が": 8054,
    "ital": 8055,
    "頂": 8056,
    "耕@@": 8057,
    "もなく": 8058,
    "シャン@@": 8059,
    "Eng@@": 8060,
    "船舶": 8061,
    "cc": 8062,
    "東側": 8063,
    "不良": 8064,
    "ひと@@": 8065,
    "あい@@": 8066,
    "淵": 8067,
    "テレビジョン": 8068,
    "ウォル@@": 8069,
    "助教授": 8070,
    "大名": 8071,
    "リミ@@": 8072,
    "故郷": 8073,
    "閉店": 8074,
    "毎日放送": 8075,
    "読む": 8076,
    "演技": 8077,
    "抱い": 8078,
    "認可": 8079,
    "義務": 8080,
    "感謝": 8081,
    "誘導": 8082,
    "クトル": 8083,
    "マンガ": 8084,
    "割り@@": 8085,
    "爵": 8086,
    "不定期": 8087,
    "盛ん": 8088,
    "経路": 8089,
    "代替": 8090,
    "単に": 8091,
    "三木": 8092,
    "フロント": 8093,
    "中学生": 8094,
    "ッケ@@": 8095,
    "関西テレビ": 8096,
    "雷@@": 8097,
    "スコットランド": 8098,
    "同名": 8099,
    "ジャンル": 8100,
    "he@@": 8101,
    "BGM": 8102,
    "LS": 8103,
    "サーチ": 8104,
    "明る@@": 8105,
    "架空": 8106,
    "言及": 8107,
    "ram@@": 8108,
    "針": 8109,
    "突然": 8110,
    "オオ@@": 8111,
    "象@@": 8112,
    "スン": 8113,
    "ept@@": 8114,
    "果@@": 8115,
    "縮": 8116,
    "美しい": 8117,
    "派@@": 8118,
    "フライ": 8119,
    "ボーナス": 8120,
    "遇": 8121,
    "半ば": 8122,
    "教徒": 8123,
    "ばん": 8124,
    "NO@@": 8125,
    "スワ@@": 8126,
    "落と@@": 8127,
    "AGE": 8128,
    "Society": 8129,
    "大津": 8130,
    "ォ": 8131,
    "卓": 8132,
    "別名": 8133,
    "ンピ@@": 8134,
    "台車": 8135,
    "Nat@@": 8136,
    "在住": 8137,
    "ウェル@@": 8138,
    "月曜日": 8139,
    "食べる": 8140,
    "Arch@@": 8141,
    "ケル": 8142,
    "Inc": 8143,
    "ウィーン": 8144,
    "再編": 8145,
    "Alb@@": 8146,
    "浸@@": 8147,
    "国際@@": 8148,
    "berg": 8149,
    "犬@@": 8150,
    "ヴ・@@": 8151,
    "財産": 8152,
    "Lib@@": 8153,
    "隊員": 8154,
    "me@@": 8155,
    "退団": 8156,
    "スター・@@": 8157,
    "アブ@@": 8158,
    "ソース": 8159,
    "アイス@@": 8160,
    "貌": 8161,
    "でん": 8162,
    "炉": 8163,
    "ツ・@@": 8164,
    "慰@@": 8165,
    "海賊": 8166,
    "dio": 8167,
    "ファッション": 8168,
    "別れ": 8169,
    "法学": 8170,
    "訪@@": 8171,
    "111": 8172,
    "わかる": 8173,
    "戦前": 8174,
    "斜@@": 8175,
    "犯人": 8176,
    "観察": 8177,
    "135": 8178,
    "JO@@": 8179,
    "ヴィー@@": 8180,
    "戻り": 8181,
    "さん@@": 8182,
    "エム@@": 8183,
    "毒@@": 8184,
    "保守": 8185,
    "くに": 8186,
    "Int@@": 8187,
    "mu": 8188,
    "ラスト": 8189,
    "}{": 8190,
    "全面": 8191,
    "アプリ": 8192,
    "開館": 8193,
    "プロモーション": 8194,
    "ドール": 8195,
    "滞在": 8196,
    "1908": 8197,
    "CE@@": 8198,
    "実績": 8199,
    "左衛門": 8200,
    "最低": 8201,
    "かね": 8202,
    "バッハ": 8203,
    "受信": 8204,
    "gov": 8205,
    "ュ": 8206,
    "アメリカン": 8207,
    "訓": 8208,
    "舟": 8209,
    "萩@@": 8210,
    "WEB": 8211,
    "簡単": 8212,
    "BEST": 8213,
    "80@@": 8214,
    "慕@@": 8215,
    "完": 8216,
    "広げ": 8217,
    "カラ": 8218,
    "ショッピング": 8219,
    "Bas@@": 8220,
    "レッド@@": 8221,
    "総督": 8222,
    "スピー@@": 8223,
    "自民党": 8224,
    "104": 8225,
    "ward": 8226,
    "抗@@": 8227,
    "幼い": 8228,
    "不思議": 8229,
    "老人": 8230,
    "日野": 8231,
    "告白": 8232,
    "撤去": 8233,
    "っくり": 8234,
    "oug@@": 8235,
    "想い": 8236,
    "直線": 8237,
    "伝える": 8238,
    "童": 8239,
    "ura": 8240,
    "ゴー": 8241,
    "本店": 8242,
    "具@@": 8243,
    "アマ@@": 8244,
    "潤": 8245,
    "経過": 8246,
    "Google": 8247,
    "友達": 8248,
    "成分": 8249,
    "コーラス": 8250,
    "キョ@@": 8251,
    "台風": 8252,
    "亡@@": 8253,
    "CN": 8254,
    "歌謡": 8255,
    "黒田": 8256,
    "師範": 8257,
    "ect": 8258,
    "rop@@": 8259,
    "意図": 8260,
    "合わ": 8261,
    "起こる": 8262,
    "探し": 8263,
    "カフェ": 8264,
    "信じ": 8265,
    "page": 8266,
    "朱": 8267,
    ".\"": 8268,
    "合体": 8269,
    "リスナー": 8270,
    "ah": 8271,
    "詳@@": 8272,
    ".)": 8273,
    "VO@@": 8274,
    "犠牲": 8275,
    "交点": 8276,
    "崇": 8277,
    "桁": 8278,
    "ッシング": 8279,
    "Mus@@": 8280,
    "請求": 8281,
    "磐@@": 8282,
    "wn": 8283,
    "ヴィン@@": 8284,
    "眠": 8285,
    "監": 8286,
    "止": 8287,
    "ミュージック@@": 8288,
    "ツー@@": 8289,
    "とか": 8290,
    "刻@@": 8291,
    "競争": 8292,
    "引っ@@": 8293,
    "網@@": 8294,
    "を@@": 8295,
    "ブックス": 8296,
    "神田": 8297,
    "維新": 8298,
    "ピーター": 8299,
    "ベイ": 8300,
    "車線": 8301,
    "白石": 8302,
    "背": 8303,
    "磯@@": 8304,
    "次ぐ": 8305,
    "側@@": 8306,
    "破り": 8307,
    "ウー@@": 8308,
    "Tw@@": 8309,
    "ct@@": 8310,
    "冒頭": 8311,
    "壇": 8312,
    "LD": 8313,
    "座席": 8314,
    "マガ@@": 8315,
    "伸": 8316,
    "学び": 8317,
    "島田": 8318,
    "塗装": 8319,
    "竹内": 8320,
    "虹": 8321,
    "dian": 8322,
    "Cat@@": 8323,
    "マリオ": 8324,
    "math@@": 8325,
    "議席": 8326,
    "條": 8327,
    "肉体": 8328,
    "やり@@": 8329,
    "原題": 8330,
    "イタ@@": 8331,
    "スポ@@": 8332,
    "規": 8333,
    "マツ@@": 8334,
    "CH": 8335,
    "依": 8336,
    "ノルウェー": 8337,
    "エーション": 8338,
    "od": 8339,
    "領土": 8340,
    "けん@@": 8341,
    "ルイ@@": 8342,
    "ari@@": 8343,
    "コンセプト": 8344,
    "出資": 8345,
    "証拠": 8346,
    "グロ@@": 8347,
    "次々": 8348,
    "運命": 8349,
    "グリー@@": 8350,
    "恭@@": 8351,
    "Ref": 8352,
    "Bra@@": 8353,
    "処刑": 8354,
    "銀座": 8355,
    "プ・@@": 8356,
    "配備": 8357,
    "隊長": 8358,
    "盛岡": 8359,
    "ka": 8360,
    "ティン": 8361,
    "美少女": 8362,
    "ビュ@@": 8363,
    "容疑": 8364,
    "シンガポール": 8365,
    "One": 8366,
    "戻@@": 8367,
    "糸@@": 8368,
    "用途": 8369,
    "もう@@": 8370,
    "Pow@@": 8371,
    "才": 8372,
    "空母": 8373,
    "賞金": 8374,
    "過ごし": 8375,
    "製作所": 8376,
    "死者": 8377,
    "会計": 8378,
    "レーン": 8379,
    "per": 8380,
    "がっこう": 8381,
    "あわせ": 8382,
    "inter@@": 8383,
    "スロ@@": 8384,
    "銘": 8385,
    "宮本": 8386,
    "扱わ": 8387,
    "秀吉": 8388,
    "ルイ": 8389,
    "元気": 8390,
    "オフィシャルサイト": 8391,
    "クリエイ@@": 8392,
    "巳": 8393,
    "チャン@@": 8394,
    "ск@@": 8395,
    "航海": 8396,
    "叙@@": 8397,
    "emat@@": 8398,
    "夕": 8399,
    "モル@@": 8400,
    "天気": 8401,
    "Gra@@": 8402,
    "量@@": 8403,
    "art": 8404,
    "盛り@@": 8405,
    "月末": 8406,
    "-）": 8407,
    "中期": 8408,
    "チェン@@": 8409,
    "ume": 8410,
    "関心": 8411,
    "木造": 8412,
    "Time": 8413,
    "キック": 8414,
    "競輪": 8415,
    "序@@": 8416,
    "譲": 8417,
    "菊池": 8418,
    "ストリー@@": 8419,
    "抜き": 8420,
    "Mil@@": 8421,
    "分裂": 8422,
    "っぽ@@": 8423,
    "インドネシア": 8424,
    "Sports": 8425,
    "フィー": 8426,
    "━━@@": 8427,
    "継": 8428,
    "ung@@": 8429,
    "北陸": 8430,
    "小島": 8431,
    "属性": 8432,
    "アント@@": 8433,
    "認": 8434,
    "郷土": 8435,
    "夜間": 8436,
    "損害": 8437,
    "ip": 8438,
    "地形": 8439,
    "雇用": 8440,
    "ルイス": 8441,
    "固": 8442,
    "到達": 8443,
    "伐": 8444,
    "させ": 8445,
    "正月": 8446,
    "上演": 8447,
    "言える": 8448,
    "事前": 8449,
    "朝鮮@@": 8450,
    "復": 8451,
    "鍵": 8452,
    "未満": 8453,
    "れん": 8454,
    "DD@@": 8455,
    "í@@": 8456,
    "航路": 8457,
    "それでも": 8458,
    "ノス": 8459,
    "遂@@": 8460,
    "ニン": 8461,
    "ith": 8462,
    "括": 8463,
    "魏": 8464,
    "また@@": 8465,
    "小田@@": 8466,
    "触れ": 8467,
    "ヤン": 8468,
    "除き": 8469,
    "教皇": 8470,
    "自主": 8471,
    "三菱": 8472,
    "ァ@@": 8473,
    "歌唱": 8474,
    "消し": 8475,
    "ゆく": 8476,
    "uct@@": 8477,
    "上がる": 8478,
    "変わる": 8479,
    "駆動": 8480,
    "徹@@": 8481,
    "ris": 8482,
    "気持ち": 8483,
    "ms": 8484,
    "ランプ": 8485,
    "暴走": 8486,
    "開拓": 8487,
    "敦@@": 8488,
    "働く": 8489,
    "ff": 8490,
    "GA": 8491,
    "判@@": 8492,
    "まら": 8493,
    "名鑑": 8494,
    "ベリー": 8495,
    "コンクール": 8496,
    "批評": 8497,
    "ORICON": 8498,
    "司法": 8499,
    "封印": 8500,
    "バス@@": 8501,
    "共編": 8502,
    "冠@@": 8503,
    "音楽@@": 8504,
    "在位": 8505,
    "CL@@": 8506,
    "接近": 8507,
    "YS": 8508,
    "運航": 8509,
    "実践": 8510,
    "アルゼンチン": 8511,
    "学区": 8512,
    "To": 8513,
    "失点": 8514,
    "ita": 8515,
    "鳳": 8516,
    "吾@@": 8517,
    "要塞": 8518,
    "通行": 8519,
    "ニーズ": 8520,
    "シュタイン": 8521,
    "細": 8522,
    "抗議": 8523,
    "ゾン": 8524,
    "ぼく": 8525,
    "聖堂": 8526,
    "AI": 8527,
    "終わる": 8528,
    "伴": 8529,
    "引用": 8530,
    "ジャーナル": 8531,
    "沿っ": 8532,
    "なき": 8533,
    "回っ": 8534,
    "慶應義塾": 8535,
    "iss": 8536,
    "とり@@": 8537,
    "法学部": 8538,
    "期生": 8539,
    "昼@@": 8540,
    "コンテンツ": 8541,
    "COR@@": 8542,
    "五十@@": 8543,
    "測@@": 8544,
    "pg": 8545,
    "Bu@@": 8546,
    "ピュ@@": 8547,
    "Wayback": 8548,
    "ボイ@@": 8549,
    "php": 8550,
    "カロ@@": 8551,
    "なれ": 8552,
    "グラム": 8553,
    "噂": 8554,
    "ビーム": 8555,
    "oo": 8556,
    "運賃": 8557,
    "圭@@": 8558,
    "エレク@@": 8559,
    "類@@": 8560,
    "詰@@": 8561,
    "ws@@": 8562,
    "出席": 8563,
    "奉行": 8564,
    "パーツ": 8565,
    "‘": 8566,
    "嶺": 8567,
    "数多く": 8568,
    "拡@@": 8569,
    "カレッジ": 8570,
    "永遠": 8571,
    "重複": 8572,
    "シップ": 8573,
    "ux": 8574,
    "分解": 8575,
    "ジェネ@@": 8576,
    "シング": 8577,
    "Cr@@": 8578,
    "通る": 8579,
    "選定": 8580,
    "特許": 8581,
    "スカイ": 8582,
    "近畿": 8583,
    "買い@@": 8584,
    "回収": 8585,
    "Des@@": 8586,
    "GE": 8587,
    "いし": 8588,
    "ster": 8589,
    "思う": 8590,
    "ヒ・@@": 8591,
    "楽園": 8592,
    "歯科": 8593,
    "りつ": 8594,
    "MM@@": 8595,
    "療法": 8596,
    "ures": 8597,
    "南側": 8598,
    "ブン@@": 8599,
    "途": 8600,
    "ブラック@@": 8601,
    "体系": 8602,
    "eta": 8603,
    "くし": 8604,
    "ave": 8605,
    "ブラウン": 8606,
    "して": 8607,
    "後者": 8608,
    "被": 8609,
    "生きる": 8610,
    "妙@@": 8611,
    "艦艇": 8612,
    "征": 8613,
    "クター@@": 8614,
    "辛@@": 8615,
    "エキ@@": 8616,
    "YA": 8617,
    "猪@@": 8618,
    "マーケット": 8619,
    "デラ@@": 8620,
    "erg@@": 8621,
    "径": 8622,
    "段@@": 8623,
    "よう@@": 8624,
    "疑問": 8625,
    "若手": 8626,
    "おい": 8627,
    "Me": 8628,
    "ヘンリー": 8629,
    "Sing@@": 8630,
    "ノン@@": 8631,
    "選ん": 8632,
    "民俗": 8633,
    "実用": 8634,
    "コスト": 8635,
    "バイク": 8636,
    "115": 8637,
    "ロング": 8638,
    "ode": 8639,
    "1909": 8640,
    "サイ": 8641,
    "コンテスト": 8642,
    "チャレンジ": 8643,
    "シュタ@@": 8644,
    "レスリング": 8645,
    "とら": 8646,
    "Sup@@": 8647,
    "ヨン": 8648,
    "警": 8649,
    "ングス": 8650,
    "墓@@": 8651,
    "朝日新聞社": 8652,
    "独特": 8653,
    "鉱山": 8654,
    "包囲": 8655,
    "Ros@@": 8656,
    "位@@": 8657,
    "コト": 8658,
    "騒動": 8659,
    "109": 8660,
    "占め": 8661,
    "天文": 8662,
    "オーケストラ": 8663,
    "PlayStation": 8664,
    "勝ち@@": 8665,
    "愛し": 8666,
    "掘@@": 8667,
    "殖": 8668,
    "飯田": 8669,
    "精": 8670,
    "綾": 8671,
    "イツ": 8672,
    "生じる": 8673,
    "アマチュア": 8674,
    "森田": 8675,
    "rib@@": 8676,
    "誓@@": 8677,
    "いえる": 8678,
    "噴@@": 8679,
    "受": 8680,
    "砦": 8681,
    "Office": 8682,
    "吹": 8683,
    "AP": 8684,
    "ネズ@@": 8685,
    "至": 8686,
    "コラ@@": 8687,
    "yd@@": 8688,
    "修行": 8689,
    "new": 8690,
    "家康": 8691,
    "Europ@@": 8692,
    "例外": 8693,
    "短縮": 8694,
    "高崎": 8695,
    "ision": 8696,
    "山岳": 8697,
    "申": 8698,
    "ポリス": 8699,
    "ールド@@": 8700,
    "キャンプ": 8701,
    "弦": 8702,
    "you": 8703,
    "55@@": 8704,
    "ウイ@@": 8705,
    "ソー": 8706,
    "Jr": 8707,
    "気候": 8708,
    "グラフ": 8709,
    "人数": 8710,
    "保安": 8711,
    "研@@": 8712,
    "ソニー": 8713,
    "TER@@": 8714,
    "登山": 8715,
    "MP@@": 8716,
    "君@@": 8717,
    "功@@": 8718,
    "粒子": 8719,
    "ミア": 8720,
    "日活": 8721,
    "唱@@": 8722,
    "戦場": 8723,
    "学長": 8724,
    "所持": 8725,
    "相続": 8726,
    "暫定": 8727,
    "モーニング": 8728,
    "ドラえもん": 8729,
    "och@@": 8730,
    "デス@@": 8731,
    "プレゼント": 8732,
    "トイレ": 8733,
    "學": 8734,
    "列伝": 8735,
    "クール": 8736,
    "共有": 8737,
    "酒井": 8738,
    "石原": 8739,
    "50@@": 8740,
    "ハード": 8741,
    "民営": 8742,
    "ional": 8743,
    "拓": 8744,
    "Association": 8745,
    "チ・@@": 8746,
    "112": 8747,
    "ミル": 8748,
    "リバ@@": 8749,
    "IP": 8750,
    "エフ": 8751,
    "動力": 8752,
    "レポート": 8753,
    "レジ@@": 8754,
    "兄@@": 8755,
    "水野": 8756,
    "ニコニコ": 8757,
    "ビッグ@@": 8758,
    "113": 8759,
    "亡くなっ": 8760,
    "まつ": 8761,
    "蘇": 8762,
    "-』": 8763,
    "Jul@@": 8764,
    "CT@@": 8765,
    "艦@@": 8766,
    "武士": 8767,
    "端@@": 8768,
    "大久保": 8769,
    "若干": 8770,
    "カプ@@": 8771,
    "1905": 8772,
    "ash": 8773,
    "シャン": 8774,
    "きん": 8775,
    "バカ": 8776,
    "ついに": 8777,
    "シカゴ": 8778,
    "若者": 8779,
    "KO@@": 8780,
    "トラブル": 8781,
    "食事": 8782,
    "С@@": 8783,
    "ハワイ": 8784,
    "安藤": 8785,
    "旭": 8786,
    "終戦": 8787,
    "一環": 8788,
    "寄": 8789,
    "長年": 8790,
    "いか@@": 8791,
    "旅団": 8792,
    "国連": 8793,
    "東芝": 8794,
    "LL": 8795,
    "北米": 8796,
    "シャル": 8797,
    "焼き": 8798,
    "リスク": 8799,
    "既存": 8800,
    "シナ@@": 8801,
    "成人": 8802,
    "ст@@": 8803,
    "ストリ@@": 8804,
    "佐伯": 8805,
    "金子": 8806,
    "Pi@@": 8807,
    "戦力": 8808,
    "森林": 8809,
    "James": 8810,
    "岬": 8811,
    "トーマス": 8812,
    "びる": 8813,
    "Robert": 8814,
    "味方": 8815,
    "しかしながら": 8816,
    "ウィン": 8817,
    "如": 8818,
    "パフォーマンス": 8819,
    "魔王": 8820,
    "定着": 8821,
    "印象": 8822,
    "表紙": 8823,
    "ランド@@": 8824,
    "融合": 8825,
    "敷": 8826,
    "症状": 8827,
    "庵": 8828,
    "ivers@@": 8829,
    "reat@@": 8830,
    "汚@@": 8831,
    "移民": 8832,
    "みどり": 8833,
    "Av@@": 8834,
    "小泉": 8835,
    "もっと": 8836,
    "毛利": 8837,
    "西武@@": 8838,
    "王朝": 8839,
    "下位": 8840,
    "筒": 8841,
    "猛": 8842,
    "休日": 8843,
    "田川": 8844,
    "安田": 8845,
    "損": 8846,
    "号@@": 8847,
    "無人": 8848,
    "周り": 8849,
    "EX": 8850,
    "アリー": 8851,
    "AA": 8852,
    "働き": 8853,
    "今回": 8854,
    "有料": 8855,
    "メス": 8856,
    "Mov@@": 8857,
    "オス@@": 8858,
    "取扱": 8859,
    "秘書": 8860,
    "長岡": 8861,
    "海戦": 8862,
    "姫路": 8863,
    "ステー@@": 8864,
    "ラグ@@": 8865,
    "カンパニー": 8866,
    "－@@": 8867,
    "供用": 8868,
    "確率": 8869,
    "蛇": 8870,
    "才能": 8871,
    "訴え": 8872,
    "テロ@@": 8873,
    "軟@@": 8874,
    "浦和": 8875,
    "衝撃": 8876,
    "違っ": 8877,
    "番台": 8878,
    "ブライ@@": 8879,
    "pres@@": 8880,
    "保育": 8881,
    "文藝春秋": 8882,
    "演じる": 8883,
    "調べ": 8884,
    "ライト@@": 8885,
    "吉野": 8886,
    "UP": 8887,
    "レム": 8888,
    "官僚": 8889,
    "ication": 8890,
    "腹@@": 8891,
    "故": 8892,
    "コンテ": 8893,
    "素材": 8894,
    "ograph@@": 8895,
    "ph": 8896,
    "セラ@@": 8897,
    "Pres@@": 8898,
    "戦史": 8899,
    "十字@@": 8900,
    "涼@@": 8901,
    "魔術": 8902,
    "一体": 8903,
    "環@@": 8904,
    "gu@@": 8905,
    "基盤": 8906,
    "ank": 8907,
    "功績": 8908,
    "効": 8909,
    "マキ@@": 8910,
    "閥": 8911,
    "ヌー@@": 8912,
    "背番号": 8913,
    "22@@": 8914,
    "スプ@@": 8915,
    "役場": 8916,
    "勉強": 8917,
    "欄": 8918,
    "king": 8919,
    "COM": 8920,
    "苦手": 8921,
    "停@@": 8922,
    "奪わ": 8923,
    "練@@": 8924,
    "プレー@@": 8925,
    "移植": 8926,
    "スマート": 8927,
    "抑え": 8928,
    "しむ": 8929,
    "サッ@@": 8930,
    "小学生": 8931,
    "関西@@": 8932,
    "Dec@@": 8933,
    "ニス": 8934,
    "キャラ@@": 8935,
    "送り@@": 8936,
    "It": 8937,
    "哲": 8938,
    "ов@@": 8939,
    "敷@@": 8940,
    "負っ": 8941,
    "休み": 8942,
    "Mac@@": 8943,
    "あゆみ": 8944,
    "ミュージ@@": 8945,
    "Of": 8946,
    "楽天": 8947,
    "ov": 8948,
    "スイ@@": 8949,
    "存続": 8950,
    "б@@": 8951,
    "77@@": 8952,
    "帖": 8953,
    "基づき": 8954,
    "疾患": 8955,
    "おき": 8956,
    "避難": 8957,
    "代わっ": 8958,
    "に際して": 8959,
    "猿": 8960,
    "そば": 8961,
    "Ev@@": 8962,
    "「@@": 8963,
    "去っ": 8964,
    "パワー@@": 8965,
    "修士": 8966,
    "アーズ": 8967,
    "支え": 8968,
    "逃亡": 8969,
    "懲@@": 8970,
    "潮@@": 8971,
    "車庫": 8972,
    "前線": 8973,
    "取り入れ": 8974,
    "継ぐ": 8975,
    "NI@@": 8976,
    "双方": 8977,
    "たとえば": 8978,
    "成果": 8979,
    "ハイム": 8980,
    "昇": 8981,
    "IB@@": 8982,
    "かみ": 8983,
    "Joh@@": 8984,
    "匹": 8985,
    "大地": 8986,
    "もた@@": 8987,
    "MO": 8988,
    "葵": 8989,
    "鑑@@": 8990,
    "Best": 8991,
    "鼻": 8992,
    "水素": 8993,
    "降格": 8994,
    "BE": 8995,
    "セミ@@": 8996,
    "検証": 8997,
    "建立": 8998,
    "実装": 8999,
    "001": 9000,
    "知り@@": 9001,
    "“@@": 9002,
    "ナビ": 9003,
    "入り@@": 9004,
    "高齢": 9005,
    "ヤマト": 9006,
    "ギア": 9007,
    "肢": 9008,
    "フレーム": 9009,
    "新潮": 9010,
    "名人": 9011,
    "復讐": 9012,
    "dia": 9013,
    "町田": 9014,
    "メディア@@": 9015,
    "空襲": 9016,
    "恵子": 9017,
    "釜@@": 9018,
    "特技": 9019,
    "メッ@@": 9020,
    "動員": 9021,
    "みな@@": 9022,
    "条例": 9023,
    "上級": 9024,
    "固有": 9025,
    "暁": 9026,
    "超@@": 9027,
    "圭": 9028,
    "なう": 9029,
    "ファル@@": 9030,
    "108": 9031,
    "送る": 9032,
    "タール": 9033,
    "匠": 9034,
    "伴っ": 9035,
    "Sim@@": 9036,
    "蘇@@": 9037,
    "近郊": 9038,
    "進み": 9039,
    "駆け@@": 9040,
    "ソニック": 9041,
    "救助": 9042,
    "ada": 9043,
    "正面": 9044,
    "図る": 9045,
    "KINENOTE": 9046,
    "刃": 9047,
    "江戸@@": 9048,
    "催@@": 9049,
    "行事": 9050,
    "援@@": 9051,
    "Co": 9052,
    "トウ@@": 9053,
    "立大学": 9054,
    "ラリー": 9055,
    "air@@": 9056,
    "チェンジ": 9057,
    "All@@": 9058,
    "星野": 9059,
    "）”.": 9060,
    "語り": 9061,
    "デート": 9062,
    "fil@@": 9063,
    "庭園": 9064,
    "鉱": 9065,
    "湿@@": 9066,
    "Project": 9067,
    "マサ@@": 9068,
    "詰め": 9069,
    "察@@": 9070,
    "ドー": 9071,
    "蹴@@": 9072,
    "読者": 9073,
    "STYLE": 9074,
    "修道院": 9075,
    "瀬戸@@": 9076,
    "ロケ": 9077,
    "フィン": 9078,
    "北方": 9079,
    "庶@@": 9080,
    "又": 9081,
    "諏訪": 9082,
    "賃@@": 9083,
    "郊外": 9084,
    "撮@@": 9085,
    "ages": 9086,
    "ヴァー": 9087,
    "..@@": 9088,
    "なみ": 9089,
    "キル@@": 9090,
    "文部": 9091,
    "推測": 9092,
    "淳@@": 9093,
    "パーティー": 9094,
    "出張所": 9095,
    "サイクル": 9096,
    "ネク@@": 9097,
    "ファースト": 9098,
    "国外": 9099,
    "ゾン@@": 9100,
    "トップ@@": 9101,
    "おも@@": 9102,
    "握": 9103,
    "簡@@": 9104,
    "環状": 9105,
    "コー": 9106,
    "te@@": 9107,
    "Mod@@": 9108,
    "ゅ": 9109,
    "ield": 9110,
    "大山": 9111,
    "鹿島": 9112,
    "企@@": 9113,
    "品川": 9114,
    "審判": 9115,
    "Ta@@": 9116,
    "Ke@@": 9117,
    "pla@@": 9118,
    "Sal@@": 9119,
    "Jos@@": 9120,
    "美人": 9121,
    "響": 9122,
    "明け": 9123,
    "装飾": 9124,
    "publ@@": 9125,
    "電機": 9126,
    "乗降": 9127,
    "さき": 9128,
    "巡": 9129,
    "NO": 9130,
    "従": 9131,
    "めて": 9132,
    "厳しい": 9133,
    "琉球": 9134,
    "ポーター": 9135,
    "就職": 9136,
    "エンド": 9137,
    "芳": 9138,
    "テキ@@": 9139,
    "但し": 9140,
    "ソン@@": 9141,
    "逃げ": 9142,
    "パ・@@": 9143,
    "あく@@": 9144,
    "Science": 9145,
    "ともに": 9146,
    "荷@@": 9147,
    "工業@@": 9148,
    "派生": 9149,
    "Mag@@": 9150,
    "鍛@@": 9151,
    "パール": 9152,
    "ウィー@@": 9153,
    "評議": 9154,
    "魚雷": 9155,
    "レーダー": 9156,
    "気に@@": 9157,
    "難しい": 9158,
    "裂": 9159,
    "乗客": 9160,
    "アナログ": 9161,
    "総称": 9162,
    ".）": 9163,
    "ラーメン": 9164,
    "SS@@": 9165,
    "百貨店": 9166,
    "架": 9167,
    "*@@": 9168,
    "NBA": 9169,
    "キリ@@": 9170,
    "GU@@": 9171,
    "インディアン": 9172,
    "下ろし": 9173,
    "上杉": 9174,
    "ニオン": 9175,
    "勢@@": 9176,
    "史跡": 9177,
    "水上": 9178,
    "奇跡": 9179,
    "Sol@@": 9180,
    "無かっ": 9181,
    "少佐": 9182,
    "甲斐": 9183,
    "yle": 9184,
    "経済@@": 9185,
    "Au@@": 9186,
    "ダブル": 9187,
    "やすく": 9188,
    "行なわ": 9189,
    "想定": 9190,
    "司教": 9191,
    "Mic@@": 9192,
    "ヴァイ@@": 9193,
    "エール": 9194,
    "Ra@@": 9195,
    "テープ": 9196,
    "瞬間": 9197,
    "賭@@": 9198,
    "Ant@@": 9199,
    "マネージャー": 9200,
    "力士": 9201,
    "後任": 9202,
    "実家": 9203,
    "菩@@": 9204,
    "構内": 9205,
    "突": 9206,
    "偽": 9207,
    "ha": 9208,
    "活": 9209,
    "跳@@": 9210,
    "男爵": 9211,
    "出会っ": 9212,
    "リーナ": 9213,
    "タイヤ": 9214,
    "ルーム": 9215,
    "浴": 9216,
    "107": 9217,
    "山中": 9218,
    "MB": 9219,
    "どん": 9220,
    "su@@": 9221,
    "ワーク": 9222,
    "ams": 9223,
    "うる": 9224,
    "操": 9225,
    "Gro@@": 9226,
    "キーボード": 9227,
    "慈@@": 9228,
    "溝": 9229,
    "Gl@@": 9230,
    "Coll@@": 9231,
    "腰": 9232,
    "製薬": 9233,
    "ric": 9234,
    "くらい": 9235,
    "クリ": 9236,
    "ars": 9237,
    "スーツ": 9238,
    "商人": 9239,
    "降": 9240,
    "oto": 9241,
    "Net@@": 9242,
    "メイド": 9243,
    "題材": 9244,
    "旭@@": 9245,
    "高野": 9246,
    "降伏": 9247,
    "サ・@@": 9248,
    "テーション": 9249,
    "為@@": 9250,
    "新型": 9251,
    "96@@": 9252,
    "ゲル@@": 9253,
    "EP": 9254,
    "籠": 9255,
    "SUPER": 9256,
    "ハム@@": 9257,
    "岐@@": 9258,
    "調教": 9259,
    "ドキュメンタリー": 9260,
    "紛争": 9261,
    "えん": 9262,
    "招待": 9263,
    "羊": 9264,
    "放つ": 9265,
    "工学部": 9266,
    "正規": 9267,
    "少数": 9268,
    "沿革": 9269,
    "示@@": 9270,
    "セルビア": 9271,
    "くら": 9272,
    "Part@@": 9273,
    "待": 9274,
    "抱え": 9275,
    "膨@@": 9276,
    "気づ@@": 9277,
    "アタ@@": 9278,
    "一連": 9279,
    "吐@@": 9280,
    "傍@@": 9281,
    "イラク": 9282,
    "荒川": 9283,
    "伊東": 9284,
    "part@@": 9285,
    "1500": 9286,
    "State": 9287,
    "OW": 9288,
    "アトラン@@": 9289,
    "ッグ@@": 9290,
    "ジョン@@": 9291,
    "打点": 9292,
    "他人": 9293,
    "立候補": 9294,
    "SK@@": 9295,
    ")(": 9296,
    "33@@": 9297,
    "彫刻": 9298,
    "Val@@": 9299,
    "ショット": 9300,
    "400@@": 9301,
    "刷": 9302,
    "室町": 9303,
    ")”": 9304,
    "年表": 9305,
    "置き": 9306,
    "軍隊": 9307,
    "硫@@": 9308,
    "定員": 9309,
    "兼任": 9310,
    "はる": 9311,
    "900": 9312,
    "幕末": 9313,
    "軍艦": 9314,
    "ガリ@@": 9315,
    "仕え": 9316,
    "懐@@": 9317,
    "オールスター": 9318,
    "表彰": 9319,
    "QU@@": 9320,
    "艦船": 9321,
    "依@@": 9322,
    "Nav@@": 9323,
    "圧力": 9324,
    "はるか": 9325,
    "マリ": 9326,
    "スプリ@@": 9327,
    "コウ@@": 9328,
    "ington": 9329,
    "示さ": 9330,
    "姫@@": 9331,
    "並行": 9332,
    "ふるさと": 9333,
    "フリードリ@@": 9334,
    "浜田": 9335,
    "予約": 9336,
    "千代田": 9337,
    "４": 9338,
    "不満": 9339,
    "折り@@": 9340,
    "督": 9341,
    "パネル": 9342,
    "インター": 9343,
    "モー": 9344,
    "簿": 9345,
    "一貫": 9346,
    "汽@@": 9347,
    "ブリ": 9348,
    "適": 9349,
    "流し": 9350,
    "出雲": 9351,
    "創作": 9352,
    "主任": 9353,
    "外伝": 9354,
    "主題": 9355,
    "豆@@": 9356,
    "雀": 9357,
    "遊び": 9358,
    "ound@@": 9359,
    "RC": 9360,
    "聡": 9361,
    "牟@@": 9362,
    "ild@@": 9363,
    "ッカ@@": 9364,
    "三振": 9365,
    "Star": 9366,
    "MF": 9367,
    "連勝": 9368,
    "てん": 9369,
    "Michael": 9370,
    "楽団": 9371,
    "透": 9372,
    "ペア": 9373,
    "1903": 9374,
    "オレンジ": 9375,
    "変わり": 9376,
    "ストア": 9377,
    "テイメント": 9378,
    "USA": 9379,
    "通し": 9380,
    "天国": 9381,
    "モリ@@": 9382,
    "近世": 9383,
    "シェル": 9384,
    "サイン": 9385,
    "è@@": 9386,
    "符": 9387,
    "タイガース": 9388,
    "ほん": 9389,
    "飛行機": 9390,
    "構@@": 9391,
    "載@@": 9392,
    "山川": 9393,
    "剛@@": 9394,
    "ピンク": 9395,
    "桐": 9396,
    "黄色": 9397,
    "妖@@": 9398,
    "106": 9399,
    "互い": 9400,
    "エー": 9401,
    "HD": 9402,
    "BB": 9403,
    "comp@@": 9404,
    "メタル": 9405,
    "梶@@": 9406,
    "衛@@": 9407,
    "歌劇": 9408,
    "八王子": 9409,
    "怪我": 9410,
    "バレー": 9411,
    "打者": 9412,
    "バイオ@@": 9413,
    "産経": 9414,
    "メル": 9415,
    "di": 9416,
    "ISTAT": 9417,
    "威力": 9418,
    "決める": 9419,
    "診療": 9420,
    "救出": 9421,
    "当地": 9422,
    "ドウ": 9423,
    "地方@@": 9424,
    "抑@@": 9425,
    "サス": 9426,
    "倒す": 9427,
    "例@@": 9428,
    "西口": 9429,
    "Dev@@": 9430,
    "テキサス": 9431,
    "ステップ": 9432,
    "刑@@": 9433,
    "117": 9434,
    "菜@@": 9435,
    "FU@@": 9436,
    "イリ@@": 9437,
    "細川": 9438,
    "数々": 9439,
    "並ん": 9440,
    "エッ@@": 9441,
    "鐘": 9442,
    "捕虜": 9443,
    "ミラー": 9444,
    "海峡": 9445,
    "尼@@": 9446,
    "1896": 9447,
    "体操": 9448,
    "稀": 9449,
    "170": 9450,
    "ipp@@": 9451,
    "クリス": 9452,
    "low": 9453,
    "ウェル": 9454,
    "奏者": 9455,
    "TOUR": 9456,
    "次いで": 9457,
    "チー@@": 9458,
    "召喚": 9459,
    "ano": 9460,
    "Li@@": 9461,
    "プラン": 9462,
    "ald": 9463,
    "ウンド": 9464,
    "制服": 9465,
    "反発": 9466,
    "フュー@@": 9467,
    "補給": 9468,
    "売上": 9469,
    "貝": 9470,
    "加わっ": 9471,
    "慶長": 9472,
    "コンビ@@": 9473,
    "1901": 9474,
    "コンピュー@@": 9475,
    "東海道": 9476,
    "PO@@": 9477,
    "無し": 9478,
    "Kn@@": 9479,
    "ge@@": 9480,
    "騎": 9481,
    "モノ": 9482,
    "退任": 9483,
    "ヴィッド・@@": 9484,
    "長女": 9485,
    "カラオケ": 9486,
    "新作": 9487,
    "文化放送": 9488,
    "損傷": 9489,
    "偵察": 9490,
    "キスタン": 9491,
    "&@@": 9492,
    "近隣": 9493,
    "大尉": 9494,
    "枚@@": 9495,
    "手がけ": 9496,
    "ニュージーランド": 9497,
    "話す": 9498,
    "容量": 9499,
    "中央公@@": 9500,
    "ホン@@": 9501,
    "BU@@": 9502,
    "空手": 9503,
    "需要": 9504,
    "第一@@": 9505,
    "債": 9506,
    "スズ@@": 9507,
    "ナショナル": 9508,
    "バイス": 9509,
    "努力": 9510,
    "とく": 9511,
    "忍者": 9512,
    "ott@@": 9513,
    "ney": 9514,
    "取り付け": 9515,
    "いま": 9516,
    "振る@@": 9517,
    "Pat@@": 9518,
    "伏@@": 9519,
    "酵素": 9520,
    "イヤ@@": 9521,
    "114": 9522,
    "GS": 9523,
    "描き": 9524,
    "RPG": 9525,
    "配布": 9526,
    "Histor@@": 9527,
    "勃発": 9528,
    "out@@": 9529,
    "医学部": 9530,
    "縄@@": 9531,
    "限界": 9532,
    "寸@@": 9533,
    "川上": 9534,
    "テナ@@": 9535,
    "開放": 9536,
    "斐@@": 9537,
    "ピク@@": 9538,
    "於@@": 9539,
    "メモリ": 9540,
    "外務省": 9541,
    ".（": 9542,
    "章@@": 9543,
    "ユーロ": 9544,
    "適切": 9545,
    "逢@@": 9546,
    "切る": 9547,
    "認める": 9548,
    "渉": 9549,
    "策@@": 9550,
    "メカ@@": 9551,
    "迎@@": 9552,
    "ッセル": 9553,
    "トン・@@": 9554,
    "施@@": 9555,
    "ドライ@@": 9556,
    "360": 9557,
    "持ち主": 9558,
    "見解": 9559,
    "Mart@@": 9560,
    "マット": 9561,
    "キャッチ": 9562,
    "放送@@": 9563,
    "楊@@": 9564,
    "アラブ": 9565,
    "れい": 9566,
    "錦": 9567,
    "事項": 9568,
    "田辺": 9569,
    "説得": 9570,
    "世界中": 9571,
    "|@@": 9572,
    "奴": 9573,
    "前回": 9574,
    "キハ": 9575,
    "脱": 9576,
    "キャプテン": 9577,
    "スキル": 9578,
    "コミュニケーション": 9579,
    "張り": 9580,
    "自動@@": 9581,
    "おか": 9582,
    "アリーナ": 9583,
    "⁡": 9584,
    "一軍": 9585,
    "制覇": 9586,
    "ひと": 9587,
    "NC@@": 9588,
    "ik": 9589,
    "ゆう@@": 9590,
    "仕掛け": 9591,
    "ノール": 9592,
    "Pal@@": 9593,
    "コントロール": 9594,
    "amil@@": 9595,
    "掲げ": 9596,
    "松原": 9597,
    "116": 9598,
    "Nov@@": 9599,
    "一旦": 9600,
    "Ter@@": 9601,
    "work": 9602,
    "皇后": 9603,
    "コロ": 9604,
    "季節": 9605,
    "Ale@@": 9606,
    "let@@": 9607,
    "宝塚@@": 9608,
    "br@@": 9609,
    "すけ": 9610,
    "マンション": 9611,
    "ライオン": 9612,
    "芽": 9613,
    "通う": 9614,
    "William": 9615,
    "ith@@": 9616,
    "GE@@": 9617,
    "絶滅": 9618,
    "虚@@": 9619,
    "占める": 9620,
    "ップス": 9621,
    "トヨタ": 9622,
    "つか": 9623,
    "名鉄": 9624,
    "総裁": 9625,
    "召@@": 9626,
    "役所": 9627,
    "パクト": 9628,
    "低く": 9629,
    "防ぐ": 9630,
    "HS": 9631,
    "縦": 9632,
    "ュル@@": 9633,
    "まんが": 9634,
    "旅客鉄道": 9635,
    "刀@@": 9636,
    "偶然": 9637,
    "ブーム": 9638,
    "コムーネ": 9639,
    "ex": 9640,
    "少なくとも": 9641,
    "日向": 9642,
    "オプション": 9643,
    "総会": 9644,
    "1897": 9645,
    "School": 9646,
    "飼育": 9647,
    "bas@@": 9648,
    "121": 9649,
    "亡く@@": 9650,
    "lin": 9651,
    "打ち上げ": 9652,
    "インタ@@": 9653,
    "ウン": 9654,
    "Je@@": 9655,
    "ダウンロード": 9656,
    "後ろ": 9657,
    "原理": 9658,
    "行なっ": 9659,
    "がら": 9660,
    "補佐": 9661,
    "入院": 9662,
    "同人": 9663,
    "ファイター": 9664,
    "ico": 9665,
    "駐在": 9666,
    "Sum@@": 9667,
    "繁殖": 9668,
    "測": 9669,
    "慢": 9670,
    "ゴ・@@": 9671,
    "行列": 9672,
    "ドリ": 9673,
    "ップ・@@": 9674,
    "支所": 9675,
    "変える": 9676,
    "1904": 9677,
    "ube": 9678,
    "ヒル@@": 9679,
    "ives": 9680,
    "報社": 9681,
    "電池": 9682,
    "アル・@@": 9683,
    "о": 9684,
    "教養": 9685,
    "PR": 9686,
    "ister": 9687,
    "コーヒー": 9688,
    "識@@": 9689,
    "裁@@": 9690,
    "ox@@": 9691,
    "国防": 9692,
    "救急": 9693,
    "八幡@@": 9694,
    "行き@@": 9695,
    "樽": 9696,
    "不能": 9697,
    "ミシ@@": 9698,
    "藤沢": 9699,
    "ナン": 9700,
    "縦@@": 9701,
    "シリア": 9702,
    "楼": 9703,
    "現行": 9704,
    "山内": 9705,
    "AZ@@": 9706,
    "絡@@": 9707,
    "木下": 9708,
    "船団": 9709,
    "occ@@": 9710,
    "密度": 9711,
    "関わっ": 9712,
    "豊か": 9713,
    "管弦楽": 9714,
    "囲@@": 9715,
    "太字": 9716,
    "帆": 9717,
    ")}": 9718,
    "アポ@@": 9719,
    "探検": 9720,
    "lob@@": 9721,
    "信用@@": 9722,
    "ジュー@@": 9723,
    "都合": 9724,
    "主導": 9725,
    "いろ": 9726,
    "魅力": 9727,
    "トニー": 9728,
    "マイナー": 9729,
    "幸せ": 9730,
    "Retrieved": 9731,
    "掌": 9732,
    "満州": 9733,
    "Er@@": 9734,
    "認知": 9735,
    "Ver": 9736,
    "サンデー": 9737,
    "An": 9738,
    "独占": 9739,
    "イスラム": 9740,
    "ハラ": 9741,
    "ボート": 9742,
    "予": 9743,
    "DX": 9744,
    "ロール": 9745,
    "丸山": 9746,
    "苑": 9747,
    "毅": 9748,
    "上場": 9749,
    "SC@@": 9750,
    "阻止": 9751,
    "勇者": 9752,
    "HI": 9753,
    "グレード": 9754,
    "まと@@": 9755,
    "na": 9756,
    "なん": 9757,
    "入場": 9758,
    "ideo": 9759,
    "ブリッジ": 9760,
    "検定": 9761,
    "報じ": 9762,
    "サークル": 9763,
    "鑑": 9764,
    "縁@@": 9765,
    "ゼル": 9766,
    "KI@@": 9767,
    "ストーン": 9768,
    "番線": 9769,
    "ぽ@@": 9770,
    "もし": 9771,
    "提唱": 9772,
    "ミック": 9773,
    "エドワード": 9774,
    "近江": 9775,
    "療@@": 9776,
    "学名": 9777,
    "たって": 9778,
    "マ・@@": 9779,
    "迎える": 9780,
    "典@@": 9781,
    "提示": 9782,
    "⇒": 9783,
    "高等学校": 9784,
    "小さく": 9785,
    "廃車": 9786,
    "心臓": 9787,
    "旧制": 9788,
    "栄養": 9789,
    "Man": 9790,
    "Rec@@": 9791,
    "セッ@@": 9792,
    "伏": 9793,
    "ype": 9794,
    "ワンマン": 9795,
    "Rob@@": 9796,
    "改編": 9797,
    "癌": 9798,
    "関わら": 9799,
    "関わる": 9800,
    "岩崎": 9801,
    "ラス@@": 9802,
    "生存": 9803,
    "旋": 9804,
    "聞": 9805,
    "絞@@": 9806,
    "感覚": 9807,
    "先頭": 9808,
    "騎兵": 9809,
    "承@@": 9810,
    "同月": 9811,
    "ications": 9812,
    "変動": 9813,
    "yc@@": 9814,
    "変わら": 9815,
    "スティック": 9816,
    "fe@@": 9817,
    "甲府": 9818,
    "ра@@": 9819,
    "要因": 9820,
    "撤@@": 9821,
    "56@@": 9822,
    "論理": 9823,
    "パンチ": 9824,
    "量産": 9825,
    "ly@@": 9826,
    "既@@": 9827,
    "池袋": 9828,
    "きり": 9829,
    "熊谷": 9830,
    "急速": 9831,
    "ティン@@": 9832,
    "ez": 9833,
    "Box": 9834,
    "シネマ": 9835,
    "モリ": 9836,
    "グレイ@@": 9837,
    "ub": 9838,
    "dies": 9839,
    "ビジュ@@": 9840,
    "レーザー": 9841,
    "下し": 9842,
    "人権": 9843,
    "DAY": 9844,
    "村立": 9845,
    "太平洋戦争": 9846,
    "インテ@@": 9847,
    "陥@@": 9848,
    "Dar@@": 9849,
    "熊野": 9850,
    "Rem@@": 9851,
    "応募": 9852,
    "メタ@@": 9853,
    "羅@@": 9854,
    "松浦": 9855,
    "享年": 9856,
    "くま": 9857,
    "1890": 9858,
    "しれ": 9859,
    "マスク": 9860,
    "観音": 9861,
    "回路": 9862,
    "結び": 9863,
    "ウエ@@": 9864,
    "中田": 9865,
    "拝@@": 9866,
    "講": 9867,
    "1902": 9868,
    "メガ": 9869,
    "era": 9870,
    "家督": 9871,
    "駿": 9872,
    "本土": 9873,
    "負": 9874,
    "梅田": 9875,
    "スキ": 9876,
    "金庫": 9877,
    "巻き込ま": 9878,
    "数値": 9879,
    "前橋": 9880,
    "すぎる": 9881,
    "権限": 9882,
    "夕刊": 9883,
    "上流": 9884,
    "致@@": 9885,
    "ヤード": 9886,
    "act": 9887,
    "!」（": 9888,
    "ジャーナリスト": 9889,
    "階@@": 9890,
    "延伸": 9891,
    "App@@": 9892,
    "やめ": 9893,
    "たい@@": 9894,
    "八戸": 9895,
    "ダイヤモンド": 9896,
    "殿@@": 9897,
    "Online": 9898,
    "Mr": 9899,
    "一帯": 9900,
    "前方": 9901,
    "Dr": 9902,
    "Night": 9903,
    "ジョーンズ": 9904,
    "西経": 9905,
    "憧れ": 9906,
    "Art@@": 9907,
    "ヴァイオリン": 9908,
    "文社": 9909,
    "破っ": 9910,
    "最中": 9911,
    "ローラ": 9912,
    "山地": 9913,
    "ane": 9914,
    "薩摩": 9915,
    "ジャイアンツ": 9916,
    "俣": 9917,
    "署名": 9918,
    "指し": 9919,
    "とても": 9920,
    "遺体": 9921,
    "オーバー@@": 9922,
    "柏": 9923,
    "Red": 9924,
    "気筒": 9925,
    "趙": 9926,
    "扱っ": 9927,
    "シュート": 9928,
    "ger": 9929,
    "onom@@": 9930,
    "Del@@": 9931,
    "Bur@@": 9932,
    "ショック": 9933,
    "スカウト": 9934,
    "マジック": 9935,
    "Part": 9936,
    "及ぶ": 9937,
    "くだ@@": 9938,
    "経歴": 9939,
    "無限": 9940,
    "管区": 9941,
    "接し": 9942,
    "着陸": 9943,
    "歓@@": 9944,
    "瓶": 9945,
    "入賞": 9946,
    "du": 9947,
    "選ぶ": 9948,
    "周波数": 9949,
    "ビー・@@": 9950,
    "テリー": 9951,
    "ローン": 9952,
    "!?": 9953,
    "ACE": 9954,
    "ports": 9955,
    "System": 9956,
    "山城": 9957,
    "おく": 9958,
    "佐世保": 9959,
    "ポンド": 9960,
    "躍": 9961,
    "伸び": 9962,
    "症@@": 9963,
    "コンクリート": 9964,
    "123": 9965,
    "瑠@@": 9966,
    "展望": 9967,
    "回想": 9968,
    "奨": 9969,
    "戦術": 9970,
    "β": 9971,
    "May": 9972,
    "比例": 9973,
    "従業": 9974,
    "５": 9975,
    "ij@@": 9976,
    "ood@@": 9977,
    "201": 9978,
    "槍": 9979,
    "播@@": 9980,
    "包": 9981,
    "もらっ": 9982,
    "タイムズ": 9983,
    "ゴジラ": 9984,
    "オン・@@": 9985,
    "麦": 9986,
    "DD": 9987,
    "ited": 9988,
    "ユナイテッド": 9989,
    "客車": 9990,
    "カップリング": 9991,
    "全身": 9992,
    "日立": 9993,
    "師事": 9994,
    "突入": 9995,
    "ギル@@": 9996,
    "買": 9997,
    "降り": 9998,
    "かわ@@": 9999,
    "湘南": 10000,
    "ショート": 10001,
    "レンタル": 10002,
    "通じ": 10003,
    "OVA": 10004,
    "ears": 10005,
    "ICE": 10006,
    "忍@@": 10007,
    "ダービー": 10008,
    "売り@@": 10009,
    "osh@@": 10010,
    "パロ@@": 10011,
    "靖@@": 10012,
    "はや": 10013,
    "困@@": 10014,
    "衡": 10015,
    "卓@@": 10016,
    "逃げ@@": 10017,
    "菊": 10018,
    "水産": 10019,
    "List": 10020,
    "定数": 10021,
    "iness": 10022,
    "漁業": 10023,
    "法則": 10024,
    "尿": 10025,
    "非難": 10026,
    "終結": 10027,
    "踊り": 10028,
    "VA": 10029,
    "з@@": 10030,
    "BI@@": 10031,
    "キロメートル": 10032,
    "78@@": 10033,
    "決議": 10034,
    "von": 10035,
    "TA@@": 10036,
    "Te@@": 10037,
    "田原": 10038,
    "効@@": 10039,
    "バレエ": 10040,
    "ROCK": 10041,
    "脳@@": 10042,
    "敵@@": 10043,
    "並ぶ": 10044,
    "エラ": 10045,
    "128": 10046,
    "蒼": 10047,
    "鍋": 10048,
    "特番": 10049,
    "わたし": 10050,
    "ident": 10051,
    "za": 10052,
    "乗せ": 10053,
    "ese": 10054,
    "西川": 10055,
    "OL": 10056,
    "同僚": 10057,
    "警戒": 10058,
    "侵@@": 10059,
    "グラウンド": 10060,
    "KB": 10061,
    "カーン": 10062,
    "大相撲": 10063,
    "Encyclop@@": 10064,
    "ミズ@@": 10065,
    "Stre@@": 10066,
    "偉@@": 10067,
    "ヒロ@@": 10068,
    "旭川": 10069,
    "講義": 10070,
    "堅": 10071,
    "ザーズ": 10072,
    "初演": 10073,
    "鳴": 10074,
    "出産": 10075,
    "主流": 10076,
    "コナ@@": 10077,
    "津川": 10078,
    "視点": 10079,
    "onichi": 10080,
    "蓋": 10081,
    "アントニ@@": 10082,
    "やる": 10083,
    "緩@@": 10084,
    "大切": 10085,
    "千代": 10086,
    "rect@@": 10087,
    "フォーク": 10088,
    "モンテ@@": 10089,
    "車内": 10090,
    "プレート": 10091,
    "ウィキ@@": 10092,
    "目撃": 10093,
    "Awards": 10094,
    "無効": 10095,
    "log@@": 10096,
    "ヴェン@@": 10097,
    "バナ@@": 10098,
    "リアス": 10099,
    "ヘッド@@": 10100,
    "村山": 10101,
    "律@@": 10102,
    "平方": 10103,
    "KA@@": 10104,
    "wit@@": 10105,
    "いつ@@": 10106,
    "野生": 10107,
    "{@@": 10108,
    "大衆": 10109,
    "トゥー@@": 10110,
    "DIO": 10111,
    "レル": 10112,
    "倒さ": 10113,
    "バート": 10114,
    "フェ": 10115,
    "カミ@@": 10116,
    "たけ": 10117,
    "転じ": 10118,
    "幡": 10119,
    "CX": 10120,
    "駿@@": 10121,
    "部員": 10122,
    "表し": 10123,
    "ベニア": 10124,
    "曖昧": 10125,
    "麓": 10126,
    "しめ": 10127,
    "CK": 10128,
    "JA": 10129,
    "出店": 10130,
    "μ": 10131,
    "総長": 10132,
    "！@@": 10133,
    "ソフトバンク": 10134,
    "ずる": 10135,
    "当局": 10136,
    "春日": 10137,
    "文章": 10138,
    "附": 10139,
    "チョウ": 10140,
    "ガイド@@": 10141,
    "Yahoo": 10142,
    "テクノ@@": 10143,
    "ジェント": 10144,
    "敗戦": 10145,
    "剥@@": 10146,
    "倒れ": 10147,
    "漏@@": 10148,
    "宮殿": 10149,
    "名乗っ": 10150,
    "拒@@": 10151,
    "乙": 10152,
    "豊富": 10153,
    "削減": 10154,
    "プラン@@": 10155,
    "118": 10156,
    "勝手": 10157,
    "チーム@@": 10158,
    "被災": 10159,
    "郷@@": 10160,
    "渡る": 10161,
    "村田": 10162,
    "大使館": 10163,
    "リポーター": 10164,
    "Med@@": 10165,
    "通貨": 10166,
    "改装": 10167,
    "スタンド": 10168,
    "腸": 10169,
    "Super@@": 10170,
    "メダ@@": 10171,
    "太陽@@": 10172,
    "婦人": 10173,
    "トレーニング": 10174,
    "河原": 10175,
    "е": 10176,
    "net@@": 10177,
    "sel@@": 10178,
    "縮小": 10179,
    "悪く": 10180,
    "Tur@@": 10181,
    "Wrest@@": 10182,
    "混合": 10183,
    "バウ@@": 10184,
    "大田": 10185,
    "ジョンソン": 10186,
    "木曜日": 10187,
    "ren": 10188,
    "Serv@@": 10189,
    "デレ@@": 10190,
    "和泉": 10191,
    "ソニー・@@": 10192,
    "南方": 10193,
    "攻め": 10194,
    "本田": 10195,
    "鋼@@": 10196,
    "神戸@@": 10197,
    "陽子": 10198,
    "金メダル": 10199,
    "珍@@": 10200,
    "ロボ@@": 10201,
    "革": 10202,
    "ren@@": 10203,
    "吹き@@": 10204,
    "出土": 10205,
    "サウンドトラック": 10206,
    "加賀": 10207,
    "ミット": 10208,
    "136": 10209,
    "書く": 10210,
    "ロジー": 10211,
    "日光": 10212,
    "Sw@@": 10213,
    "マイクロ@@": 10214,
    "会津": 10215,
    "頑@@": 10216,
    "カム@@": 10217,
    "せん@@": 10218,
    "秋山": 10219,
    "バランス": 10220,
    "語ら": 10221,
    "弓@@": 10222,
    "保管": 10223,
    "電源": 10224,
    "残": 10225,
    "讃@@": 10226,
    "PL@@": 10227,
    "孫@@": 10228,
    "撃破": 10229,
    "回し": 10230,
    "卒@@": 10231,
    "；": 10232,
    "東急": 10233,
    "興業": 10234,
    "前日": 10235,
    "紅白": 10236,
    "ライズ": 10237,
    "珠@@": 10238,
    "弱い": 10239,
    "スポット": 10240,
    "赤坂": 10241,
    "over": 10242,
    "ius": 10243,
    "楽章": 10244,
    "ギー@@": 10245,
    "限@@": 10246,
    "pre@@": 10247,
    "Bib@@": 10248,
    "卓球": 10249,
    "頻繁": 10250,
    "君主": 10251,
    "セックス": 10252,
    "スカイ@@": 10253,
    "っかり": 10254,
    "水泳": 10255,
    "削除": 10256,
    "肌": 10257,
    "覚え": 10258,
    "防災": 10259,
    "欠": 10260,
    "渕": 10261,
    "ラマ": 10262,
    "350": 10263,
    "Paul": 10264,
    "理想": 10265,
    "シド@@": 10266,
    "揚げ": 10267,
    "陶@@": 10268,
    "三井": 10269,
    "階段": 10270,
    "流域": 10271,
    "栗": 10272,
    "中華": 10273,
    "中断": 10274,
    "台詞": 10275,
    "棋@@": 10276,
    "牧野": 10277,
    "ig": 10278,
    "工藤": 10279,
    "サブ@@": 10280,
    "叫@@": 10281,
    "戯": 10282,
    "震@@": 10283,
    "プレミア": 10284,
    "119": 10285,
    "伊豆": 10286,
    "fr": 10287,
    "°": 10288,
    "ディズニー": 10289,
    "定める": 10290,
    "cot@@": 10291,
    "人種": 10292,
    "ja": 10293,
    "arch@@": 10294,
    "から@@": 10295,
    "アテ@@": 10296,
    "ズル": 10297,
    "×@@": 10298,
    "form@@": 10299,
    "Company": 10300,
    "女学校": 10301,
    "たけし": 10302,
    "答@@": 10303,
    "ハイン@@": 10304,
    "特撮": 10305,
    "移っ": 10306,
    "貝@@": 10307,
    "ワール": 10308,
    "ポケモン": 10309,
    "エミ@@": 10310,
    "とめ": 10311,
    "インド@@": 10312,
    "ツイート": 10313,
    "フィ": 10314,
    "安倍": 10315,
    "立川": 10316,
    "現状": 10317,
    "MON@@": 10318,
    "戸田": 10319,
    "ichi": 10320,
    "anese": 10321,
    "圧縮": 10322,
    "olog@@": 10323,
    "ship": 10324,
    "施さ": 10325,
    "大好き": 10326,
    "直径": 10327,
    "ストップ": 10328,
    "上京": 10329,
    "クラス@@": 10330,
    "府中": 10331,
    "前提": 10332,
    "Fe@@": 10333,
    "angu@@": 10334,
    "雰囲気": 10335,
    "経済学部": 10336,
    "ライダー@@": 10337,
    "斜": 10338,
    "マイク": 10339,
    "ラジ@@": 10340,
    "仕": 10341,
    "還@@": 10342,
    "不正": 10343,
    "双子": 10344,
    "124": 10345,
    "iji": 10346,
    "灰": 10347,
    "式典": 10348,
    "January": 10349,
    "ホイ@@": 10350,
    "ニュ": 10351,
    "融@@": 10352,
    "ocal": 10353,
    "1898": 10354,
    "ural": 10355,
    "主役": 10356,
    "マニュ@@": 10357,
    "理学": 10358,
    "放棄": 10359,
    "県知事": 10360,
    "無視": 10361,
    "ホークス": 10362,
    "排除": 10363,
    "Fri@@": 10364,
    "GR@@": 10365,
    "ちなん": 10366,
    "横断": 10367,
    "帥": 10368,
    "ゆえ": 10369,
    "ダーク": 10370,
    "ツール": 10371,
    "国籍": 10372,
    "変遷": 10373,
    "スタント": 10374,
    "紋章": 10375,
    "ハヤ@@": 10376,
    "モンド": 10377,
    "Go": 10378,
    "蓄@@": 10379,
    "自由@@": 10380,
    "揺@@": 10381,
    "ike": 10382,
    "接する": 10383,
    "ヴェー@@": 10384,
    "HT@@": 10385,
    "ert": 10386,
    "救援": 10387,
    "委@@": 10388,
    "122": 10389,
    ".”": 10390,
    "酷": 10391,
    "Cap@@": 10392,
    "ste@@": 10393,
    "オーナー": 10394,
    "列@@": 10395,
    "MAR@@": 10396,
    "コマンド": 10397,
    "偏@@": 10398,
    "反映": 10399,
    "粘@@": 10400,
    "リラ": 10401,
    "ade": 10402,
    "Bre@@": 10403,
    "Records": 10404,
    "オーディ@@": 10405,
    "キッ@@": 10406,
    "リーグ@@": 10407,
    "翌@@": 10408,
    "Bir@@": 10409,
    "放出": 10410,
    "たし": 10411,
    "戻す": 10412,
    "Tom@@": 10413,
    "なく@@": 10414,
    "人名": 10415,
    "DO": 10416,
    "爪": 10417,
    "PRO@@": 10418,
    "Blue": 10419,
    "調理": 10420,
    "ソル": 10421,
    "松尾": 10422,
    "次に": 10423,
    "アベ@@": 10424,
    "}{\\": 10425,
    "東口": 10426,
    "〒": 10427,
    "ute": 10428,
    "モーター": 10429,
    "不安": 10430,
    "Mot@@": 10431,
    "小屋": 10432,
    "小田原": 10433,
    "絵本": 10434,
    "つな@@": 10435,
    "模型": 10436,
    "oss@@": 10437,
    "Le": 10438,
    "きら@@": 10439,
    "PI@@": 10440,
    "三田": 10441,
    "揚": 10442,
    "スピリ@@": 10443,
    "ルーマニア": 10444,
    "entertainment": 10445,
    "毎回": 10446,
    "ジェ": 10447,
    "水系": 10448,
    "控@@": 10449,
    "川越": 10450,
    "ピア@@": 10451,
    "プロイセン": 10452,
    "エンス": 10453,
    "響@@": 10454,
    "麻雀": 10455,
    "天保": 10456,
    "リティー": 10457,
    "相対": 10458,
    "モバイル": 10459,
    "辞令": 10460,
    "改めて": 10461,
    "明石": 10462,
    "ā@@": 10463,
    "ゴールデン@@": 10464,
    "死ぬ": 10465,
    "ライナー": 10466,
    "row": 10467,
    "isch@@": 10468,
    "永井": 10469,
    "遣@@": 10470,
    "免": 10471,
    "僧@@": 10472,
    "雑": 10473,
    "ガーデン": 10474,
    "炭素": 10475,
    "Sa@@": 10476,
    "カリ": 10477,
    "kW": 10478,
    "通勤": 10479,
    "FE": 10480,
    "車種": 10481,
    "フォン@@": 10482,
    "町内": 10483,
    "イカ": 10484,
    "Techn@@": 10485,
    "デア": 10486,
    "算@@": 10487,
    "灰@@": 10488,
    "道場": 10489,
    "土佐": 10490,
    "春日@@": 10491,
    "ノフ": 10492,
    "BO": 10493,
    "DNA": 10494,
    "賊": 10495,
    "ニョ@@": 10496,
    "ゆかり": 10497,
    "小牧": 10498,
    "内蔵": 10499,
    "ハル": 10500,
    "疎@@": 10501,
    "プリキュ@@": 10502,
    "ハード@@": 10503,
    "こく": 10504,
    "セリ@@": 10505,
    "(#": 10506,
    "式@@": 10507,
    "評し": 10508,
    "丘@@": 10509,
    "フジ@@": 10510,
    "河野": 10511,
    "Billboard": 10512,
    "保育園": 10513,
    "Mer@@": 10514,
    "湊": 10515,
    "牽引": 10516,
    "修復": 10517,
    "征服": 10518,
    "尺": 10519,
    "アビ@@": 10520,
    "チェーン": 10521,
    "夫妻": 10522,
    "ei": 10523,
    "平田": 10524,
    "喧嘩": 10525,
    "いれ": 10526,
    "別に": 10527,
    "ぶん": 10528,
    "挙げる": 10529,
    "ぱい": 10530,
    "オンズ": 10531,
    "ech@@": 10532,
    "スライ@@": 10533,
    "do": 10534,
    "放射": 10535,
    "ギャラリー": 10536,
    "ピット": 10537,
    "ラブ@@": 10538,
    "ファミ": 10539,
    "ムーン": 10540,
    "区立": 10541,
    "Report": 10542,
    "茎": 10543,
    "聞く": 10544,
    "コント": 10545,
    "使える": 10546,
    "潰@@": 10547,
    "司馬": 10548,
    "aily": 10549,
    "ゲージ": 10550,
    "値@@": 10551,
    "呼@@": 10552,
    "NTV": 10553,
    "ラテン語": 10554,
    "タイム@@": 10555,
    "妨害": 10556,
    "オスマン": 10557,
    "奨励": 10558,
    "MAX": 10559,
    "コロンビア": 10560,
    "LA": 10561,
    "フォース": 10562,
    "じゅ@@": 10563,
    "ファイト": 10564,
    "GI": 10565,
    "哲也": 10566,
    "謝": 10567,
    "選考": 10568,
    "ミネ@@": 10569,
    "援": 10570,
    "所長": 10571,
    "ine@@": 10572,
    "ニ・@@": 10573,
    "yth@@": 10574,
    "プロー@@": 10575,
    "新井": 10576,
    "der@@": 10577,
    "亮@@": 10578,
    "激しく": 10579,
    "カスタ@@": 10580,
    "大井": 10581,
    "賛@@": 10582,
    "水雷": 10583,
    "哀@@": 10584,
    "ham": 10585,
    "守り": 10586,
    "プラット@@": 10587,
    "焦@@": 10588,
    "For": 10589,
    "自称": 10590,
    "HI@@": 10591,
    "後輩": 10592,
    "1899": 10593,
    "兼ね": 10594,
    "チェ": 10595,
    "めぐる": 10596,
    "型@@": 10597,
    "代行": 10598,
    "介護": 10599,
    "原案": 10600,
    "隅": 10601,
    "Dep@@": 10602,
    "昆虫": 10603,
    "リゾート": 10604,
    "名乗る": 10605,
    "健一": 10606,
    "DF": 10607,
    "亡命": 10608,
    "Po@@": 10609,
    "ミー・@@": 10610,
    "ネス@@": 10611,
    "遂げ": 10612,
    "だし": 10613,
    "UF@@": 10614,
    "度々": 10615,
    "Census": 10616,
    "乗り入れ": 10617,
    "モハ": 10618,
    "Rom@@": 10619,
    "同行": 10620,
    "スイッチ": 10621,
    "セイ": 10622,
    "柴": 10623,
    "トランス@@": 10624,
    "開き": 10625,
    "知ら@@": 10626,
    "天体": 10627,
    "称@@": 10628,
    "ates": 10629,
    "掛ける": 10630,
    "電化": 10631,
    "ERS": 10632,
    "誇る": 10633,
    "種目": 10634,
    "グラフィック": 10635,
    "那覇": 10636,
    "44@@": 10637,
    "農民": 10638,
    "в": 10639,
    "=\\": 10640,
    "ネッ@@": 10641,
    "インスト@@": 10642,
    "眼鏡": 10643,
    "芝@@": 10644,
    "left": 10645,
    "郡山": 10646,
    "パス@@": 10647,
    "70@@": 10648,
    "アジ@@": 10649,
    "切ら": 10650,
    "若松": 10651,
    "候@@": 10652,
    "fer@@": 10653,
    "王位": 10654,
    "正解": 10655,
    "Mem@@": 10656,
    "ナチス": 10657,
    "瀬戸": 10658,
    "155": 10659,
    "もらう": 10660,
    "ダイヤ@@": 10661,
    "Day": 10662,
    "Mal@@": 10663,
    "中華民国": 10664,
    "船橋": 10665,
    "raph@@": 10666,
    "デュー@@": 10667,
    "夕方": 10668,
    "境内": 10669,
    "メトロ": 10670,
    "首位": 10671,
    "レオ": 10672,
    "任じ": 10673,
    "GB": 10674,
    "タム": 10675,
    "殴@@": 10676,
    "なくなっ": 10677,
    "Russ@@": 10678,
    "腕@@": 10679,
    "Champ@@": 10680,
    "ボリ@@": 10681,
    "いろ@@": 10682,
    "種族": 10683,
    "ティック": 10684,
    "Review": 10685,
    "第@@": 10686,
    "半年": 10687,
    "コナン": 10688,
    "飛ば@@": 10689,
    "役者": 10690,
    "tal@@": 10691,
    "中原": 10692,
    "OP@@": 10693,
    "ニッポン放送": 10694,
    "やはり": 10695,
    "堅@@": 10696,
    "AB": 10697,
    "プリンセス": 10698,
    "大韓民国": 10699,
    "予告": 10700,
    "小沢": 10701,
    "ウ・@@": 10702,
    "早川": 10703,
    "医薬品": 10704,
    "ミッ@@": 10705,
    "Dr@@": 10706,
    "Kar@@": 10707,
    "売り": 10708,
    "外れ": 10709,
    "共産": 10710,
    "ライヴ": 10711,
    "Ze@@": 10712,
    "にくい": 10713,
    "示唆": 10714,
    "天下": 10715,
    "場@@": 10716,
    "ou": 10717,
    "人材": 10718,
    "強調": 10719,
    "長編": 10720,
    "壊滅": 10721,
    "ファンタ@@": 10722,
    "mathb@@": 10723,
    "ウェー@@": 10724,
    "親子": 10725,
    "レディ@@": 10726,
    "出口": 10727,
    "広瀬": 10728,
    "ston": 10729,
    "プロテ@@": 10730,
    "マリー@@": 10731,
    "房@@": 10732,
    "ネット@@": 10733,
    "小路": 10734,
    "渓@@": 10735,
    "どれ": 10736,
    "外観": 10737,
    "ション・@@": 10738,
    "苗": 10739,
    "公国": 10740,
    "VER": 10741,
    "ero": 10742,
    "成り@@": 10743,
    "核@@": 10744,
    "Vo@@": 10745,
    "緑色": 10746,
    "大公": 10747,
    "戦記": 10748,
    "デル・@@": 10749,
    "アプリケーション": 10750,
    "浄": 10751,
    "方程式": 10752,
    "スパイ": 10753,
    "耕": 10754,
    "煙@@": 10755,
    "互いに": 10756,
    "圧倒的": 10757,
    "浅野": 10758,
    "WORLD": 10759,
    "東日本旅客鉄道": 10760,
    "剰": 10761,
    "官房": 10762,
    "最高@@": 10763,
    "戯@@": 10764,
    "めぐみ": 10765,
    "穂@@": 10766,
    "市議会": 10767,
    "嫡@@": 10768,
    "宇宙船": 10769,
    "緒@@": 10770,
    "発覚": 10771,
    "elop@@": 10772,
    "財": 10773,
    "ボーン": 10774,
    "Sur@@": 10775,
    "水曜日": 10776,
    "144": 10777,
    "Port@@": 10778,
    "朴": 10779,
    "黒人": 10780,
    "こだ@@": 10781,
    "ih@@": 10782,
    "実在": 10783,
    "女子大学": 10784,
    "乗員": 10785,
    "テス": 10786,
    "ファクトリー": 10787,
    "辞": 10788,
    "ナー・@@": 10789,
    "ロープ": 10790,
    "転向": 10791,
    "duc@@": 10792,
    "討ち": 10793,
    "警察官": 10794,
    "付く": 10795,
    "崇@@": 10796,
    "放っ": 10797,
    "チナ": 10798,
    "rele@@": 10799,
    "aka": 10800,
    "近づ@@": 10801,
    "拘束": 10802,
    "皮膚": 10803,
    "ベット": 10804,
    "Up": 10805,
    "ネ・@@": 10806,
    "令@@": 10807,
    "訪れる": 10808,
    "プロセス": 10809,
    "テール": 10810,
    "裸": 10811,
    "気温": 10812,
    "飾@@": 10813,
    "沈没": 10814,
    "Bel@@": 10815,
    "談@@": 10816,
    "wood": 10817,
    "構え": 10818,
    "ボストン": 10819,
    "猛@@": 10820,
    "巻き@@": 10821,
    "窟": 10822,
    "和子": 10823,
    "墜落": 10824,
    "らさ": 10825,
    "績": 10826,
    "lio": 10827,
    "阻@@": 10828,
    "牧場": 10829,
    "スコー@@": 10830,
    "ダブルス": 10831,
    "ury": 10832,
    "島津": 10833,
    "メカ": 10834,
    "Ob@@": 10835,
    "根拠": 10836,
    "刈@@": 10837,
    "体力": 10838,
    "ボル": 10839,
    "近衛": 10840,
    "ボクサー": 10841,
    "期@@": 10842,
    "藤本": 10843,
    "冬季": 10844,
    "阪神@@": 10845,
    "はん": 10846,
    "業績": 10847,
    "釣り": 10848,
    "蜂@@": 10849,
    "劇@@": 10850,
    "容姿": 10851,
    "狂": 10852,
    "ガム": 10853,
    "じゃ@@": 10854,
    "ヴァン・@@": 10855,
    "正しい": 10856,
    "謝罪": 10857,
    "技能": 10858,
    "Group": 10859,
    "宿泊": 10860,
    "フェア": 10861,
    "書記": 10862,
    "ally": 10863,
    "きれ": 10864,
    "隈": 10865,
    "銘@@": 10866,
    "Str@@": 10867,
    "オート": 10868,
    "予報": 10869,
    "127": 10870,
    "まく": 10871,
    "大森": 10872,
    "割合": 10873,
    "遭遇": 10874,
    "ゲイ": 10875,
    "舌": 10876,
    "由美": 10877,
    "ен@@": 10878,
    "ini": 10879,
    "南アフリカ": 10880,
    "カップ@@": 10881,
    "Go@@": 10882,
    "Black": 10883,
    "ye": 10884,
    "SH": 10885,
    "ボウ@@": 10886,
    "チベット": 10887,
    "First": 10888,
    "顕": 10889,
    "漂@@": 10890,
    "fe": 10891,
    "樋@@": 10892,
    "したがって": 10893,
    "歳@@": 10894,
    "rag@@": 10895,
    "野菜": 10896,
    "喫し": 10897,
    "肖像": 10898,
    "GM": 10899,
    "アラン": 10900,
    "年金": 10901,
    "福音": 10902,
    "ドナルド": 10903,
    "法案": 10904,
    "職人": 10905,
    "アーサー": 10906,
    "削": 10907,
    "一時期": 10908,
    "翔@@": 10909,
    "港湾": 10910,
    "集会": 10911,
    "エリザベス": 10912,
    "Ltd": 10913,
    "ミナ@@": 10914,
    "道館": 10915,
    "date": 10916,
    "YOU": 10917,
    "間隔": 10918,
    "商工": 10919,
    "出撃": 10920,
    "妖精": 10921,
    "Publ@@": 10922,
    "松岡": 10923,
    "?」": 10924,
    "湾@@": 10925,
    "統括": 10926,
    "チャンス": 10927,
    "トレード": 10928,
    "キム": 10929,
    "ille": 10930,
    "任期": 10931,
    "こうして": 10932,
    "高架": 10933,
    "砂漠": 10934,
    "LM": 10935,
    "移し": 10936,
    "box": 10937,
    "配属": 10938,
    "制し": 10939,
    "たく@@": 10940,
    "ネコ": 10941,
    "ゴム": 10942,
    "Sil@@": 10943,
    "ation@@": 10944,
    "拾@@": 10945,
    "光文社": 10946,
    ")：": 10947,
    "ヨン@@": 10948,
    "飛行場": 10949,
    "模": 10950,
    "売り上げ": 10951,
    "1895": 10952,
    "らか": 10953,
    "SON@@": 10954,
    "BD": 10955,
    "大映": 10956,
    "かん@@": 10957,
    "冷": 10958,
    "藍": 10959,
    "レビュー": 10960,
    "橋梁": 10961,
    "支流": 10962,
    "美女": 10963,
    "バット": 10964,
    "yt@@": 10965,
    "ジャクソン": 10966,
    "公司": 10967,
    "ジャイ@@": 10968,
    "ソング@@": 10969,
    "緊@@": 10970,
    "シネマ@@": 10971,
    "ふたり": 10972,
    "智子": 10973,
    "66@@": 10974,
    "台北": 10975,
    "ナイ": 10976,
    "エグ@@": 10977,
    "ラテン": 10978,
    "検出": 10979,
    "プレーオフ": 10980,
    "上院": 10981,
    "澤@@": 10982,
    "みなみ": 10983,
    "SL": 10984,
    "els": 10985,
    "侵略": 10986,
    "CR": 10987,
    "げん": 10988,
    "モーター@@": 10989,
    "結ば": 10990,
    "裂@@": 10991,
    "ザード": 10992,
    "曽": 10993,
    "ねん": 10994,
    "私鉄": 10995,
    "コフ": 10996,
    "ステル": 10997,
    "祀@@": 10998,
    "Aug@@": 10999,
    "ヒトラー": 11000,
    "ヘリコプター": 11001,
    "内外": 11002,
    "ノミネート": 11003,
    "}}\\": 11004,
    "ix@@": 11005,
    "扶@@": 11006,
    "学位": 11007,
    "MX": 11008,
    "やってき": 11009,
    "ots": 11010,
    "TIM@@": 11011,
    "乾燥": 11012,
    "完結": 11013,
    "アーケード": 11014,
    "錦@@": 11015,
    "138": 11016,
    "ブルガリア": 11017,
    "unt@@": 11018,
    "駆": 11019,
    "媒": 11020,
    "火曜日": 11021,
    "gro@@": 11022,
    "質量": 11023,
    "にわたり": 11024,
    "ロボ": 11025,
    "PHP": 11026,
    "にあたり": 11027,
    "早い": 11028,
    "SI": 11029,
    "CR@@": 11030,
    "刑務所": 11031,
    "刺": 11032,
    "法令": 11033,
    "ライオンズ": 11034,
    "UFC": 11035,
    "服部": 11036,
    "ビリ@@": 11037,
    "嘘": 11038,
    "眼@@": 11039,
    "アルコール": 11040,
    "ca": 11041,
    "凍@@": 11042,
    "帰り": 11043,
    "けど": 11044,
    "ガソ@@": 11045,
    "データ@@": 11046,
    "意向": 11047,
    "落選": 11048,
    "酷@@": 11049,
    "坪": 11050,
    "浅草": 11051,
    "背中": 11052,
    "欧米": 11053,
    "_{\\": 11054,
    "長距離": 11055,
    "030@@": 11056,
    "ビス": 11057,
    "vent@@": 11058,
    "トロン": 11059,
    "好意": 11060,
    "考案": 11061,
    "笑い": 11062,
    "男優": 11063,
    "師匠": 11064,
    "シェ": 11065,
    "靴": 11066,
    "サラ": 11067,
    "品種": 11068,
    "吹替": 11069,
    "132": 11070,
    "佑": 11071,
    "懸@@": 11072,
    "吉川弘文館": 11073,
    "cessed": 11074,
    "着手": 11075,
    "食堂": 11076,
    "直樹": 11077,
    "建国": 11078,
    ">@@": 11079,
    "避け": 11080,
    "den": 11081,
    "監査": 11082,
    "公益": 11083,
    "ゼー@@": 11084,
    "酸素": 11085,
    "Team": 11086,
    "贈": 11087,
    "ET@@": 11088,
    "land@@": 11089,
    "対談": 11090,
    "結び@@": 11091,
    "マルチ@@": 11092,
    "もら@@": 11093,
    "ML": 11094,
    "ラウ@@": 11095,
    "JU@@": 11096,
    "墓地": 11097,
    "やって@@": 11098,
    "off@@": 11099,
    "ionary": 11100,
    "妊娠": 11101,
    "天神": 11102,
    "手塚": 11103,
    "133": 11104,
    "ウルトラ@@": 11105,
    "ナショ@@": 11106,
    "東山": 11107,
    "椅子": 11108,
    "ボイス": 11109,
    "eh@@": 11110,
    "ところが": 11111,
    "停留": 11112,
    "デッキ": 11113,
    "全部": 11114,
    "陥落": 11115,
    "否": 11116,
    "バイエルン": 11117,
    "みち": 11118,
    "尾崎": 11119,
    "貼@@": 11120,
    "マネジメント": 11121,
    "由紀@@": 11122,
    "日本一": 11123,
    "CON@@": 11124,
    "怪人": 11125,
    "寒": 11126,
    "こども": 11127,
    "America": 11128,
    "替わり": 11129,
    "シオン": 11130,
    "川島": 11131,
    "借り": 11132,
    "単行": 11133,
    "予測": 11134,
    "ene": 11135,
    "Institute": 11136,
    "雇@@": 11137,
    "人格": 11138,
    "学級": 11139,
    "ポップ": 11140,
    "190": 11141,
    "目黒": 11142,
    "前面": 11143,
    "長調": 11144,
    "book": 11145,
    "死体": 11146,
    "ある程度": 11147,
    "見つけ": 11148,
    "エイト": 11149,
    "』(": 11150,
    "笛": 11151,
    "知的": 11152,
    "株主": 11153,
    "就航": 11154,
    "重力": 11155,
    "きる": 11156,
    "ノイ": 11157,
    "スポーツニッポン": 11158,
    "ko": 11159,
    "とう@@": 11160,
    "晩年": 11161,
    "野川": 11162,
    "ymp@@": 11163,
    "定理": 11164,
    "LP": 11165,
    "格闘技": 11166,
    "帰": 11167,
    "殿堂": 11168,
    "JP": 11169,
    "領主": 11170,
    "透明": 11171,
    "高岡": 11172,
    "学問": 11173,
    "擬@@": 11174,
    "肝@@": 11175,
    "夷": 11176,
    "三男": 11177,
    "トヨタ@@": 11178,
    "なに": 11179,
    "滞": 11180,
    "考え方": 11181,
    "Jap@@": 11182,
    "ues": 11183,
    "コル": 11184,
    "揚@@": 11185,
    "しろ": 11186,
    "怖@@": 11187,
    "On@@": 11188,
    "つく@@": 11189,
    "中等": 11190,
    "降板": 11191,
    "倉敷": 11192,
    "甲板": 11193,
    "両国": 11194,
    "モニー": 11195,
    "沈": 11196,
    "クレイ@@": 11197,
    "組む": 11198,
    "ody": 11199,
    "均@@": 11200,
    "オフ@@": 11201,
    "131": 11202,
    "エクスプレス": 11203,
    "蒸@@": 11204,
    "ser@@": 11205,
    "陥っ": 11206,
    "初出": 11207,
    "玲@@": 11208,
    "Radio": 11209,
    "石橋": 11210,
    "システ@@": 11211,
    "渓": 11212,
    "軽量": 11213,
    "塞": 11214,
    "藩@@": 11215,
    "迎": 11216,
    "チーフ": 11217,
    "mm@@": 11218,
    "ella": 11219,
    "足立": 11220,
    "家系": 11221,
    "婦@@": 11222,
    "相次@@": 11223,
    "ムシ": 11224,
    "コネ@@": 11225,
    "ning": 11226,
    "ISSN": 11227,
    "ゲイ@@": 11228,
    "捧@@": 11229,
    "っ子": 11230,
    "NASA": 11231,
    "失い": 11232,
    "2016@@": 11233,
    "励@@": 11234,
    "部族": 11235,
    "オフィ@@": 11236,
    "萌": 11237,
    "isc@@": 11238,
    "={\\": 11239,
    "天文学": 11240,
    "bor@@": 11241,
    "磐": 11242,
    "サンフランシスコ": 11243,
    "134": 11244,
    "その@@": 11245,
    "倉庫": 11246,
    "English": 11247,
    "Vi@@": 11248,
    "京都大": 11249,
    "ぁ": 11250,
    "宅@@": 11251,
    "165": 11252,
    "sy@@": 11253,
    "BL@@": 11254,
    "reg@@": 11255,
    "152": 11256,
    "141": 11257,
    "Center": 11258,
    "液体": 11259,
    "怒": 11260,
    "喰@@": 11261,
    "併せ": 11262,
    "ペイ@@": 11263,
    "市街": 11264,
    "WBC": 11265,
    "Gam@@": 11266,
    "アトラ@@": 11267,
    "国語": 11268,
    "寄付": 11269,
    "リング@@": 11270,
    "棄@@": 11271,
    "バート・@@": 11272,
    "マレーシア": 11273,
    "クラウ@@": 11274,
    "燕": 11275,
    "キア": 11276,
    "闘争": 11277,
    "rm": 11278,
    "ults": 11279,
    "ath": 11280,
    "孔": 11281,
    "Media": 11282,
    "立花": 11283,
    "窓口": 11284,
    "交差": 11285,
    "202": 11286,
    "PRE@@": 11287,
    "フレッ@@": 11288,
    "保田": 11289,
    "外野": 11290,
    "麗@@": 11291,
    "託@@": 11292,
    "矢野": 11293,
    "シェイ@@": 11294,
    "兆": 11295,
    "oft": 11296,
    "チル@@": 11297,
    "新報": 11298,
    "鮮@@": 11299,
    "では": 11300,
    "紳@@": 11301,
    "Oxford": 11302,
    "消": 11303,
    "汁": 11304,
    "145": 11305,
    "フット@@": 11306,
    "含ん": 11307,
    "列島": 11308,
    "勧め": 11309,
    "中佐": 11310,
    "京阪": 11311,
    "トリー@@": 11312,
    "猟": 11313,
    "Bus@@": 11314,
    "むしろ": 11315,
    "ポジ@@": 11316,
    "コーポレーション": 11317,
    "以": 11318,
    "Prog@@": 11319,
    "ジャック・@@": 11320,
    "囲ま": 11321,
    "掛": 11322,
    "ress": 11323,
    "信濃": 11324,
    "1871": 11325,
    "熟@@": 11326,
    "ホワイ@@": 11327,
    "inger": 11328,
    "ばら": 11329,
    "duction": 11330,
    "恐竜": 11331,
    "何らかの": 11332,
    "XT": 11333,
    "観点": 11334,
    "芝居": 11335,
    "ドクター": 11336,
    "ディーゼル": 11337,
    "UK": 11338,
    "アドベンチャー": 11339,
    "ator": 11340,
    "プライズ": 11341,
    "日本国": 11342,
    "どんな": 11343,
    "液@@": 11344,
    "憎@@": 11345,
    "FF": 11346,
    "ラッシュ": 11347,
    "バスターミナル": 11348,
    "交番": 11349,
    "ジェイ": 11350,
    "日産": 11351,
    "野口": 11352,
    "137": 11353,
    "Thomas": 11354,
    "和解": 11355,
    "∞": 11356,
    "eart": 11357,
    "排気": 11358,
    "95@@": 11359,
    "内藤": 11360,
    "car@@": 11361,
    "看板": 11362,
    "キネマ旬@@": 11363,
    "叔父": 11364,
    "抜い": 11365,
    "プロト@@": 11366,
    "科目": 11367,
    "図っ": 11368,
    "Blu": 11369,
    "告げ": 11370,
    "ブン": 11371,
    "ッシャー": 11372,
    "Elect@@": 11373,
    "全般": 11374,
    "serv@@": 11375,
    "走り": 11376,
    "comm@@": 11377,
    "ウラ@@": 11378,
    "151": 11379,
    "立体": 11380,
    "拍@@": 11381,
    "HC": 11382,
    "花火": 11383,
    "code": 11384,
    "いつ": 11385,
    "ort": 11386,
    "クイ@@": 11387,
    "ヴィル": 11388,
    "ッズ": 11389,
    "美濃": 11390,
    "走っ": 11391,
    "釧路": 11392,
    "敷設": 11393,
    "対照": 11394,
    "漫才": 11395,
    "山陽": 11396,
    "オムニバス": 11397,
    "Plan@@": 11398,
    "175": 11399,
    "ナム": 11400,
    "inf@@": 11401,
    "似@@": 11402,
    "おそ@@": 11403,
    "回答": 11404,
    "シミュ@@": 11405,
    "PR@@": 11406,
    "ぐれ": 11407,
    "前者": 11408,
    "新曲": 11409,
    "クシー": 11410,
    "iel@@": 11411,
    "延期": 11412,
    "が丘": 11413,
    "バイト": 11414,
    "住吉": 11415,
    "ラン・@@": 11416,
    "TAK@@": 11417,
    "ようやく": 11418,
    "ox": 11419,
    "施工": 11420,
    "126": 11421,
    "erson": 11422,
    "ずっと": 11423,
    "ガ・@@": 11424,
    "ニック@@": 11425,
    "広がっ": 11426,
    "ittle": 11427,
    "オブ・ザ・@@": 11428,
    "ライブラリー": 11429,
    "予防": 11430,
    "すみ": 11431,
    "White": 11432,
    "皆": 11433,
    "小田": 11434,
    "山頂": 11435,
    "廣": 11436,
    "ビーチ": 11437,
    "アソシ@@": 11438,
    "珍しい": 11439,
    "リベ@@": 11440,
    "茅@@": 11441,
    "ral": 11442,
    "コメディ": 11443,
    "アウト@@": 11444,
    "桂@@": 11445,
    "指令": 11446,
    "時空": 11447,
    "集まっ": 11448,
    "クイーン": 11449,
    "oday": 11450,
    "pm": 11451,
    "ニール": 11452,
    "ales": 11453,
    "ギュ@@": 11454,
    "〜@@": 11455,
    "専属": 11456,
    "呼吸": 11457,
    "郡@@": 11458,
    "結城": 11459,
    "DP": 11460,
    "渡さ": 11461,
    "判事": 11462,
    "こん": 11463,
    "厳": 11464,
    "支": 11465,
    "本当に": 11466,
    "幹事": 11467,
    "認証": 11468,
    "（株）": 11469,
    "奇妙": 11470,
    "向かい": 11471,
    "TB": 11472,
    "テック": 11473,
    "ガール@@": 11474,
    "付録": 11475,
    "ガラ@@": 11476,
    "尾張": 11477,
    "チェック": 11478,
    "つくば": 11479,
    "that": 11480,
    "アタック": 11481,
    "ze": 11482,
    "手伝@@": 11483,
    "のぼ@@": 11484,
    "整数": 11485,
    "ヴィルヘル@@": 11486,
    "壌": 11487,
    "センチ@@": 11488,
    "official": 11489,
    "1868": 11490,
    "ゃ": 11491,
    "杉山": 11492,
    "避ける": 11493,
    "烏@@": 11494,
    "称する": 11495,
    "東大": 11496,
    "チェスター": 11497,
    "京王": 11498,
    "灯台": 11499,
    "参入": 11500,
    "ld": 11501,
    "査@@": 11502,
    "キューバ": 11503,
    "賠償": 11504,
    "ky": 11505,
    "アイランド": 11506,
    "富田": 11507,
    "ison": 11508,
    "精霊": 11509,
    "萩": 11510,
    "フロリダ": 11511,
    "К@@": 11512,
    "篤": 11513,
    "後部": 11514,
    "報知": 11515,
    "物資": 11516,
    "駐@@": 11517,
    "保証": 11518,
    "_@@": 11519,
    "謡": 11520,
    "みれ": 11521,
    "!!」": 11522,
    "ティング@@": 11523,
    "Books": 11524,
    "のぶ": 11525,
    "コミ": 11526,
    "ダム@@": 11527,
    "満たす": 11528,
    "回る": 11529,
    "毎月": 11530,
    "フィート": 11531,
    "website": 11532,
    "運動@@": 11533,
    "毎日新聞社": 11534,
    "公爵": 11535,
    "喪失": 11536,
    "大系": 11537,
    "抹@@": 11538,
    "99@@": 11539,
    "誘拐": 11540,
    "マーシャル": 11541,
    "随": 11542,
    "元禄": 11543,
    "品質": 11544,
    "Book": 11545,
    "景観": 11546,
    "ふく": 11547,
    "化粧": 11548,
    "鐵": 11549,
    "ャ": 11550,
    "相模@@": 11551,
    "朱@@": 11552,
    "りょう": 11553,
    "商事": 11554,
    "薬物": 11555,
    "リース": 11556,
    "投げ@@": 11557,
    "オレ@@": 11558,
    "狩り": 11559,
    "歌舞伎": 11560,
    "横浜@@": 11561,
    "中退": 11562,
    "地質": 11563,
    "本郷": 11564,
    "テーブル": 11565,
    "strumental": 11566,
    "ホリ@@": 11567,
    "小規模": 11568,
    "ori@@": 11569,
    "MAN": 11570,
    "同等": 11571,
    "悟@@": 11572,
    "世田谷": 11573,
    "協奏曲": 11574,
    "イノ@@": 11575,
    "ette": 11576,
    "りゅう": 11577,
    "従五位": 11578,
    "狙っ": 11579,
    "sub@@": 11580,
    "times": 11581,
    "ities": 11582,
    "省略": 11583,
    "優しい": 11584,
    "ほしい": 11585,
    "分間": 11586,
    "フスキー": 11587,
    "生態": 11588,
    "ヴィクト@@": 11589,
    "麻生": 11590,
    "チア@@": 11591,
    "三宅": 11592,
    "運河": 11593,
    "褐色": 11594,
    "白鳥": 11595,
    "awa": 11596,
    "時事@@": 11597,
    "EL": 11598,
    "谷口": 11599,
    "刺激": 11600,
    "薄": 11601,
    "GIR@@": 11602,
    "告知": 11603,
    "みな": 11604,
    "アナウンス": 11605,
    "落下": 11606,
    "超人": 11607,
    "クリスト@@": 11608,
    "剣道": 11609,
    "起こ@@": 11610,
    "食糧": 11611,
    "Is": 11612,
    "下院": 11613,
    "ダード": 11614,
    "167": 11615,
    "low@@": 11616,
    "蝶": 11617,
    "奈子": 11618,
    "着い": 11619,
    "ウェブ@@": 11620,
    "立た": 11621,
    "辱": 11622,
    "ハロ@@": 11623,
    "エ・@@": 11624,
    "がい": 11625,
    "思い出": 11626,
    "もも": 11627,
    "諭": 11628,
    "担っ": 11629,
    "酸@@": 11630,
    "かた": 11631,
    "ブライアン": 11632,
    "バース": 11633,
    "eat": 11634,
    "TE": 11635,
    "iel": 11636,
    "倍@@": 11637,
    "所収": 11638,
    "NP@@": 11639,
    "次官": 11640,
    "巻き": 11641,
    "伯@@": 11642,
    "北口": 11643,
    "駐屯": 11644,
    "救う": 11645,
    "ダニエル": 11646,
    "ater": 11647,
    "ジー・@@": 11648,
    "129": 11649,
    "日本海": 11650,
    "1886": 11651,
    "手掛け": 11652,
    "特設": 11653,
    "みゆき": 11654,
    "Lu@@": 11655,
    "絆": 11656,
    "アンダー@@": 11657,
    "まき": 11658,
    "究@@": 11659,
    "ef@@": 11660,
    "コラボレーション": 11661,
    "磯": 11662,
    "付与": 11663,
    "暗号": 11664,
    "東武": 11665,
    "電気@@": 11666,
    "ems": 11667,
    "エッセ@@": 11668,
    "般@@": 11669,
    "スコア": 11670,
    "ぼう": 11671,
    "チリ": 11672,
    "個別": 11673,
    "幼児": 11674,
    "die": 11675,
    "ボルト": 11676,
    "jap@@": 11677,
    "教科書": 11678,
    "Don@@": 11679,
    "Spr@@": 11680,
    "商号": 11681,
    "ワーズ": 11682,
    "論争": 11683,
    "こん@@": 11684,
    "静岡@@": 11685,
    "我々": 11686,
    "本木": 11687,
    "中京": 11688,
    "しかも": 11689,
    "TKO": 11690,
    "コミュニケーションズ": 11691,
    "デビ@@": 11692,
    "ソル@@": 11693,
    "ы@@": 11694,
    "疲@@": 11695,
    "^@@": 11696,
    "話し@@": 11697,
    "県庁": 11698,
    "髄": 11699,
    "伏見": 11700,
    "捉@@": 11701,
    "築い": 11702,
    "チル": 11703,
    "追跡": 11704,
    "停": 11705,
    "ь@@": 11706,
    "ガイ": 11707,
    "化合": 11708,
    "モンズ": 11709,
    "八木": 11710,
    "交際": 11711,
    "バージニア": 11712,
    "通信@@": 11713,
    "抑制": 11714,
    "ループ": 11715,
    "シグ@@": 11716,
    "府立": 11717,
    "筆@@": 11718,
    "流用": 11719,
    "曹": 11720,
    "日テレ": 11721,
    "Cambridge": 11722,
    "しゃ": 11723,
    "site": 11724,
    "156": 11725,
    "TV@@": 11726,
    "住所": 11727,
    "ジョージア": 11728,
    "牡馬": 11729,
    "1893": 11730,
    "下関": 11731,
    "西田": 11732,
    "震": 11733,
    "Math@@": 11734,
    "Top": 11735,
    "辰": 11736,
    "ena": 11737,
    "其@@": 11738,
    "いか": 11739,
    "ルーツ": 11740,
    "Aut@@": 11741,
    "はら": 11742,
    "構": 11743,
    "STER": 11744,
    "ソナ@@": 11745,
    "Tit@@": 11746,
    "底@@": 11747,
    "MV": 11748,
    "ルパン": 11749,
    "真田": 11750,
    "捕手": 11751,
    "沿線": 11752,
    "ギン": 11753,
    "しかっ": 11754,
    "クロアチア": 11755,
    "挨拶": 11756,
    "四日市": 11757,
    "すず@@": 11758,
    "進める": 11759,
    "34@@": 11760,
    "固め": 11761,
    "-」": 11762,
    "キュー": 11763,
    "que": 11764,
    "アグ@@": 11765,
    "諾": 11766,
    "箱根": 11767,
    "がし": 11768,
    "キリスト教": 11769,
    "号車": 11770,
    "ゲット": 11771,
    "開く": 11772,
    "Roy@@": 11773,
    "ベッ@@": 11774,
    "名古屋@@": 11775,
    "杏@@": 11776,
    "199": 11777,
    "コンサル@@": 11778,
    "系譜": 11779,
    "並み": 11780,
    "筒@@": 11781,
    "レイン@@": 11782,
    "リス@@": 11783,
    "ロッテ": 11784,
    "ドコモ": 11785,
    "狭": 11786,
    "ool": 11787,
    "リレー": 11788,
    "配慮": 11789,
    "シルバー": 11790,
    "暗黒": 11791,
    "筆頭": 11792,
    "Special": 11793,
    "敦": 11794,
    "ンズ@@": 11795,
    "改組": 11796,
    "主人": 11797,
    "豪華": 11798,
    "カイ": 11799,
    "カタログ": 11800,
    "逃れ": 11801,
    "Fil@@": 11802,
    "aki": 11803,
    "トランス": 11804,
    "ナイト@@": 11805,
    "フィラ@@": 11806,
    "津波": 11807,
    "nikkansports": 11808,
    "010@@": 11809,
    "位置づけ": 11810,
    "純粋": 11811,
    "儀式": 11812,
    "証@@": 11813,
    "単語": 11814,
    "まったく": 11815,
    "挿@@": 11816,
    "臼@@": 11817,
    "HO": 11818,
    "海兵": 11819,
    "ナポレオン": 11820,
    "あん": 11821,
    "153": 11822,
    "ニカ": 11823,
    "水中": 11824,
    "朝倉": 11825,
    "一宮": 11826,
    "NFL": 11827,
    "ort@@": 11828,
    "頻@@": 11829,
    "VOL": 11830,
    "立地": 11831,
    "唱": 11832,
    "大変": 11833,
    "oft@@": 11834,
    "解雇": 11835,
    "エロ": 11836,
    "将校": 11837,
    "Die": 11838,
    "栖": 11839,
    "天王": 11840,
    "シャツ": 11841,
    "有馬": 11842,
    "在地": 11843,
    "伝わる": 11844,
    "Hor@@": 11845,
    "嗣": 11846,
    "礁": 11847,
    "有機": 11848,
    "8000": 11849,
    "結晶": 11850,
    "帽子": 11851,
    "その間": 11852,
    "ida": 11853,
    "歩く": 11854,
    "ロング@@": 11855,
    "最古": 11856,
    "!?@@": 11857,
    "CP": 11858,
    "Rol@@": 11859,
    "ならびに": 11860,
    "鎧": 11861,
    "まる@@": 11862,
    "tion": 11863,
    "婚約": 11864,
    "eav@@": 11865,
    "ユニバーサル": 11866,
    "起こり": 11867,
    "ther": 11868,
    "Wii": 11869,
    "僚": 11870,
    "歩行": 11871,
    "アロ@@": 11872,
    "襲わ": 11873,
    "Batt@@": 11874,
    "[@@": 11875,
    "この間": 11876,
    "220": 11877,
    "ディス@@": 11878,
    "南口": 11879,
    "$": 11880,
    "北村": 11881,
    "支線": 11882,
    "KADOKAWA": 11883,
    "主宰": 11884,
    "隠れ": 11885,
    "文化庁": 11886,
    "守っ": 11887,
    "宜": 11888,
    "要望": 11889,
    "日高": 11890,
    "捜索": 11891,
    "調達": 11892,
    "熱帯": 11893,
    "人組": 11894,
    "綴@@": 11895,
    "George": 11896,
    "統@@": 11897,
    "フィン@@": 11898,
    "オロ@@": 11899,
    "鑑賞": 11900,
    "\"（": 11901,
    "濃度": 11902,
    "ステル@@": 11903,
    "プログラミング": 11904,
    "プレックス": 11905,
    "松島": 11906,
    "瑞": 11907,
    "灘": 11908,
    "ハリー": 11909,
    "gan@@": 11910,
    "棋士": 11911,
    "ces": 11912,
    "登記": 11913,
    "従軍": 11914,
    "西方": 11915,
    "マーケ@@": 11916,
    "クリスタル": 11917,
    "拳銃": 11918,
    "ラジオ@@": 11919,
    "IBM": 11920,
    "ums": 11921,
    "チケット": 11922,
    "奮@@": 11923,
[...]
