{
    "<s>": 0,
    "<pad>": 1,
    "</s>": 2,
    "<unk>": 3,
    ",": 4,
    "de": 5,
    ".": 6,
    "'": 7,
    "la": 8,
    "-": 9,
    "(": 10,
    "et": 11,
    "le": 12,
    "en": 13,
    "l": 14,
    "à": 15,
    ")": 16,
    ":": 17,
    "des": 18,
    "d": 19,
    "du": 20,
    "les": 21,
    "est": 22,
    "un": 23,
    "une": 24,
    "’": 25,
    "a": 26,
    "↑": 27,
    "sur": 28,
    "dans": 29,
    "«": 30,
    "par": 31,
    "au": 32,
    "pour": 33,
    "Le": 34,
    "il": 35,
    "s": 36,
    "qui": 37,
    "que": 38,
    "Portail": 39,
    "La": 40,
    "»,": 41,
    "er": 42,
    "ou": 43,
    "son": 44,
    ").": 45,
    "),": 46,
    "avec": 47,
    "se": 48,
    "S@@": 49,
    "é": 50,
    "o": 51,
    "on": 52,
    "p": 53,
    "/": 54,
    "Il": 55,
    "y": 56,
    "2": 57,
    "L": 58,
    "n": 59,
    "aux": 60,
    "Les": 61,
    "in@@": 62,
    "s@@": 63,
    "plus": 64,
    "M@@": 65,
    "i": 66,
    "B@@": 67,
    "b@@": 68,
    "consulté": 69,
    "L@@": 70,
    "T@@": 71,
    "sont": 72,
    "1": 73,
    "D@@": 74,
    ";": 75,
    "t@@": 76,
    "P@@": 77,
    "t": 78,
    "an": 79,
    "»": 80,
    "ée": 81,
    "ent": 82,
    "sa": 83,
    "C@@": 84,
    "d@@": 85,
    "ce": 86,
    "g@@": 87,
    "ant": 88,
    "H@@": 89,
    "G@@": 90,
    "e": 91,
    "A@@": 92,
    "ne": 93,
    "En": 94,
    "es": 95,
    "c@@": 96,
    "elle": 97,
    "of": 98,
    "e@@": 99,
    "qu": 100,
    "F@@": 101,
    "te": 102,
    "c": 103,
    "R@@": 104,
    "n@@": 105,
    "ses": 106,
    "f@@": 107,
    "y@@": 108,
    "3": 109,
    "été": 110,
    "k@@": 111,
    "h@@": 112,
    "N@@": 113,
    "article": 114,
    "en@@": 115,
    "és": 116,
    "K@@": 117,
    "al": 118,
    "France": 119,
    "re@@": 120,
    "ation": 121,
    "l@@": 122,
    "E@@": 123,
    "ch@@": 124,
    "dé@@": 125,
    "pas": 126,
    "b": 127,
    "r@@": 128,
    "z@@": 129,
    "ar@@": 130,
    "m@@": 131,
    "p@@": 132,
    "us": 133,
    "V@@": 134,
    "comme": 135,
    "o@@": 136,
    "O@@": 137,
    "v@@": 138,
    "4": 139,
    "ées": 140,
    "an@@": 141,
    "li@@": 142,
    "The": 143,
    "ti@@": 144,
    "in": 145,
    "deux": 146,
    "5": 147,
    "\"": 148,
    "el": 149,
    "W@@": 150,
    "m": 151,
    "i@@": 152,
    "and": 153,
    "ré@@": 154,
    "the": 155,
    "I@@": 156,
    "di@@": 157,
    "re": 158,
    "er@@": 159,
    "or@@": 160,
    "es@@": 161,
    "ri@@": 162,
    "ont": 163,
    "al@@": 164,
    "6": 165,
    "w@@": 166,
    "u@@": 167,
    "ale": 168,
    "ad@@": 169,
    "Cet": 170,
    "Paris": 171,
    "age": 172,
    "u": 173,
    "J@@": 174,
    "tes": 175,
    "ts": 176,
    "Cette": 177,
    "ans": 178,
    "entre": 179,
    "fait": 180,
    "C": 181,
    "A": 182,
    "Ch@@": 183,
    "am@@": 184,
    "ligne": 185,
    "7": 186,
    "a@@": 187,
    "Saint": 188,
    "mais": 189,
    "ement": 190,
    "ag@@": 191,
    "autres": 192,
    "at@@": 193,
    "té": 194,
    "el@@": 195,
    "st@@": 196,
    "as": 197,
    "é@@": 198,
    "as@@": 199,
    "même": 200,
    "sous": 201,
    "at": 202,
    "cette": 203,
    "8": 204,
    "2015": 205,
    "Jean": 206,
    "ine": 207,
    "selon": 208,
    "2016": 209,
    "tr@@": 210,
    "projets": 211,
    "is@@": 212,
    "on@@": 213,
    "eur": 214,
    "ville": 215,
    "r": 216,
    "être": 217,
    "f": 218,
    "10": 219,
    "faire": 220,
    "modifier": 221,
    "?": 222,
    "janvier": 223,
    "vi@@": 224,
    "2014": 225,
    "ait": 226,
    "par@@": 227,
    "th@@": 228,
    "9": 229,
    "ers": 230,
    "im@@": 231,
    "concernant": 232,
    "ie": 233,
    "français": 234,
    "2013": 235,
    "lui": 236,
    "ou@@": 237,
    "voir": 238,
    "2017": 239,
    "j@@": 240,
    "k": 241,
    "2011": 242,
    "2012": 243,
    "ab@@": 244,
    "ac@@": 245,
    "Elle": 246,
    "–": 247,
    "[": 248,
    "Mar@@": 249,
    "octobre": 250,
    "après": 251,
    "Pour": 252,
    "site": 253,
    "?)": 254,
    "ci@@": 255,
    "com": 256,
    "2010": 257,
    "était": 258,
    "om@@": 259,
    "17@@": 260,
    "leur": 261,
    "mai": 262,
    "ons": 263,
    "au@@": 264,
    "4@@": 265,
    "juin": 266,
    "ces": 267,
    "ing": 268,
    "nom": 269,
    "ro@@": 270,
    "Vous": 271,
    "x": 272,
    "2018": 273,
    "mars": 274,
    "pouvez": 275,
    "ter": 276,
    "con@@": 277,
    "comment": 278,
    "ul@@": 279,
    "ébauche": 280,
    "2@@": 281,
    "septembre": 282,
    "no": 283,
    "août": 284,
    "fr": 285,
    "connaissances": 286,
    "vos": 287,
    "partager": 288,
    "ISBN": 289,
    "dont": 290,
    "ph@@": 291,
    "aire": 292,
    "décembre": 293,
    "améliorant": 294,
    "juillet": 295,
    "où": 296,
    "ni@@": 297,
    "16@@": 298,
    "ère": 299,
    "eux": 300,
    "h": 301,
    "Re@@": 302,
    "novembre": 303,
    "commune": 304,
    "avril": 305,
    "!": 306,
    "et@@": 307,
    "is": 308,
    "ex@@": 309,
    "eurs": 310,
    "pi@@": 311,
    "&": 312,
    "ations": 313,
    "années": 314,
    "2009": 315,
    "co@@": 316,
    "ar": 317,
    "Ar@@": 318,
    "or": 319,
    "siècle": 320,
    "section": 321,
    "le@@": 322,
    "0": 323,
    "ap@@": 324,
    "me": 325,
    "em@@": 326,
    "fut": 327,
    "M": 328,
    "aide": 329,
    "pl@@": 330,
    "bi@@": 331,
    "5@@": 332,
    "In@@": 333,
    "aussi": 334,
    "3@@": 335,
    "18@@": 336,
    "ens": 337,
    "g": 338,
    "ard": 339,
    "également": 340,
    "2008": 341,
    "U@@": 342,
    "20": 343,
    "si@@": 344,
    "6@@": 345,
    "février": 346,
    "qu@@": 347,
    "per@@": 348,
    "D": 349,
    "premier": 350,
    "12": 351,
    "recommandations": 352,
    "ol@@": 353,
    "tu@@": 354,
    "lire": 355,
    "elles": 356,
    "alors": 357,
    "Z@@": 358,
    "che": 359,
    "Al@@": 360,
    "oc@@": 361,
    "eau": 362,
    "ainsi": 363,
    "2007": 364,
    "15": 365,
    "ob@@": 366,
    "peut": 367,
    "ai@@": 368,
    "pré@@": 369,
    "Y@@": 370,
    "2006": 371,
    "11": 372,
    "Bibliothèque": 373,
    "av@@": 374,
    "première": 375,
    "to": 376,
    "depuis": 377,
    "nationale": 378,
    "15@@": 379,
    "www": 380,
    "vers": 381,
    "P": 382,
    "Con@@": 383,
    "•": 384,
    "puis": 385,
    "Wikimedia": 386,
    "».": 387,
    "gu@@": 388,
    "An@@": 389,
    "pa@@": 390,
    "articles": 391,
    "partie": 392,
    "17": 393,
    "À": 394,
    "op@@": 395,
    "E": 396,
    "contre": 397,
    "su@@": 398,
    "Li@@": 399,
    "lors": 400,
    "correspondants": 401,
    "it@@": 402,
    "um": 403,
    "13": 404,
    "Car@@": 405,
    "né": 406,
    "Comment": 407,
    "mar@@": 408,
    "1er": 409,
    "ec@@": 410,
    "16": 411,
    "ques": 412,
    "ent@@": 413,
    "ance": 414,
    "J": 415,
    "ur@@": 416,
    "14": 417,
    "18": 418,
    "z": 419,
    "30": 420,
    "monde": 421,
    "I": 422,
    "9@@": 423,
    "S": 424,
    "os": 425,
    "ante": 426,
    "://": 427,
    "1@@": 428,
    "ed": 429,
    "jusqu": 430,
    "ver@@": 431,
    "ter@@": 432,
    "ales": 433,
    "7@@": 434,
    "trois": 435,
    "É@@": 436,
    "États": 437,
    "po@@": 438,
    "ils": 439,
    "8@@": 440,
    "21": 441,
    "R": 442,
    "sans": 443,
    "eu@@": 444,
    "ach@@": 445,
    "Le@@": 446,
    "vide": 447,
    ",‎": 448,
    "%": 449,
    "pro@@": 450,
    "og@@": 451,
    "able": 452,
    "]": 453,
    "000": 454,
    "De": 455,
    "25": 456,
    "=": 457,
    "24": 458,
    "19": 459,
    "détaillée": 460,
    "Sh@@": 461,
    "française": 462,
    "ay": 463,
    "end@@": 464,
    "ge": 465,
    "un@@": 466,
    "ot@@": 467,
    "T": 468,
    "22": 469,
    "F": 470,
    "incomplète": 471,
    "mo@@": 472,
    "fi@@": 473,
    "groupe": 474,
    "us@@": 475,
    "ants": 476,
    "Au@@": 477,
    "avant": 478,
    "mes": 479,
    "Votre": 480,
    "ain": 481,
    "bienvenue": 482,
    "insuffisamment": 483,
    "com@@": 484,
    "ss@@": 485,
    "Pierre": 486,
    "23": 487,
    "de@@": 488,
    "car@@": 489,
    ".,": 490,
    "x@@": 491,
    "ot": 492,
    "tant": 493,
    "ch": 494,
    "mon@@": 495,
    "2005": 496,
    "13@@": 497,
    "dis@@": 498,
    "se@@": 499,
    "très": 500,
    "vie": 501,
    "no@@": 502,
    "ass@@": 503,
    "ence": 504,
    "ages": 505,
    "mi@@": 506,
    "ette": 507,
    "B": 508,
    "Unis": 509,
    "histoire": 510,
    "enne": 511,
    "Un": 512,
    "fin": 513,
    "res@@": 514,
    "ori@@": 515,
    "tout": 516,
    "14@@": 517,
    "ins": 518,
    "plusieurs": 519,
    "Dans": 520,
    "Référence": 521,
    "famille": 522,
    "fois": 523,
    "Th@@": 524,
    "pr@@": 525,
    "aires": 526,
    "ér@@": 527,
    "film": 528,
    "and@@": 529,
    "26": 530,
    "27": 531,
    "ak@@": 532,
    "Sur": 533,
    "os@@": 534,
    "ents": 535,
    "ang@@": 536,
    "politique": 537,
    "Par@@": 538,
    "cl@@": 539,
    "Mon@@": 540,
    "mort": 541,
    "page": 542,
    "ill@@": 543,
    "cours": 544,
    "Di@@": 545,
    "{\\": 546,
    "sou@@": 547,
    "2000": 548,
    "ati@@": 549,
    "ères": 550,
    "année": 551,
    "ra@@": 552,
    "2004": 553,
    "Ro@@": 554,
    "http": 555,
    "tions": 556,
    "28": 557,
    "N": 558,
    "série": 559,
    "St@@": 560,
    "ais": 561,
    "10@@": 562,
    "29": 563,
    "ali@@": 564,
    "+": 565,
    "tion": 566,
    "population": 567,
    "man": 568,
    "place": 569,
    "art": 570,
    "min@@": 571,
    "ez": 572,
    "Du@@": 573,
    "ateur": 574,
    "tique": 575,
    "ve": 576,
    "De@@": 577,
    "saison": 578,
    "1999": 579,
    "autorité": 580,
    "all@@": 581,
    "avoir": 582,
    "ci": 583,
    "avait": 584,
    "titre": 585,
    "communes": 586,
    "ton": 587,
    "0@@": 588,
    "Une": 589,
    "to@@": 590,
    "inter@@": 591,
    "gr@@": 592,
    "non": 593,
    "{": 594,
    "temps": 595,
    "ét@@": 596,
    "one": 597,
    "gi@@": 598,
    "res": 599,
    "général": 600,
    "ologie": 601,
    "tous": 602,
    "bl@@": 603,
    "Ce": 604,
    "vol": 605,
    "ég@@": 606,
    "ique": 607,
    "sur@@": 608,
    "liste": 609,
    "cou@@": 610,
    "partir": 611,
    "grand": 612,
    "tri@@": 613,
    "um@@": 614,
    "ois": 615,
    "Se@@": 616,
    "Louis": 617,
    "oi@@": 618,
    "équipe": 619,
    "notamment": 620,
    "lieu": 621,
    "si": 622,
    "il@@": 623,
    "pays": 624,
    "2002": 625,
    "am": 626,
    "ements": 627,
    "Am@@": 628,
    "ise": 629,
    "code": 630,
    "Au": 631,
    "ue": 632,
    "hi@@": 633,
    "2003": 634,
    "Vi@@": 635,
    "du@@": 636,
    "bien": 637,
    "ém@@": 638,
    "G": 639,
    "autre": 640,
    "te@@": 641,
    "els": 642,
    "suite": 643,
    "Com@@": 644,
    "En@@": 645,
    "br@@": 646,
    "sud": 647,
    "ell@@": 648,
    "ines": 649,
    "Lu@@": 650,
    "homonymes": 651,
    "Liste": 652,
    "ah@@": 653,
    "New": 654,
    "ey": 655,
    "2001": 656,
    "mer": 657,
    "di": 658,
    "forme": 659,
    "nord": 660,
    "ai": 661,
    "leurs": 662,
    "lu@@": 663,
    "Be@@": 664,
    "international": 665,
    "habitants": 666,
    "ac": 667,
    "O": 668,
    "aient": 669,
    "lo@@": 670,
    "od@@": 671,
    "v": 672,
    "ma@@": 673,
    "ay@@": 674,
    "Sch@@": 675,
    "31": 676,
    "onn@@": 677,
    "ru@@": 678,
    "ate": 679,
    "az@@": 680,
    "ta": 681,
    "moins": 682,
    "nouveau": 683,
    "Mo@@": 684,
    "én@@": 685,
    "On": 686,
    "région": 687,
    "guerre": 688,
    "euse": 689,
    "II": 690,
    "teur": 691,
    "ches": 692,
    "Bi@@": 693,
    "Bar@@": 694,
    "iste": 695,
    "\\": 696,
    "tre": 697,
    "id@@": 698,
    "cor@@": 699,
    "Site": 700,
    "°": 701,
    "ane": 702,
    "trans@@": 703,
    "eu": 704,
    "man@@": 705,
    "homme": 706,
    "be": 707,
    "H": 708,
    "onne": 709,
    "rou@@": 710,
    "gar@@": 711,
    "él@@": 712,
    "ten@@": 713,
    "km": 714,
    "ra": 715,
    "Cor@@": 716,
    ",.": 717,
    "rem@@": 718,
    "1998": 719,
    "ad": 720,
    "ir@@": 721,
    "Après": 722,
    "encore": 723,
    "â@@": 724,
    "américain": 725,
    "Paul": 726,
    "cr@@": 727,
    "ana": 728,
    "da": 729,
    "Charles": 730,
    "Co@@": 731,
    "Br@@": 732,
    "col@@": 733,
    "sh@@": 734,
    "der": 735,
    "ari@@": 736,
    "soit": 737,
    "ff@@": 738,
    "ann@@": 739,
    "ment": 740,
    "ber@@": 741,
    "Si@@": 742,
    "Ber@@": 743,
    "ed@@": 744,
    "Son": 745,
    "Gu@@": 746,
    "pendant": 747,
    "fils": 748,
    "ente": 749,
    "mise": 750,
    "50": 751,
    "album": 752,
    "éri@@": 753,
    "ca": 754,
    "devient": 755,
    "État": 756,
    "ic@@": 757,
    "tés": 758,
    "Bo@@": 759,
    "dit": 760,
    "anglais": 761,
    "début": 762,
    "gn@@": 763,
    "ble": 764,
    "ran@@": 765,
    "ture": 766,
    "quatre": 767,
    "Europe": 768,
    "nombre": 769,
    "ade": 770,
    "Per@@": 771,
    "Or@@": 772,
    "V": 773,
    "François": 774,
    "pe": 775,
    "Pro@@": 776,
    "aï@@": 777,
    "Bu@@": 778,
    "—": 779,
    "enti@@": 780,
    "rée": 781,
    "base": 782,
    "village": 783,
    "football": 784,
    "projet": 785,
    "John": 786,
    "12@@": 787,
    "20@@": 788,
    "Marie": 789,
    "ess@@": 790,
    "étant": 791,
    "Wikidata": 792,
    "musique": 793,
    "peu": 794,
    "version": 795,
    "officiel": 796,
    "jour": 797,
    "th": 798,
    "celle": 799,
    "données": 800,
    "grande": 801,
    "vous": 802,
    "│": 803,
    "église": 804,
    "national": 805,
    "978": 806,
    "oli@@": 807,
    "He@@": 808,
    "pri@@": 809,
    "va": 810,
    "Commons": 811,
    "è@@": 812,
    "ven@@": 813,
    "ens@@": 814,
    "ond@@": 815,
    "nouvelle": 816,
    "Pays": 817,
    "ui@@": 818,
    "donc": 819,
    "Jacques": 820,
    "celui": 821,
    "Tr@@": 822,
    "ev@@": 823,
    "ain@@": 824,
    "Nord": 825,
    "pu@@": 826,
    "déc@@": 827,
    "ds": 828,
    "aine": 829,
    "ani@@": 830,
    "face": 831,
    "Mor@@": 832,
    "X": 833,
    "Qu@@": 834,
    "1997": 835,
    "tin@@": 836,
    "chi@@": 837,
    "fl@@": 838,
    "Cl@@": 839,
    "X@@": 840,
    "ma": 841,
    "cher": 842,
    "fer@@": 843,
    "ats": 844,
    "for@@": 845,
    "roi": 846,
    "ouest": 847,
    "Su@@": 848,
    "chez": 849,
    "père": 850,
    "ia": 851,
    "tur@@": 852,
    "ina": 853,
    "Ver@@": 854,
    "sources": 855,
    "Pe@@": 856,
    "Robert": 857,
    "cas": 858,
    "bo@@": 859,
    "située": 860,
    "our@@": 861,
    "International": 862,
    "origine": 863,
    "co": 864,
    "Grand": 865,
    "président": 866,
    "ille": 867,
    "it": 868,
    "indi@@": 869,
    "For@@": 870,
    "1990": 871,
    "club": 872,
    "tour": 873,
    "espèce": 874,
    "lier": 875,
    "bou@@": 876,
    "porte": 877,
    "ty": 878,
    "Michel": 879,
    "Pi@@": 880,
    "men@@": 881,
    "jeu": 882,
    "rec@@": 883,
    "Ri@@": 884,
    "1996": 885,
    "quelques": 886,
    "part": 887,
    "bu@@": 888,
    "Mi@@": 889,
    "Man@@": 890,
    "our": 891,
    "ing@@": 892,
    "éc@@": 893,
    "Me@@": 894,
    "1995": 895,
    "Pl@@": 896,
    "production": 897,
    "j": 898,
    "lin": 899,
    "ell": 900,
    "taire": 901,
    "Article": 902,
    "ains": 903,
    "ets": 904,
    "ves": 905,
    "esse": 906,
    "cinq": 907,
    "era": 908,
    "département": 909,
    "dernier": 910,
    "Mal@@": 911,
    "ables": 912,
    "édition": 913,
    ")@@": 914,
    "est@@": 915,
    "Ru@@": 916,
    "ayant": 917,
    "Her@@": 918,
    "40": 919,
    "Jo@@": 920,
    "Sud": 921,
    "ren@@": 922,
    "doit": 923,
    "des@@": 924,
    "ès": 925,
    "af@@": 926,
    "Ex@@": 927,
    "fr@@": 928,
    "Canada": 929,
    "cu@@": 930,
    "époque": 931,
    "rôle": 932,
    "can@@": 933,
    "Es@@": 934,
    "ke": 935,
    "w": 936,
    "Col@@": 937,
    "ser@@": 938,
    "èrent": 939,
    "trouve": 940,
    "ancien": 941,
    "por@@": 942,
    "ge@@": 943,
    "00@@": 944,
    "tiques": 945,
    "cet": 946,
    "tres": 947,
    "Ad@@": 948,
    "ances": 949,
    "tée": 950,
    "centre": 951,
    "adi@@": 952,
    "do@@": 953,
    "République": 954,
    "hui": 955,
    "cré@@": 956,
    "ennes": 957,
    "sion": 958,
    "mor@@": 959,
    "rom@@": 960,
    "Bou@@": 961,
    "ateurs": 962,
    "tard": 963,
    "ley": 964,
    "1994": 965,
    "ensemble": 966,
    "ré": 967,
    "Ab@@": 968,
    "ord@@": 969,
    "situé": 970,
    "Database": 971,
    "oul@@": 972,
    "Mont@@": 973,
    "Po@@": 974,
    "près": 975,
    "chef": 976,
    "rue": 977,
    "displaystyle": 978,
    "int@@": 979,
    "amb@@": 980,
    "deuxième": 981,
    "ll@@": 982,
    "ris@@": 983,
    "1991": 984,
    "Val@@": 985,
    "nes": 986,
    "for": 987,
    "vo@@": 988,
    "á@@": 989,
    "_": 990,
    "rés": 991,
    "K": 992,
    "iss@@": 993,
    "oir": 994,
    "Ré@@": 995,
    "gh@@": 996,
    "York": 997,
    "Fl@@": 998,
    "auteurs": 999,
    "Har@@": 1000,
    "ner": 1001,
    "ist@@": 1002,
    "ang": 1003,
    "ins@@": 1004,
    "Des": 1005,
    "}": 1006,
    "rel@@": 1007,
    "bles": 1008,
    "étaient": 1009,
    "Histoire": 1010,
    "ler": 1011,
    "ano": 1012,
    "ka": 1013,
    "U": 1014,
    "be@@": 1015,
    "mois": 1016,
    "pe@@": 1017,
    "Ils": 1018,
    "enn@@": 1019,
    "év@@": 1020,
    "1992": 1021,
    "1993": 1022,
    "Allemagne": 1023,
    "_@@": 1024,
    "jours": 1025,
    "ig@@": 1026,
    "rie": 1027,
    "gé@@": 1028,
    "point": 1029,
    "fin@@": 1030,
    "60": 1031,
    "toute": 1032,
    "ik@@": 1033,
    "pt@@": 1034,
    "ok@@": 1035,
    "cinéma": 1036,
    "esti@@": 1037,
    "tro@@": 1038,
    "ju@@": 1039,
    "ences": 1040,
    "by": 1041,
    "études": 1042,
    "att@@": 1043,
    "ensuite": 1044,
    "alité": 1045,
    "ouv@@": 1046,
    "ger": 1047,
    "nommé": 1048,
    "Bl@@": 1049,
    "ne@@": 1050,
    "Ne@@": 1051,
    "sera": 1052,
    "tier": 1053,
    "World": 1054,
    "El@@": 1055,
    "cul@@": 1056,
    "Hu@@": 1057,
    "org": 1058,
    "avi@@": 1059,
    "armée": 1060,
    "aut@@": 1061,
    "dr@@": 1062,
    "genre": 1063,
    "ant@@": 1064,
    "35": 1065,
    "do": 1066,
    "nombreux": 1067,
    "erie": 1068,
    "Si": 1069,
    "personnes": 1070,
    "Ces": 1071,
    "gl@@": 1072,
    "points": 1073,
    "Guerre": 1074,
    "scène": 1075,
    "droit": 1076,
    "compte": 1077,
    "ges": 1078,
    "ordre": 1079,
    "environ": 1080,
    "aw@@": 1081,
    "recensement": 1082,
    "gouvernement": 1083,
    "anti@@": 1084,
    "éch@@": 1085,
    "Ph@@": 1086,
    "Char@@": 1087,
    "Espagne": 1088,
    "épisode": 1089,
    "No@@": 1090,
    "rs": 1091,
    "der@@": 1092,
    "Ge@@": 1093,
    "fer": 1094,
    "ti": 1095,
    "ow@@": 1096,
    "Prix": 1097,
    "éli@@": 1098,
    "souvent": 1099,
    "permet": 1100,
    "action": 1101,
    "1980": 1102,
    "mis": 1103,
    "Gr@@": 1104,
    "ov@@": 1105,
    "période": 1106,
    "cer@@": 1107,
    "isme": 1108,
    "],": 1109,
    "}@@": 1110,
    "Italie": 1111,
    "Insee": 1112,
    "date": 1113,
    "Fi@@": 1114,
    "aujourd": 1115,
    "intitulé": 1116,
    "anc@@": 1117,
    "Pologne": 1118,
    "service": 1119,
    "David": 1120,
    "ck": 1121,
    "mondiale": 1122,
    "Coupe": 1123,
    "he@@": 1124,
    "durant": 1125,
    "oire": 1126,
    "prend": 1127,
    "œuvre": 1128,
    "lis@@": 1129,
    "Notices": 1130,
    "hommes": 1131,
    "référence": 1132,
    "car": 1133,
    "différents": 1134,
    "Québec": 1135,
    "mag@@": 1136,
    "cam@@": 1137,
    "Mc@@": 1138,
    "afin": 1139,
    "joueur": 1140,
    "ö@@": 1141,
    "isi@@": 1142,
    "château": 1143,
    "bar@@": 1144,
    "Joseph": 1145,
    "Tour": 1146,
    "me@@": 1147,
    "ata": 1148,
    "Centre": 1149,
    "mé": 1150,
    "ver": 1151,
    "mètres": 1152,
    "née": 1153,
    "reste": 1154,
    "toujours": 1155,
    "ce@@": 1156,
    "28@@": 1157,
    "Bas": 1158,
    "Pal@@": 1159,
    "1989": 1160,
    "na": 1161,
    "Internet": 1162,
    "prix": 1163,
    "membres": 1164,
    "W": 1165,
    "issu": 1166,
    "exemple": 1167,
    "Ni@@": 1168,
    "rapport": 1169,
    "femme": 1170,
    "chaque": 1171,
    "ps": 1172,
    "ki": 1173,
    "jou@@": 1174,
    "2e": 1175,
    "eaux": 1176,
    "militaire": 1177,
    "antes": 1178,
    "Ac@@": 1179,
    "Henri": 1180,
    "tor@@": 1181,
    "are": 1182,
    "Sal@@": 1183,
    "Des@@": 1184,
    "société": 1185,
    "aill@@": 1186,
    "ore": 1187,
    "allemand": 1188,
    "Ju@@": 1189,
    "27@@": 1190,
    "port": 1191,
    "tent": 1192,
    "Mais": 1193,
    "ae": 1194,
    "cour@@": 1195,
    "all": 1196,
    "ah": 1197,
    "éd@@": 1198,
    "(@@": 1199,
    "système": 1200,
    "cité": 1201,
    "sign@@": 1202,
    "acc@@": 1203,
    "virtuel": 1204,
    "Cas@@": 1205,
    "oni@@": 1206,
    "pass@@": 1207,
    "ath@@": 1208,
    "ç@@": 1209,
    "niveau": 1210,
    "Bel@@": 1211,
    "membre": 1212,
    "oph@@": 1213,
    "Fichier": 1214,
    "aci@@": 1215,
    "ê@@": 1216,
    "1988": 1217,
    "Dé@@": 1218,
    "ary": 1219,
    "cin@@": 1220,
    "Gi@@": 1221,
    "dou@@": 1222,
    "détaillé": 1223,
    "istes": 1224,
    "Is@@": 1225,
    "toutes": 1226,
    "ara": 1227,
    "match": 1228,
    "ép@@": 1229,
    "effet": 1230,
    "bre": 1231,
    "totalité": 1232,
    "Pr@@": 1233,
    "corps": 1234,
    "ni": 1235,
    "aud": 1236,
    "Philippe": 1237,
    "tures": 1238,
    "ol": 1239,
    "Mer@@": 1240,
    "100": 1241,
    "ü@@": 1242,
    "off@@": 1243,
    "Q@@": 1244,
    "19@@": 1245,
    "alli@@": 1246,
    "route": 1247,
    "...": 1248,
    "so@@": 1249,
    "и@@": 1250,
    "Im@@": 1251,
    "rap@@": 1252,
    "Del@@": 1253,
    "ks": 1254,
    "construction": 1255,
    "cs": 1256,
    "fille": 1257,
    "Éditions": 1258,
    "fication": 1259,
    "1970": 1260,
    "jeune": 1261,
    "mé@@": 1262,
    "25@@": 1263,
    "sch@@": 1264,
    "cal@@": 1265,
    "val@@": 1266,
    "ène": 1267,
    "Wikipédia": 1268,
    "maison": 1269,
    "but": 1270,
    "homonymie": 1271,
    "ry": 1272,
    "32": 1273,
    "а@@": 1274,
    "enfants": 1275,
    "peuvent": 1276,
    "travail": 1277,
    "partiellement": 1278,
    "Gar@@": 1279,
    "universitaire": 1280,
    "air": 1281,
    "33": 1282,
    "Mag@@": 1283,
    "ls": 1284,
    "public": 1285,
    "ong@@": 1286,
    ".)": 1287,
    "finale": 1288,
    "Mu@@": 1289,
    "vol@@": 1290,
    "assi@@": 1291,
    "Congrès": 1292,
    "е@@": 1293,
    "eg@@": 1294,
    "asi@@": 1295,
    "24@@": 1296,
    "portant": 1297,
    "·": 1298,
    "premiers": 1299,
    "ern@@": 1300,
    "80": 1301,
    "op": 1302,
    "quement": 1303,
    "mu@@": 1304,
    "Sa": 1305,
    "présente": 1306,
    "we@@": 1307,
    "thé@@": 1308,
    "1986": 1309,
    "Claude": 1310,
    "championnat": 1311,
    "Ser@@": 1312,
    "carrière": 1313,
    "fu@@": 1314,
    "form@@": 1315,
    "ze": 1316,
    "réalisé": 1317,
    "cations": 1318,
    "III": 1319,
    "Standard": 1320,
    "tic@@": 1321,
    "tt@@": 1322,
    "ors": 1323,
    "troisième": 1324,
    "sc@@": 1325,
    "entr@@": 1326,
    "province": 1327,
    "auteur": 1328,
    "texte": 1329,
    "dès": 1330,
    "acteur": 1331,
    "о@@": 1332,
    "ellement": 1333,
    "1987": 1334,
    "quant": 1335,
    "millions": 1336,
    "\",": 1337,
    "ame": 1338,
    "tête": 1339,
    "sport": 1340,
    "We@@": 1341,
    "ly": 1342,
    "chan@@": 1343,
    "territoire": 1344,
    "Union": 1345,
    "ï@@": 1346,
    "ative": 1347,
    "école": 1348,
    "Min@@": 1349,
    "Em@@": 1350,
    "fort": 1351,
    "pour@@": 1352,
    "petit": 1353,
    "Name": 1354,
    "arg@@": 1355,
    "34": 1356,
    "certains": 1357,
    "ama": 1358,
    "26@@": 1359,
    "tation": 1360,
    "ja": 1361,
    "île": 1362,
    "médi@@": 1363,
    "29@@": 1364,
    "essi@@": 1365,
    "str@@": 1366,
    "Martin": 1367,
    "eur@@": 1368,
    "ministre": 1369,
    "édi@@": 1370,
    "écrit": 1371,
    "uni@@": 1372,
    "Mat@@": 1373,
    "ind@@": 1374,
    "ich@@": 1375,
    "sup@@": 1376,
    "alement": 1377,
    "tin": 1378,
    "st": 1379,
    "ailleurs": 1380,
    "36": 1381,
    "long": 1382,
    "André": 1383,
    "1985": 1384,
    "log@@": 1385,
    "yn@@": 1386,
    "britannique": 1387,
    "bert": 1388,
    "í@@": 1389,
    "gen@@": 1390,
    "Bri@@": 1391,
    "1984": 1392,
    "ard@@": 1393,
    "tionn@@": 1394,
    "création": 1395,
    "ancienne": 1396,
    "ban@@": 1397,
    "cadre": 1398,
    "180@@": 1399,
    "ä@@": 1400,
    "Société": 1401,
    "qué": 1402,
    "ys@@": 1403,
    "ars": 1404,
    "éditions": 1405,
    "vari@@": 1406,
    "livre": 1407,
    "cal": 1408,
    "tive": 1409,
    "université": 1410,
    "38": 1411,
    "Par": 1412,
    "1981": 1413,
    "sé@@": 1414,
    "ini": 1415,
    "45": 1416,
    "Identifier": 1417,
    "Belgique": 1418,
    "sk@@": 1419,
    "pouvoir": 1420,
    "développement": 1421,
    "ologique": 1422,
    "Cu@@": 1423,
    "30@@": 1424,
    "Georges": 1425,
    "Press": 1426,
    "Ou@@": 1427,
    "sein": 1428,
    "1960": 1429,
    "Dr@@": 1430,
    "grâce": 1431,
    "loi": 1432,
    "aise": 1433,
    "yr@@": 1434,
    "américaine": 1435,
    "Selon": 1436,
    "yl@@": 1437,
    "quer": 1438,
    "Université": 1439,
    "van": 1440,
    "sub@@": 1441,
    "historique": 1442,
    "nous": 1443,
    "ker": 1444,
    "nie": 1445,
    "ck@@": 1446,
    "Rom@@": 1447,
    "aff@@": 1448,
    "reli@@": 1449,
    "land": 1450,
    "division": 1451,
    "berg": 1452,
    "Ma@@": 1453,
    "direction": 1454,
    "eb@@": 1455,
    "lég@@": 1456,
    "court": 1457,
    "port@@": 1458,
    "vis@@": 1459,
    "poste": 1460,
    "position": 1461,
    "nombreuses": 1462,
    "zi@@": 1463,
    "oll@@": 1464,
    "44": 1465,
    "Fiche": 1466,
    "bois": 1467,
    "Cr@@": 1468,
    "côté": 1469,
    "3e": 1470,
    "70": 1471,
    "Bur@@": 1472,
    "Journal": 1473,
    "ek": 1474,
    "roman": 1475,
    "agit": 1476,
    "demi": 1477,
    "ea": 1478,
    "passe": 1479,
    "per": 1480,
    "langue": 1481,
    "ues": 1482,
    "Mas@@": 1483,
    "Église": 1484,
    "39": 1485,
    "ministère": 1486,
    "comm@@": 1487,
    "Ger@@": 1488,
    "devant": 1489,
    "spéci@@": 1490,
    "char@@": 1491,
    "rent": 1492,
    "Nouvelle": 1493,
    "ino": 1494,
    "rer": 1495,
    "connu": 1496,
    "Jeux": 1497,
    "type": 1498,
    "Japon": 1499,
    "déf@@": 1500,
    "TV": 1501,
    "principale": 1502,
    "1975": 1503,
    "Afrique": 1504,
    "ys": 1505,
    "oth@@": 1506,
    "1983": 1507,
    "éd": 1508,
    "atique": 1509,
    "1982": 1510,
    "dernière": 1511,
    "succès": 1512,
    "za": 1513,
    "mère": 1514,
    "cro@@": 1515,
    "siège": 1516,
    "seul": 1517,
    "sol@@": 1518,
    "culture": 1519,
    "sciences": 1520,
    "formation": 1521,
    "pé@@": 1522,
    "chanson": 1523,
    "Rou@@": 1524,
    "Cal@@": 1525,
    "coll": 1526,
    "Cam@@": 1527,
    "historiques": 1528,
    "oit": 1529,
    "Conseil": 1530,
    "cri@@": 1531,
    "ature": 1532,
    "utilisé": 1533,
    "femmes": 1534,
    "tou@@": 1535,
    "ace": 1536,
    "q": 1537,
    "arts": 1538,
    "ceux": 1539,
    "raison": 1540,
    "ski": 1541,
    "sorti": 1542,
    "canton": 1543,
    "École": 1544,
    "ris": 1545,
    "ais@@": 1546,
    "ex": 1547,
    "je": 1548,
    "laquelle": 1549,
    "ó@@": 1550,
    "ession": 1551,
    "tus": 1552,
    "théâtre": 1553,
    "Por@@": 1554,
    "em": 1555,
    "ak": 1556,
    "lien": 1557,
    "illes": 1558,
    "XIXe": 1559,
    "recherche": 1560,
    "appar@@": 1561,
    "Bour@@": 1562,
    "Bro@@": 1563,
    "Pu@@": 1564,
    "ric@@": 1565,
    "ion": 1566,
    "Ouest": 1567,
    "Lo@@": 1568,
    "ète": 1569,
    "James": 1570,
    "furent": 1571,
    "Mac@@": 1572,
    "mal@@": 1573,
    "ff": 1574,
    "quand": 1575,
    "nom@@": 1576,
    "etc": 1577,
    "ting": 1578,
    "iques": 1579,
    "Institut": 1580,
    "ym@@": 1581,
    "Tu@@": 1582,
    "uit": 1583,
    "gues": 1584,
    "1962": 1585,
    "Ter@@": 1586,
    "Fran@@": 1587,
    "bourg": 1588,
    "royale": 1589,
    "six": 1590,
    "del": 1591,
    "mer@@": 1592,
    "ro": 1593,
    "Bal@@": 1594,
    "âge": 1595,
    "état": 1596,
    "atif": 1597,
    "ault": 1598,
    "pol@@": 1599,
    "1979": 1600,
    "plan": 1601,
    "vient": 1602,
    "Thomas": 1603,
    "emb@@": 1604,
    "cen@@": 1605,
    "qui@@": 1606,
    "lie": 1607,
    "mili@@": 1608,
    "produit": 1609,
    "ca@@": 1610,
    "sal@@": 1611,
    "cad@@": 1612,
    "vent": 1613,
    "Richard": 1614,
    "zone": 1615,
    "Go@@": 1616,
    "remporte": 1617,
    "35@@": 1618,
    "cons@@": 1619,
    "terme": 1620,
    "vers@@": 1621,
    "ans@@": 1622,
    "Londres": 1623,
    "atoire": 1624,
    "Lors": 1625,
    "die": 1626,
    "Empire": 1627,
    "sortie": 1628,
    "William": 1629,
    "Ang@@": 1630,
    "arr@@": 1631,
    "retour": 1632,
    "références": 1633,
    "Vill@@": 1634,
    "National": 1635,
    "second": 1636,
    "che@@": 1637,
    "connue": 1638,
    "voix": 1639,
    "mann": 1640,
    "Angleterre": 1641,
    "déjà": 1642,
    "1978": 1643,
    "net": 1644,
    "html": 1645,
    "qualité": 1646,
    "travers": 1647,
    "cap@@": 1648,
    "ec": 1649,
    "37": 1650,
    "vue": 1651,
    "Gl@@": 1652,
    "pou@@": 1653,
    "Tri@@": 1654,
    "ave": 1655,
    "travaux": 1656,
    "Movie": 1657,
    "teurs": 1658,
    "vidéo": 1659,
    "publié": 1660,
    "nécessaire": 1661,
    "frère": 1662,
    "rivière": 1663,
    "1968": 1664,
    "Sou@@": 1665,
    "oun@@": 1666,
    "ographie": 1667,
    "gne": 1668,
    "ert": 1669,
    "mou@@": 1670,
    "organisation": 1671,
    "Ren@@": 1672,
    "Pri@@": 1673,
    "terre": 1674,
    "communauté": 1675,
    "University": 1676,
    "bataille": 1677,
    "bon": 1678,
    "rencontre": 1679,
    "illi@@": 1680,
    "Michael": 1681,
    "musée": 1682,
    "meilleur": 1683,
    "|": 1684,
    "1977": 1685,
    "Depuis": 1686,
    "90": 1687,
    "hum@@": 1688,
    "gare": 1689,
    "PDF": 1690,
    "Can@@": 1691,
    "contr@@": 1692,
    "mineures": 1693,
    "planètes": 1694,
    "act@@": 1695,
    "Ste@@": 1696,
    "inf@@": 1697,
    "technique": 1698,
    "Dictionnaire": 1699,
    "Art": 1700,
    "ga": 1701,
    "All@@": 1702,
    "dire": 1703,
    "hy@@": 1704,
    "tement": 1705,
    "ates": 1706,
    "San": 1707,
    "Fr@@": 1708,
    "1973": 1709,
    "1976": 1710,
    "н@@": 1711,
    "ami": 1712,
    "internationale": 1713,
    "ô@@": 1714,
    "prom@@": 1715,
    "1972": 1716,
    "Nor@@": 1717,
    "cat@@": 1718,
    "yer": 1719,
    "met": 1720,
    "joue": 1721,
    "ici": 1722,
    "comte": 1723,
    "rique": 1724,
    "ast@@": 1725,
    "ba": 1726,
    "ir": 1727,
    "ya": 1728,
    "Te@@": 1729,
    "donne": 1730,
    "ettes": 1731,
    "ong": 1732,
    "arri@@": 1733,
    "organis@@": 1734,
    "Rome": 1735,
    "978@@": 1736,
    "1945": 1737,
    "rég@@": 1738,
    "].": 1739,
    "1974": 1740,
    "org@@": 1741,
    "tiers": 1742,
    "directeur": 1743,
    "beaucoup": 1744,
    "italien": 1745,
    "ko": 1746,
    "ut": 1747,
    "ty@@": 1748,
    "carte": 1749,
    "Dou@@": 1750,
    "tif": 1751,
    "prise": 1752,
    "Cro@@": 1753,
    "ies": 1754,
    "Bernard": 1755,
    "ach": 1756,
    "Suisse": 1757,
    "Sainte": 1758,
    "russe": 1759,
    "ché": 1760,
    ".-": 1761,
    "Je@@": 1762,
    "oo@@": 1763,
    "vin": 1764,
    "parfois": 1765,
    "48": 1766,
    "milieu": 1767,
    "œuvres": 1768,
    "Ligue": 1769,
    "37@@": 1770,
    "ack": 1771,
    "1971": 1772,
    "littérature": 1773,
    "seulement": 1774,
    "ase": 1775,
    "Ier": 1776,
    "réseau": 1777,
    "pratique": 1778,
    "participe": 1779,
    "Est": 1780,
    "Dis@@": 1781,
    "péri@@": 1782,
    "entes": 1783,
    "tai@@": 1784,
    "dom@@": 1785,
    "cli@@": 1786,
    "ier": 1787,
    "01": 1788,
    "Ag@@": 1789,
    "Fer@@": 1790,
    "bor@@": 1791,
    "Sar@@": 1792,
    "36@@": 1793,
    "Str@@": 1794,
    "WorldCat": 1795,
    "1950": 1796,
    "endre": 1797,
    "don": 1798,
    "aines": 1799,
    "tait": 1800,
    "Titre": 1801,
    "Eu@@": 1802,
    "radi@@": 1803,
    "dat@@": 1804,
    "Kar@@": 1805,
    "mat@@": 1806,
    "là": 1807,
    "équipes": 1808,
    "Royaume": 1809,
    "onie": 1810,
    "ena": 1811,
    "Première": 1812,
    "Fin@@": 1813,
    "ron@@": 1814,
    "Avec": 1815,
    "1940": 1816,
    "Ed@@": 1817,
    "élu": 1818,
    ",@@": 1819,
    "Nicolas": 1820,
    "As@@": 1821,
    "parti": 1822,
    "George": 1823,
    "aurait": 1824,
    "Cour@@": 1825,
    "dix": 1826,
    "asse": 1827,
    "Ros@@": 1828,
    "rier": 1829,
    "ours": 1830,
    "Ap@@": 1831,
    "petite": 1832,
    "Système": 1833,
    "Sk@@": 1834,
    "pression": 1835,
    "relatives": 1836,
    "élections": 1837,
    "jamais": 1838,
    "style": 1839,
    "app@@": 1840,
    "éro@@": 1841,
    "existe": 1842,
    "Loire": 1843,
    "Culture": 1844,
    "cer": 1845,
    "particulier": 1846,
    "commence": 1847,
    "syn@@": 1848,
    "bas@@": 1849,
    "différentes": 1850,
    "von": 1851,
    "Ti@@": 1852,
    "ov": 1853,
    "font": 1854,
    "tra": 1855,
    "00": 1856,
    "eth@@": 1857,
    "espèces": 1858,
    "rées": 1859,
    "sor@@": 1860,
    "objet": 1861,
    "Fu@@": 1862,
    "aj@@": 1863,
    "02": 1864,
    "oires": 1865,
    "euses": 1866,
    "grands": 1867,
    "Er@@": 1868,
    "autour": 1869,
    "libre": 1870,
    "mission": 1871,
    "cher@@": 1872,
    "Bor@@": 1873,
    "Cou@@": 1874,
    "pli@@": 1875,
    "créé": 1876,
    "av": 1877,
    "abord": 1878,
    "Mich@@": 1879,
    "gauche": 1880,
    "Life": 1881,
    "184@@": 1882,
    "onné": 1883,
    "ous": 1884,
    "Association": 1885,
    "victoire": 1886,
    "haut": 1887,
    "nu@@": 1888,
    "minutes": 1889,
    "Ke@@": 1890,
    "documentation": 1891,
    "42": 1892,
    "nier": 1893,
    "gé": 1894,
    "ème": 1895,
    "parmi": 1896,
    "seconde": 1897,
    "Beau@@": 1898,
    "mouvement": 1899,
    "end": 1900,
    "tifs": 1901,
    "Russie": 1902,
    "Ressources": 1903,
    "pan@@": 1904,
    "Grande": 1905,
    "FC": 1906,
    "maire": 1907,
    "hom@@": 1908,
    "seule": 1909,
    "ters": 1910,
    "nouvelles": 1911,
    "tie": 1912,
    "épouse": 1913,
    "ax@@": 1914,
    "bas": 1915,
    "peintre": 1916,
    "Chine": 1917,
    "her@@": 1918,
    "43": 1919,
    "75": 1920,
    "astéroïdes": 1921,
    "tient": 1922,
    "way": 1923,
    "uti@@": 1924,
    "eng@@": 1925,
    "réf": 1926,
    "inst@@": 1927,
    "évolution": 1928,
    "domaine": 1929,
    "kilomètres": 1930,
    "prendre": 1931,
    "1967": 1932,
    "dem@@": 1933,
    "1969": 1934,
    "bri@@": 1935,
    "cause": 1936,
    "assez": 1937,
    "alis@@": 1938,
    "sie": 1939,
    "Musée": 1940,
    "sp@@": 1941,
    "emi@@": 1942,
    "IN@@": 1943,
    "conseil": 1944,
    "47": 1945,
    "possible": 1946,
    "VF": 1947,
    "sse": 1948,
    "tourn@@": 1949,
    "Sim@@": 1950,
    "200": 1951,
    "1944": 1952,
    "argent": 1953,
    "surtout": 1954,
    "obtient": 1955,
    "ball": 1956,
    "om": 1957,
    "fréqu@@": 1958,
    "ess": 1959,
    "ones": 1960,
    "voit": 1961,
    "fonction": 1962,
    "diffusion": 1963,
    "04": 1964,
    "sites": 1965,
    "und": 1966,
    "ades": 1967,
    "vel@@": 1968,
    "Cap@@": 1969,
    "taires": 1970,
    "sept": 1971,
    "dée": 1972,
    "ève": 1973,
    "66": 1974,
    "ani": 1975,
    "î@@": 1976,
    "duc": 1977,
    "télévision": 1978,
    "51": 1979,
    "taine": 1980,
    "lan@@": 1981,
    "droite": 1982,
    "parti@@": 1983,
    "At@@": 1984,
    "lia": 1985,
    "chemin": 1986,
    "monuments": 1987,
    "comté": 1988,
    "38@@": 1989,
    "arm@@": 1990,
    "tre@@": 1991,
    "55": 1992,
    "ve@@": 1993,
    "original": 1994,
    "Indi@@": 1995,
    "179@@": 1996,
    "with": 1997,
    "demande": 1998,
    "So@@": 1999,
    "ella": 2000,
    "principal": 2001,
    "quartier": 2002,
    "Un@@": 2003,
    "mm": 2004,
    "semble": 2005,
    "qualifi@@": 2006,
    "entreprise": 2007,
    "pris": 2008,
    "ange": 2009,
    "information": 2010,
    "lle": 2011,
    "41": 2012,
    "tis": 2013,
    "donné": 2014,
    "Parti": 2015,
    "audi@@": 2016,
    "Ben@@": 2017,
    "bat@@": 2018,
    "49": 2019,
    "xi@@": 2020,
    "fs": 2021,
    "46": 2022,
    "Wil@@": 2023,
    "rien": 2024,
    "52": 2025,
    "ings": 2026,
    "classe": 2027,
    "entrée": 2028,
    "ensis": 2029,
    "bal@@": 2030,
    "Gemeinsame": 2031,
    "Normdatei": 2032,
    "ha": 2033,
    "répertorie": 2034,
    "tis@@": 2035,
    "ément": 2036,
    "ic": 2037,
    "matchs": 2038,
    "Gre@@": 2039,
    "olog@@": 2040,
    "lis": 2041,
    "éb@@": 2042,
    "Ol@@": 2043,
    "ow": 2044,
    "Inter@@": 2045,
    "joueurs": 2046,
    "ole": 2047,
    "ret@@": 2048,
    "}}": 2049,
    "ón": 2050,
    "Bon@@": 2051,
    "Gen@@": 2052,
    "fond@@": 2053,
    "mal": 2054,
    "ake": 2055,
    "trai@@": 2056,
    "den": 2057,
    "1965": 2058,
    "Ci@@": 2059,
    "Hol@@": 2060,
    "Tou@@": 2061,
    "1961": 2062,
    "ouvrages": 2063,
    "Cependant": 2064,
    "honneur": 2065,
    "1966": 2066,
    "ster": 2067,
    "sau@@": 2068,
    "suivant": 2069,
    "Hy@@": 2070,
    "Mau@@": 2071,
    "dém@@": 2072,
    "sépar@@": 2073,
    "Bretagne": 2074,
    "professeur": 2075,
    "oy@@": 2076,
    "old": 2077,
    "65": 2078,
    "Bas@@": 2079,
    "premières": 2080,
    "lequel": 2081,
    "El": 2082,
    "source": 2083,
    "ection": 2084,
    "07": 2085,
    "tel": 2086,
    "formes": 2087,
    "chant": 2088,
    "pages": 2089,
    "Ses": 2090,
    "dy": 2091,
    "aqu@@": 2092,
    "atiques": 2093,
    "plan@@": 2094,
    "voie": 2095,
    "out": 2096,
    "compl@@": 2097,
    "fon@@": 2098,
    "pes": 2099,
    "500": 2100,
    "mesure": 2101,
    "Pic@@": 2102,
    "Lyon": 2103,
    "architecture": 2104,
    "1964": 2105,
    "mont": 2106,
    "plupart": 2107,
    "53": 2108,
    "cependant": 2109,
    "-@@": 2110,
    "gran@@": 2111,
    "64": 2112,
    "bande": 2113,
    "manière": 2114,
    "bonne": 2115,
    "Daniel": 2116,
    "edi@@": 2117,
    "Club": 2118,
    "résultats": 2119,
    "termin@@": 2120,
    "q@@": 2121,
    ".@@": 2122,
    "omb@@": 2123,
    "moment": 2124,
    "tandis": 2125,
    "titres": 2126,
    "cela": 2127,
    "ber": 2128,
    "ple": 2129,
    "construit": 2130,
    "bes": 2131,
    "Peter": 2132,
    "Archive": 2133,
    "web": 2134,
    "activité": 2135,
    "rés@@": 2136,
    "mée": 2137,
    "Marc": 2138,
    "Mou@@": 2139,
    "ign@@": 2140,
    "sujet": 2141,
    "appelé": 2142,
    "ology": 2143,
    "tic": 2144,
    "Festival": 2145,
    "Anne": 2146,
    "ham": 2147,
    "avaient": 2148,
    "sis": 2149,
    "villes": 2150,
    "cia": 2151,
    "Cy@@": 2152,
    "Gro@@": 2153,
    "Maurice": 2154,
    "loc@@": 2155,
    "Deux": 2156,
    "aur@@": 2157,
    "zz@@": 2158,
    "aband@@": 2159,
    "dev@@": 2160,
    "anim@@": 2161,
    "presse": 2162,
    "68": 2163,
    "association": 2164,
    "59": 2165,
    "ards": 2166,
    "municipalité": 2167,
    "58": 2168,
    "anie": 2169,
    "nor@@": 2170,
    "ête": 2171,
    "Monde": 2172,
    "contin@@": 2173,
    "Gau@@": 2174,
    "…": 2175,
    "rit@@": 2176,
    "porter": 2177,
    "Pré@@": 2178,
    "cont@@": 2179,
    "éni@@": 2180,
    "onyme": 2181,
    "ora": 2182,
    "La@@": 2183,
    "ill": 2184,
    "voy@@": 2185,
    "sus": 2186,
    "grandes": 2187,
    "constitu@@": 2188,
    "Antoine": 2189,
    "parc": 2190,
    "noms": 2191,
    "vr@@": 2192,
    "olympiques": 2193,
    "marque": 2194,
    "axe": 2195,
    "AR@@": 2196,
    "06": 2197,
    "(+": 2198,
    "ail": 2199,
    "présentation": 2200,
    "isation": 2201,
    "39@@": 2202,
    "03": 2203,
    "1963": 2204,
    "lac": 2205,
    "nos": 2206,
    "propre": 2207,
    "légales": 2208,
    "Sam@@": 2209,
    "suivante": 2210,
    "const@@": 2211,
    "principalement": 2212,
    "jeunes": 2213,
    "européenne": 2214,
    "classement": 2215,
    "from": 2216,
    "ami@@": 2217,
    "certaines": 2218,
    "habi@@": 2219,
    "sort": 2220,
    "Fédération": 2221,
    "pos@@": 2222,
    "mét@@": 2223,
    "1939": 2224,
    "compagnie": 2225,
    "56": 2226,
    "liers": 2227,
    "épisodes": 2228,
    "possède": 2229,
    "celles": 2230,
    "thème": 2231,
    "télévisée": 2232,
    "ef": 2233,
    "ari": 2234,
    "tels": 2235,
    "abi@@": 2236,
    "sujets": 2237,
    "Fre@@": 2238,
    "54": 2239,
    "iné": 2240,
    "générale": 2241,
    "films": 2242,
    "л@@": 2243,
    "reg@@": 2244,
    "poli@@": 2245,
    "désormais": 2246,
    "populations": 2247,
    "arch@@": 2248,
    "vir@@": 2249,
    "And@@": 2250,
    "étude": 2251,
    "proche": 2252,
    "écrivain": 2253,
    "présence": 2254,
    "ek@@": 2255,
    "rac@@": 2256,
    "Bruxelles": 2257,
    "ly@@": 2258,
    "Haute": 2259,
    "Académie": 2260,
    "conn@@": 2261,
    "min": 2262,
    "р@@": 2263,
    "\".": 2264,
    "conserv@@": 2265,
    "cien": 2266,
    "ō": 2267,
    "sions": 2268,
    "pal@@": 2269,
    "fé@@": 2270,
    "ica": 2271,
    "Sil@@": 2272,
    "Championnat": 2273,
    "réalis@@": 2274,
    "sens": 2275,
    "Cer@@": 2276,
    "ure": 2277,
    "hu@@": 2278,
    "champion": 2279,
    "Seconde": 2280,
    "Amérique": 2281,
    "Tro@@": 2282,
    "dre": 2283,
    "Uni": 2284,
    "alisation": 2285,
    "important": 2286,
    "préc@@": 2287,
    "lorsque": 2288,
    "gh": 2289,
    "saint": 2290,
    "occasion": 2291,
    "1914": 2292,
    "oux": 2293,
    "oirs": 2294,
    "dés@@": 2295,
    "rig@@": 2296,
    "René": 2297,
    "1958": 2298,
    "ura": 2299,
    "}}@@": 2300,
    "1930": 2301,
    ".),": 2302,
    "ction": 2303,
    "cas@@": 2304,
    "88": 2305,
    "Bre@@": 2306,
    "57": 2307,
    "eni@@": 2308,
    "tor": 2309,
    "proc@@": 2310,
    "05": 2311,
    "Lam@@": 2312,
    "Australie": 2313,
    "Music": 2314,
    "ep@@": 2315,
    "https": 2316,
    "The@@": 2317,
    "services": 2318,
    "anglaise": 2319,
    "Albert": 2320,
    "rouge": 2321,
    "09": 2322,
    "grav@@": 2323,
    "personnage": 2324,
    "tchèque": 2325,
    "Wal@@": 2326,
    "Gra@@": 2327,
    "ail@@": 2328,
    "Cri@@": 2329,
    "Chi@@": 2330,
    "Tur@@": 2331,
    "notice": 2332,
    "Du": 2333,
    "élection": 2334,
    "conf@@": 2335,
    "American": 2336,
    "pers@@": 2337,
    "Der@@": 2338,
    "arrondissement": 2339,
    "reçoit": 2340,
    "confi@@": 2341,
    "évêque": 2342,
    "mettre": 2343,
    "groupes": 2344,
    "Théâtre": 2345,
    "chi": 2346,
    "course": 2347,
    "tru@@": 2348,
    "stes": 2349,
    "ême": 2350,
    "Alain": 2351,
    "conc@@": 2352,
    "sac@@": 2353,
    "moyenne": 2354,
    "Tor@@": 2355,
    "Lin@@": 2356,
    "IV": 2357,
    "aye": 2358,
    "178@@": 2359,
    "Gir@@": 2360,
    "ri": 2361,
    "pont": 2362,
    "Lou@@": 2363,
    "go@@": 2364,
    "cation": 2365,
    "coll@@": 2366,
    "Henry": 2367,
    "rejoint": 2368,
    "hockey": 2369,
    "fier": 2370,
    "observ@@": 2371,
    "08": 2372,
    "combat": 2373,
    "actrice": 2374,
    "Y": 2375,
    "Euro@@": 2376,
    "dic@@": 2377,
    "district": 2378,
    "som@@": 2379,
    "Cham@@": 2380,
    "alistes": 2381,
    "double": 2382,
    "localité": 2383,
    "1959": 2384,
    "fond": 2385,
    "serait": 2386,
    "Alexandre": 2387,
    "huit": 2388,
    "Laurent": 2389,
    "mi": 2390,
    "US": 2391,
    "vit": 2392,
    "journal": 2393,
    "Kh@@": 2394,
    "rin": 2395,
    "post@@": 2396,
    "ts@@": 2397,
    "politiques": 2398,
    "1948": 2399,
    "espace": 2400,
    "ala": 2401,
    "cm": 2402,
    "Mari@@": 2403,
    "villages": 2404,
    "tran@@": 2405,
    "main": 2406,
    "62": 2407,
    "étr@@": 2408,
    "annonce": 2409,
    "ash@@": 2410,
    "publi@@": 2411,
    "bour@@": 2412,
    "eff@@": 2413,
    "ns": 2414,
    "63": 2415,
    "2019": 2416,
    "différ@@": 2417,
    "forces": 2418,
    "85": 2419,
    "adop@@": 2420,
    "capitale": 2421,
    "Gran@@": 2422,
    "part@@": 2423,
    "61": 2424,
    "ald": 2425,
    "Ham@@": 2426,
    "eus": 2427,
    "ress@@": 2428,
    "Guillaume": 2429,
    "vis": 2430,
    "aut": 2431,
    "(«": 2432,
    "généralement": 2433,
    "belge": 2434,
    "porté": 2435,
    "ceinture": 2436,
    "Publi@@": 2437,
    "Hor@@": 2438,
    "enc@@": 2439,
    "ada": 2440,
    "atrice": 2441,
    "finalement": 2442,
    "composé": 2443,
    "the@@": 2444,
    "RA@@": 2445,
    "montre": 2446,
    "représent@@": 2447,
    "Gui@@": 2448,
    "1956": 2449,
    "allemande": 2450,
    "jo@@": 2451,
    "1re": 2452,
    "Sol@@": 2453,
    "trop": 2454,
    "ast": 2455,
    "67": 2456,
    "personne": 2457,
    "entreprises": 2458,
    "1953": 2459,
    "compétition": 2460,
    "72": 2461,
    "San@@": 2462,
    "int": 2463,
    "XVIIIe": 2464,
    "sert": 2465,
    "main@@": 2466,
    "blanc": 2467,
    "Ainsi": 2468,
    "troupes": 2469,
    "ède": 2470,
    "Montréal": 2471,
    "Ki@@": 2472,
    "actu@@": 2473,
    "fil@@": 2474,
    "gs": 2475,
    "ur": 2476,
    "Ann@@": 2477,
    "garde": 2478,
    "soci@@": 2479,
    "via": 2480,
    "appli@@": 2481,
    "Ho@@": 2482,
    "ao": 2483,
    "cid@@": 2484,
    "commun@@": 2485,
    "façon": 2486,
    "Christian": 2487,
    "retrouve": 2488,
    "jeux": 2489,
    "heures": 2490,
    "accor@@": 2491,
    "compos@@": 2492,
    "»)": 2493,
    "émission": 2494,
    "Tar@@": 2495,
    "produits": 2496,
    "aliste": 2497,
    "informations": 2498,
    "ory": 2499,
    "ome": 2500,
    "succ@@": 2501,
    "Mur@@": 2502,
    "71": 2503,
    "fac@@": 2504,
    "cite": 2505,
    "èle": 2506,
    "anth@@": 2507,
    "campagne": 2508,
    "DOI": 2509,
    "né@@": 2510,
    "sel": 2511,
    "neu@@": 2512,
    "Google": 2513,
    "Lau@@": 2514,
    "ney": 2515,
    "faut": 2516,
    "ye": 2517,
    "musi@@": 2518,
    "Vol@@": 2519,
    "pa": 2520,
    "fai@@": 2521,
    "illustr@@": 2522,
    "importante": 2523,
    "quée": 2524,
    "ag": 2525,
    "76": 2526,
    "ologiques": 2527,
    "ande": 2528,
    "programme": 2529,
    "station": 2530,
    "actions": 2531,
    "publique": 2532,
    "économique": 2533,
    "créée": 2534,
    "cel@@": 2535,
    "ram@@": 2536,
    "1942": 2537,
    "droits": 2538,
    "lin@@": 2539,
    "ron": 2540,
    "Comme": 2541,
    "auprès": 2542,
    "als": 2543,
    "tenu": 2544,
    "étape": 2545,
    "entation": 2546,
    "footballeur": 2547,
    "critique": 2548,
    "dae": 2549,
    "régiment": 2550,
    "Population": 2551,
    "départ": 2552,
    "este": 2553,
    "ō@@": 2554,
    "nuit": 2555,
    "atives": 2556,
    "har@@": 2557,
    "populaire": 2558,
    "Comm@@": 2559,
    "odi@@": 2560,
    "décide": 2561,
    "hors": 2562,
    "Dame": 2563,
    "1920": 2564,
    "pen@@": 2565,
    "classique": 2566,
    "gro@@": 2567,
    "tan@@": 2568,
    "1943": 2569,
    "aie": 2570,
    "municipale": 2571,
    "Simon": 2572,
    "intérieur": 2573,
    "Berlin": 2574,
    "gue": 2575,
    "suivantes": 2576,
    "Seine": 2577,
    "anne": 2578,
    "1957": 2579,
    "alog@@": 2580,
    "attribu@@": 2581,
    "History": 2582,
    "collection": 2583,
    "1955": 2584,
    "hi": 2585,
    "77": 2586,
    "−": 2587,
    "génér@@": 2588,
    "ental": 2589,
    "oie": 2590,
    "74": 2591,
    "nouveaux": 2592,
    "affi@@": 2593,
    "Wi@@": 2594,
    "sui@@": 2595,
    "In": 2596,
    "ouvrage": 2597,
    "73": 2598,
    "Lim@@": 2599,
    "vre": 2600,
    "partageant": 2601,
    "erg@@": 2602,
    "ailles": 2603,
    "Bau@@": 2604,
    "fau@@": 2605,
    "contrôle": 2606,
    "aque": 2607,
    "4e": 2608,
    "termine": 2609,
    "Bat@@": 2610,
    "78": 2611,
    "rev@@": 2612,
    "faisant": 2613,
    "(†": 2614,
    "parties": 2615,
    "Cin@@": 2616,
    "supérieur": 2617,
    "défin@@": 2618,
    "bâtiment": 2619,
    "69": 2620,
    "Ca@@": 2621,
    "hor@@": 2622,
    "Os@@": 2623,
    "administr@@": 2624,
    "ñ@@": 2625,
    "découvert": 2626,
    "alisme": 2627,
    "95": 2628,
    "dessus": 2629,
    "Wat@@": 2630,
    "rend@@": 2631,
    "ment@@": 2632,
    "liv@@": 2633,
    "Pan@@": 2634,
    "Mad@@": 2635,
    "phot@@": 2636,
    "Notre": 2637,
    "1954": 2638,
    "associ@@": 2639,
    "aiss@@": 2640,
    "consul@@": 2641,
    "11@@": 2642,
    "noir": 2643,
    "86": 2644,
    "engag@@": 2645,
    "atin@@": 2646,
    "pul@@": 2647,
    "force": 2648,
    "ini@@": 2649,
    "écu@@": 2650,
    "Oc@@": 2651,
    "Sor@@": 2652,
    "rapidement": 2653,
    "cip@@": 2654,
    "Poli@@": 2655,
    "éléments": 2656,
    "dor@@": 2657,
    "Pau@@": 2658,
    "tien": 2659,
    "particip@@": 2660,
    "alités": 2661,
    "Nom": 2662,
    "1936": 2663,
    "buts": 2664,
    "aucun": 2665,
    "idae": 2666,
    "Hi@@": 2667,
    "vitesse": 2668,
    "1941": 2669,
    "sol": 2670,
    "charg@@": 2671,
    "simple": 2672,
    "Scénario": 2673,
    "contient": 2674,
    "donnant": 2675,
    "modèle": 2676,
    "fo@@": 2677,
    "Av@@": 2678,
    "Rec@@": 2679,
    "lieux": 2680,
    "centrale": 2681,
    "autor@@": 2682,
    "reven@@": 2683,
    "tenir": 2684,
    "effectu@@": 2685,
    "comprend": 2686,
    "liens": 2687,
    "ois@@": 2688,
    "84": 2689,
    "ick": 2690,
    "unique": 2691,
    "т@@": 2692,
    "ret": 2693,
    "lettres": 2694,
    "sécurité": 2695,
    "Op@@": 2696,
    "fit": 2697,
    "ulaire": 2698,
    "not@@": 2699,
    "elli": 2700,
    "Pol@@": 2701,
    "terrain": 2702,
    "sim@@": 2703,
    "passé": 2704,
    "langues": 2705,
    "tun@@": 2706,
    "livres": 2707,
    "Roger": 2708,
    "signe": 2709,
    "Bul@@": 2710,
    "agu@@": 2711,
    "Neu@@": 2712,
    "activités": 2713,
    "poser": 2714,
    "gri@@": 2715,
    "patri@@": 2716,
    "fe": 2717,
    "lé": 2718,
    "Pas@@": 2719,
    "а": 2720,
    "1946": 2721,
    "nature": 2722,
    "Plus": 2723,
    "Uni@@": 2724,
    "tro": 2725,
    "anis@@": 2726,
    "équip@@": 2727,
    "Moyen": 2728,
    "bus": 2729,
    "bur@@": 2730,
    "yp@@": 2731,
    "compar@@": 2732,
    "Catalogue": 2733,
    "ona": 2734,
    "Anti@@": 2735,
    "1918": 2736,
    "chapelle": 2737,
    "Ram@@": 2738,
    "ero": 2739,
    "Cré@@": 2740,
    "lo": 2741,
    "prot@@": 2742,
    "vice": 2743,
    "itali@@": 2744,
    "institu@@": 2745,
    "igh@@": 2746,
    "èse": 2747,
    "May@@": 2748,
    "particulièrement": 2749,
    "anciens": 2750,
    "attaque": 2751,
    "écl@@": 2752,
    "uite": 2753,
    "peinture": 2754,
    "ologue": 2755,
    "Gri@@": 2756,
    "Premier": 2757,
    "1947": 2758,
    "1952": 2759,
    "affaires": 2760,
    "ki@@": 2761,
    "Mel@@": 2762,
    "Réalisation": 2763,
    "ock": 2764,
    "comptait": 2765,
    "roy@@": 2766,
    "gag@@": 2767,
    "reti@@": 2768,
    "armes": 2769,
    "atifs": 2770,
    "84@@": 2771,
    "thi@@": 2772,
    "salle": 2773,
    "99": 2774,
    "City": 2775,
    "awa": 2776,
    "charge": 2777,
    "gal@@": 2778,
    "march@@": 2779,
    "revue": 2780,
    "mobi@@": 2781,
    "taux": 2782,
    "aph@@": 2783,
    "Champion": 2784,
    "Maison": 2785,
    "enfant": 2786,
    "onde": 2787,
    "marqu@@": 2788,
    "vé": 2789,
    "tomb@@": 2790,
    "patrimoine": 2791,
    "XXe": 2792,
    "Q": 2793,
    "Tom@@": 2794,
    "pp": 2795,
    "^{": 2796,
    "tz": 2797,
    "dir": 2798,
    "92": 2799,
    "positions": 2800,
    "françaises": 2801,
    "1938": 2802,
    "my@@": 2803,
    "pon@@": 2804,
    "amour": 2805,
    "vigueur": 2806,
    "atteint": 2807,
    "Mil@@": 2808,
    "cy": 2809,
    "ock@@": 2810,
    "quit@@": 2811,
    "Terre": 2812,
    "Hel@@": 2813,
    "occup@@": 2814,
    "euve": 2815,
    "ect@@": 2816,
    "Ku@@": 2817,
    "bre@@": 2818,
    "ft": 2819,
    "opér@@": 2820,
    "mes@@": 2821,
    "1949": 2822,
    "maître": 2823,
    "ung": 2824,
    "habit@@": 2825,
    "marché": 2826,
    "lé@@": 2827,
    "large": 2828,
    "prince": 2829,
    "peuple": 2830,
    "Alpes": 2831,
    "ES@@": 2832,
    "Patrick": 2833,
    "ae@@": 2834,
    "Fe@@": 2835,
    "ger@@": 2836,
    "Royal": 2837,
    "rance": 2838,
    "nique": 2839,
    "Den@@": 2840,
    "vie@@": 2841,
    "savoir": 2842,
    "stade": 2843,
    "Sp@@": 2844,
    "espagnol": 2845,
    "Web": 2846,
    "Jer@@": 2847,
    "sin": 2848,
    "total": 2849,
    "aul@@": 2850,
    "Trans@@": 2851,
    "visi@@": 2852,
    "dia": 2853,
    "acti@@": 2854,
    "lement": 2855,
    "isl@@": 2856,
    "comb@@": 2857,
    "Gal@@": 2858,
    "79": 2859,
    "passage": 2860,
    "cœur": 2861,
    "ises": 2862,
    "ack@@": 2863,
    "image": 2864,
    "ado": 2865,
    "dite": 2866,
    "1951": 2867,
    "intég@@": 2868,
    "ça": 2869,
    "Pendant": 2870,
    "lignes": 2871,
    "Z": 2872,
    "ji": 2873,
    "News": 2874,
    "vingt": 2875,
    "rock": 2876,
    "pén@@": 2877,
    "situation": 2878,
    "venir": 2879,
    "pièces": 2880,
    "ité": 2881,
    "viol@@": 2882,
    "entre@@": 2883,
    "93": 2884,
    "cy@@": 2885,
    "astique": 2886,
    "mot": 2887,
    "=@@": 2888,
    "go": 2889,
    "fe@@": 2890,
    "pierre": 2891,
    "Jan@@": 2892,
    "sin@@": 2893,
    "Révolution": 2894,
    "ł@@": 2895,
    "retrouv@@": 2896,
    "tics": 2897,
    "Ban@@": 2898,
    "Lar@@": 2899,
    "menti@@": 2900,
    "ajou@@": 2901,
    "altitude": 2902,
    "bro@@": 2903,
    "physi@@": 2904,
    "Arm@@": 2905,
    "acte": 2906,
    "96": 2907,
    "ments": 2908,
    "meurt": 2909,
    "progr@@": 2910,
    "arrivée": 2911,
    "till@@": 2912,
    "valeur": 2913,
    "ford": 2914,
    "ther@@": 2915,
    "vin@@": 2916,
    "favor@@": 2917,
    "bat": 2918,
    "érieure": 2919,
    "Bra@@": 2920,
    "pt": 2921,
    "isé": 2922,
    "arrière": 2923,
    "89": 2924,
    "oni": 2925,
    "Ur@@": 2926,
    "moderne": 2927,
    "aou@@": 2928,
    "esp@@": 2929,
    "Ass@@": 2930,
    "ouvert": 2931,
    "Dom@@": 2932,
    "apparaît": 2933,
    "Autriche": 2934,
    "Je": 2935,
    "initi@@": 2936,
    "esc@@": 2937,
    "install@@": 2938,
    "ont@@": 2939,
    "financi@@": 2940,
    "IS@@": 2941,
    "91": 2942,
    "administration": 2943,
    "sen": 2944,
    "astéroïde": 2945,
    "Âge": 2946,
    "×": 2947,
    "enquête": 2948,
    "Rh@@": 2949,
    "puiss@@": 2950,
    "Résultats": 2951,
    "vois@@": 2952,
    "posé": 2953,
    "к@@": 2954,
    "rich": 2955,
    "artistes": 2956,
    "Frédéric": 2957,
    "souhai@@": 2958,
    "Dieu": 2959,
    "Jac@@": 2960,
    "onal": 2961,
    "?@@": 2962,
    "1937": 2963,
    "abbaye": 2964,
    "binominal": 2965,
    "ru": 2966,
    "police": 2967,
    "pu": 2968,
    "81": 2969,
    "vu": 2970,
    "trav@@": 2971,
    "tera": 2972,
    "û@@": 2973,
    "Ly@@": 2974,
    "mon": 2975,
    "son@@": 2976,
    "Do@@": 2977,
    "fil": 2978,
    "devenu": 2979,
    "principaux": 2980,
    "Victor": 2981,
    "astronomie": 2982,
    "ë@@": 2983,
    "aider": 2984,
    "petits": 2985,
    "air@@": 2986,
    "ky": 2987,
    "1935": 2988,
    "ab": 2989,
    "num@@": 2990,
    "vision": 2991,
    "82": 2992,
    "êtes": 2993,
    "devenir": 2994,
    "Château": 2995,
    "protection": 2996,
    "Van": 2997,
    "Déc@@": 2998,
    "rugby": 2999,
    "anci@@": 3000,
    "ola": 3001,
    "expli@@": 3002,
    "87": 3003,
    "Suède": 3004,
    "chaîne": 3005,
    "doute": 3006,
    "science": 3007,
    "kh@@": 3008,
    "taille": 3009,
    "héri@@": 3010,
    "artiste": 3011,
    "gen": 3012,
    "stein": 3013,
    "cle": 3014,
    "Man": 3015,
    "Ven@@": 3016,
    "83": 3017,
    "mode": 3018,
    "98": 3019,
    "vend@@": 3020,
    "Mé@@": 3021,
    "Brésil": 3022,
    "commerci@@": 3023,
    "royaume": 3024,
    "table": 3025,
    "sociales": 3026,
    "extr@@": 3027,
    "Les@@": 3028,
    "cale": 3029,
    "cour": 3030,
    "ouvre": 3031,
    "#": 3032,
    "chev@@": 3033,
    "gestion": 3034,
    "alisé": 3035,
    "lorsqu": 3036,
    "soli@@": 3037,
    "arité": 3038,
    "1933": 3039,
    "entaire": 3040,
    "poly@@": 3041,
    "catholique": 3042,
    "naissance": 3043,
    "eures": 3044,
    "utilis@@": 3045,
    "Assemblée": 3046,
    "%,": 3047,
    "meilleure": 3048,
    "chang@@": 3049,
    "ap": 3050,
    "1934": 3051,
    "pièce": 3052,
    "tte": 3053,
    "Notes": 3054,
    "feu": 3055,
    "ènes": 3056,
    "oin": 3057,
    "Ko@@": 3058,
    "énergie": 3059,
    "antique": 3060,
    "Lan@@": 3061,
    "demand@@": 3062,
    "Los": 3063,
    "Tre@@": 3064,
    "fou@@": 3065,
    "rive": 3066,
    "compositeur": 3067,
    "oign@@": 3068,
    "ensi@@": 3069,
    "ich": 3070,
    "Français": 3071,
    "Voir": 3072,
    "Dar@@": 3073,
    "vallée": 3074,
    "truc@@": 3075,
    "Hum@@": 3076,
    ">": 3077,
    "dés": 3078,
    "nis": 3079,
    "eta": 3080,
    "rend": 3081,
    "rédaction": 3082,
    "relations": 3083,
    "wi@@": 3084,
    "glace": 3085,
    "permettant": 3086,
    "king": 3087,
    "inc@@": 3088,
    "député": 3089,
    "confir@@": 3090,
    "continu@@": 3091,
    "santé": 3092,
    "personnages": 3093,
    "merci": 3094,
    "Al": 3095,
    "onique": 3096,
    "Denis": 3097,
    "enz@@": 3098,
    "War@@": 3099,
    "évolu@@": 3100,
    "quatrième": 3101,
    "catégorie": 3102,
    "présent": 3103,
    "im": 3104,
    "XVIIe": 3105,
    "civi@@": 3106,
    "couleur": 3107,
    "mariage": 3108,
    "empereur": 3109,
    "attaqu@@": 3110,
    "contribu@@": 3111,
    "comporte": 3112,
    "ôme": 3113,
    "commerce": 3114,
    "seigneur": 3115,
    "bord": 3116,
    "statistique": 3117,
    "Radio": 3118,
    "donn@@": 3119,
    "problème": 3120,
    "97": 3121,
    "oc": 3122,
    "aises": 3123,
    "ish@@": 3124,
    "Cassini": 3125,
    "utilisation": 3126,
    "Love": 3127,
    "ES": 3128,
    "derniers": 3129,
    "endant": 3130,
    "lanc@@": 3131,
    "gny": 3132,
    "économie": 3133,
    "réalisateur": 3134,
    "bout": 3135,
    "ames": 3136,
    "aucune": 3137,
    "japonais": 3138,
    "ètes": 3139,
    "libér@@": 3140,
    "célèbre": 3141,
    "My@@": 3142,
    "forte": 3143,
    "équi@@": 3144,
    "œu@@": 3145,
    "Rég@@": 3146,
    "let@@": 3147,
    "numéro": 3148,
    "vill@@": 3149,
    "pl": 3150,
    "Hau@@": 3151,
    "modifi@@": 3152,
    "quitte": 3153,
    "Dor@@": 3154,
    "ira": 3155,
    "Rob@@": 3156,
    "You": 3157,
    "ball@@": 3158,
    "1932": 3159,
    "ER@@": 3160,
    "!@@": 3161,
    "contrat": 3162,
    "plutôt": 3163,
    "ke@@": 3164,
    "eut": 3165,
    "ese": 3166,
    "ays": 3167,
    "médecine": 3168,
    "Smith": 3169,
    "Guy": 3170,
    "accès": 3171,
    "Elles": 3172,
    "recensements": 3173,
    "trou@@": 3174,
    "hip": 3175,
    "Far@@": 3176,
    "Algérie": 3177,
    "outre": 3178,
    "mas@@": 3179,
    "ries": 3180,
    "terres": 3181,
    "accord": 3182,
    "entaires": 3183,
    "Fri@@": 3184,
    "St": 3185,
    "tente": 3186,
    "Medi@@": 3187,
    "nation@@": 3188,
    "cur@@": 3189,
    "Awards": 3190,
    "Bru@@": 3191,
    "tournoi": 3192,
    "basse": 3193,
    "94": 3194,
    "CA@@": 3195,
    "It@@": 3196,
    "passer": 3197,
    "ate@@": 3198,
    "Ul@@": 3199,
    "Revue": 3200,
    "rir": 3201,
    "ello": 3202,
    "poss@@": 3203,
    "compris": 3204,
    "détr@@": 3205,
    "embl@@": 3206,
    "cier": 3207,
    "clubs": 3208,
    "Vincent": 3209,
    "Sur@@": 3210,
    "Az@@": 3211,
    "suit": 3212,
    "bel@@": 3213,
    "ss": 3214,
    "élimin@@": 3215,
    "neuf": 3216,
    "décor@@": 3217,
    "ports": 3218,
    "Museum": 3219,
    "tél@@": 3220,
    "défense": 3221,
    "ON@@": 3222,
    "voi@@": 3223,
    "Syn@@": 3224,
    "Marcel": 3225,
    "morts": 3226,
    "surface": 3227,
    "Reg@@": 3228,
    "\\@@": 3229,
    "ision": 3230,
    "cé": 3231,
    "moyen": 3232,
    "iner": 3233,
    "issant": 3234,
    "exposition": 3235,
    "suffisamment": 3236,
    "ssement": 3237,
    "bul@@": 3238,
    "rencontr@@": 3239,
    "Pat@@": 3240,
    "Stu@@": 3241,
    "UICN": 3242,
    "ement@@": 3243,
    "ège": 3244,
    "Bien": 3245,
    "malgré": 3246,
    "étudi@@": 3247,
    "Sand@@": 3248,
    "spec@@": 3249,
    "divers": 3250,
    "coupe": 3251,
    "Maria": 3252,
    "çon": 3253,
    "Durant": 3254,
    "aw": 3255,
    "ajouter": 3256,
    "îles": 3257,
    "Jules": 3258,
    "siècles": 3259,
    "Star": 3260,
    "onnement": 3261,
    "ws": 3262,
    "Arts": 3263,
    "central": 3264,
    "Sw@@": 3265,
    "bronze": 3266,
    "nommée": 3267,
    "ash": 3268,
    "situe": 3269,
    "capitaine": 3270,
    "dé": 3271,
    "quet": 3272,
    "Serbie": 3273,
    "Pé@@": 3274,
    "vérifiabilité": 3275,
    "tées": 3276,
    "tifi@@": 3277,
    "tableau": 3278,
    "Étienne": 3279,
    "tain": 3280,
    "enseignement": 3281,
    "acteurs": 3282,
    "physique": 3283,
    "cit": 3284,
    "tent@@": 3285,
    "Thé@@": 3286,
    "structure": 3287,
    "majorité": 3288,
    "développ@@": 3289,
    "Gé@@": 3290,
    "Lé@@": 3291,
    "aves": 3292,
    "posi@@": 3293,
    "5e": 3294,
    "conditions": 3295,
    "val": 3296,
    "voul@@": 3297,
    "с@@": 3298,
    "caractères": 3299,
    "appr@@": 3300,
    "représentant": 3301,
    "Cast@@": 3302,
    "Nom@@": 3303,
    "Mexique": 3304,
    "chim@@": 3305,
    "try": 3306,
    "Marine": 3307,
    "éducation": 3308,
    "formé": 3309,
    "Ari@@": 3310,
    "oise": 3311,
    "quar@@": 3312,
    "day": 3313,
    "inscrit": 3314,
    "militaires": 3315,
    "ache": 3316,
    "marine": 3317,
    "ètre": 3318,
    "Bran@@": 3319,
    "в@@": 3320,
    "Film": 3321,
    "radio": 3322,
    "fant@@": 3323,
    "utiles": 3324,
    "Olivier": 3325,
    "longue": 3326,
    "Marseille": 3327,
    "hau@@": 3328,
    "line": 3329,
    "Hom@@": 3330,
    "tome": 3331,
    "300": 3332,
    "Petit": 3333,
    "ten": 3334,
    "régions": 3335,
    "comp@@": 3336,
    "médaille": 3337,
    "chinois": 3338,
    "moitié": 3339,
    "Bé@@": 3340,
    "Yves": 3341,
    "secrétaire": 3342,
    "réc@@": 3343,
    "doivent": 3344,
    "réuni@@": 3345,
    "coup": 3346,
    "ord": 3347,
    "secteur": 3348,
    "ler@@": 3349,
    "considér@@": 3350,
    "scientifique": 3351,
    "gouvern@@": 3352,
    "automobile": 3353,
    "uits": 3354,
    "orbite": 3355,
    "ita": 3356,
    "presque": 3357,
    "séries": 3358,
    "Trois": 3359,
    "magazine": 3360,
    "prépar@@": 3361,
    "bin": 3362,
    "ouverture": 3363,
    "afric@@": 3364,
    "Vienne": 3365,
    "atus": 3366,
    "ett": 3367,
    "Gérard": 3368,
    "provo@@": 3369,
    "archi@@": 3370,
    "sym@@": 3371,
    "tu": 3372,
    "voire": 3373,
    "Fon@@": 3374,
    "Bern@@": 3375,
    "travers@@": 3376,
    "êt": 3377,
    "1929": 3378,
    "territoires": 3379,
    "rist@@": 3380,
    "tenue": 3381,
    "ous@@": 3382,
    "pit@@": 3383,
    ",,.": 3384,
    "certain": 3385,
    "Ty@@": 3386,
    "actuelle": 3387,
    "représente": 3388,
    "ć": 3389,
    "gén@@": 3390,
    "ager": 3391,
    "pole": 3392,
    "mieux": 3393,
    "traité": 3394,
    "sy@@": 3395,
    "unité": 3396,
    "construite": 3397,
    "issue": 3398,
    "ood": 3399,
    "OR@@": 3400,
    "impli@@": 3401,
    "question": 3402,
    "bru@@": 3403,
    "CD": 3404,
    "usi@@": 3405,
    "hiver": 3406,
    "onnes": 3407,
    "inclu@@": 3408,
    "cé@@": 3409,
    "Nouveau": 3410,
    "mêmes": 3411,
    "ther": 3412,
    "atis@@": 3413,
    "portent": 3414,
    "je@@": 3415,
    "sociale": 3416,
    "gui@@": 3417,
    "ouverte": 3418,
    "zones": 3419,
    "hôtel": 3420,
    "д@@": 3421,
    "Rich@@": 3422,
    "rement": 3423,
    "š@@": 3424,
    "Jus@@": 3425,
    "No": 3426,
    "pronon@@": 3427,
    "ax": 3428,
    "gée": 3429,
    "ense": 3430,
    "respec@@": 3431,
    "Division": 3432,
    "vité": 3433,
    "ISSN": 3434,
    "suivi": 3435,
    "mation": 3436,
    "actuel": 3437,
    "rice": 3438,
    "ght": 3439,
    "journaliste": 3440,
    "Provence": 3441,
    "propose": 3442,
    "chron@@": 3443,
    "aug@@": 3444,
    "haute": 3445,
    "enseign@@": 3446,
    "XVIe": 3447,
    "agon": 3448,
    "1931": 3449,
    "tim@@": 3450,
    "considéré": 3451,
    "Dun@@": 3452,
    "pres@@": 3453,
    "fusi@@": 3454,
    "scri@@": 3455,
    "Shi@@": 3456,
    "onia": 3457,
    "Win@@": 3458,
    "pin": 3459,
    "choix": 3460,
    "publie": 3461,
    "Met@@": 3462,
    "bon@@": 3463,
    "veut": 3464,
    "social": 3465,
    "lat@@": 3466,
    "1928": 3467,
    "iller": 3468,
    "Ant@@": 3469,
    "Archives": 3470,
    "1910": 3471,
    "Croix": 3472,
    "olution": 3473,
    "1900": 3474,
    "Est@@": 3475,
    "tations": 3476,
    "1919": 3477,
    "Bir@@": 3478,
    "Ville": 3479,
    "Sc@@": 3480,
    "dispu@@": 3481,
    "id": 3482,
    "compléter": 3483,
    "chansons": 3484,
    "pied": 3485,
    "idée": 3486,
    "han": 3487,
    "aga": 3488,
    "thèse": 3489,
    "Ir@@": 3490,
    "ico": 3491,
    "az": 3492,
    "réalisée": 3493,
    "emment": 3494,
    "reçu": 3495,
    "pp@@": 3496,
    "former": 3497,
    "classé": 3498,
    "fonctions": 3499,
    "Chron@@": 3500,
    "usage": 3501,
    "Dr": 3502,
    "'@@": 3503,
    "influence": 3504,
    "natur@@": 3505,
    "ref@@": 3506,
    "ko@@": 3507,
    "trouv@@": 3508,
    "italienne": 3509,
    "alis": 3510,
    "Pyrénées": 3511,
    "cent": 3512,
    "ams": 3513,
    "chargé": 3514,
    "arrê@@": 3515,
    "intérêt": 3516,
    "étique": 3517,
    "istr@@": 3518,
    "Notice": 3519,
    "Spi@@": 3520,
    "Dem@@": 3521,
    "Ker@@": 3522,
    "ties": 3523,
    "ffi@@": 3524,
    "direc@@": 3525,
    "Pres@@": 3526,
    "techniques": 3527,
    "iser": 3528,
    "Toulouse": 3529,
    "lité": 3530,
    "tives": 3531,
    "utilisée": 3532,
    "bil@@": 3533,
    "opp@@": 3534,
    "1793": 3535,
    "prati@@": 3536,
    "issent": 3537,
    "ato": 3538,
    "déclar@@": 3539,
    "arrive": 3540,
    "ambi@@": 3541,
    "ía": 3542,
    "burg": 3543,
    "fre@@": 3544,
    "airement": 3545,
    "1924": 3546,
    "Commission": 3547,
    "ote": 3548,
    "Genre": 3549,
    "bres": 3550,
    "posant": 3551,
    "mél@@": 3552,
    "latin": 3553,
    "inte": 3554,
    "appel": 3555,
    "pec@@": 3556,
    "á": 3557,
    "votre": 3558,
    "yn": 3559,
    "sén@@": 3560,
    "analyse": 3561,
    "XV": 3562,
    "400": 3563,
    "Catherine": 3564,
    "investi@@": 3565,
    "pose": 3566,
    "voïvodie": 3567,
    "êtres": 3568,
    "voyage": 3569,
    "cteurs": 3570,
    "cie": 3571,
    "phy@@": 3572,
    "Sa@@": 3573,
    "pens@@": 3574,
    "vités": 3575,
    "aller": 3576,
    "enf@@": 3577,
    "pays@@": 3578,
    "côtés": 3579,
    "moteur": 3580,
    "Et": 3581,
    "Genève": 3582,
    "rédi@@": 3583,
    "architecte": 3584,
    "rê@@": 3585,
    "oria": 3586,
    "professionnel": 3587,
    "montagne": 3588,
    "1912": 3589,
    "ération": 3590,
    "Thi@@": 3591,
    "obi@@": 3592,
    "Lor@@": 3593,
    "1925": 3594,
    "jouer": 3595,
    "/@@": 3596,
    "Jack": 3597,
    "Nu@@": 3598,
    "Blo@@": 3599,
    "oi": 3600,
    "ités": 3601,
    "détermin@@": 3602,
    "longueur": 3603,
    "traitant": 3604,
    "esseur": 3605,
    "ele@@": 3606,
    "aî@@": 3607,
    "exist@@": 3608,
    "journ@@": 3609,
    "lib@@": 3610,
    "essions": 3611,
    "œurs": 3612,
    "enfin": 3613,
    "donner": 3614,
    "abilité": 3615,
    "suisse": 3616,
    "emp@@": 3617,
    "textes": 3618,
    "proximité": 3619,
    "Frank": 3620,
    "record": 3621,
    "camp": 3622,
    "97@@": 3623,
    "Lab@@": 3624,
    "(°": 3625,
    "uniquement": 3626,
    "Kr@@": 3627,
    "anes": 3628,
    "fig@@": 3629,
    "Laur@@": 3630,
    "nat@@": 3631,
    "Records": 3632,
    "Res@@": 3633,
    "1917": 3634,
    "Sau@@": 3635,
    "ze@@": 3636,
    "appelée": 3637,
    "environnement": 3638,
    "fondé": 3639,
    "riv@@": 3640,
    "single": 3641,
    "Histori@@": 3642,
    "1926": 3643,
    "voc@@": 3644,
    "ota": 3645,
    "Mir@@": 3646,
    "Times": 3647,
    "frères": 3648,
    "ssi": 3649,
    "travaille": 3650,
    "tal@@": 3651,
    "piano": 3652,
    "Vainqueur": 3653,
    "offre": 3654,
    "Don@@": 3655,
    "mond": 3656,
    "faite": 3657,
    "dérou@@": 3658,
    "ols": 3659,
    "del@@": 3660,
    "beaux": 3661,
    "can": 3662,
    "actuellement": 3663,
    "ode": 3664,
    "Savoie": 3665,
    "Israël": 3666,
    "tom@@": 3667,
    "Disney": 3668,
    "Pap@@": 3669,
    "José": 3670,
    "Dan@@": 3671,
    "ct@@": 3672,
    "dispar@@": 3673,
    "viennent": 3674,
    "′": 3675,
    "histori@@": 3676,
    "dessinée": 3677,
    "fondée": 3678,
    "soldats": 3679,
    "auté": 3680,
    "agn@@": 3681,
    "PA@@": 3682,
    "nov@@": 3683,
    "traits": 3684,
    "européen": 3685,
    "Fern@@": 3686,
    "Inde": 3687,
    "Comité": 3688,
    "ham@@": 3689,
    "amique": 3690,
    "découverte": 3691,
    "mondial": 3692,
    "atures": 3693,
    "mar": 3694,
    "épreuve": 3695,
    "artistique": 3696,
    "UCI": 3697,
    "élev@@": 3698,
    "verse": 3699,
    "Pa@@": 3700,
    "continue": 3701,
    "signifi@@": 3702,
    "basket": 3703,
    "ath": 3704,
    "ony@@": 3705,
    "Bab@@": 3706,
    "fran@@": 3707,
    "kin": 3708,
    "serv@@": 3709,
    "précéd@@": 3710,
    "mir@@": 3711,
    "atu@@": 3712,
    "produ@@": 3713,
    "ination": 3714,
    "Han@@": 3715,
    "anti": 3716,
    "uel": 3717,
    "interpré@@": 3718,
    "All": 3719,
    "Dev@@": 3720,
    "my": 3721,
    "Andre@@": 3722,
    "Musique": 3723,
    "]@@": 3724,
    "traditionn@@": 3725,
    "super@@": 3726,
    "euil": 3727,
    "1913": 3728,
    "inger": 3729,
    "aï": 3730,
    "reprises": 3731,
    "Arthur": 3732,
    "joué": 3733,
    "bit": 3734,
    "trait": 3735,
    "reb@@": 3736,
    "ei": 3737,
    "pouss@@": 3738,
    "ray@@": 3739,
    "agne": 3740,
    "liant": 3741,
    "Pet@@": 3742,
    "Baptiste": 3743,
    "faible": 3744,
    "supérieure": 3745,
    "Society": 3746,
    "tude": 3747,
    "théorie": 3748,
    "Hon@@": 3749,
    "mémoire": 3750,
    "lent": 3751,
    "SA@@": 3752,
    "Mol@@": 3753,
    "FA": 3754,
    "Don": 3755,
    "Dominique": 3756,
    "field": 3757,
    "obli@@": 3758,
    "Studi@@": 3759,
    "pom@@": 3760,
    "lon@@": 3761,
    "austr@@": 3762,
    "Black": 3763,
    "prit": 3764,
    "affron@@": 3765,
    "1927": 3766,
    "seront": 3767,
    "urg@@": 3768,
    "puissance": 3769,
    "Tom": 3770,
    "sœur": 3771,
    "armées": 3772,
    "Que": 3773,
    "éné@@": 3774,
    "transport": 3775,
    "od": 3776,
    "exer@@": 3777,
    "Médaille": 3778,
    "Sous": 3779,
    "):": 3780,
    "cos@@": 3781,
    "On@@": 3782,
    "artis@@": 3783,
    "Men@@": 3784,
    "met@@": 3785,
    "domin@@": 3786,
    "éco@@": 3787,
    "din@@": 3788,
    "Entre": 3789,
    "autant": 3790,
    "Washington": 3791,
    "ories": 3792,
    "Mark": 3793,
    "Ess@@": 3794,
    "utilise": 3795,
    "départemental": 3796,
    "ny": 3797,
    "Bosnie": 3798,
    "Parmi": 3799,
    "Chap@@": 3800,
    "Pin@@": 3801,
    "régime": 3802,
    "chen": 3803,
    "Livre": 3804,
    "connaît": 3805,
    "courant": 3806,
    "tournée": 3807,
    "Pon@@": 3808,
    "Ak@@": 3809,
    "faci@@": 3810,
    "train": 3811,
    "ITIS": 3812,
    "lati@@": 3813,
    "parents": 3814,
    "traduction": 3815,
    "pourrait": 3816,
    "Val": 3817,
    "IA@@": 3818,
    "och@@": 3819,
    "conseiller": 3820,
    "situ@@": 3821,
    "mol@@": 3822,
    "probablement": 3823,
    "objets": 3824,
    "Deu@@": 3825,
    "quel@@": 3826,
    "Mul@@": 3827,
    "aria": 3828,
    "orial": 3829,
    "couleurs": 3830,
    "Sab@@": 3831,
    "ciel": 3832,
    "entin": 3833,
    "commun": 3834,
    "Plan@@": 3835,
    "Bulletin": 3836,
    "quent": 3837,
    "industrie": 3838,
    "figure": 3839,
    "Office": 3840,
    "elli@@": 3841,
    "sexu@@": 3842,
    "fusion": 3843,
    "08@@": 3844,
    "chap@@": 3845,
    "glob@@": 3846,
    "SC": 3847,
    "plac@@": 3848,
    "Soci@@": 3849,
    "résid@@": 3850,
    "Ai@@": 3851,
    "exploi@@": 3852,
    "07@@": 3853,
    "circonscription": 3854,
    "Wiktionnaire": 3855,
    "indépend@@": 3856,
    "lec@@": 3857,
    "vit@@": 3858,
    "ted": 3859,
    "composée": 3860,
    "diverses": 3861,
    "Dès": 3862,
    "atur@@": 3863,
    "tern": 3864,
    "prés@@": 3865,
    "ics": 3866,
    "capit@@": 3867,
    "Vil@@": 3868,
    "hauteur": 3869,
    "Bay@@": 3870,
    "sélection": 3871,
    "cident": 3872,
    "lique": 3873,
    "Air": 3874,
    "mari@@": 3875,
    "origin@@": 3876,
    "présid@@": 3877,
    "derrière": 3878,
    "You@@": 3879,
    "Base": 3880,
    "missi@@": 3881,
    "tenus": 3882,
    "vement": 3883,
    "den@@": 3884,
    "Sec@@": 3885,
    "atelier": 3886,
    "entale": 3887,
    "destin@@": 3888,
    "saisons": 3889,
    "biens": 3890,
    "paix": 3891,
    "Raymond": 3892,
    "ori": 3893,
    "Pom@@": 3894,
    "obtenir": 3895,
    "1922": 3896,
    "conventions": 3897,
    "li": 3898,
    "cus": 3899,
    "romaine": 3900,
    "forêt": 3901,
    "législ@@": 3902,
    "isant": 3903,
    "omie": 3904,
    "ission": 3905,
    "Quand": 3906,
    "Portugal": 3907,
    "personn@@": 3908,
    "Bus@@": 3909,
    "rendre": 3910,
    "Fau@@": 3911,
    "prim@@": 3912,
    "spi@@": 3913,
    "directement": 3914,
    "palais": 3915,
    "dité": 3916,
    "eant": 3917,
    "reur": 3918,
    "vert": 3919,
    "cho@@": 3920,
    "les@@": 3921,
    "ablement": 3922,
    "dique": 3923,
    "1911": 3924,
    "soutien": 3925,
    "que@@": 3926,
    "tenant": 3927,
    "abb@@": 3928,
    "collaboration": 3929,
    "infanterie": 3930,
    "lettre": 3931,
    "RE@@": 3932,
    "New@@": 3933,
    "amme": 3934,
    "Mit@@": 3935,
    "ationn@@": 3936,
    "top@@": 3937,
    "ST@@": 3938,
    "émi@@": 3939,
    "phase": 3940,
    "1921": 3941,
    "sey": 3942,
    "concours": 3943,
    "Cur@@": 3944,
    "intégr@@": 3945,
    "fix@@": 3946,
    "anda": 3947,
    "profi@@": 3948,
    "bâtiments": 3949,
    "enregistr@@": 3950,
    "Sports": 3951,
    "ound": 3952,
    "eck": 3953,
    "fonctionn@@": 3954,
    "Sy@@": 3955,
    "ési@@": 3956,
    "oix": 3957,
    "participation": 3958,
    "Boul@@": 3959,
    "Californie": 3960,
    "tennis": 3961,
    "tax@@": 3962,
    "eck@@": 3963,
    "note": 3964,
    "créer": 3965,
    "affec@@": 3966,
    "telle": 3967,
    "Dre@@": 3968,
    "urb@@": 3969,
    "Chicago": 3970,
    "champ": 3971,
    "Hou@@": 3972,
    "affaire": 3973,
    "Hun@@": 3974,
    "hautes": 3975,
    "UA": 3976,
    "entraîneur": 3977,
    "amis": 3978,
    "Strasbourg": 3979,
    "abordé": 3980,
    "gouverneur": 3981,
    "psych@@": 3982,
    "bs": 3983,
    "portée": 3984,
    "Tél@@": 3985,
    "ji@@": 3986,
    "Bordeaux": 3987,
    "écrite": 3988,
    "Tra@@": 3989,
    "ogne": 3990,
    "alisée": 3991,
    "pape": 3992,
    "prin@@": 3993,
    "onner": 3994,
    "olympique": 3995,
    "class@@": 3996,
    "soviétique": 3997,
    "ling": 3998,
    "Lee": 3999,
    "fondateur": 4000,
    "eil": 4001,
    "cô@@": 4002,
    "divis@@": 4003,
    "chanteur": 4004,
    "Cat@@": 4005,
    "outi@@": 4006,
    "tué": 4007,
    "Hongrie": 4008,
    "philosophie": 4009,
    "sembl@@": 4010,
    "eri@@": 4011,
    "Lis@@": 4012,
    "évi@@": 4013,
    "Source": 4014,
    "réalisation": 4015,
    "Juli@@": 4016,
    "collec@@": 4017,
    "bibliothèque": 4018,
    "Mérimée": 4019,
    "assu@@": 4020,
    "quelque": 4021,
    "Cre@@": 4022,
    "eure": 4023,
    "1915": 4024,
    "rai@@": 4025,
    "jeunesse": 4026,
    "mique": 4027,
    "problèmes": 4028,
    "bilité": 4029,
    "prennent": 4030,
    "loin": 4031,
    "déplac@@": 4032,
    "Île": 4033,
    "ands": 4034,
    "hos@@": 4035,
    "andes": 4036,
    "botanique": 4037,
    "arrêté": 4038,
    "don@@": 4039,
    "volume": 4040,
    "dist@@": 4041,
    "inspi@@": 4042,
    "aisse": 4043,
    "pren@@": 4044,
    "Côte": 4045,
    "yle": 4046,
    "Poi@@": 4047,
    "1923": 4048,
    "relative": 4049,
    "time": 4050,
    "comptes": 4051,
    "mont@@": 4052,
    "heur@@": 4053,
    "lecture": 4054,
    "décl@@": 4055,
    "ical": 4056,
    "animaux": 4057,
    "caractéristiques": 4058,
    "aya": 4059,
    "lutte": 4060,
    "entier": 4061,
    "acqu@@": 4062,
    "toutefois": 4063,
    "guitare": 4064,
    "réalise": 4065,
    "posée": 4066,
    "opération": 4067,
    "1906": 4068,
    "distance": 4069,
    "King": 4070,
    "individu@@": 4071,
    "accompagn@@": 4072,
    "34@@": 4073,
    "employ@@": 4074,
    "*": 4075,
    "SE@@": 4076,
    "Patri@@": 4077,
    "istance": 4078,
    "originale": 4079,
    "existence": 4080,
    "lisation": 4081,
    "IT@@": 4082,
    "cée": 4083,
    "exploitation": 4084,
    "Christophe": 4085,
    "ide": 4086,
    "eri": 4087,
    "entales": 4088,
    "Léon": 4089,
    "géographique": 4090,
    "ey@@": 4091,
    "Sé@@": 4092,
    "Inf@@": 4093,
    "lande": 4094,
    "crois@@": 4095,
    "atte@@": 4096,
    "05@@": 4097,
    "Irlande": 4098,
    "Marne": 4099,
    "coloni@@": 4100,
    "froi@@": 4101,
    "04@@": 4102,
    "CO@@": 4103,
    "taient": 4104,
    "Angeles": 4105,
    "var@@": 4106,
    "distribution": 4107,
    "Grèce": 4108,
    "qués": 4109,
    "pilote": 4110,
    "Tout": 4111,
    "itt@@": 4112,
    "zer": 4113,
    "Ministère": 4114,
    "trib@@": 4115,
    "Arg@@": 4116,
    "journée": 4117,
    "arabe": 4118,
    "féminin": 4119,
    "tisme": 4120,
    "ulation": 4121,
    "connaissez": 4122,
    "tron@@": 4123,
    "expl@@": 4124,
    "lem@@": 4125,
    "fiction": 4126,
    "Cos@@": 4127,
    "frontière": 4128,
    "angl@@": 4129,
    "capacité": 4130,
    "Hal@@": 4131,
    "semaine": 4132,
    "inscri@@": 4133,
    "crée": 4134,
    "limites": 4135,
    "6e": 4136,
    "juri@@": 4137,
    "conservation": 4138,
    "ann": 4139,
    "Francis": 4140,
    "Math@@": 4141,
    "ographe": 4142,
    "Land@@": 4143,
    "statut": 4144,
    "alie": 4145,
    "mo": 4146,
    "pin@@": 4147,
    "pus": 4148,
    "Cab@@": 4149,
    "serbe": 4150,
    "ning": 4151,
    "appro@@": 4152,
    "Consulté": 4153,
    "dispose": 4154,
    "sav@@": 4155,
    "reprend": 4156,
    "relation": 4157,
    ",,": 4158,
    "final": 4159,
    "familles": 4160,
    "Pas": 4161,
    "éviter": 4162,
    "To@@": 4163,
    "Max": 4164,
    "rey": 4165,
    "adap@@": 4166,
    "chambre": 4167,
    "cile": 4168,
    "Cir@@": 4169,
    "command@@": 4170,
    "he": 4171,
    "justice": 4172,
    "orchestre": 4173,
    "Football": 4174,
    "titu@@": 4175,
    "MA@@": 4176,
    "personnel": 4177,
    "attendues": 4178,
    "revient": 4179,
    "constitue": 4180,
    "Ev@@": 4181,
    "festival": 4182,
    "ever": 4183,
    "Af@@": 4184,
    "archives": 4185,
    "fun@@": 4186,
    "aître": 4187,
    "Maz@@": 4188,
    "eter": 4189,
    "ister": 4190,
    "Rhône": 4191,
    "Ott@@": 4192,
    "lée": 4193,
    "+@@": 4194,
    "One": 4195,
    "frac": 4196,
    "bassin": 4197,
    "anger": 4198,
    "contrô@@": 4199,
    "Quelles": 4200,
    "sid@@": 4201,
    "esprit": 4202,
    "dirig@@": 4203,
    "Mos@@": 4204,
    "plantes": 4205,
    "ose": 4206,
    "détails": 4207,
    "éditeur": 4208,
    "Asie": 4209,
    "religieux": 4210,
    "disposez": 4211,
    "assass@@": 4212,
    "ão": 4213,
    "ers@@": 4214,
    "Mus@@": 4215,
    "FI@@": 4216,
    "Alors": 4217,
    "ographique": 4218,
    "épi@@": 4219,
    "dernières": 4220,
    "1916": 4221,
    "oue": 4222,
    "pér@@": 4223,
    "uk@@": 4224,
    "Jeanne": 4225,
    "Die": 4226,
    "principales": 4227,
    "eusement": 4228,
    "ison": 4229,
    "dollars": 4230,
    "“": 4231,
    "fir@@": 4232,
    "recherches": 4233,
    "ú@@": 4234,
    "ort": 4235,
    "United": 4236,
    "trice": 4237,
    "matière": 4238,
    "hol@@": 4239,
    "notre": 4240,
    "Sources": 4241,
    "consac@@": 4242,
    "élec@@": 4243,
    "empê@@": 4244,
    "Alfred": 4245,
    "ick@@": 4246,
    "Parlement": 4247,
    "ua": 4248,
    "désign@@": 4249,
    "OCLC": 4250,
    "у@@": 4251,
    "Cant@@": 4252,
    "Moscou": 4253,
    "mâ@@": 4254,
    "souff@@": 4255,
    "rant": 4256,
    "graph@@": 4257,
    "Oli@@": 4258,
    "signifie": 4259,
    "norm@@": 4260,
    "duction": 4261,
    "lau@@": 4262,
    "lieutenant": 4263,
    "municipal": 4264,
    "limite": 4265,
    "prison": 4266,
    "Nantes": 4267,
    "améliorer": 4268,
    "cule": 4269,
    "Mont": 4270,
    "réalité": 4271,
    "Localisation": 4272,
    "land@@": 4273,
    "parten@@": 4274,
    "Ordre": 4275,
    "Lib@@": 4276,
    "lign@@": 4277,
    "Som@@": 4278,
    "propriété": 4279,
    "suivants": 4280,
    "Lev@@": 4281,
    "illon": 4282,
    "č@@": 4283,
    "tière": 4284,
    "Park": 4285,
    "sch": 4286,
    "aly@@": 4287,
    "su": 4288,
    "Championnats": 4289,
    "commandant": 4290,
    "métrage": 4291,
    "commenc@@": 4292,
    "rière": 4293,
    "London": 4294,
    "ith": 4295,
    "tionnaire": 4296,
    "Luc": 4297,
    "effec@@": 4298,
    "din": 4299,
    "mots": 4300,
    "rang": 4301,
    "propos": 4302,
    "Ben": 4303,
    "èche": 4304,
    "Cop@@": 4305,
    "prof@@": 4306,
    "lumière": 4307,
    "territoriales": 4308,
    "Jos@@": 4309,
    "plu@@": 4310,
    "doc@@": 4311,
    "Mah@@": 4312,
    "incl@@": 4313,
    "tern@@": 4314,
    "Vall@@": 4315,
    "ston": 4316,
    "centr@@": 4317,
    "euros": 4318,
    "quel": 4319,
    "Classi@@": 4320,
    "aka": 4321,
    "lance": 4322,
    "Herzégovine": 4323,
    "fonds": 4324,
    "mains": 4325,
    "notes": 4326,
    "décrit": 4327,
    "ew@@": 4328,
    "otte": 4329,
    "CN@@": 4330,
    "new": 4331,
    "ev": 4332,
    "eté": 4333,
    "sure": 4334,
    "doubl@@": 4335,
    "п@@": 4336,
    "aki": 4337,
    "cau@@": 4338,
    "durée": 4339,
    "traduit": 4340,
    "délég@@": 4341,
    "chass@@": 4342,
    "gle": 4343,
    "ho": 4344,
    "méri@@": 4345,
    "stratég@@": 4346,
    "trouver": 4347,
    "compt@@": 4348,
    "indépendance": 4349,
    "My": 4350,
    "1870": 4351,
    "anges": 4352,
    "ague": 4353,
    "1905": 4354,
    "éré": 4355,
    "mul@@": 4356,
    "%).": 4357,
    "Gh@@": 4358,
    "ist": 4359,
    "anciennes": 4360,
    "Top": 4361,
    "Nov@@": 4362,
    "sses": 4363,
    "actes": 4364,
    "dates": 4365,
    "eth": 4366,
    "grec": 4367,
    "Armée": 4368,
    "devait": 4369,
    "maisons": 4370,
    "rues": 4371,
    "devint": 4372,
    "règne": 4373,
    "illy": 4374,
    "noc@@": 4375,
    "It": 4376,
    "ater": 4377,
    "tine": 4378,
    "paroisse": 4379,
    "Log@@": 4380,
    "termes": 4381,
    "euro@@": 4382,
    "liberté": 4383,
    "resse": 4384,
    "poète": 4385,
    "Édouard": 4386,
    "atie": 4387,
    "décision": 4388,
    "sia": 4389,
    "diamètre": 4390,
    "Auguste": 4391,
    "ily": 4392,
    "ery": 4393,
    "animation": 4394,
    "kins": 4395,
    "ray": 4396,
    "députés": 4397,
    "Ani@@": 4398,
    "..@@": 4399,
    "†": 4400,
    "tours": 4401,
    "navire": 4402,
    "naturel": 4403,
    "caractère": 4404,
    "view": 4405,
    "ologies": 4406,
    "sul@@": 4407,
    "nia": 4408,
    "Gam@@": 4409,
    "1908": 4410,
    "ip@@": 4411,
    "Oxford": 4412,
    "rur@@": 4413,
    "istant": 4414,
    "ban": 4415,
    "pel@@": 4416,
    "longtemps": 4417,
    "150": 4418,
    "défaite": 4419,
    "cherch@@": 4420,
    "mac@@": 4421,
    "diocèse": 4422,
    "remplacé": 4423,
    "astron@@": 4424,
    "xe": 4425,
    "zo@@": 4426,
    "Ét@@": 4427,
    "cui@@": 4428,
    "Or": 4429,
    "tch@@": 4430,
    "récomp@@": 4431,
    "Tech@@": 4432,
    "ouvrir": 4433,
    "largement": 4434,
    "côte": 4435,
    "nl": 4436,
    "path@@": 4437,
    "foli@@": 4438,
    "Ay@@": 4439,
    "géographie": 4440,
    "croix": 4441,
    "rence": 4442,
    "VI": 4443,
    "écoles": 4444,
    "landais": 4445,
    "fonde": 4446,
    "lit": 4447,
    "occupation": 4448,
    "fri@@": 4449,
    "importance": 4450,
    "eries": 4451,
    "Tan@@": 4452,
    "gov": 4453,
    "regroup@@": 4454,
    "utiliser": 4455,
    "gation": 4456,
    "chacun": 4457,
    "dis": 4458,
    "studio": 4459,
    "érique": 4460,
    "cathédrale": 4461,
    "vier": 4462,
    "flam@@": 4463,
    "idé@@": 4464,
    "france": 4465,
    "décri@@": 4466,
    "Orient": 4467,
    "Me": 4468,
    "ms": 4469,
    "ots": 4470,
    "tôt": 4471,
    "vente": 4472,
    "istan": 4473,
    "producteur": 4474,
    "Nik@@": 4475,
    "dédi@@": 4476,
    "officier": 4477,
    "autom@@": 4478,
    "-),": 4479,
    "éder": 4480,
    "ا@@": 4481,
    "Augus@@": 4482,
    "vée": 4483,
    "Plusieurs": 4484,
    "officiellement": 4485,
    "Service": 4486,
    "ût": 4487,
    "ores": 4488,
    "ington": 4489,
    "Égypte": 4490,
    "Écosse": 4491,
    "construire": 4492,
    "Scott": 4493,
    "écriture": 4494,
    "urent": 4495,
    "essentiellement": 4496,
    "Pont": 4497,
    "Joh@@": 4498,
    "systèmes": 4499,
    "eld": 4500,
    "Tran@@": 4501,
    "men": 4502,
    "détail": 4503,
    "manifest@@": 4504,
    "reç@@": 4505,
    "Tak@@": 4506,
    "méc@@": 4507,
    "Rev@@": 4508,
    "imag@@": 4509,
    "oto": 4510,
    "naturelle": 4511,
    "places": 4512,
    "ôt": 4513,
    "Saison": 4514,
    "Cameroun": 4515,
    "Conn@@": 4516,
    "tab@@": 4517,
    "Distribution": 4518,
    "olo": 4519,
    "extérieur": 4520,
    "civile": 4521,
    "tradition": 4522,
    "terr@@": 4523,
    "Gabriel": 4524,
    "élève": 4525,
    "nouvel": 4526,
    "mus@@": 4527,
    "passant": 4528,
    "…@@": 4529,
    "Chem@@": 4530,
    "Julien": 4531,
    "Cour": 4532,
    "atti@@": 4533,
    "ova": 4534,
    "remar@@": 4535,
    "més": 4536,
    "Mes@@": 4537,
    "MS": 4538,
    "exécu@@": 4539,
    "Vau@@": 4540,
    "erre": 4541,
    "marche": 4542,
    "publics": 4543,
    "tuel": 4544,
    "km2": 4545,
    "tionnel": 4546,
    "juste": 4547,
    "disposition": 4548,
    "tan": 4549,
    "filles": 4550,
    "issi@@": 4551,
    "oniques": 4552,
    "annon@@": 4553,
    "gens": 4554,
    "dge": 4555,
    "responsable": 4556,
    "Eng@@": 4557,
    "appel@@": 4558,
    "cimetière": 4559,
    "aceae": 4560,
    "sports": 4561,
    "ption": 4562,
    "bi": 4563,
    "alg@@": 4564,
    "án": 4565,
    "principe": 4566,
    "vite": 4567,
    "Qui@@": 4568,
    "alia": 4569,
    "Lac@@": 4570,
    "agi@@": 4571,
    "ond": 4572,
    "1889": 4573,
    "Dau@@": 4574,
    "fam@@": 4575,
    "League": 4576,
    "pend@@": 4577,
    "filmographiques": 4578,
    "nég@@": 4579,
    "monument": 4580,
    "aval": 4581,
    "dan": 4582,
    "littér@@": 4583,
    "Wh@@": 4584,
    "publication": 4585,
    "solution": 4586,
    "lou@@": 4587,
    "Science": 4588,
    "envoy@@": 4589,
    "istre": 4590,
    "images": 4591,
    "sauv@@": 4592,
    "Dic@@": 4593,
    "vont": 4594,
    "Maroc": 4595,
    "Rue": 4596,
    "permettent": 4597,
    "appelle": 4598,
    "personnalité": 4599,
    "Sav@@": 4600,
    "desc@@": 4601,
    "viv@@": 4602,
    "opposition": 4603,
    "cyclisme": 4604,
    "label": 4605,
    "navires": 4606,
    "onnée": 4607,
    "futur": 4608,
    "établissement": 4609,
    "iti@@": 4610,
    "Chan@@": 4611,
    "permis": 4612,
    "uk": 4613,
    "sélectionn@@": 4614,
    "dol@@": 4615,
    "troph@@": 4616,
    "tempor@@": 4617,
    "lim@@": 4618,
    "sommet": 4619,
    "événements": 4620,
    "Groupe": 4621,
    "tention": 4622,
    "championnats": 4623,
    "info": 4624,
    "Orléans": 4625,
    "ding": 4626,
    "trad": 4627,
    "Ali@@": 4628,
    "War": 4629,
    "colonel": 4630,
    "médecin": 4631,
    "électrique": 4632,
    "cht": 4633,
    "hr": 4634,
    "suivre": 4635,
    "apparition": 4636,
    "syndic@@": 4637,
    "Jones": 4638,
    "dan@@": 4639,
    "occupe": 4640,
    "visit@@": 4641,
    "désigner": 4642,
    "expérience": 4643,
    "aille": 4644,
    "hal@@": 4645,
    "régional": 4646,
    "perman@@": 4647,
    "dent": 4648,
    "Austr@@": 4649,
    "ordin@@": 4650,
    "Milan": 4651,
    "onnées": 4652,
    "Species": 4653,
    "aura": 4654,
    "oli": 4655,
    "Seu@@": 4656,
    "flu@@": 4657,
    "équ@@": 4658,
    "1907": 4659,
    "ish": 4660,
    "rez": 4661,
    "élector@@": 4662,
    "yth@@": 4663,
    "composition": 4664,
    "Air@@": 4665,
    "poids": 4666,
    "West": 4667,
    "faits": 4668,
    "atoires": 4669,
    "toire": 4670,
    "Sel@@": 4671,
    "crimin@@": 4672,
    "Maj@@": 4673,
    "Olympi@@": 4674,
    "superficie": 4675,
    "issement": 4676,
    "gent": 4677,
    "calcul@@": 4678,
    "conduit": 4679,
    "nav@@": 4680,
    "Animal": 4681,
    "tex@@": 4682,
    "Santa": 4683,
    "Page": 4684,
    "seau": 4685,
    "abri@@": 4686,
    "yeux": 4687,
    "NE@@": 4688,
    "Sing@@": 4689,
    "gio": 4690,
    "traitement": 4691,
    "scénario": 4692,
    "repose": 4693,
    "Pou@@": 4694,
    "cide": 4695,
    "Wes@@": 4696,
    "gni@@": 4697,
    "Tome": 4698,
    "isc@@": 4699,
    "Haut": 4700,
    "résultat": 4701,
    "semaines": 4702,
    "ün@@": 4703,
    "etti": 4704,
    "officielle": 4705,
    "cheval": 4706,
    "retraite": 4707,
    "side": 4708,
    "clu@@": 4709,
    "Ath@@": 4710,
    "nationales": 4711,
    "hô@@": 4712,
    "aniste": 4713,
    "décret": 4714,
    "posent": 4715,
    "proch@@": 4716,
    "correspond@@": 4717,
    "ago": 4718,
    "cités": 4719,
    "processus": 4720,
    "tend@@": 4721,
    "SA": 4722,
    "Kam@@": 4723,
    "conom@@": 4724,
    "7e": 4725,
    "Red": 4726,
    "hydro@@": 4727,
    "1909": 4728,
    "Meilleur": 4729,
    "zy": 4730,
    "06@@": 4731,
    "empl@@": 4732,
    "publiée": 4733,
    "fen@@": 4734,
    "informatique": 4735,
    "Wikispecies": 4736,
    "illet": 4737,
    "littéraire": 4738,
    "Lég@@": 4739,
    "ā@@": 4740,
    "polonais": 4741,
    "infr@@": 4742,
    "tt": 4743,
    "américains": 4744,
    "décédé": 4745,
    "réci@@": 4746,
    "importants": 4747,
    "ep": 4748,
    "Compagnie": 4749,
    "évolue": 4750,
    "étudiants": 4751,
    "expression": 4752,
    "Antonio": 4753,
    "moi": 4754,
    "Malgré": 4755,
    "imp@@": 4756,
    "négoci@@": 4757,
    "montr@@": 4758,
    "rédui@@": 4759,
    "réserve": 4760,
    "fédération": 4761,
    "lycée": 4762,
    "préfecture": 4763,
    "plein": 4764,
    "hé@@": 4765,
    "remporté": 4766,
    "ativement": 4767,
    "prob@@": 4768,
    "Unicode": 4769,
    "sti@@": 4770,
    "abbé": 4771,
    "disponible": 4772,
    "crise": 4773,
    "Phil@@": 4774,
    "élèves": 4775,
    "kg": 4776,
    "successivement": 4777,
    "»@@": 4778,
    "Gilles": 4779,
    "cir@@": 4780,
    "?).": 4781,
    "Cen@@": 4782,
    "Mill@@": 4783,
    "Tch@@": 4784,
    "baseball": 4785,
    "utilisés": 4786,
    "vivre": 4787,
    "Abb@@": 4788,
    "obtenu": 4789,
    "républic@@": 4790,
    "Dai@@": 4791,
    "cach@@": 4792,
    "renfor@@": 4793,
    "ches@@": 4794,
    "Normandie": 4795,
    "ech": 4796,
    "Ob@@": 4797,
    "Mary": 4798,
    "tw@@": 4799,
    "Super": 4800,
    "Chambre": 4801,
    "Live": 4802,
    "petites": 4803,
    "Super@@": 4804,
    "entraî@@": 4805,
    "nière": 4806,
    "originaire": 4807,
    "annuelle": 4808,
    "Rem@@": 4809,
    "wood": 4810,
    "offici@@": 4811,
    "inal": 4812,
    "famili@@": 4813,
    "Spr@@": 4814,
    "off": 4815,
    "reine": 4816,
    "ésie": 4817,
    "volon@@": 4818,
    "Numéro": 4819,
    "bach": 4820,
    "ossi@@": 4821,
    "muni@@": 4822,
    "Roi": 4823,
    "canadien": 4824,
    "rit": 4825,
    "heure": 4826,
    "entièrement": 4827,
    "unités": 4828,
    "odes": 4829,
    "1904": 4830,
    "venue": 4831,
    "Soc@@": 4832,
    "Argentine": 4833,
    "Madrid": 4834,
    "objectif": 4835,
    "parce": 4836,
    "gol@@": 4837,
    "м@@": 4838,
    "érie": 4839,
    "olu@@": 4840,
    "fondation": 4841,
    "IC@@": 4842,
    "critiques": 4843,
    "débuts": 4844,
    "heim": 4845,
    "lip@@": 4846,
    "Hen@@": 4847,
    "réserv@@": 4848,
    "onale": 4849,
    "locale": 4850,
    "Code": 4851,
    "sam@@": 4852,
    "jet": 4853,
    "Edward": 4854,
    "gés": 4855,
    "rich@@": 4856,
    "ographiques": 4857,
    "angle": 4858,
    "appu@@": 4859,
    "Rus@@": 4860,
    "hab@@": 4861,
    "édité": 4862,
    "ferme": 4863,
    "tar@@": 4864,
    "protég@@": 4865,
    "Ye@@": 4866,
    "romain": 4867,
    "maintenant": 4868,
    "perd": 4869,
    "Tim@@": 4870,
    "meilleurs": 4871,
    "ria": 4872,
    "communication": 4873,
    "cartes": 4874,
    "ssi@@": 4875,
    "enh@@": 4876,
    "fa": 4877,
    "tionnelle": 4878,
    "gi": 4879,
    "Fou@@": 4880,
    "Trav@@": 4881,
    "pau@@": 4882,
    "légale": 4883,
    "jus@@": 4884,
    "révél@@": 4885,
    "Sun@@": 4886,
    "Év@@": 4887,
    "Bol@@": 4888,
    "couple": 4889,
    "clam@@": 4890,
    "agriculture": 4891,
    "voiture": 4892,
    "victoires": 4893,
    "Ori@@": 4894,
    "Tam@@": 4895,
    "ciens": 4896,
    "vainqueur": 4897,
    "application": 4898,
    "voies": 4899,
    "ava": 4900,
    "législatives": 4901,
    "Afric@@": 4902,
    "tuelle": 4903,
    "tir": 4904,
    "Consultez": 4905,
    "entrer": 4906,
    "Big": 4907,
    "tes@@": 4908,
    "Corée": 4909,
    "athlétisme": 4910,
    "well": 4911,
    "édé": 4912,
    "pdf": 4913,
    "faisait": 4914,
    "hôpital": 4915,
    "désigne": 4916,
    "Ran@@": 4917,
    "Homme": 4918,
    "Bak@@": 4919,
    "dyn@@": 4920,
    "maritime": 4921,
    "Tal@@": 4922,
    "historien": 4923,
    "Company": 4924,
    "Que@@": 4925,
    "difficile": 4926,
    "ima": 4927,
    "sorte": 4928,
    "Jeu@@": 4929,
    "emploi": 4930,
    "hér@@": 4931,
    "senti@@": 4932,
    "div@@": 4933,
    "exemplaires": 4934,
    "constitué": 4935,
    "Joe": 4936,
    "Alber@@": 4937,
    "AT@@": 4938,
    "Cela": 4939,
    "dur@@": 4940,
    "Eugène": 4941,
    "déclare": 4942,
    "cos": 4943,
    "meur@@": 4944,
    "orn@@": 4945,
    "AN@@": 4946,
    "NCBI": 4947,
    "Enfin": 4948,
    "XVe": 4949,
    "avanc@@": 4950,
    "cycliste": 4951,
    "Fac@@": 4952,
    "fili@@": 4953,
    "industri@@": 4954,
    "Mass@@": 4955,
    "rejoindre": 4956,
    "discussion": 4957,
    "connaissance": 4958,
    "rej@@": 4959,
    "Emmanuel": 4960,
    "aven@@": 4961,
    "..": 4962,
    "lun@@": 4963,
    "connaître": 4964,
    "Lang@@": 4965,
    "ï": 4966,
    "tombe": 4967,
    "ares": 4968,
    "1901": 4969,
    "psy@@": 4970,
    "Certains": 4971,
    "diffusée": 4972,
    "Blu@@": 4973,
    "disque": 4974,
    "proj@@": 4975,
    "Sciences": 4976,
    "Vo@@": 4977,
    "véritable": 4978,
    "Cli@@": 4979,
    "faveur": 4980,
    "locaux": 4981,
    "Bruno": 4982,
    "édifice": 4983,
    "Nig@@": 4984,
    "Wall@@": 4985,
    "mur": 4986,
    "PS": 4987,
    "Juan": 4988,
    "ons@@": 4989,
    "archive": 4990,
    "Toutefois": 4991,
    "09@@": 4992,
    "financ@@": 4993,
    "parle": 4994,
    "souver@@": 4995,
    "onymes": 4996,
    "étai@@": 4997,
    "vivant": 4998,
    "osi@@": 4999,
    "Walter": 5000,
    "Dec@@": 5001,
    "Résumé": 5002,
    "Nations": 5003,
    "mati@@": 5004,
    "répu@@": 5005,
    "vieux": 5006,
    "ry@@": 5007,
    "ska": 5008,
    "cinquième": 5009,
    "indre": 5010,
    "enci@@": 5011,
    "sensi@@": 5012,
    "intégral": 5013,
    "héros": 5014,
    "CE@@": 5015,
    "Bes@@": 5016,
    "sir": 5017,
    "ere": 5018,
    "sang": 5019,
    "Const@@": 5020,
    "sen@@": 5021,
    "и": 5022,
    "Jam@@": 5023,
    "Cambridge": 5024,
    "Brown": 5025,
    "ali": 5026,
    "XX@@": 5027,
    "rapp@@": 5028,
    "Mot@@": 5029,
    "documents": 5030,
    "Haw@@": 5031,
    "zo": 5032,
    "Bos@@": 5033,
    "reprise": 5034,
    "limit@@": 5035,
    "commission": 5036,
    "Statis@@": 5037,
    "Dum@@": 5038,
    ");": 5039,
    "Play@@": 5040,
    "Ne": 5041,
    "ign": 5042,
    "Rober@@": 5043,
    "Britan@@": 5044,
    "Vir@@": 5045,
    "mine": 5046,
    "Ze@@": 5047,
    "Nouv@@": 5048,
    "fér@@": 5049,
    "noire": 5050,
    "tical": 5051,
    "ende": 5052,
    "more": 5053,
    "XIIe": 5054,
    "Bataille": 5055,
    "Communes": 5056,
    "tot@@": 5057,
    "entraîn@@": 5058,
    "altern@@": 5059,
    "maladie": 5060,
    "rach@@": 5061,
    "Arn@@": 5062,
    "affir@@": 5063,
    "ated": 5064,
    "lois": 5065,
    "isée": 5066,
    "mod@@": 5067,
    "externe": 5068,
    "ardo": 5069,
    "protest@@": 5070,
    "rattach@@": 5071,
    "ors@@": 5072,
    "musul@@": 5073,
    "uration": 5074,
    "lam@@": 5075,
    "right": 5076,
    "An": 5077,
    "ene": 5078,
    "comité": 5079,
    "organisé": 5080,
    "Mik@@": 5081,
    "Lorraine": 5082,
    "attach@@": 5083,
    "AS@@": 5084,
    "atteindre": 5085,
    "America": 5086,
    "lant": 5087,
    "augmentation": 5088,
    "itz": 5089,
    "dispositif": 5090,
    "Noël": 5091,
    "intéress@@": 5092,
    "conflit": 5093,
    "connus": 5094,
    "Ce@@": 5095,
    "céléb@@": 5096,
    "change": 5097,
    "dt": 5098,
    "quées": 5099,
    "Gas@@": 5100,
    "→": 5101,
    "8e": 5102,
    "Kir@@": 5103,
    "Prince": 5104,
    "débute": 5105,
    "gaz": 5106,
    "cis": 5107,
    "éma": 5108,
    "House": 5109,
    "SS": 5110,
    "Durée": 5111,
    "Avant": 5112,
    "four@@": 5113,
    "Guide": 5114,
    "}\\": 5115,
    "tz@@": 5116,
    "explique": 5117,
    "pay@@": 5118,
    "Colombie": 5119,
    "véri@@": 5120,
    "Lem@@": 5121,
    "importantes": 5122,
    "dos": 5123,
    "concur@@": 5124,
    "Voi@@": 5125,
    "développé": 5126,
    "Lille": 5127,
    "démographique": 5128,
    "azi@@": 5129,
    "gros": 5130,
    "1903": 5131,
    "isent": 5132,
    "Palais": 5133,
    "telles": 5134,
    "local": 5135,
    "régulièrement": 5136,
    "Gallimard": 5137,
    "commandement": 5138,
    "tiv@@": 5139,
    "culturel": 5140,
    "méthode": 5141,
    "définie": 5142,
    "Chris": 5143,
    "Liège": 5144,
    "г@@": 5145,
    "pati@@": 5146,
    "documentaire": 5147,
    "erson": 5148,
    "avion": 5149,
    "arry": 5150,
    "çant": 5151,
    "opérations": 5152,
    "indique": 5153,
    "Pen@@": 5154,
    "vote": 5155,
    "fi": 5156,
    "titude": 5157,
    "chimie": 5158,
    "White": 5159,
    "ost": 5160,
    "prolong@@": 5161,
    "Hall": 5162,
    "belle": 5163,
    "propriétaire": 5164,
    "recev@@": 5165,
    "trouvent": 5166,
    "travaill@@": 5167,
    "Time": 5168,
    "Bell@@": 5169,
    "transports": 5170,
    "participé": 5171,
    "fête": 5172,
    "Émile": 5173,
    "socialiste": 5174,
    "lour@@": 5175,
    "concerne": 5176,
    "usine": 5177,
    "nomination": 5178,
    "Offici@@": 5179,
    "ania": 5180,
    "commencé": 5181,
    "ook": 5182,
    "Eric": 5183,
    "rets": 5184,
    "Liber@@": 5185,
    "avantage": 5186,
    "auss@@": 5187,
    "rh@@": 5188,
    "Christ": 5189,
    "Gard@@": 5190,
    "Bon": 5191,
    "phi@@": 5192,
    "cole": 5193,
    "ER": 5194,
    "lev@@": 5195,
    "sta": 5196,
    "RT@@": 5197,
    "esses": 5198,
    "Francisco": 5199,
    "mari": 5200,
    "sky": 5201,
    "japonaise": 5202,
    "con": 5203,
    "Musi@@": 5204,
    "Wol@@": 5205,
    "Roy@@": 5206,
    "cz@@": 5207,
    "téri@@": 5208,
    "huile": 5209,
    "ui": 5210,
    "ros": 5211,
    "juge": 5212,
    "trac@@": 5213,
    "ox@@": 5214,
    "sil@@": 5215,
    "mit": 5216,
    "chrétienne": 5217,
    "eue": 5218,
    "beau": 5219,
    "Mem@@": 5220,
    "Plat@@": 5221,
    "agent": 5222,
    "amélior@@": 5223,
    "oupe": 5224,
    "fas@@": 5225,
    "cant@@": 5226,
    "Leur": 5227,
    "temp@@": 5228,
    "clo@@": 5229,
    "Bill": 5230,
    "Kor@@": 5231,
    "rand": 5232,
    "Var@@": 5233,
    "peine": 5234,
    "étranger": 5235,
    "1902": 5236,
    "Fab@@": 5237,
    "dépend@@": 5238,
    "incar@@": 5239,
    "Président": 5240,
    "Renaissance": 5241,
    "cycl@@": 5242,
    "oï@@": 5243,
    "bia": 5244,
    "1891": 5245,
    "statistiques": 5246,
    "isson": 5247,
    "Sco@@": 5248,
    "édie": 5249,
    "ros@@": 5250,
    "Kenn@@": 5251,
    "fleuve": 5252,
    "soient": 5253,
    "sr": 5254,
    "trom@@": 5255,
    "étés": 5256,
    "caractéris@@": 5257,
    "sw@@": 5258,
    "canal": 5259,
    "na@@": 5260,
    "contrain@@": 5261,
    "deven@@": 5262,
    "utilisant": 5263,
    "chasse": 5264,
    "diplom@@": 5265,
    "moyens": 5266,
    "Figaro": 5267,
    "Ah@@": 5268,
    "tiennent": 5269,
    "èvre": 5270,
    "Tab@@": 5271,
    "ador": 5272,
    "ardi@@": 5273,
    "Mid@@": 5274,
    "piste": 5275,
    "absence": 5276,
    "Napoléon": 5277,
    "pil@@": 5278,
    "kin@@": 5279,
    "deo": 5280,
    "Ard@@": 5281,
    "éph@@": 5282,
    "oxy@@": 5283,
    "Tw@@": 5284,
    "Lorsque": 5285,
    "Gou@@": 5286,
    "abs@@": 5287,
    "discipl@@": 5288,
    "lités": 5289,
    "Production": 5290,
    "chute": 5291,
    "minim@@": 5292,
    "ingénieur": 5293,
    "annes": 5294,
    "acu@@": 5295,
    "nien": 5296,
    "visite": 5297,
    "Galerie": 5298,
    "Hit@@": 5299,
    "Fem@@": 5300,
    "propri@@": 5301,
    "Sul@@": 5302,
    "EN@@": 5303,
    "collège": 5304,
    "adaptation": 5305,
    "Nob@@": 5306,
    "posés": 5307,
    "powiat": 5308,
    "chien": 5309,
    "élus": 5310,
    "Adam": 5311,
    "ation@@": 5312,
    "IM@@": 5313,
    "appartenant": 5314,
    "Biographie": 5315,
    "comédie": 5316,
    "permettre": 5317,
    "diminu@@": 5318,
    "Luxembourg": 5319,
    "apo@@": 5320,
    "Vie": 5321,
    "Williams": 5322,
    "Nar@@": 5323,
    "perdu": 5324,
    "chem@@": 5325,
    "Let@@": 5326,
    "chanteuse": 5327,
    "mairie": 5328,
    "Zh@@": 5329,
    "ood@@": 5330,
    "actif": 5331,
    "sk": 5332,
    "types": 5333,
    "bras": 5334,
    "po": 5335,
    "Nice": 5336,
    "phe": 5337,
    "péti@@": 5338,
    "Cav@@": 5339,
    "ettre": 5340,
    "Kat@@": 5341,
    "expri@@": 5342,
    "Dal@@": 5343,
    "Tous": 5344,
    "Pot@@": 5345,
    "Mike": 5346,
    "Communauté": 5347,
    "chœur": 5348,
    "commande": 5349,
    "autorités": 5350,
    "zon": 5351,
    "Ball@@": 5352,
    "Miss@@": 5353,
    "portail": 5354,
    "téléspectateurs": 5355,
    "finit": 5356,
    "anna": 5357,
    "hommage": 5358,
    "dex": 5359,
    "tue": 5360,
    "iro": 5361,
    "religion": 5362,
    "multi@@": 5363,
    "règles": 5364,
    "formations": 5365,
    "fourni@@": 5366,
    "musicale": 5367,
    "bureau": 5368,
    "IS": 5369,
    "région@@": 5370,
    "èvement": 5371,
    "oine": 5372,
    "1898": 5373,
    "Diversity": 5374,
    "Zo@@": 5375,
    "conver@@": 5376,
    "méd@@": 5377,
    "présenté": 5378,
    "explor@@": 5379,
    "Mak@@": 5380,
    "Fal@@": 5381,
    "construc@@": 5382,
    "déroule": 5383,
    "manque": 5384,
    "portes": 5385,
    "ez@@": 5386,
    "parvient": 5387,
    "Eli@@": 5388,
    "DVD": 5389,
    "èmes": 5390,
    "compét@@": 5391,
    "parcours": 5392,
    "Turquie": 5393,
    "jardin": 5394,
    "prises": 5395,
    "poésie": 5396,
    "fol@@": 5397,
    "propres": 5398,
    "gagne": 5399,
    "tiss@@": 5400,
    "1890": 5401,
    "suffis@@": 5402,
    "ration": 5403,
    "dro@@": 5404,
    "tel@@": 5405,
    "asa": 5406,
    "Pascal": 5407,
    "eli@@": 5408,
    "Bourgogne": 5409,
    "Rock": 5410,
    "Award": 5411,
    "Harry": 5412,
    "XIIIe": 5413,
    "fédéral": 5414,
    "secondaires": 5415,
    "eton": 5416,
    "chet": 5417,
    "béné@@": 5418,
    "Fo@@": 5419,
    "Sum@@": 5420,
    "Bot@@": 5421,
    "témoign@@": 5422,
    "Ami@@": 5423,
    "sièges": 5424,
    "basé": 5425,
    "doubles": 5426,
    "amment": 5427,
    "gène": 5428,
    "ner@@": 5429,
    "AF@@": 5430,
    "vain@@": 5431,
    "lor@@": 5432,
    "600": 5433,
    "venu": 5434,
    "jo": 5435,
    "condam@@": 5436,
    "Tex@@": 5437,
    "Doc@@": 5438,
    "prenant": 5439,
    "publiées": 5440,
    "Nic@@": 5441,
    "ao@@": 5442,
    "érer": 5443,
    "scientifiques": 5444,
    "Quelques": 5445,
    "Dol@@": 5446,
    "major": 5447,
    "vesti@@": 5448,
    "Clau@@": 5449,
    "avions": 5450,
    "vres": 5451,
    "aca@@": 5452,
    "Vic@@": 5453,
    "chose": 5454,
    "subs@@": 5455,
    "gmina": 5456,
    "XV@@": 5457,
    "ost@@": 5458,
    "zi": 5459,
    "ulté": 5460,
    "1880": 5461,
    "risque": 5462,
    "Cul@@": 5463,
    "cre": 5464,
    "chemins": 5465,
    "cherche": 5466,
    "priv@@": 5467,
    "décès": 5468,
    "dessous": 5469,
    "conséqu@@": 5470,
    "front": 5471,
    "masse": 5472,
    "dure": 5473,
    "Presses": 5474,
    "Tel@@": 5475,
    "communiste": 5476,
    "tri": 5477,
    "collabor@@": 5478,
    "ariat": 5479,
    "candidat": 5480,
    "douze": 5481,
    "Rhin": 5482,
    "Sl@@": 5483,
    "concert": 5484,
    "manuscri@@": 5485,
    "Sm@@": 5486,
    "Steve": 5487,
    "fid@@": 5488,
    "précédent": 5489,
    "Blan@@": 5490,
    "rants": 5491,
    "jec@@": 5492,
    "avie": 5493,
    "ital": 5494,
    "og": 5495,
    "fron@@": 5496,
    "dessin": 5497,
    "cop@@": 5498,
    "Gall@@": 5499,
    "devenue": 5500,
    "Pre@@": 5501,
    "1897": 5502,
    "découvre": 5503,
    "ples": 5504,
    "chevalier": 5505,
    "Norvège": 5506,
    "North": 5507,
    "pris@@": 5508,
    "jeu@@": 5509,
    "Thierry": 5510,
    "ech@@": 5511,
    "restaur@@": 5512,
    "Clo@@": 5513,
    "British": 5514,
    "etta": 5515,
    "Gol@@": 5516,
    "AD@@": 5517,
    "Puis": 5518,
    "résistance": 5519,
    "Chev@@": 5520,
    "Jou@@": 5521,
    "phère": 5522,
    "active": 5523,
    "ressources": 5524,
    "aît": 5525,
    "dép@@": 5526,
    "rait": 5527,
    "Names": 5528,
    "over": 5529,
    "Review": 5530,
    "Hil@@": 5531,
    "Elec@@": 5532,
    "mani@@": 5533,
    "élevé": 5534,
    "UN@@": 5535,
    "mesures": 5536,
    "uire": 5537,
    "Lind@@": 5538,
    "bli@@": 5539,
    "1895": 5540,
    "sec@@": 5541,
    "fortement": 5542,
    "120": 5543,
    "fem@@": 5544,
    "vitch": 5545,
    "Serge": 5546,
    "Atlantique": 5547,
    "uie": 5548,
    "oul": 5549,
    "Young": 5550,
    "myth@@": 5551,
    "aéroport": 5552,
    "Brig@@": 5553,
    "ocr@@": 5554,
    "apparten@@": 5555,
    "ctions": 5556,
    "tins": 5557,
    "bus@@": 5558,
    "procès": 5559,
    "augment@@": 5560,
    "rapide": 5561,
    "%)": 5562,
    "Volume": 5563,
    "mans": 5564,
    "Jet": 5565,
    "cio": 5566,
    "eh@@": 5567,
    "Né@@": 5568,
    "dû": 5569,
    "orth@@": 5570,
    "donnée": 5571,
    "bo": 5572,
    "Kur@@": 5573,
    "Aux": 5574,
    "Moham@@": 5575,
    "Nancy": 5576,
    "adul@@": 5577,
    "isol@@": 5578,
    "chapitre": 5579,
    "exam@@": 5580,
    "comètes": 5581,
    "caractérisée": 5582,
    "Nat@@": 5583,
    "Cath@@": 5584,
    "çons": 5585,
    "vern@@": 5586,
    "1899": 5587,
    "Street": 5588,
    "Tokyo": 5589,
    "puisque": 5590,
    "lesquels": 5591,
    "régl@@": 5592,
    "1896": 5593,
    "gence": 5594,
    "connaiss@@": 5595,
    "soir": 5596,
    "révolution": 5597,
    "effets": 5598,
    "urbaine": 5599,
    "las": 5600,
    "économiques": 5601,
    "pouvant": 5602,
    "orph@@": 5603,
    "albums": 5604,
    "ordres": 5605,
    "″": 5606,
    "Libération": 5607,
    "Louise": 5608,
    "dier": 5609,
    "guerres": 5610,
    "enté": 5611,
    "missions": 5612,
    "certaine": 5613,
    "ass": 5614,
    "laisse": 5615,
    "assurer": 5616,
    "Gor@@": 5617,
    "ight": 5618,
    "Vue": 5619,
    "onna": 5620,
    "mang@@": 5621,
    "»(": 5622,
    "TA@@": 5623,
    "partag@@": 5624,
    "Caroline": 5625,
    "alien": 5626,
    "lar@@": 5627,
    "Christ@@": 5628,
    "endu": 5629,
    "sociétés": 5630,
    "mie": 5631,
    "los": 5632,
    "Donald": 5633,
    "Améric@@": 5634,
    "Alan": 5635,
    "Prom@@": 5636,
    "taines": 5637,
    "tia": 5638,
    "Rennes": 5639,
    "ester": 5640,
    "BBC": 5641,
    "aison": 5642,
    "dium": 5643,
    "assur@@": 5644,
    "bandeau": 5645,
    "Tow@@": 5646,
    "Port": 5647,
    "Lec@@": 5648,
    "reau": 5649,
    "{{": 5650,
    "fourn@@": 5651,
    "Populations": 5652,
    "antin": 5653,
    "téléfilm": 5654,
    "internationales": 5655,
    "anisme": 5656,
    "correspond": 5657,
    "promotion": 5658,
    "Wikiwix": 5659,
    "liés": 5660,
    "ament": 5661,
    "bran@@": 5662,
    "pouvait": 5663,
    "Parc": 5664,
    "NA@@": 5665,
    "Stan@@": 5666,
    "matériel": 5667,
    "Él@@": 5668,
    "majeur": 5669,
    "paru": 5670,
    "présent@@": 5671,
    "bâ@@": 5672,
    "ando": 5673,
    "dence": 5674,
    "test@@": 5675,
    "Avi@@": 5676,
    "Vict@@": 5677,
    "raient": 5678,
    "ows": 5679,
    "arrêt": 5680,
    "Texas": 5681,
    "so": 5682,
    "Ret@@": 5683,
    "Slov@@": 5684,
    "orl@@": 5685,
    "jan@@": 5686,
    "Wor@@": 5687,
    "médiév@@": 5688,
    "opéra": 5689,
    "catholicisme": 5690,
    "Dam@@": 5691,
    "US@@": 5692,
    "Calais": 5693,
    "gin@@": 5694,
    "supplém@@": 5695,
    "Celui": 5696,
    "escl@@": 5697,
    "ions": 5698,
    "besoin": 5699,
    "gouv": 5700,
    "grat@@": 5701,
    "CA": 5702,
    "Ric@@": 5703,
    "{@@": 5704,
    "remon@@": 5705,
    "installe": 5706,
    "Légion": 5707,
    "Chaque": 5708,
    "plans": 5709,
    "excep@@": 5710,
    "mini@@": 5711,
    "micro@@": 5712,
    "faites": 5713,
    "wan": 5714,
    "Tunisie": 5715,
    "delà": 5716,
    "af": 5717,
    "Hans": 5718,
    "quin": 5719,
    "libr@@": 5720,
    "Fort": 5721,
    "électronique": 5722,
    "sauf": 5723,
    "façade": 5724,
    "dation": 5725,
    "démocratique": 5726,
    "inaug@@": 5727,
    "Mars": 5728,
    "Sac@@": 5729,
    "Bet@@": 5730,
    "végét@@": 5731,
    "Nav@@": 5732,
    "ography": 5733,
    "écri@@": 5734,
    "mandat": 5735,
    "\"@@": 5736,
    "Bois": 5737,
    "identifi@@": 5738,
    "échapp@@": 5739,
    "aliers": 5740,
    "Sym@@": 5741,
    "200@@": 5742,
    "lic@@": 5743,
    "lendemain": 5744,
    "Giu@@": 5745,
    "ema": 5746,
    "spectacle": 5747,
    "héb@@": 5748,
    "complète": 5749,
    "ographi@@": 5750,
    "9e": 5751,
    "Franc@@": 5752,
    "provis@@": 5753,
    "Natur@@": 5754,
    "professionnelle": 5755,
    "Taylor": 5756,
    "Laboratory": 5757,
    "rendu": 5758,
    "oblig@@": 5759,
    "température": 5760,
    "changement": 5761,
    "omét@@": 5762,
    "communi@@": 5763,
    "répon@@": 5764,
    "occid@@": 5765,
    "appartient": 5766,
    "mène": 5767,
    "BnF": 5768,
    "ovi@@": 5769,
    "net@@": 5770,
    "Mis@@": 5771,
    "wn": 5772,
    "concentr@@": 5773,
    "Ron@@": 5774,
    "see": 5775,
    "Hay@@": 5776,
    "ôle": 5777,
    "Bob": 5778,
    "Manuel": 5779,
    "vac@@": 5780,
    "migr@@": 5781,
    "Coll@@": 5782,
    "alier": 5783,
    "Tony": 5784,
    "Jésus": 5785,
    "Juifs": 5786,
    "dirige": 5787,
    "attr@@": 5788,
    "»),": 5789,
    "aste": 5790,
    "Karl": 5791,
    "modèles": 5792,
    "adu@@": 5793,
    "ür@@": 5794,
    "elin": 5795,
    "'«": 5796,
    "osse": 5797,
    "écriv@@": 5798,
    "Cru@@": 5799,
    "ns@@": 5800,
    "essais": 5801,
    "cales": 5802,
    "univers": 5803,
    "ases": 5804,
    "moine": 5805,
    "oiseaux": 5806,
    "ker@@": 5807,
    "Van@@": 5808,
    "Anna": 5809,
    "Art@@": 5810,
    "rage": 5811,
    "ph": 5812,
    "Danemark": 5813,
    "bleu": 5814,
    "Saône": 5815,
    "photographie": 5816,
    "truction": 5817,
    "aign@@": 5818,
    "Dur@@": 5819,
    "inaire": 5820,
    "dées": 5821,
    "fonc@@": 5822,
    "essionn@@": 5823,
    "complexe": 5824,
    "cardinal": 5825,
    "èque": 5826,
    "mess@@": 5827,
    "Intérieur": 5828,
    "secondes": 5829,
    "Mach@@": 5830,
    "med": 5831,
    "pel": 5832,
    "Produc@@": 5833,
    "collecte": 5834,
    "aisons": 5835,
    "Sin@@": 5836,
    "Bureau": 5837,
    "ов@@": 5838,
    "géné@@": 5839,
    "NC@@": 5840,
    "trente": 5841,
    "potenti@@": 5842,
    "South": 5843,
    "Stade": 5844,
    "origines": 5845,
    "Tit@@": 5846,
    "1860": 5847,
    "cti@@": 5848,
    "Ha@@": 5849,
    "Mai@@": 5850,
    "ela": 5851,
    "Coun@@": 5852,
    "gie": 5853,
    "Florence": 5854,
    "drome": 5855,
    "Hav@@": 5856,
    "DC": 5857,
    "locales": 5858,
    "remplac@@": 5859,
    "Force": 5860,
    "001": 5861,
    "matéri@@": 5862,
    "ouvr@@": 5863,
    "différence": 5864,
    "ouse": 5865,
    "avocat": 5866,
    "Cau@@": 5867,
    "dessin@@": 5868,
    "Yu@@": 5869,
    "ör@@": 5870,
    "brigade": 5871,
    "raft": 5872,
    "ouvertes": 5873,
    "limi@@": 5874,
    "Progr@@": 5875,
    "chir@@": 5876,
    "totale": 5877,
    "hist@@": 5878,
    "85@@": 5879,
    "Lav@@": 5880,
    "800": 5881,
    "urbanisme": 5882,
    "Magazine": 5883,
    "let": 5884,
    "victimes": 5885,
    "Tour@@": 5886,
    "dits": 5887,
    "document": 5888,
    "néanmoins": 5889,
    "Ernest": 5890,
    "batterie": 5891,
    "Frank@@": 5892,
    "printemps": 5893,
    "étend": 5894,
    "Kon@@": 5895,
    "allu@@": 5896,
    "Françoise": 5897,
    "EHESS": 5898,
    "Max@@": 5899,
    "enfance": 5900,
    "Mam@@": 5901,
    "chau@@": 5902,
    "tol@@": 5903,
    "Lun@@": 5904,
    "score": 5905,
    "humaine": 5906,
    "Pro": 5907,
    "dirigé": 5908,
    "produire": 5909,
    "Cel@@": 5910,
    "architec@@": 5911,
    "ony": 5912,
    "visible": 5913,
    "not": 5914,
    "Ba@@": 5915,
    "PC": 5916,
    "mit@@": 5917,
    "vil@@": 5918,
    "dépl@@": 5919,
    "news": 5920,
    "canadienne": 5921,
    "archie": 5922,
    "tourisme": 5923,
    "Fas@@": 5924,
    "inv@@": 5925,
    "associations": 5926,
    "row": 5927,
    "Institute": 5928,
    "étoiles": 5929,
    "Vin@@": 5930,
    "ryth@@": 5931,
    "Body": 5932,
    "70@@": 5933,
    "atom@@": 5934,
    "í": 5935,
    "andre": 5936,
    "publiés": 5937,
    "vention": 5938,
    "ok": 5939,
    "conception": 5940,
    "tropi@@": 5941,
    "diff@@": 5942,
    "transi@@": 5943,
    "Alexander": 5944,
    "Mand@@": 5945,
    "Small": 5946,
    "Alsace": 5947,
    "onnés": 5948,
    "Zu@@": 5949,
    "ustr@@": 5950,
    "dition": 5951,
    "due": 5952,
    "ton@@": 5953,
    "alise": 5954,
    "Johnson": 5955,
    "déci@@": 5956,
    "race": 5957,
    "débu@@": 5958,
    "circuit": 5959,
    "Sus@@": 5960,
    "danse": 5961,
    "VII": 5962,
    "eman": 5963,
    "techn@@": 5964,
    "Rio": 5965,
    "proches": 5966,
    "équival@@": 5967,
    "naz@@": 5968,
    "démocr@@": 5969,
    "combats": 5970,
    "produc@@": 5971,
    "wor@@": 5972,
    "Chapelle": 5973,
    "ape": 5974,
    "gou@@": 5975,
    "Et@@": 5976,
    "RS": 5977,
    "oti@@": 5978,
    "1893": 5979,
    "Jan": 5980,
    "eci": 5981,
    "concept": 5982,
    "bibli@@": 5983,
    "bury": 5984,
    "cha": 5985,
    "aç@@": 5986,
    "distribu@@": 5987,
    "circul@@": 5988,
    "champions": 5989,
    "ο@@": 5990,
    "pas@@": 5991,
    "oubli@@": 5992,
    "redi": 5993,
    "ype": 5994,
    "endra": 5995,
    "Game": 5996,
    "Place": 5997,
    "Roumanie": 5998,
    "edia": 5999,
    "Finlande": 6000,
    "spor@@": 6001,
    "dal@@": 6002,
    "posées": 6003,
    "nation": 6004,
    "86@@": 6005,
    "Bonn@@": 6006,
    "Books": 6007,
    "RC": 6008,
    "Rose": 6009,
    "quat@@": 6010,
    "Roy": 6011,
    "questions": 6012,
    "consacré": 6013,
    "énag@@": 6014,
    "ception": 6015,
    "cycle": 6016,
    "participer": 6017,
    "Long@@": 6018,
    "tos": 6019,
    "signé": 6020,
    "til@@": 6021,
    "scénariste": 6022,
    "ué": 6023,
    "Stephen": 6024,
    "Harri@@": 6025,
    "ów": 6026,
    "án@@": 6027,
    "isse": 6028,
    "Ash@@": 6029,
    "Observ@@": 6030,
    "million": 6031,
    "Che@@": 6032,
    "gam@@": 6033,
    "Pel@@": 6034,
    "fabri@@": 6035,
    "syst@@": 6036,
    "WISE": 6037,
    "Cup": 6038,
    "1848": 6039,
    "22@@": 6040,
    "win": 6041,
    "franco": 6042,
    "long@@": 6043,
    "pagn@@": 6044,
    "espagnole": 6045,
    "cope": 6046,
    "1894": 6047,
    "étrangères": 6048,
    "erait": 6049,
    "complet": 6050,
    "travailler": 6051,
    "mand@@": 6052,
    "moni@@": 6053,
    "Open": 6054,
    "mun@@": 6055,
    "ériques": 6056,
    "ib@@": 6057,
    "wa": 6058,
    "Sen@@": 6059,
    "achev@@": 6060,
    "domaines": 6061,
    "effectués": 6062,
    "pai@@": 6063,
    "ason": 6064,
    "Cé@@": 6065,
    "Mun@@": 6066,
    "juni@@": 6067,
    "ller": 6068,
    "german@@": 6069,
    "préf@@": 6070,
    "Is": 6071,
    "Bertrand": 6072,
    "régionale": 6073,
    "ario": 6074,
    "ceau": 6075,
    "Roland": 6076,
    "raisons": 6077,
    "Kaz@@": 6078,
    "spect@@": 6079,
    "CH@@": 6080,
    "1830": 6081,
    "Prin@@": 6082,
    "néerlandais": 6083,
    "contact": 6084,
    "rité": 6085,
    "Day": 6086,
    "ûte": 6087,
    "corpor@@": 6088,
    "Arch@@": 6089,
    "Vierge": 6090,
    "temple": 6091,
    "mos@@": 6092,
    "oy": 6093,
    "blanche": 6094,
    "Date": 6095,
    "mathématiques": 6096,
    "entrant": 6097,
    "métro": 6098,
    "yen": 6099,
    "représentation": 6100,
    "uré": 6101,
    "américaines": 6102,
    "orité": 6103,
    "Schw@@": 6104,
    "tica": 6105,
    "han@@": 6106,
    "lles": 6107,
    "Barcelone": 6108,
    "élément": 6109,
    "Chal@@": 6110,
    "1871": 6111,
    "arab@@": 6112,
    "contemporain": 6113,
    "List": 6114,
    "och": 6115,
    "osa": 6116,
    "déb@@": 6117,
    "Rot@@": 6118,
    "niques": 6119,
    "inclinaison": 6120,
    "référ@@": 6121,
    "sû@@": 6122,
    "sing@@": 6123,
    "docteur": 6124,
    "Thom@@": 6125,
    "Team": 6126,
    "décisi@@": 6127,
    "généraux": 6128,
    "Miss": 6129,
    "contenant": 6130,
    "mouvements": 6131,
    "Oise": 6132,
    "tements": 6133,
    "zaine": 6134,
    "retourn@@": 6135,
    "gré": 6136,
    "ader": 6137,
    "européennes": 6138,
    "effectue": 6139,
    "répartition": 6140,
    "mant": 6141,
    "1885": 6142,
    "iss": 6143,
    "ín": 6144,
    "we": 6145,
    "Sébastien": 6146,
    "Wind@@": 6147,
    "chevaux": 6148,
    "possibilité": 6149,
    "Orig@@": 6150,
    "alle": 6151,
    "versions": 6152,
    "périhélie": 6153,
    "ati": 6154,
    "usé": 6155,
    "agrandir": 6156,
    "Center": 6157,
    "partement": 6158,
    "б@@": 6159,
    "col": 6160,
    "télé@@": 6161,
    "larg@@": 6162,
    "iz@@": 6163,
    "concern@@": 6164,
    "Nous": 6165,
    "bot@@": 6166,
    "rép@@": 6167,
    "Who": 6168,
    "riche": 6169,
    "duc@@": 6170,
    "Fondation": 6171,
    "School": 6172,
    "Loc@@": 6173,
    "Ve": 6174,
    "tage": 6175,
    "dér@@": 6176,
    "Pay@@": 6177,
    "exc@@": 6178,
    "Propulsion": 6179,
    "Mario": 6180,
    "prêtre": 6181,
    "intercommun@@": 6182,
    "jaune": 6183,
    "Méd@@": 6184,
    "own": 6185,
    ".).": 6186,
    "RO@@": 6187,
    "compose": 6188,
    "ombar@@": 6189,
    "entour@@": 6190,
    "Stéphane": 6191,
    "cell@@": 6192,
    "oles": 6193,
    "ossier": 6194,
    "Germain": 6195,
    "exes": 6196,
    "échange": 6197,
    "Venise": 6198,
    "ст@@": 6199,
    "vant": 6200,
    "format": 6201,
    "?,": 6202,
    "civil": 6203,
    "Clar@@": 6204,
    "Cliquez": 6205,
    "alimen@@": 6206,
    "sanc@@": 6207,
    "201@@": 6208,
    "Communi@@": 6209,
    "landaise": 6210,
    "Research": 6211,
    "tuellement": 6212,
    "Tourn@@": 6213,
    "Flam@@": 6214,
    "1789": 6215,
    "ographies": 6216,
    "Fiches": 6217,
    "relativement": 6218,
    "Comté": 6219,
    "descend@@": 6220,
    "Micro@@": 6221,
    "contraire": 6222,
    "chal@@": 6223,
    "conclu@@": 6224,
    "lacs": 6225,
    "champi@@": 6226,
    "arium": 6227,
    "Alexand@@": 6228,
    "Lac": 6229,
    "ampi@@": 6230,
    "morte": 6231,
    "introduction": 6232,
    "monastère": 6233,
    "Ceinture": 6234,
    "ige": 6235,
    "Vol": 6236,
    "forment": 6237,
    "tina": 6238,
    "Phot@@": 6239,
    "statue": 6240,
    "php": 6241,
    "poursuit": 6242,
    "ferroviaire": 6243,
    "tonnes": 6244,
    "auparavant": 6245,
    "recue@@": 6246,
    "Night": 6247,
    "Rid@@": 6248,
    "pson": 6249,
    "oré": 6250,
    "sel@@": 6251,
    "1892": 6252,
    "gia": 6253,
    "éris@@": 6254,
    "Rivière": 6255,
    "Esc@@": 6256,
    "médias": 6257,
    "ken": 6258,
    "USS": 6259,
    "recueil": 6260,
    "seu@@": 6261,
    "parler": 6262,
    "$": 6263,
    "venant": 6264,
    "Collection": 6265,
    "ser": 6266,
    "Gaz@@": 6267,
    "royal": 6268,
    "elly": 6269,
    "Isabelle": 6270,
    "génération": 6271,
    "capable": 6272,
    "feuilles": 6273,
    "250": 6274,
    "remarqu@@": 6275,
    "DE@@": 6276,
    "College": 6277,
    "Bun@@": 6278,
    "officiers": 6279,
    "Fant@@": 6280,
    "Flo@@": 6281,
    "jan": 6282,
    "Carl": 6283,
    "Point": 6284,
    "Fam@@": 6285,
    "evi@@": 6286,
    "prê@@": 6287,
    "Num@@": 6288,
    "nel": 6289,
    "CI@@": 6290,
    "Leg@@": 6291,
    "Station": 6292,
    "autri@@": 6293,
    "publiques": 6294,
    "program@@": 6295,
    "mention": 6296,
    "Aff@@": 6297,
    "hr@@": 6298,
    "ords": 6299,
    "nécessi@@": 6300,
    "graphique": 6301,
    "Ky@@": 6302,
    "bass@@": 6303,
    "»).": 6304,
    "essai": 6305,
    "zu@@": 6306,
    "Marguerite": 6307,
    "inven@@": 6308,
    "Vis@@": 6309,
    "spécifi@@": 6310,
    "bin@@": 6311,
    "tableaux": 6312,
    "romans": 6313,
    "Rab@@": 6314,
    "Rad@@": 6315,
    "dot@@": 6316,
    "trad@@": 6317,
    "toile": 6318,
    "Ancien": 6319,
    "spiri@@": 6320,
    "cuis@@": 6321,
    "athlète": 6322,
    "Ill@@": 6323,
    "teau": 6324,
    ":@@": 6325,
    "Prés@@": 6326,
    "DE": 6327,
    "tille": 6328,
    "dispute": 6329,
    "Voy@@": 6330,
    "Sophie": 6331,
    "culte": 6332,
    "aéro@@": 6333,
    "numérique": 6334,
    "pré": 6335,
    "xième": 6336,
    "manu@@": 6337,
    "inform@@": 6338,
    "accessi@@": 6339,
    "nationaux": 6340,
    "aro": 6341,
    "conférence": 6342,
    "cantons": 6343,
    "religieuse": 6344,
    "exe": 6345,
    "Lag@@": 6346,
    "opi@@": 6347,
    "recru@@": 6348,
    "œ@@": 6349,
    "pop": 6350,
    "Enf@@": 6351,
    "endr@@": 6352,
    "Chau@@": 6353,
    "To": 6354,
    "croissance": 6355,
    "Marti@@": 6356,
    "ingen": 6357,
    "eo": 6358,
    "fab@@": 6359,
    "exper@@": 6360,
    "soi@@": 6361,
    "statu@@": 6362,
    "servir": 6363,
    "contenu": 6364,
    "distingu@@": 6365,
    "ssa": 6366,
    "annuellement": 6367,
    "étend@@": 6368,
    "gg@@": 6369,
    "gli@@": 6370,
    "Hein@@": 6371,
    "Artis@@": 6372,
    "quoi": 6373,
    "artillerie": 6374,
    "idées": 6375,
    "Éric": 6376,
    "ension": 6377,
    "spécialiste": 6378,
    "Benoît": 6379,
    "ssage": 6380,
    "cérémonie": 6381,
    "NGC": 6382,
    "évalu@@": 6383,
    "arme": 6384,
    "respectivement": 6385,
    "excentricité": 6386,
    "87@@": 6387,
    "esseurs": 6388,
    "terran@@": 6389,
    "Pour@@": 6390,
    "ological": 6391,
    "iment": 6392,
    "Dist@@": 6393,
    "bar": 6394,
    "rel": 6395,
    "féminine": 6396,
    "Sid@@": 6397,
    "Gaston": 6398,
    "Anthony": 6399,
    "formée": 6400,
    "dessins": 6401,
    "rencontres": 6402,
    "aliser": 6403,
    "Jackson": 6404,
    "”": 6405,
    "urant": 6406,
    "dans@@": 6407,
    "marins": 6408,
    "1878": 6409,
    "lié": 6410,
    "Ry@@": 6411,
    "inée": 6412,
    "cog@@": 6413,
    "flo@@": 6414,
    "1867": 6415,
    "onel": 6416,
    "Fond@@": 6417,
    "Xavier": 6418,
    "onnais": 6419,
    "Flor@@": 6420,
    "ourn@@": 6421,
    "ee": 6422,
    "ssy": 6423,
    "brési@@": 6424,
    "nomme": 6425,
    "endroit": 6426,
    "identité": 6427,
    "intermédiaires": 6428,
    "ben": 6429,
    "franch@@": 6430,
    "rassembl@@": 6431,
    "César": 6432,
    "représentants": 6433,
    "occidentale": 6434,
    "agglomération": 6435,
    "Calendrier": 6436,
    "capa@@": 6437,
    "ó": 6438,
    "Att@@": 6439,
    "Banque": 6440,
    "Kal@@": 6441,
    "cru@@": 6442,
    "identi@@": 6443,
    "Boston": 6444,
    "territori@@": 6445,
    "bé@@": 6446,
    "planète": 6447,
    "pill@@": 6448,
    "Gun@@": 6449,
    "performance": 6450,
    "Cle@@": 6451,
    "tienne": 6452,
    "Catalogne": 6453,
    "ads": 6454,
    "bénéfici@@": 6455,
    "écliptique": 6456,
    "exception": 6457,
    "approche": 6458,
    "Ib@@": 6459,
    "State": 6460,
    "trains": 6461,
    "accident": 6462,
    "eria": 6463,
    "chin@@": 6464,
    "Alex": 6465,
    "Zélande": 6466,
    "murs": 6467,
    "nés": 6468,
    "llon": 6469,
    "Blanc": 6470,
    "branche": 6471,
    "discours": 6472,
    "inédi@@": 6473,
    "Prof@@": 6474,
    "véhicules": 6475,
    "menac@@": 6476,
    "Central": 6477,
    "Mr": 6478,
    "associé": 6479,
    "Andrew": 6480,
    "*@@": 6481,
    "Of": 6482,
    "choisi": 6483,
    "souv@@": 6484,
    "ity": 6485,
    "éen": 6486,
    "Arab@@": 6487,
    "ttes": 6488,
    "Brian": 6489,
    "dro": 6490,
    "unis": 6491,
    "quali@@": 6492,
    "téléph@@": 6493,
    "Congo": 6494,
    "plateau": 6495,
    "aix": 6496,
    "chen@@": 6497,
    "réaliser": 6498,
    "volumes": 6499,
    "cav@@": 6500,
    "Hill": 6501,
    "Rouen": 6502,
    "Best": 6503,
    "constitution": 6504,
    "éth@@": 6505,
    "Blue": 6506,
    "AC@@": 6507,
    "RI@@": 6508,
    "intègre": 6509,
    "stéri@@": 6510,
    "reconnu": 6511,
    "cyril@@": 6512,
    "inage": 6513,
    "possi@@": 6514,
    "Guy@@": 6515,
    "XIVe": 6516,
    "China": 6517,
    "aéri@@": 6518,
    "refuse": 6519,
    "dynastie": 6520,
    "organise": 6521,
    "humain": 6522,
    "Iran": 6523,
    "vrai": 6524,
    "reconnaissance": 6525,
    "valeurs": 6526,
    "aménag@@": 6527,
    "ograph@@": 6528,
    "Affaires": 6529,
    "volonté": 6530,
    "Région": 6531,
    "amour@@": 6532,
    "Women": 6533,
    "zième": 6534,
    "1884": 6535,
    "Reference": 6536,
    "Tol@@": 6537,
    "cep@@": 6538,
    "hon@@": 6539,
    "Albums": 6540,
    "réforme": 6541,
    "1886": 6542,
    "engage": 6543,
    "discu@@": 6544,
    "accus@@": 6545,
    "Kun@@": 6546,
    "suff@@": 6547,
    "arc@@": 6548,
    "diction": 6549,
    "consiste": 6550,
    "Rel@@": 6551,
    "citer": 6552,
    "Ferr@@": 6553,
    "ku@@": 6554,
    "nité": 6555,
    "Ukraine": 6556,
    "endémique": 6557,
    "Samuel": 6558,
    "Edi@@": 6559,
    "connexe": 6560,
    "Constitution": 6561,
    "araignées": 6562,
    "étudie": 6563,
    "sportif": 6564,
    "automne": 6565,
    "Benjamin": 6566,
    "quin@@": 6567,
    "1888": 6568,
    "reaux": 6569,
    "hard": 6570,
    "commiss@@": 6571,
    "Gilbert": 6572,
    "emprun@@": 6573,
    "chr@@": 6574,
    "Péri@@": 6575,
    "Charente": 6576,
    "Sam": 6577,
    "arre": 6578,
    "exclusi@@": 6579,
    "ator": 6580,
    "rares": 6581,
    "expédition": 6582,
    "Guill@@": 6583,
    "Aus@@": 6584,
    "inconnu": 6585,
    "bourge@@": 6586,
    "Tru@@": 6587,
    "lancé": 6588,
    "ally": 6589,
    "athl@@": 6590,
    "officiels": 6591,
    "croy@@": 6592,
    "cab@@": 6593,
    "asy": 6594,
    "Ed": 6595,
    "Équipe": 6596,
    "Photographie": 6597,
    "gras": 6598,
    "empire": 6599,
    "majeure": 6600,
    "stations": 6601,
    "ensive": 6602,
    "ste@@": 6603,
    "libération": 6604,
    "ng": 6605,
    "privée": 6606,
    "laiss@@": 6607,
    "conseillers": 6608,
    "Express": 6609,
    "demeure": 6610,
    "scènes": 6611,
    "1887": 6612,
    "о": 6613,
    "enberg": 6614,
    "èles": 6615,
    "lisme": 6616,
    "Carlos": 6617,
    "Project": 6618,
    "francs": 6619,
    "AS": 6620,
    "URSS": 6621,
    "Grenoble": 6622,
    "québécois": 6623,
    "liber@@": 6624,
    "æ@@": 6625,
    "1876": 6626,
    "aventure": 6627,
    "autonome": 6628,
    "tumes": 6629,
    "m3": 6630,
    "baron": 6631,
    "Law@@": 6632,
    "aquie": 6633,
    "sportive": 6634,
    "Ten@@": 6635,
    "apprend": 6636,
    "Sto@@": 6637,
    "renseignements": 6638,
    "ele": 6639,
    "ل@@": 6640,
    "comédi@@": 6641,
    "pid@@": 6642,
    "pi": 6643,
    "contexte": 6644,
    "restauration": 6645,
    "jazz": 6646,
    "adjoint": 6647,
    "hou@@": 6648,
    "eum": 6649,
    "Bil@@": 6650,
    "supéri@@": 6651,
    "rang@@": 6652,
    "terres@@": 6653,
    "galerie": 6654,
    "Group": 6655,
    "commen@@": 6656,
    "chaî@@": 6657,
    "œur": 6658,
    "PS@@": 6659,
    "1863": 6660,
    "battre": 6661,
    "Sher@@": 6662,
    "pis@@": 6663,
    "lab@@": 6664,
    "impose": 6665,
    "Lettres": 6666,
    "fié": 6667,
    "Diam@@": 6668,
    "nucléaire": 6669,
    "criptions": 6670,
    "amen@@": 6671,
    "pâ@@": 6672,
    "échelle": 6673,
    "posséd@@": 6674,
    "fleurs": 6675,
    "agers": 6676,
    "sait": 6677,
    "Dim@@": 6678,
    "fera": 6679,
    "nations": 6680,
    "Famille": 6681,
    "simplement": 6682,
    "dus": 6683,
    "Hall@@": 6684,
    "ures": 6685,
    "judici@@": 6686,
    "milliards": 6687,
    "repris": 6688,
    "aël": 6689,
    "uBio": 6690,
    "èn@@": 6691,
    "Spe@@": 6692,
    "révol@@": 6693,
    "Will@@": 6694,
    "chauff@@": 6695,
    "Mer": 6696,
    "ū@@": 6697,
    "dramatique": 6698,
    "consom@@": 6699,
    "vignette": 6700,
    "envoyé": 6701,
    "Canadi@@": 6702,
    "communautés": 6703,
    "perm@@": 6704,
    "Trib@@": 6705,
    "nies": 6706,
    "?),": 6707,
    "101": 6708,
    "réussit": 6709,
    "anique": 6710,
    "van@@": 6711,
    "britanniques": 6712,
    "peci@@": 6713,
    "entu@@": 6714,
    "maî@@": 6715,
    "baptis@@": 6716,
    "avez": 6717,
    "1850": 6718,
    "enter@@": 6719,
    "pti@@": 6720,
    "1881": 6721,
    "légi@@": 6722,
    "ops": 6723,
    "Jim": 6724,
    "flor@@": 6725,
    "polis": 6726,
    "TA": 6727,
    "gares": 6728,
    "Pil@@": 6729,
    "quitter": 6730,
    "ark": 6731,
    "titulaire": 6732,
    "cade": 6733,
    "sem@@": 6734,
    "Eur@@": 6735,
    "domicile": 6736,
    "affirme": 6737,
    "Green": 6738,
    "Giovanni": 6739,
    "avance": 6740,
    "enter": 6741,
    "Vit@@": 6742,
    "Wilson": 6743,
    "Barr@@": 6744,
    "diffusé": 6745,
    "accueille": 6746,
    "présidentielle": 6747,
    "bataillon": 6748,
    "tiens": 6749,
    "atten@@": 6750,
    "dieu": 6751,
    "Fun@@": 6752,
    "Gare": 6753,
    "Hôtel": 6754,
    "légende": 6755,
    "Tours": 6756,
    "datant": 6757,
    "FRBNF@@": 6758,
    "ø@@": 6759,
    "Entr@@": 6760,
    "orique": 6761,
    "1882": 6762,
    "aques": 6763,
    "interprète": 6764,
    "universitaires": 6765,
    "pétro@@": 6766,
    "Montpellier": 6767,
    "considère": 6768,
    "Jord@@": 6769,
    "AM@@": 6770,
    "vali@@": 6771,
    "Articles": 6772,
    "monie": 6773,
    "développe": 6774,
    "commercial": 6775,
    "Leon@@": 6776,
    "AL@@": 6777,
    "Portrait": 6778,
    "choses": 6779,
    "contro@@": 6780,
    "Félix": 6781,
    "Nam@@": 6782,
    "Conserv@@": 6783,
    "éner@@": 6784,
    "Sain@@": 6785,
    "Atlan@@": 6786,
    "tra@@": 6787,
    "musical": 6788,
    "^@@": 6789,
    "Metz": 6790,
    "Cond@@": 6791,
    "Tot@@": 6792,
    "Pop@@": 6793,
    "Format": 6794,
    "Quatre": 6795,
    "ornith@@": 6796,
    "Batt@@": 6797,
    "Expl@@": 6798,
    "lion": 6799,
    "Madame": 6800,
    "dant": 6801,
    "Vel@@": 6802,
    "95@@": 6803,
    "Chamb@@": 6804,
    "PA00@@": 6805,
    "ple@@": 6806,
    "Aven@@": 6807,
    "catalogue": 6808,
    "Pers@@": 6809,
    "férences": 6810,
    "sex@@": 6811,
    "Jun@@": 6812,
    "mam@@": 6813,
    "terri@@": 6814,
    "tour@@": 6815,
    "Bob@@": 6816,
    "évo@@": 6817,
    "Marc@@": 6818,
    "Star@@": 6819,
    "envers": 6820,
    "Vers": 6821,
    "puisqu": 6822,
    "Bow@@": 6823,
    "initialement": 6824,
    "ducation": 6825,
    "Histogramme": 6826,
    "Pass@@": 6827,
    "climat": 6828,
    "pêche": 6829,
    "pun@@": 6830,
    "cass@@": 6831,
    "sl@@": 6832,
    "union": 6833,
    "Loi": 6834,
    "gall@@": 6835,
    "ht@@": 6836,
    "pouvoirs": 6837,
    "Ra@@": 6838,
    "ceaux": 6839,
    "chefs": 6840,
    "grég@@": 6841,
    "Encyclop@@": 6842,
    "Information": 6843,
    "champs": 6844,
    "édifi@@": 6845,
    "profit": 6846,
    "considérée": 6847,
    "PM@@": 6848,
    "Mme": 6849,
    "ket": 6850,
    "tram@@": 6851,
    "pos": 6852,
    "Lewis": 6853,
    "administrative": 6854,
    "agricole": 6855,
    "ric": 6856,
    "dd@@": 6857,
    "pac@@": 6858,
    "illa": 6859,
    "JPL": 6860,
    "Didier": 6861,
    "Salon": 6862,
    "éry": 6863,
    "Jane": 6864,
    "Audiences": 6865,
    "Direction": 6866,
    "Rock@@": 6867,
    "ints": 6868,
    "traverse": 6869,
    "...)": 6870,
    "Four@@": 6871,
    "fici@@": 6872,
    "développer": 6873,
    "ei@@": 6874,
    "mines": 6875,
    "composi@@": 6876,
    "èdent": 6877,
    "fabrication": 6878,
    "présidence": 6879,
    "110": 6880,
    "flotte": 6881,
    "ariste": 6882,
    "servi": 6883,
    "massif": 6884,
    "permet@@": 6885,
    "établissements": 6886,
    "pire": 6887,
    "èlement": 6888,
    "AC": 6889,
    "candidats": 6890,
    "refus@@": 6891,
    "appareil": 6892,
    "USA": 6893,
    "poi@@": 6894,
    "Kan@@": 6895,
    "CO": 6896,
    "Trai@@": 6897,
    "vil": 6898,
    "seigneu@@": 6899,
    "étrangers": 6900,
    "présentant": 6901,
    "tuaire": 6902,
    "gnon": 6903,
    "eller": 6904,
    "trag@@": 6905,
    "Series": 6906,
    "Cité": 6907,
    "fique": 6908,
    "juive": 6909,
    "pieds": 6910,
    "écrits": 6911,
    "mass@@": 6912,
    "tuer": 6913,
    "office": 6914,
    "й": 6915,
    "Gab@@": 6916,
    "récit": 6917,
    "α@@": 6918,
    "langage": 6919,
    "up": 6920,
    "God@@": 6921,
    "guit@@": 6922,
    "desser@@": 6923,
    "Direc@@": 6924,
    "onze": 6925,
    "Cap": 6926,
    "organisée": 6927,
    "accept@@": 6928,
    "74@@": 6929,
    "déch@@": 6930,
    "avenue": 6931,
    "з@@": 6932,
    "Mayotte": 6933,
    "correspondant": 6934,
    "carb@@": 6935,
    "océan": 6936,
    "estimé": 6937,
    "1e": 6938,
    "Série": 6939,
    "exic@@": 6940,
    "avis": 6941,
    "struc@@": 6942,
    "ile": 6943,
    "1883": 6944,
    "nef": 6945,
    "Kl@@": 6946,
    "maxim@@": 6947,
    "Statut": 6948,
    "direct": 6949,
    "routes": 6950,
    "baie": 6951,
    "Cher@@": 6952,
    "étage": 6953,
    "privé": 6954,
    "aime": 6955,
    "céré@@": 6956,
    "Camb@@": 6957,
    "dénon@@": 6958,
    "Jérôme": 6959,
    "Envir@@": 6960,
    "emplacement": 6961,
    "bles@@": 6962,
    "pointe": 6963,
    "programmes": 6964,
    "Little": 6965,
    "basque": 6966,
    "Eg@@": 6967,
    "tém@@": 6968,
    "néo": 6969,
    "secret": 6970,
    "impériale": 6971,
    "Sénat": 6972,
    "Canal": 6973,
    "orgue": 6974,
    "adis": 6975,
    "CS@@": 6976,
    "1864": 6977,
    "Poly@@": 6978,
    "dimanche": 6979,
    "seuls": 6980,
    "cinqu@@": 6981,
    "écr@@": 6982,
    "Billboard": 6983,
    "Alice": 6984,
    "établi": 6985,
    "1865": 6986,
    "accro@@": 6987,
    "épreuves": 6988,
    "archevêque": 6989,
    "della": 6990,
    "Brun@@": 6991,
    "environn@@": 6992,
    "West@@": 6993,
    "oci@@": 6994,
    "chard": 6995,
    "ule": 6996,
    "Lyn@@": 6997,
    "univers@@": 6998,
    "mage": 6999,
    "Nationale": 7000,
    "résidence": 7001,
    "Hélène": 7002,
    "1875": 7003,
    "mén@@": 7004,
    "allemands": 7005,
    "Claire": 7006,
    "chés": 7007,
    "Aide": 7008,
    "Rav@@": 7009,
    "vot@@": 7010,
    "présents": 7011,
    "Din@@": 7012,
    "té@@": 7013,
    "rose": 7014,
    "80@@": 7015,
    "IX": 7016,
    "caux": 7017,
    "ein": 7018,
    "Maine": 7019,
    "réseaux": 7020,
    "mém@@": 7021,
    "IE@@": 7022,
    "sson": 7023,
    "somme": 7024,
    "provinci@@": 7025,
    "Père": 7026,
    "1861": 7027,
    "compil@@": 7028,
    "oque": 7029,
    "rois": 7030,
    "Davis": 7031,
    "Syl@@": 7032,
    "paroles": 7033,
    "Jérusalem": 7034,
    "intellec@@": 7035,
    "calendrier": 7036,
    "retrouver": 7037,
    "Sport": 7038,
    "suis": 7039,
    "kl@@": 7040,
    "arc": 7041,
    "ouri": 7042,
    "coureur": 7043,
    "Psy@@": 7044,
    "guer@@": 7045,
    "First": 7046,
    "1879": 7047,
    "Field": 7048,
    "milli@@": 7049,
    "agement": 7050,
    "slov@@": 7051,
    "1862": 7052,
    "pique": 7053,
    "Victoria": 7054,
    "quad@@": 7055,
    "ento": 7056,
    "tâches": 7057,
    "Laval": 7058,
    "Front": 7059,
    "ople": 7060,
    "oud": 7061,
    "dét@@": 7062,
    "ril": 7063,
    "acre": 7064,
    "détruit": 7065,
    "limitée": 7066,
    "réper@@": 7067,
    "appelés": 7068,
    "quis": 7069,
    "Garonne": 7070,
    "rani@@": 7071,
    "convain@@": 7072,
    "spati@@": 7073,
    "Story": 7074,
    "orer": 7075,
    "jug@@": 7076,
    "Rol@@": 7077,
    "pot@@": 7078,
    "Kin@@": 7079,
    "fonctionnement": 7080,
    "interprétation": 7081,
    "ourg": 7082,
    "quotidien": 7083,
    "Feder@@": 7084,
    "revanche": 7085,
    "Dani@@": 7086,
    "ems": 7087,
    "répond@@": 7088,
    "ista": 7089,
    "clair": 7090,
    "fédér@@": 7091,
    "tribunal": 7092,
    "acles": 7093,
    "rad@@": 7094,
    "objec@@": 7095,
    "patr@@": 7096,
    "aver@@": 7097,
    "départements": 7098,
    "148": 7099,
    "aérienne": 7100,
    "cane": 7101,
    "logiciel": 7102,
    "Sci@@": 7103,
    "1877": 7104,
    "exig@@": 7105,
    "ciation": 7106,
    "‘": 7107,
    "Madeleine": 7108,
    "Chili": 7109,
    "effic@@": 7110,
    "retourne": 7111,
    "exis@@": 7112,
    "ologne": 7113,
    "Versailles": 7114,
    "Roman": 7115,
    "arché@@": 7116,
    "Hugo": 7117,
    "lieu@@": 7118,
    "[@@": 7119,
    "tum": 7120,
    "Temple": 7121,
    "matin": 7122,
    "riers": 7123,
    "Media": 7124,
    "issus": 7125,
    "Ali": 7126,
    "victime": 7127,
    "quartiers": 7128,
    "cd@@": 7129,
    "extension": 7130,
    "rév@@": 7131,
    "Publishing": 7132,
    "bier": 7133,
    "Med@@": 7134,
    "kt": 7135,
    "placé": 7136,
    "sociaux": 7137,
    "ends": 7138,
    "roy": 7139,
    "hectares": 7140,
    "Son@@": 7141,
    "consommation": 7142,
    "féré": 7143,
    "forêts": 7144,
    "isés": 7145,
    "charts": 7146,
    "primerie": 7147,
    "ashi": 7148,
    "partage": 7149,
    "simul@@": 7150,
    "archéologie": 7151,
    "tons": 7152,
    "terie": 7153,
    "portrait": 7154,
    "vê@@": 7155,
    "externes": 7156,
    "disparu": 7157,
    "BC": 7158,
    "ders": 7159,
    "municipales": 7160,
    "Plu@@": 7161,
    "Tibet": 7162,
    "Bud@@": 7163,
    "susp@@": 7164,
    "humi@@": 7165,
    "rante": 7166,
    "ench@@": 7167,
    "UM@@": 7168,
    "inspiré": 7169,
    "étaires": 7170,
    "prisonniers": 7171,
    "noblesse": 7172,
    "Up": 7173,
    "rection": 7174,
    "dg@@": 7175,
    "pourtant": 7176,
    "écrire": 7177,
    "européens": 7178,
    "pensée": 7179,
    "oits": 7180,
    "sbourg": 7181,
    "initiative": 7182,
    "Ferdinand": 7183,
    "conserve": 7184,
    "...@@": 7185,
    "établi@@": 7186,
    "érap@@": 7187,
    "Gom@@": 7188,
    "Ég@@": 7189,
    "Ear@@": 7190,
    "Kevin": 7191,
    "Ie": 7192,
    "Certaines": 7193,
    "vaste": 7194,
    "éros": 7195,
    "èques": 7196,
    "élabor@@": 7197,
    "ligue": 7198,
    "Armand": 7199,
    "gre@@": 7200,
    "Collec@@": 7201,
    "marqué": 7202,
    "Colum@@": 7203,
    "Kim": 7204,
    "pratiques": 7205,
    "nes@@": 7206,
    "ématique": 7207,
    "Main": 7208,
    "rési@@": 7209,
    "Wrestling": 7210,
    "coord@@": 7211,
    "Universi@@": 7212,
    "niveaux": 7213,
    "var": 7214,
    "proven@@": 7215,
    "ho@@": 7216,
    "isien": 7217,
    "maîtri@@": 7218,
    "Allemands": 7219,
    "ssent": 7220,
    "tants": 7221,
    "airie": 7222,
    "concerts": 7223,
    "ophy@@": 7224,
    "40@@": 7225,
    "nau@@": 7226,
    "past@@": 7227,
    "assure": 7228,
    "use": 7229,
    "assin": 7230,
    "comman@@": 7231,
    "relev@@": 7232,
    "Ever@@": 7233,
    "Japan": 7234,
    "conç@@": 7235,
    "communaux": 7236,
    "anus": 7237,
    "Rod@@": 7238,
    "modernes": 7239,
    "Hard@@": 7240,
    "blin": 7241,
    "Carte": 7242,
    "pace": 7243,
    "ody": 7244,
    "Corse": 7245,
    "immeu@@": 7246,
    "Dig@@": 7247,
    "Gren@@": 7248,
    "oral": 7249,
    "listes": 7250,
    "professionnels": 7251,
    "wer": 7252,
    "philosoph@@": 7253,
    "échec": 7254,
    "labor@@": 7255,
    "Morg@@": 7256,
    "anité": 7257,
    "Jap@@": 7258,
    "musicien": 7259,
    "tail": 7260,
    "montée": 7261,
    "ruisseau": 7262,
    "Pier@@": 7263,
    "accueilli@@": 7264,
    "auc@@": 7265,
    "Astr@@": 7266,
    "aménagement": 7267,
    "reté": 7268,
    "sixième": 7269,
    "Christine": 7270,
    "dra": 7271,
    "veille": 7272,
    "Montage": 7273,
    "Ldh": 7274,
    "mathém@@": 7275,
    "orie": 7276,
    "héli@@": 7277,
    "Maritime": 7278,
    "classes": 7279,
    "1868": 7280,
    "absolue": 7281,
    "liaison": 7282,
    "mises": 7283,
    "accep@@": 7284,
    "Penn@@": 7285,
    "réu@@": 7286,
    "chiffres": 7287,
    "estime": 7288,
    "ste": 7289,
    "impr@@": 7290,
    "archéologique": 7291,
    "matri@@": 7292,
    "Alger": 7293,
    "arbre": 7294,
    "sculpture": 7295,
    "soleil": 7296,
    "électri@@": 7297,
    "Chil@@": 7298,
    "touris@@": 7299,
    "bel": 7300,
    "fondam@@": 7301,
    "}{": 7302,
    "sections": 7303,
    "regroupe": 7304,
    "précédente": 7305,
    "mille": 7306,
    "voyageurs": 7307,
    "èses": 7308,
    "diplô@@": 7309,
    "chester": 7310,
    "plas@@": 7311,
    "suites": 7312,
    "tribue": 7313,
    "Go": 7314,
    "rup@@": 7315,
    "passi@@": 7316,
    "unies": 7317,
    "NBA": 7318,
    "chant@@": 7319,
    "vul@@": 7320,
    "Général": 7321,
    "aspect": 7322,
    "grecque": 7323,
    "basée": 7324,
    "personnalités": 7325,
    "totalement": 7326,
    "prévu": 7327,
    "solo": 7328,
    "zer@@": 7329,
    ")}": 7330,
    "ë": 7331,
    "arbres": 7332,
    "courte": 7333,
    "événement": 7334,
    "protéger": 7335,
    "Toronto": 7336,
    "voitures": 7337,
    "Jr": 7338,
    "libres": 7339,
    "Ontario": 7340,
    "servi@@": 7341,
    "XIII": 7342,
    "kar@@": 7343,
    "partis": 7344,
    "quart": 7345,
    "humains": 7346,
    "Shar@@": 7347,
    "Lausanne": 7348,
    "marquis": 7349,
    "1815": 7350,
    "Fol@@": 7351,
    "Island": 7352,
    "rase": 7353,
    "novation": 7354,
    "codes": 7355,
    "débar@@": 7356,
    "Id@@": 7357,
    "sélections": 7358,
    "assembl@@": 7359,
    "Plan": 7360,
    "Moselle": 7361,
    "Monsieur": 7362,
    "intervention": 7363,
    "auton@@": 7364,
    "enlevé": 7365,
    "Rap@@": 7366,
    "jum@@": 7367,
    "Championship": 7368,
    "inscription": 7369,
    "étoile": 7370,
    "red": 7371,
    "extrême": 7372,
    "pot": 7373,
    "Miller": 7374,
    "biblioth@@": 7375,
    "eus@@": 7376,
    "System": 7377,
    "diffus@@": 7378,
    "arbi@@": 7379,
    "Dém@@": 7380,
    "Sant@@": 7381,
    "parallèle": 7382,
    "onnaires": 7383,
    "Spider": 7384,
    "Mod@@": 7385,
    "maj@@": 7386,
    "─": 7387,
    "princesse": 7388,
    "Auvergne": 7389,
    "ouver": 7390,
    "Sti@@": 7391,
    "constituée": 7392,
    "établir": 7393,
    "Alb@@": 7394,
    "by@@": 7395,
    "respons@@": 7396,
    "envis@@": 7397,
    "églises": 7398,
    "provinces": 7399,
    "isienne": 7400,
    "alphab@@": 7401,
    "fortifi@@": 7402,
    "définitivement": 7403,
    "Illinois": 7404,
    "Aix": 7405,
    "ск@@": 7406,
    "nd": 7407,
    "Rouge": 7408,
    "anny": 7409,
    "république": 7410,
    "linguistique": 7411,
    "ges@@": 7412,
    "Munich": 7413,
    "mas": 7414,
    "bie": 7415,
    "Basse": 7416,
    "utilisées": 7417,
    "affluent": 7418,
    "oides": 7419,
    "Chevalier": 7420,
    "OS": 7421,
    "dehors": 7422,
    "%.": 7423,
    "Route": 7424,
    "Amsterdam": 7425,
    "analy@@": 7426,
    "traite": 7427,
    "mour@@": 7428,
    "Sem@@": 7429,
    "Cot@@": 7430,
    "immédiatement": 7431,
    "1840": 7432,
    "introdui@@": 7433,
    "hen": 7434,
    "Non": 7435,
    "Classement": 7436,
    "С@@": 7437,
    "Ligne": 7438,
    "pense": 7439,
    "assemblée": 7440,
    "Bad@@": 7441,
    "néc@@": 7442,
    "1866": 7443,
    "orient@@": 7444,
    "liqui@@": 7445,
    "navigateur": 7446,
    "XIV": 7447,
    "α": 7448,
    "ennemi": 7449,
    "Sz@@": 7450,
    "Docteur": 7451,
    "emy": 7452,
    "Jacob": 7453,
    "Mémoires": 7454,
    "Whit@@": 7455,
    "chré@@": 7456,
    "1873": 7457,
    "1792": 7458,
    "crime": 7459,
    "amie": 7460,
    "Charlotte": 7461,
    "tradu@@": 7462,
    "Dj@@": 7463,
    "fia": 7464,
    "iness": 7465,
    "EP": 7466,
    "Gil@@": 7467,
    "estre": 7468,
    "sme": 7469,
    "Sarah": 7470,
    "industrielle": 7471,
    "Française": 7472,
    "Salv@@": 7473,
    "loy@@": 7474,
    "mées": 7475,
    "Coul@@": 7476,
    "uments": 7477,
    "Kos@@": 7478,
    "Ray": 7479,
    "réfugi@@": 7480,
    "edi": 7481,
    "noble": 7482,
    "1872": 7483,
    "coun@@": 7484,
    "propor@@": 7485,
    "lot": 7486,
    "appellation": 7487,
    "Roll@@": 7488,
    "Editions": 7489,
    "dine": 7490,
    "estimées": 7491,
    "Johnny": 7492,
    "tournage": 7493,
    "Bag@@": 7494,
    "aps": 7495,
    "montagnes": 7496,
    "Ges@@": 7497,
    "compagn@@": 7498,
    "BS": 7499,
    "я": 7500,
    "brû@@": 7501,
    "sep@@": 7502,
    "lits": 7503,
    "Hist@@": 7504,
    "barr@@": 7505,
    "Médi@@": 7506,
    "accueill@@": 7507,
    "connues": 7508,
    "enir": 7509,
    "vou@@": 7510,
    "Méditerranée": 7511,
    "Bibli@@": 7512,
    "1874": 7513,
    "allant": 7514,
    "gren@@": 7515,
    "105": 7516,
    "Had@@": 7517,
    "far@@": 7518,
    "biographie": 7519,
    "emati@@": 7520,
    "séqu@@": 7521,
    "sab@@": 7522,
    "collecti@@": 7523,
    "sty@@": 7524,
    "orge": 7525,
    "py@@": 7526,
    "sum": 7527,
    "Fils": 7528,
    "vécu": 7529,
    "eront": 7530,
    "edy": 7531,
    "Walker": 7532,
    "démi@@": 7533,
    "surveill@@": 7534,
    "Jen@@": 7535,
    "majori@@": 7536,
    "génie": 7537,
    "aies": 7538,
    "ovo": 7539,
    "conse@@": 7540,
    "phil@@": 7541,
    "étapes": 7542,
    "elo": 7543,
    "stu@@": 7544,
    "WWE": 7545,
    "circulation": 7546,
    "Gold@@": 7547,
    "marin": 7548,
    "empar@@": 7549,
    "réser@@": 7550,
    "kov": 7551,
    "agon@@": 7552,
    "anneau": 7553,
    "Carlo": 7554,
    "Lon@@": 7555,
    "aris": 7556,
    "ater@@": 7557,
    "contre@@": 7558,
    "abrite": 7559,
    "anniversaire": 7560,
    "dimen@@": 7561,
    "seaux": 7562,
    "Ve@@": 7563,
    "suppri@@": 7564,
    "amiral": 7565,
    "ras": 7566,
    "insul@@": 7567,
    "oma": 7568,
    "core": 7569,
    "réel": 7570,
    "Wel@@": 7571,
    "annoncé": 7572,
    "pir@@": 7573,
    "Aujourd": 7574,
    "Xe": 7575,
    "régulière": 7576,
    "agran@@": 7577,
    "Bio@@": 7578,
    "Singles": 7579,
    "choisir": 7580,
    "destiné": 7581,
    "coups": 7582,
    "classée": 7583,
    "ymn@@": 7584,
    "licence": 7585,
    "ku": 7586,
    "cienne": 7587,
    "cyl@@": 7588,
    "biologie": 7589,
    "Brunswick": 7590,
    "VIII": 7591,
    "lesquelles": 7592,
    "goth@@": 7593,
    "industriel": 7594,
    "Games": 7595,
    "Christopher": 7596,
    "Petite": 7597,
    "Table": 7598,
    "metal": 7599,
    "ael": 7600,
    "nul": 7601,
    "Sans": 7602,
    "aniques": 7603,
    "entretien": 7604,
    "Der": 7605,
    "bateau": 7606,
    "âtre": 7607,
    "aper@@": 7608,
    "tter": 7609,
    "sculpteur": 7610,
    "Sat@@": 7611,
    "trône": 7612,
    "compétitions": 7613,
    "sortir": 7614,
    "Pacifique": 7615,
    "relég@@": 7616,
    "localités": 7617,
    "consécuti@@": 7618,
    "alb@@": 7619,
    "ogra@@": 7620,
    "pouv@@": 7621,
    "Diff@@": 7622,
    "Hand@@": 7623,
    "stitu@@": 7624,
    "mic@@": 7625,
    "├@@": 7626,
    "grave": 7627,
    "frag@@": 7628,
    "versité": 7629,
    "défens@@": 7630,
    "conservé": 7631,
    "noy@@": 7632,
    "courses": 7633,
    "Six": 7634,
    "cali@@": 7635,
    "décen@@": 7636,
    "réponse": 7637,
    "Rand@@": 7638,
    "75@@": 7639,
    "ни@@": 7640,
    "Avignon": 7641,
    "ingéni@@": 7642,
    "IIIe": 7643,
    "Syrie": 7644,
    "trine": 7645,
    "yan": 7646,
    "Post": 7647,
    "décidé": 7648,
    "ς": 7649,
    "édée": 7650,
    "portés": 7651,
    "Quar@@": 7652,
    "perte": 7653,
    "ll": 7654,
    "usse": 7655,
    "expériment@@": 7656,
    "internet": 7657,
    "expéri@@": 7658,
    "acle": 7659,
    "ket@@": 7660,
    "omb": 7661,
    "millésimée": 7662,
    "démie": 7663,
    "left": 7664,
    "cus@@": 7665,
    "[«": 7666,
    "Alli@@": 7667,
    "mement": 7668,
    "Greg@@": 7669,
    "açant": 7670,
    "Lucien": 7671,
    "déri@@": 7672,
    "embre": 7673,
    "aud@@": 7674,
    "salles": 7675,
    "1869": 7676,
    "States": 7677,
    "coû@@": 7678,
    "mondi@@": 7679,
    "émissions": 7680,
    "Zi@@": 7681,
    "quier": 7682,
    "160": 7683,
    "Cad@@": 7684,
    "fédérale": 7685,
    "SNCF": 7686,
    "rac": 7687,
    "Sig@@": 7688,
    "mier": 7689,
    "collectif": 7690,
    "Ful@@": 7691,
    "house": 7692,
    "Spa@@": 7693,
    "monn@@": 7694,
    "Champi@@": 7695,
    "Black@@": 7696,
    "tron": 7697,
    "secondaire": 7698,
    "difficultés": 7699,
    "dad": 7700,
    "exhaustif": 7701,
    "omorph@@": 7702,
    "fal@@": 7703,
    "Nan@@": 7704,
    "promu": 7705,
    "phénomène": 7706,
    "rate": 7707,
    "phar@@": 7708,
    "Moun@@": 7709,
    "Ma": 7710,
    "Galles": 7711,
    "ye@@": 7712,
    "Langu@@": 7713,
    "mettant": 7714,
    "comprenant": 7715,
    "réaction": 7716,
    "hiers": 7717,
    "ember": 7718,
    "algéri@@": 7719,
    "progressivement": 7720,
    "ument": 7721,
    "réparti@@": 7722,
    "Camp@@": 7723,
    "chacune": 7724,
    "distin@@": 7725,
    "pleine": 7726,
    "émat@@": 7727,
    "bis": 7728,
    "Celle": 7729,
    "institutions": 7730,
    "Soleil": 7731,
    "light": 7732,
    "sylv@@": 7733,
    "sar@@": 7734,
    "satellite": 7735,
    "relais": 7736,
    "tal": 7737,
    "accueil": 7738,
    "rik": 7739,
    "Repti@@": 7740,
    "définition": 7741,
    "の@@": 7742,
    "Tod@@": 7743,
    "istique": 7744,
    "attent@@": 7745,
    "bal": 7746,
    "reference": 7747,
    "Cycl@@": 7748,
    "auquel": 7749,
    "étiques": 7750,
    "23@@": 7751,
    "Main@@": 7752,
    "cf": 7753,
    "description": 7754,
    "encour@@": 7755,
    "démissi@@": 7756,
    "Hos@@": 7757,
    "collections": 7758,
    "papier": 7759,
    "Ji@@": 7760,
    "AP@@": 7761,
    "wig": 7762,
    "enregistrement": 7763,
    "pag@@": 7764,
    "Luis": 7765,
    "Hér@@": 7766,
    "ˈ@@": 7767,
    "rass@@": 7768,
    "Jusqu": 7769,
    ".[": 7770,
    "diplôme": 7771,
    "Fontaine": 7772,
    "isra@@": 7773,
    "jui@@": 7774,
    "tori@@": 7775,
    "dess@@": 7776,
    "alco@@": 7777,
    "établit": 7778,
    "effi@@": 7779,
    "Command@@": 7780,
    "conduite": 7781,
    "ouverts": 7782,
    "Brook@@": 7783,
    "décro@@": 7784,
    "orthod@@": 7785,
    "gin": 7786,
    "évalué": 7787,
    "esté": 7788,
    "révèle": 7789,
    "Lud@@": 7790,
    "Ach@@": 7791,
    "enth@@": 7792,
    "jon@@": 7793,
    "700": 7794,
    "atin": 7795,
    "test": 7796,
    "insec@@": 7797,
    "τ@@": 7798,
    "excell@@": 7799,
    "cabinet": 7800,
    "enceinte": 7801,
    "pera": 7802,
    "Rach@@": 7803,
    "vaisseau": 7804,
    "accepte": 7805,
    "UR@@": 7806,
    "Gén@@": 7807,
    "trouvé": 7808,
    "<": 7809,
    "rest@@": 7810,
    "opus": 7811,
    "riques": 7812,
    "peintures": 7813,
    "minu@@": 7814,
    "mété@@": 7815,
    "taill@@": 7816,
    "Hip@@": 7817,
    "Univers@@": 7818,
    "Somme": 7819,
    "onnaire": 7820,
    "distingue": 7821,
    "ving@@": 7822,
    "vais": 7823,
    "LE@@": 7824,
    "tardi@@": 7825,
    "liée": 7826,
    "quantité": 7827,
    "sugg@@": 7828,
    "Long": 7829,
    "Corn@@": 7830,
    "Basi@@": 7831,
    "versi@@": 7832,
    "River": 7833,
    "book": 7834,
    "naturelles": 7835,
    "électricité": 7836,
    "Ken@@": 7837,
    "Peu": 7838,
    "instruments": 7839,
    "tuels": 7840,
    "enregistré": 7841,
    "caus@@": 7842,
    "PMID": 7843,
    "masculin": 7844,
    "Fil@@": 7845,
    "Clément": 7846,
    "cent@@": 7847,
    "congrès": 7848,
    "lang@@": 7849,
    "Fabi@@": 7850,
    "range": 7851,
    "stock@@": 7852,
    "Meilleure": 7853,
    "alys@@": 7854,
    "raconte": 7855,
    "1790": 7856,
    "Encyclopedia": 7857,
    "machine": 7858,
    "Chu@@": 7859,
    "veill@@": 7860,
    "Ern@@": 7861,
    "incendie": 7862,
    "maires": 7863,
    "Princ@@": 7864,
    "Statistiques": 7865,
    "interpolation": 7866,
    "mur@@": 7867,
    "couverture": 7868,
    "égalité": 7869,
    "condamné": 7870,
    "Oscar": 7871,
    "correc@@": 7872,
    "scol@@": 7873,
    "rempl@@": 7874,
    "intelli@@": 7875,
    "Entertainment": 7876,
    "Eis@@": 7877,
    "Gouvernement": 7878,
    "éraire": 7879,
    "Lady": 7880,
    "}}}": 7881,
    "terror@@": 7882,
    "onic": 7883,
    "cure": 7884,
    "leader": 7885,
    "dési@@": 7886,
    "44@@": 7887,
    "éte@@": 7888,
    "alimentation": 7889,
    "agno@@": 7890,
    "poèmes": 7891,
    "tourne": 7892,
    "Om@@": 7893,
    "е": 7894,
    "confondu": 7895,
    "étab@@": 7896,
    "exécution": 7897,
    "entou@@": 7898,
    "pseud@@": 7899,
    "Clermont": 7900,
    "cc@@": 7901,
    "Dan": 7902,
    "age@@": 7903,
    "Global": 7904,
    "éra": 7905,
    "influ@@": 7906,
    "olique": 7907,
    "quette": 7908,
    "laisser": 7909,
    "box": 7910,
    "précise": 7911,
    "DA": 7912,
    "propriétés": 7913,
    "fall@@": 7914,
    "Camille": 7915,
    "pulsion": 7916,
    "coopération": 7917,
    "Anth@@": 7918,
    "tile": 7919,
    "spécial": 7920,
    "ddh@@": 7921,
    "religieuses": 7922,
    "Jar@@": 7923,
    "clar@@": 7924,
    "oncle": 7925,
    "Fren@@": 7926,
    "guide": 7927,
    "aïque": 7928,
    "orientale": 7929,
    "éventu@@": 7930,
    "Stre@@": 7931,
    "sures": 7932,
    "battant": 7933,
    "1814": 7934,
    "voile": 7935,
    "fü@@": 7936,
    "rières": 7937,
    "méthodes": 7938,
    "encl@@": 7939,
    "Calv@@": 7940,
    "contempor@@": 7941,
    "ON": 7942,
    "trafic": 7943,
    "clocher": 7944,
    "nécessaires": 7945,
    "animal": 7946,
    "Atlas": 7947,
    "primaire": 7948,
    "Nich@@": 7949,
    "Martin@@": 7950,
    "eric@@": 7951,
    "Hur@@": 7952,
    "Wright": 7953,
    "wik@@": 7954,
    "musiciens": 7955,
    "€": 7956,
    "plante": 7957,
    "figu@@": 7958,
    "nant": 7959,
    "érieures": 7960,
    "rôles": 7961,
    "angu@@": 7962,
    "130": 7963,
    "distinc@@": 7964,
    "tesse": 7965,
    "140": 7966,
    "maréchal": 7967,
    "acier": 7968,
    "ouch@@": 7969,
    "accomplir": 7970,
    "cavalerie": 7971,
    "Constanti@@": 7972,
    "compli@@": 7973,
    "aches": 7974,
    "180": 7975,
    "Navigation": 7976,
    "feu@@": 7977,
    "extrapolation": 7978,
    "Men": 7979,
    "eva": 7980,
    "Jonathan": 7981,
    "post": 7982,
    "condition": 7983,
    "deau": 7984,
    "Mess@@": 7985,
    "venus": 7986,
    "Not@@": 7987,
    "Croatie": 7988,
    "preuve": 7989,
    "ahi@@": 7990,
    "Léon@@": 7991,
    "Kong": 7992,
    "enti": 7993,
    "Anderson": 7994,
    "canons": 7995,
    "tairement": 7996,
    "Rog@@": 7997,
    "individus": 7998,
    "départementales": 7999,
    "destruction": 8000,
    "sei@@": 8001,
    "Web@@": 8002,
    "rester": 8003,
    "110@@": 8004,
    "conçu": 8005,
    "mathrm": 8006,
    "Vern@@": 8007,
    "odore": 8008,
    "lio": 8009,
    "èges": 8010,
    "Aran@@": 8011,
    "Ford": 8012,
    "ouver@@": 8013,
    "indépendant": 8014,
    "vas@@": 8015,
    "olet": 8016,
    "communau@@": 8017,
    "structures": 8018,
    "Rai@@": 8019,
    "exécuti@@": 8020,
    "barrage": 8021,
    "ennem@@": 8022,
    "poissons": 8023,
    "tués": 8024,
    "oiseau": 8025,
    "CI": 8026,
    "embar@@": 8027,
    "owski": 8028,
    "zoologie": 8029,
    "Décret": 8030,
    "duo": 8031,
    "Howard": 8032,
    "semi": 8033,
    "peau": 8034,
    "ados": 8035,
    "observatoire": 8036,
    "Girl": 8037,
    "ât@@": 8038,
    "conquête": 8039,
    "quotidi@@": 8040,
    "naît": 8041,
    "alisés": 8042,
    "ront": 8043,
    "alu@@": 8044,
    "christianisme": 8045,
    "SS@@": 8046,
    "succède": 8047,
    "Réunion": 8048,
    "parts": 8049,
    "cultures": 8050,
    "90@@": 8051,
    "By@@": 8052,
    "Comp@@": 8053,
    "quête": 8054,
    "auraient": 8055,
    "Gallery": 8056,
    "minaire": 8057,
    "Wiki@@": 8058,
    "issait": 8059,
    "Wilhel@@": 8060,
    "prénom": 8061,
    "réd@@": 8062,
    "danger@@": 8063,
    "blan@@": 8064,
    "doctorat": 8065,
    "annu@@": 8066,
    "Peu@@": 8067,
    "LC": 8068,
    "shi@@": 8069,
    "entri@@": 8070,
    "impéri@@": 8071,
    "universités": 8072,
    "aile": 8073,
    "Douglas": 8074,
    "symbo@@": 8075,
    "observations": 8076,
    "vières": 8077,
    "travaillé": 8078,
    "déclaré": 8079,
    "Book": 8080,
    "atmos@@": 8081,
    "suédois": 8082,
    "acy": 8083,
    "45@@": 8084,
    "kel@@": 8085,
    "erne": 8086,
    "œil": 8087,
    "quinze": 8088,
    "étrangère": 8089,
    "Lord": 8090,
    "attention": 8091,
    "chrétiens": 8092,
    "mis@@": 8093,
    "Feli@@": 8094,
    "Friedrich": 8095,
    "renon@@": 8096,
    "démar@@": 8097,
    "basi@@": 8098,
    "Organisation": 8099,
    "communications": 8100,
    "mente": 8101,
    "condu@@": 8102,
    "culturelle": 8103,
    "interdit": 8104,
    "Justice": 8105,
    "ness": 8106,
    "Ama@@": 8107,
    "cor": 8108,
    "mécanique": 8109,
    "polici@@": 8110,
    "confron@@": 8111,
    "Adri@@": 8112,
    "chée": 8113,
    "procédu@@": 8114,
    "lit@@": 8115,
    "Mathieu": 8116,
    "chon": 8117,
    "hori@@": 8118,
    "Journ@@": 8119,
    "imb@@": 8120,
    "hameau": 8121,
    "provenant": 8122,
    "hypo@@": 8123,
    "Show": 8124,
    "multiples": 8125,
    "Centr@@": 8126,
    "inférieur": 8127,
    "rick": 8128,
    "ore@@": 8129,
    "faces": 8130,
    "maximum": 8131,
    "catég@@": 8132,
    "aer@@": 8133,
    "considé@@": 8134,
    "Agn@@": 8135,
    "Agri@@": 8136,
    "cercle": 8137,
    "Nel@@": 8138,
    "XIe": 8139,
    "lumin@@": 8140,
    "heb@@": 8141,
    "tentative": 8142,
    "éloign@@": 8143,
    "chrom@@": 8144,
    "etto": 8145,
    "installation": 8146,
    "Philipp@@": 8147,
    "Fin": 8148,
    "Moder@@": 8149,
    "ingue": 8150,
    "1852": 8151,
    "Adolphe": 8152,
    "deu@@": 8153,
    "exerci@@": 8154,
    "effor@@": 8155,
    "lancer": 8156,
    "suivent": 8157,
    "grade": 8158,
    "complètement": 8159,
    "Scor@@": 8160,
    "attaques": 8161,
    "aéronautique": 8162,
    "autrefois": 8163,
    "environs": 8164,
    "sh": 8165,
    "Outre": 8166,
    "Gali@@": 8167,
    "préserv@@": 8168,
    "history": 8169,
    "Allociné": 8170,
    "byz@@": 8171,
    "uns": 8172,
    "nev@@": 8173,
    "administratif": 8174,
    "1859": 8175,
    "chois@@": 8176,
    "Reims": 8177,
    "Ira@@": 8178,
    "restent": 8179,
    "oo": 8180,
    "nourri@@": 8181,
    "cles": 8182,
    "moteurs": 8183,
    "Co": 8184,
    "Caen": 8185,
    "Charlie": 8186,
    "ц@@": 8187,
    "représenté": 8188,
    "Library": 8189,
    "apar@@": 8190,
    "Hach@@": 8191,
    "oot": 8192,
    "chinoise": 8193,
    "peur": 8194,
    "émor@@": 8195,
    "interro@@": 8196,
    "montré": 8197,
    "shire": 8198,
    "installé": 8199,
    "tré": 8200,
    "chu@@": 8201,
    "cap": 8202,
    "Membre": 8203,
    "Ka@@": 8204,
    "High": 8205,
    "Xi@@": 8206,
    "marié": 8207,
    "efs": 8208,
    "photos": 8209,
    "Édi@@": 8210,
    "Pit@@": 8211,
    "inscrits": 8212,
    "ulaires": 8213,
    "1855": 8214,
    "sax@@": 8215,
    "satis@@": 8216,
    "1800": 8217,
    "enseigne": 8218,
    "Russ@@": 8219,
    "éries": 8220,
    "Laz@@": 8221,
    "rapports": 8222,
    "Real": 8223,
    "Trin@@": 8224,
    "pierres": 8225,
    "notion": 8226,
    "fini": 8227,
    "Fayard": 8228,
    "consultez": 8229,
    "Elizabeth": 8230,
    "vendu": 8231,
    "mad@@": 8232,
    "aser": 8233,
    "popul@@": 8234,
    "franc@@": 8235,
    "inten@@": 8236,
    "1857": 8237,
    "1854": 8238,
    "francophone": 8239,
    "ize": 8240,
    "IR@@": 8241,
    "Fred": 8242,
    "parole": 8243,
    "Albu@@": 8244,
    "Comédie": 8245,
    "désigné": 8246,
    "eng": 8247,
    "villa": 8248,
    "Sir": 8249,
    "sculp@@": 8250,
    "Great": 8251,
    "Sénégal": 8252,
    "septième": 8253,
    "Aster@@": 8254,
    "conscience": 8255,
    "dam": 8256,
    "vaut": 8257,
    "Johann": 8258,
    "alian": 8259,
    "battu": 8260,
    "AR": 8261,
    "légèrement": 8262,
    "anta": 8263,
    "Kno@@": 8264,
    "symbole": 8265,
    "situés": 8266,
    "contemporaine": 8267,
    "risques": 8268,
    "ussi@@": 8269,
    "pè@@": 8270,
    "[...@@": 8271,
    "param@@": 8272,
    "East": 8273,
    "dez": 8274,
    "cultur@@": 8275,
    "rouges": 8276,
    "blessés": 8277,
    "─@@": 8278,
    "endo": 8279,
    "poursuite": 8280,
    "oxe": 8281,
    "oa": 8282,
    "Librairie": 8283,
    "env@@": 8284,
    "ançon": 8285,
    "Blanche": 8286,
    "Venezuela": 8287,
    "nul@@": 8288,
    "gardien": 8289,
    "esque": 8290,
    "bateaux": 8291,
    "variété": 8292,
    "essay@@": 8293,
    "avenir": 8294,
    "ree": 8295,
    "DO@@": 8296,
    "agence": 8297,
    "ū": 8298,
    "ett@@": 8299,
    "isp@@": 8300,
    "danger": 8301,
    "hin@@": 8302,
    "Mex@@": 8303,
    "appare@@": 8304,
    "détec@@": 8305,
    "oup@@": 8306,
    "réat": 8307,
    "anneaux": 8308,
    "rette": 8309,
    "Alphonse": 8310,
    "phare": 8311,
    "ardt": 8312,
    "parlementaire": 8313,
    "lait": 8314,
    "000@@": 8315,
    "réédition": 8316,
    "oll": 8317,
    "élite": 8318,
    "terrains": 8319,
    "das": 8320,
    "Formule": 8321,
    "Navy": 8322,
    "intermédiaire": 8323,
    "logements": 8324,
    "remp@@": 8325,
    "isition": 8326,
    "mascul@@": 8327,
    "blessé": 8328,
    "Hubert": 8329,
    "ρ@@": 8330,
    "foresti@@": 8331,
    "ady": 8332,
    "akh@@": 8333,
    "populaires": 8334,
    "peuples": 8335,
    "aîné": 8336,
    "Nag@@": 8337,
    "Gustave": 8338,
    "eda": 8339,
    "Langue": 8340,
    "inat": 8341,
    "Yam@@": 8342,
    "Eff@@": 8343,
    "press": 8344,
    "sai@@": 8345,
    "abouti@@": 8346,
    "chor@@": 8347,
    "mill@@": 8348,
    "standard": 8349,
    "Bâ@@": 8350,
    "red@@": 8351,
    "UE@@": 8352,
    "jam@@": 8353,
    "matériaux": 8354,
    "Stef@@": 8355,
    "Midi": 8356,
    "peupl@@": 8357,
    "Int@@": 8358,
    "Beg@@": 8359,
    "General": 8360,
    "éro": 8361,
    "comportement": 8362,
    "dirigée": 8363,
    "lière": 8364,
    "PC@@": 8365,
    "Seign@@": 8366,
    "Noir": 8367,
    "volley": 8368,
    "particuli@@": 8369,
    "inet": 8370,
    "low": 8371,
    "Rés@@": 8372,
    "démocrate": 8373,
    "polonaise": 8374,
    "ôts": 8375,
    "adolesc@@": 8376,
    "orum": 8377,
    "gram@@": 8378,
    "Academy": 8379,
    "Edw@@": 8380,
    "immobi@@": 8381,
    "centres": 8382,
    "Grég@@": 8383,
    "abe": 8384,
    "interne": 8385,
    "consacrée": 8386,
    "Ober@@": 8387,
    "espoir": 8388,
    "erb@@": 8389,
    "Roch@@": 8390,
    "lish": 8391,
    "caf@@": 8392,
    "âme": 8393,
    "ă@@": 8394,
    "peint": 8395,
    "European": 8396,
    "pée": 8397,
    "Racing": 8398,
    "cul": 8399,
    "embr@@": 8400,
    "Naples": 8401,
    "DS": 8402,
    "répar@@": 8403,
    "Pie@@": 8404,
    "Earth": 8405,
    "décou@@": 8406,
    "régu@@": 8407,
    "»],": 8408,
    "Anglais": 8409,
    "conséquence": 8410,
    "io": 8411,
    "Ny@@": 8412,
    "Guer@@": 8413,
    "trouvait": 8414,
    "But@@": 8415,
    "extrê@@": 8416,
    "Part": 8417,
    "critères": 8418,
    "Golden": 8419,
    "Bruce": 8420,
    "métropoli@@": 8421,
    "ombe": 8422,
    "MC": 8423,
    "voient": 8424,
    "King@@": 8425,
    "jardins": 8426,
    "hongrois": 8427,
    "écran": 8428,
    "quer@@": 8429,
    "spéciale": 8430,
    "Gordon": 8431,
    "Prague": 8432,
    "Chin@@": 8433,
    "phal@@": 8434,
    "alliance": 8435,
    "Annales": 8436,
    "Julie": 8437,
    "any": 8438,
    "sier": 8439,
    "condui@@": 8440,
    "Kle@@": 8441,
    "Ais@@": 8442,
    "accompagné": 8443,
    "méth@@": 8444,
    "))": 8445,
    "jac@@": 8446,
    "itimes": 8447,
    "regard": 8448,
    "presti@@": 8449,
    "Films": 8450,
    "jou": 8451,
    "banque": 8452,
    "Virginie": 8453,
    "pourquoi": 8454,
    "cordes": 8455,
    "Agence": 8456,
    "1794": 8457,
    "dirigeants": 8458,
    "htm": 8459,
    "Holl@@": 8460,
    "Your": 8461,
    "tendance": 8462,
    "cat": 8463,
    "Len@@": 8464,
    "pal": 8465,
    "Chall@@": 8466,
    "technologie": 8467,
    "ambassad@@": 8468,
    "ordinaire": 8469,
    "transfert": 8470,
    "Hong": 8471,
    "formule": 8472,
    "aillé": 8473,
    "sain@@": 8474,
    "Chart": 8475,
    "Chab@@": 8476,
    "mauv@@": 8477,
    "spécifique": 8478,
    "oper": 8479,
    "cho": 8480,
    "1858": 8481,
    "invité": 8482,
    "Maître": 8483,
    "än@@": 8484,
    "46@@": 8485,
    "Gray": 8486,
    "For": 8487,
    "gosl@@": 8488,
    "gby": 8489,
    "confond@@": 8490,
    "puits": 8491,
    "Robin": 8492,
    "amphi@@": 8493,
    "ite": 8494,
    "mil@@": 8495,
    "mixte": 8496,
    "Prot@@": 8497,
    "ul": 8498,
    "Od@@": 8499,
    "essentiel": 8500,
    "clim@@": 8501,
    "équipage": 8502,
    "Network": 8503,
    "aces": 8504,
    "Two": 8505,
    "agricoles": 8506,
    "Kath@@": 8507,
    "espaces": 8508,
    "constituent": 8509,
    "violence": 8510,
    "IC": 8511,
    "usion": 8512,
    "Ell@@": 8513,
    "montrer": 8514,
    "frap@@": 8515,
    "Indon@@": 8516,
    "citoyens": 8517,
    "habitat": 8518,
    "fum@@": 8519,
    "coût": 8520,
    "menée": 8521,
    "hydr@@": 8522,
    "onais": 8523,
    "présentée": 8524,
    "Mél@@": 8525,
    "renouvel@@": 8526,
    "deg@@": 8527,
    "gien": 8528,
    "châteaux": 8529,
    "aux@@": 8530,
    "Sylv@@": 8531,
    "avier": 8532,
    "supr@@": 8533,
    "ël": 8534,
    "From": 8535,
    "Bey@@": 8536,
    "allem@@": 8537,
    "Á@@": 8538,
    "star": 8539,
    "vs": 8540,
    "diss@@": 8541,
    "Saxe": 8542,
    "installer": 8543,
    "ousse": 8544,
    "Gallica": 8545,
    "Sept@@": 8546,
    "Rig@@": 8547,
    "menace": 8548,
    "facilement": 8549,
    "Allen": 8550,
    "réflex@@": 8551,
    "compagne": 8552,
    "oises": 8553,
    "tura": 8554,
    "biographique": 8555,
    "Aquitaine": 8556,
    "Alexis": 8557,
    "Seuil": 8558,
    "meu@@": 8559,
    "hl": 8560,
    "propag@@": 8561,
    "influenc@@": 8562,
    "occupé": 8563,
    "uci": 8564,
    "Org@@": 8565,
    "pagnes": 8566,
    "Moz@@": 8567,
    "férence": 8568,
    "aska": 8569,
    "placer": 8570,
    "Fro@@": 8571,
    "fiche": 8572,
    "liques": 8573,
    "profondeur": 8574,
    "écou@@": 8575,
    "SP@@": 8576,
    "apparaissent": 8577,
    "rav@@": 8578,
    "mel@@": 8579,
    "piers": 8580,
    "Sun": 8581,
    "navi@@": 8582,
    "pédagog@@": 8583,
    "Géolocalisation": 8584,
    "crist@@": 8585,
    "renom@@": 8586,
    "mauvais": 8587,
    "olutions": 8588,
    "50@@": 8589,
    "boî@@": 8590,
    "Loi@@": 8591,
    "just@@": 8592,
    "compter": 8593,
    "gang": 8594,
    "125": 8595,
    "augu@@": 8596,
    "patronyme": 8597,
    "précis@@": 8598,
    "vey": 8599,
    "comprendre": 8600,
    "Belle": 8601,
    "quité": 8602,
    "besoins": 8603,
    "matern@@": 8604,
    "rare": 8605,
    "1851": 8606,
    "Pad@@": 8607,
    "Net@@": 8608,
    "Audi@@": 8609,
    "Mans": 8610,
    "tland": 8611,
    "ild": 8612,
    "Franz": 8613,
    "--": 8614,
    "multipli@@": 8615,
    "abond@@": 8616,
    "Bavière": 8617,
    "disparition": 8618,
    "chent": 8619,
    "employé": 8620,
    "Edgar": 8621,
    "réunion": 8622,
    "révolutionnaire": 8623,
    "combatt@@": 8624,
    "Stor@@": 8625,
    "Élections": 8626,
    "Register": 8627,
    "vall@@": 8628,
    "oppose": 8629,
    "olie": 8630,
    "visant": 8631,
    "ß@@": 8632,
    "Second": 8633,
    "ii": 8634,
    "présentent": 8635,
    "Cél@@": 8636,
    "complém@@": 8637,
    "trés@@": 8638,
    "Barbara": 8639,
    "Has@@": 8640,
    "Défense": 8641,
    "gan": 8642,
    "Tig@@": 8643,
    "aos": 8644,
    "entôt": 8645,
    "oom": 8646,
    "Freder@@": 8647,
    "PU@@": 8648,
    "atri@@": 8649,
    "bis@@": 8650,
    "divisions": 8651,
    "évèn@@": 8652,
    "alth": 8653,
    "Gram@@": 8654,
    "remplace": 8655,
    "photo": 8656,
    "musées": 8657,
    "dimension": 8658,
    "nus": 8659,
    "terminé": 8660,
    "écoss@@": 8661,
    "adversaire": 8662,
    "oges": 8663,
    "érant": 8664,
    "ssements": 8665,
    "lès": 8666,
    "IIe": 8667,
    "ι@@": 8668,
    "bnf": 8669,
    "conven@@": 8670,
    "subst@@": 8671,
    "deviennent": 8672,
    "particulière": 8673,
    "agan": 8674,
    "enger": 8675,
    "Géorgie": 8676,
    "Opéra": 8677,
    "Hervé": 8678,
    "Monaco": 8679,
    "Troisième": 8680,
    "ida": 8681,
    "présenter": 8682,
    "peintres": 8683,
    "édu@@": 8684,
    "una": 8685,
    "Nick": 8686,
    "Fox": 8687,
    "onnier": 8688,
    "otes": 8689,
    "marès": 8690,
    "tech@@": 8691,
    "IGN": 8692,
    "actifs": 8693,
    "moines": 8694,
    "ventes": 8695,
    "inette": 8696,
    "that": 8697,
    "paroissi@@": 8698,
    "quêtes": 8699,
    "agons": 8700,
    "traces": 8701,
    "dél@@": 8702,
    "faux": 8703,
    "densi@@": 8704,
    "saut": 8705,
    "Pow@@": 8706,
    "aillot": 8707,
    "120@@": 8708,
    "vap@@": 8709,
    "Na@@": 8710,
    "fur@@": 8711,
    "clé": 8712,
    "zig": 8713,
    "cellules": 8714,
    "drapeau": 8715,
    "omes": 8716,
    "Ler@@": 8717,
    "Cit@@": 8718,
    "mai@@": 8719,
    "Ressource": 8720,
    "Vos@@": 8721,
    "noter": 8722,
    "envoie": 8723,
    "Néanmoins": 8724,
    "quels": 8725,
    "Sauv@@": 8726,
    "drame": 8727,
    "CC@@": 8728,
    "Madagascar": 8729,
    "Colin": 8730,
    "ômes": 8731,
    "tiste": 8732,
    "vues": 8733,
    "qua": 8734,
    "rappel@@": 8735,
    "ч@@": 8736,
    "remplacer": 8737,
    "tural": 8738,
    "cu": 8739,
    "113@@": 8740,
    "tradi@@": 8741,
    "électr@@": 8742,
    "alo": 8743,
    "sainte": 8744,
    "angers": 8745,
    "disponibles": 8746,
    "acqui@@": 8747,
    "frontières": 8748,
    "deviendra": 8749,
    "1856": 8750,
    "rétab@@": 8751,
    "Tun@@": 8752,
    "elet": 8753,
    "fixe": 8754,
    "ž@@": 8755,
    "в": 8756,
    "cum@@": 8757,
    "Kit@@": 8758,
    "ssant": 8759,
    "aurus": 8760,
    "encyclopédiques": 8761,
    "Jeune": 8762,
    "lés": 8763,
    "Out": 8764,
    "Down": 8765,
    "détach@@": 8766,
    "ponts": 8767,
    "appréci@@": 8768,
    "ffe": 8769,
    "susci@@": 8770,
    "cultu@@": 8771,
    "aiment": 8772,
    "fontaine": 8773,
    "Gonz@@": 8774,
    "postes": 8775,
    "MA": 8776,
    "Châ@@": 8777,
    "spatial": 8778,
    "Hung": 8779,
    "Louvre": 8780,
    "Barb@@": 8781,
    "1849": 8782,
    "sed": 8783,
    "suffi@@": 8784,
    "Temps": 8785,
    "say": 8786,
    "litt@@": 8787,
    "quasi": 8788,
    "Athènes": 8789,
    "1846": 8790,
    "Vie@@": 8791,
    "Bog@@": 8792,
    "éti@@": 8793,
    "Feu@@": 8794,
    "10e": 8795,
    "Rapport": 8796,
    "Land": 8797,
    "Song": 8798,
    "bit@@": 8799,
    "couronne": 8800,
    "municipalités": 8801,
    "éru@@": 8802,
    "Vallée": 8803,
    "à@@": 8804,
    "Méri@@": 8805,
    "Mü@@": 8806,
    "anthrop@@": 8807,
    "communal": 8808,
    "FF": 8809,
    "741": 8810,
    "garder": 8811,
    "Rém@@": 8812,
    "Tos@@": 8813,
    "acquis": 8814,
    "Administr@@": 8815,
    "vérité": 8816,
    "Space": 8817,
    "plong@@": 8818,
    "Champagne": 8819,
    "Hollywood": 8820,
    "County": 8821,
    "entaux": 8822,
    "TF1": 8823,
    "pé": 8824,
    "conservateur": 8825,
    "journaux": 8826,
    "zh@@": 8827,
    "Pali@@": 8828,
    "enses": 8829,
    "réduit": 8830,
    "feuill@@": 8831,
    "mathb@@": 8832,
    "Stock@@": 8833,
    "tem@@": 8834,
    "vo": 8835,
    "gagner": 8836,
    "flan@@": 8837,
    "ра@@": 8838,
    "foi": 8839,
    "eter@@": 8840,
    "philosophe": 8841,
    "Grou@@": 8842,
    "révi@@": 8843,
    "bret@@": 8844,
    "wall@@": 8845,
    "poème": 8846,
    "Dictionary": 8847,
    "Eth@@": 8848,
    "Qui": 8849,
    "diffici@@": 8850,
    "TV@@": 8851,
    "Pak@@": 8852,
    "Thér@@": 8853,
    "Catalog": 8854,
    "construits": 8855,
    "Capit@@": 8856,
    "qualification": 8857,
    "Thor@@": 8858,
    "artic@@": 8859,
    "organisations": 8860,
    "alition": 8861,
    "Mon": 8862,
    "télévisées": 8863,
    "~": 8864,
    "pur@@": 8865,
    "violon": 8866,
    "serp@@": 8867,
    "adapté": 8868,
    "Né": 8869,
    "Œuvres": 8870,
    ".\"": 8871,
    "atum": 8872,
    "lancement": 8873,
    "down": 8874,
    "hier": 8875,
    "urbain": 8876,
    "graphi@@": 8877,
    "115@@": 8878,
    "lan": 8879,
    "préfet": 8880,
    "ather": 8881,
    "Collège": 8882,
    "Action": 8883,
    "acide": 8884,
    "proté@@": 8885,
    "russes": 8886,
    "1758": 8887,
    "principes": 8888,
    "ô": 8889,
    "Face": 8890,
    "dig@@": 8891,
    "budget": 8892,
    "rarement": 8893,
    "classification": 8894,
    "Davi@@": 8895,
    "Clark": 8896,
    "Match": 8897,
    "récol@@": 8898,
    "Ga@@": 8899,
    "96@@": 8900,
    "Verl@@": 8901,
    "séri@@": 8902,
    "cis@@": 8903,
    "tante": 8904,
    "Harmattan": 8905,
    "chauss@@": 8906,
    "modi@@": 8907,
    "machines": 8908,
    "reprendre": 8909,
    "å@@": 8910,
    "proposition": 8911,
    "Francesco": 8912,
    "Barth@@": 8913,
    "Fis@@": 8914,
    "dien": 8915,
    "Municipa@@": 8916,
    "récemment": 8917,
    "ottom@@": 8918,
    "scolaire": 8919,
    "gaz@@": 8920,
    "Results": 8921,
    "bases": 8922,
    "parlementaires": 8923,
    "classiques": 8924,
    "bir@@": 8925,
    "batt@@": 8926,
    "dépend": 8927,
    "similaire": 8928,
    "fichi@@": 8929,
    "103": 8930,
    "1837": 8931,
    "lands": 8932,
    "Will": 8933,
    "Apol@@": 8934,
    "ministres": 8935,
    "épous@@": 8936,
    "alla": 8937,
    "catholiques": 8938,
    "mettent": 8939,
    "onom@@": 8940,
    "fice": 8941,
    "nica": 8942,
    "Élisabeth": 8943,
    "mière": 8944,
    "bien@@": 8945,
    "intensi@@": 8946,
    "We": 8947,
    "ovis@@": 8948,
    "règle": 8949,
    "wh@@": 8950,
    "tury": 8951,
    "forts": 8952,
    "tune": 8953,
    "hypothèse": 8954,
    "écar@@": 8955,
    "Finaliste": 8956,
    "yes": 8957,
    "revenir": 8958,
    "Chris@@": 8959,
    "remonte": 8960,
    "lla": 8961,
    "Hamilton": 8962,
    "Toul@@": 8963,
    "ailes": 8964,
    "Mort": 8965,
    "sortant": 8966,
    "Got@@": 8967,
    "Physi@@": 8968,
    "humaines": 8969,
    "arachnologie": 8970,
    "donnent": 8971,
    "Porte": 8972,
    "kina": 8973,
    "introduit": 8974,
    "règl@@": 8975,
    "élevage": 8976,
    "world": 8977,
    "érou": 8978,
    "servant": 8979,
    "76@@": 8980,
    "list": 8981,
    "ordonn@@": 8982,
    "honor@@": 8983,
    "hn": 8984,
    "entiel": 8985,
    "intitulée": 8986,
    "commer@@": 8987,
    "nik": 8988,
    "Dates": 8989,
    "1845": 8990,
    "performances": 8991,
    "inson": 8992,
    "yl": 8993,
    "Jason": 8994,
    "intérêts": 8995,
    "Guinée": 8996,
    "entière": 8997,
    "dson": 8998,
    "Dave": 8999,
    "pective": 9000,
    "magnitude": 9001,
    "préparation": 9002,
    "FM": 9003,
    "seraient": 9004,
    "boulevard": 9005,
    "Grâce": 9006,
    "produite": 9007,
    "instru@@": 9008,
    "Cinq": 9009,
    "départementale": 9010,
    "auv@@": 9011,
    "jusque": 9012,
    "impact": 9013,
    "yers": 9014,
    "blement": 9015,
    "Sub@@": 9016,
    "102": 9017,
    "Rous@@": 9018,
    "tables": 9019,
    "cription": 9020,
    "remplacement": 9021,
    "Mouv@@": 9022,
    "laissant": 9023,
    "mir": 9024,
    "Tournoi": 9025,
    "bos@@": 9026,
    "Brest": 9027,
    "Stone": 9028,
    "libéral": 9029,
    "éroï@@": 9030,
    "Wo@@": 9031,
    "brill@@": 9032,
    "internationaux": 9033,
    "Jon@@": 9034,
    "Corpor@@": 9035,
    "thern": 9036,
    "[…]": 9037,
    "Cra@@": 9038,
    "milliers": 9039,
    "étroi@@": 9040,
    "responsabilité": 9041,
    "uelle": 9042,
    "Wolf@@": 9043,
    "Amphibi@@": 9044,
    "yo": 9045,
    "conci@@": 9046,
    "rain": 9047,
    "traditionnelle": 9048,
    "violon@@": 9049,
    "niers": 9050,
    "Ray@@": 9051,
    "convention": 9052,
    "Tim": 9053,
    "Interview": 9054,
    "bio@@": 9055,
    "Toutes": 9056,
    "forter@@": 9057,
    "Fai@@": 9058,
    "ny@@": 9059,
    "secr@@": 9060,
    "formant": 9061,
    "Swe@@": 9062,
    "voi": 9063,
    "Philip": 9064,
    "ané@@": 9065,
    "foot": 9066,
    "gend@@": 9067,
    "invasion": 9068,
    "extrait": 9069,
    "Commune": 9070,
    "live": 9071,
    "Sak@@": 9072,
    "transformation": 9073,
    "euré": 9074,
    "portugais": 9075,
    "renommée": 9076,
    "Syd@@": 9077,
    "Archi@@": 9078,
    "Intro@@": 9079,
    "symb@@": 9080,
    "directe": 9081,
    "invent@@": 9082,
    "tenues": 9083,
    "117@@": 9084,
    "Nature": 9085,
    "modern@@": 9086,
    "Record": 9087,
    "Études": 9088,
    "bandes": 9089,
    "lienne": 9090,
    "\")": 9091,
    "évoque": 9092,
    "récupér@@": 9093,
    "Diego": 9094,
    "ajoute": 9095,
    "Power": 9096,
    "Survey": 9097,
    "invi@@": 9098,
    "Alliance": 9099,
    "plai@@": 9100,
    "devrait": 9101,
    "ologues": 9102,
    "meill@@": 9103,
    "Ministre": 9104,
    "Bac@@": 9105,
    "hl@@": 9106,
    "Tai@@": 9107,
    "Yos@@": 9108,
    "représentent": 9109,
    "Acc@@": 9110,
    "ABC": 9111,
    "Costa": 9112,
    "Home": 9113,
    "mini": 9114,
    "Philadelph@@": 9115,
    "consultée": 9116,
    "times": 9117,
    "bb@@": 9118,
    "NASA": 9119,
    "vivants": 9120,
    "Cannes": 9121,
    "fli@@": 9122,
    "domad@@": 9123,
    "étudier": 9124,
    "partition": 9125,
    "instr@@": 9126,
    "ouvriers": 9127,
    "gravi@@": 9128,
    "Shak@@": 9129,
    "poche": 9130,
    "duché": 9131,
    "Quin@@": 9132,
    "Vari@@": 9133,
    "succession": 9134,
    "pilotes": 9135,
    "onien": 9136,
    "Iowa": 9137,
    "Édition": 9138,
    "Nad@@": 9139,
    "compagnies": 9140,
    "ooks": 9141,
    "Bah@@": 9142,
    "préci@@": 9143,
    "puisse": 9144,
    "massi@@": 9145,
    "ect": 9146,
    "Belgrade": 9147,
    "Ryan": 9148,
    "Up@@": 9149,
    "tam@@": 9150,
    "vig@@": 9151,
    "Luci@@": 9152,
    "ving": 9153,
    "])": 9154,
    "économ@@": 9155,
    "data": 9156,
    "Matt": 9157,
    "Lév@@": 9158,
    "thétique": 9159,
    "scand@@": 9160,
    "Mémoire": 9161,
    "exemp@@": 9162,
    "èvres": 9163,
    "narr@@": 9164,
    "détaillés": 9165,
    "Lincol@@": 9166,
    "bombard@@": 9167,
    "Li": 9168,
    "Last": 9169,
    "néer@@": 9170,
    "échecs": 9171,
    "tube": 9172,
    "axi@@": 9173,
    "amiti@@": 9174,
    "proposé": 9175,
    "penser": 9176,
    "osau@@": 9177,
    "UK": 9178,
    "Dead": 9179,
    "ор@@": 9180,
    "cér@@": 9181,
    "rea": 9182,
    "Province": 9183,
    "ptions": 9184,
    "Vand@@": 9185,
    "Inc": 9186,
    "stri@@": 9187,
    "soix@@": 9188,
    "frapp@@": 9189,
    "extrémité": 9190,
    "rag@@": 9191,
    "énor@@": 9192,
    "Architec@@": 9193,
    "under@@": 9194,
    "lise": 9195,
    "}}\\": 9196,
    "jury": 9197,
    "Presse": 9198,
    "104": 9199,
    "primés": 9200,
    "absor@@": 9201,
    "Oct@@": 9202,
    "cola": 9203,
    "ecclési@@": 9204,
    "franc": 9205,
    "Dark": 9206,
    "pêch@@": 9207,
    "até": 9208,
    "aus": 9209,
    "Dijon": 9210,
    "changer": 9211,
    "monte": 9212,
    "publications": 9213,
    "yant": 9214,
    "blancs": 9215,
    "pollu@@": 9216,
    "LA": 9217,
    "dec@@": 9218,
    "Mgr": 9219,
    "amateur": 9220,
    "esa": 9221,
    "Lap@@": 9222,
    "herpétologie": 9223,
    "asc@@": 9224,
    "vign@@": 9225,
    "Arnaud": 9226,
    "rad": 9227,
    "genres": 9228,
    "Floride": 9229,
    "anciennement": 9230,
    "choisit": 9231,
    "1000": 9232,
    "ram": 9233,
    "verre": 9234,
    "durable": 9235,
    "Cô@@": 9236,
    "lu": 9237,
    "pecies": 9238,
    "Jimmy": 9239,
    "rais@@": 9240,
    "Kni@@": 9241,
    "artifici@@": 9242,
    "scep@@": 9243,
    "alogue": 9244,
    "Be": 9245,
    "zen": 9246,
    "puls@@": 9247,
    "couvent": 9248,
    "Territ@@": 9249,
    "opold": 9250,
    "versant": 9251,
    "seigneurs": 9252,
    "mê@@": 9253,
    "ー@@": 9254,
    "engagé": 9255,
    "décern@@": 9256,
    "proxim@@": 9257,
    "Boy": 9258,
    "véhicule": 9259,
    "ruption": 9260,
    "Billy": 9261,
    "Pseu@@": 9262,
    "Vice": 9263,
    "norvégienne": 9264,
    "Online": 9265,
    "risme": 9266,
    "Secret": 9267,
    "évêques": 9268,
    "manif@@": 9269,
    "restau@@": 9270,
    "sexe": 9271,
    "dea": 9272,
    "Steven": 9273,
    "autoroute": 9274,
    "Varsovie": 9275,
    "ocy@@": 9276,
    "Vladimir": 9277,
    "Directeur": 9278,
    "célèbres": 9279,
    "vins": 9280,
    "trophe": 9281,
    "juifs": 9282,
    "apostolique": 9283,
    "Wy@@": 9284,
    "égyp@@": 9285,
    "handball": 9286,
    "thèmes": 9287,
    "élevée": 9288,
    "érir": 9289,
    "1853": 9290,
    "finales": 9291,
    "did@@": 9292,
    "tionne": 9293,
    "Road": 9294,
    "Hab@@": 9295,
    "fruits": 9296,
    "concl@@": 9297,
    "ouvrent": 9298,
    "implant@@": 9299,
    "harmon@@": 9300,
    "What": 9301,
    "ush@@": 9302,
    "plaine": 9303,
    "épou@@": 9304,
    "maladies": 9305,
    "Kol@@": 9306,
    "huitième": 9307,
    "Kou@@": 9308,
    "chiffre": 9309,
    "Vik@@": 9310,
    "colonie": 9311,
    "illion": 9312,
    "Convention": 9313,
    "128": 9314,
    "laissé": 9315,
    "destinée": 9316,
    "gion": 9317,
    "heur": 9318,
    "cess@@": 9319,
    "agré@@": 9320,
    "Données": 9321,
    "ust": 9322,
    "Dyn@@": 9323,
    "lock": 9324,
    "chât@@": 9325,
    "portait": 9326,
    "Ris@@": 9327,
    "raph@@": 9328,
    "Wit@@": 9329,
    "Gon@@": 9330,
    "insule": 9331,
    "scrutin": 9332,
    "pre@@": 9333,
    "114@@": 9334,
    "Squ@@": 9335,
    "parisien": 9336,
    "pro": 9337,
    "atre": 9338,
    "étaire": 9339,
    "fais@@": 9340,
    "anche": 9341,
    "euves": 9342,
    "osoph@@": 9343,
    "dust@@": 9344,
    "recher@@": 9345,
    "Py@@": 9346,
    "serve": 9347,
    "apa@@": 9348,
    "К@@": 9349,
    "minis@@": 9350,
    "issu@@": 9351,
    "tension": 9352,
    "risti@@": 9353,
    "OC@@": 9354,
    "Rac@@": 9355,
    "Radi@@": 9356,
    "studi@@": 9357,
    "éral": 9358,
    "âte@@": 9359,
    "aissance": 9360,
    "Glob@@": 9361,
    "Phy@@": 9362,
    "plat@@": 9363,
    "ool": 9364,
    "aume": 9365,
    "leau": 9366,
    "Peti@@": 9367,
    "eae": 9368,
    "Flori@@": 9369,
    "entine": 9370,
    "ockey": 9371,
    "Premi@@": 9372,
    "ID": 9373,
    "rict": 9374,
    "abor@@": 9375,
    "cin": 9376,
    "nouv@@": 9377,
    "elon": 9378,
    "33@@": 9379,
    "sold@@": 9380,
    "partic@@": 9381,
    "diver@@": 9382,
    "sci@@": 9383,
    "П@@": 9384,
    "Andr@@": 9385,
    "définiti@@": 9386,
    "circons@@": 9387,
    "Nicol@@": 9388,
    "élém@@": 9389,
    "spectateurs": 9390,
    "sumé": 9391,
    "exp@@": 9392,
    "fémin@@": 9393,
    "san@@": 9394,
    "tivement": 9395,
    "act": 9396,
    "Gér@@": 9397,
    "ř@@": 9398,
    "oile": 9399,
    "indé@@": 9400,
    "renouv@@": 9401,
    "vidé@@": 9402,
    "occu@@": 9403,
    "parall@@": 9404,
    "fic": 9405,
    "ardin": 9406,
    "Litt@@": 9407,
    "sez": 9408,
    "ν@@": 9409,
    "dram@@": 9410,
    "métro@@": 9411,
    "Associ@@": 9412,
    "nour@@": 9413,
    "difficul@@": 9414,
    "oun": 9415,
    "BA": 9416,
    "suppl@@": 9417,
    "eds": 9418,
    "PD@@": 9419,
    "recor@@": 9420,
    "rè@@": 9421,
    "Temp@@": 9422,
    "Î@@": 9423,
    "’@@": 9424,
    "tempér@@": 9425,
    "Califor@@": 9426,
    "football@@": 9427,
    "Foot@@": 9428,
    "québ@@": 9429,
    "pier": 9430,
    "ε@@": 9431,
    "pact": 9432,
    "attend@@": 9433,
    "lingu@@": 9434,
    "phon@@": 9435,
    "tez": 9436,
    "Bill@@": 9437,
    "⁡": 9438,
    "ecture": 9439,
    "è": 9440,
    "docum@@": 9441,
    "racon@@": 9442,
    "cham@@": 9443,
    "chs": 9444,
    "océ@@": 9445,
    "Cass@@": 9446,
    "religi@@": 9447,
    "Bret@@": 9448,
    "mix@@": 9449,
    "récu@@": 9450,
    "particu@@": 9451,
    "poin@@": 9452,
    "ource": 9453,
    "erge": 9454,
    "ь@@": 9455,
    "tain@@": 9456,
    "chestre": 9457,
    "Adol@@": 9458,
    "mom@@": 9459,
    "agog@@": 9460,
    "simil@@": 9461,
    "francoph@@": 9462,
    "cept@@": 9463,
    "abase": 9464,
    "eme@@": 9465,
    "ń@@": 9466,
    "Clu@@": 9467,
    "m2": 9468,
    "èrement": 9469,
    "moy@@": 9470,
    "rai": 9471,
    "Willi@@": 9472,
    "%@@": 9473,
    "Ł@@": 9474,
    "lac@@": 9475,
    "plant@@": 9476,
    "λ@@": 9477,
    "concep@@": 9478,
    "ы@@": 9479,
    "agri@@": 9480,
    "occa@@": 9481,
    "quipe": 9482,
    "pein@@": 9483,
    "Institu@@": 9484,
    "Syst@@": 9485,
    "hai@@": 9486,
    "uis": 9487,
    "HE@@": 9488,
    "Vinc@@": 9489,
    "ę@@": 9490,
    "télév@@": 9491,
    "bâti@@": 9492,
    "aillon": 9493,
    "tières": 9494,
    "aissent": 9495,
    "quanti@@": 9496,
    "Gener@@": 9497,
    "group@@": 9498,
    "nuclé@@": 9499,
    "ear@@": 9500,
    "Gabri@@": 9501,
    "Lors@@": 9502,
    "resp@@": 9503,
    "athan": 9504,
    "Paci@@": 9505,
    "Š@@": 9506,
    "cesse": 9507,
    "usée": 9508,
    "capi@@": 9509,
    "épis@@": 9510,
    "jon": 9511,
    "Steph@@": 9512,
    "Ö@@": 9513,
    "Ange@@": 9514,
    "prison@@": 9515,
    "sult@@": 9516,
    "oute": 9517,
    "faç@@": 9518,
    "arti@@": 9519,
    "consi@@": 9520,
    "Aw@@": 9521,
    "aspec@@": 9522,
    "|@@": 9523,
    "math@@": 9524,
    "Jui@@": 9525,
    "sculpt@@": 9526,
    "ș@@": 9527,
    "alph@@": 9528,
    "IG@@": 9529,
    "appell@@": 9530,
    "م@@": 9531,
    "pital": 9532,
    "grec@@": 9533,
    "dam@@": 9534,
    "ury": 9535,
    "Domin@@": 9536,
    "Gust@@": 9537,
    "azz": 9538,
    "immédi@@": 9539,
    "mentation": 9540,
    "ster@@": 9541,
    "gre": 9542,
    "Fir@@": 9543,
    "Wom@@": 9544,
    "logici@@": 9545,
    "”@@": 9546,
    "Camer@@": 9547,
    "Christi@@": 9548,
    "hand@@": 9549,
    "pre": 9550,
    "FR@@": 9551,
    "ficie": 9552,
    "phénom@@": 9553,
    "intér@@": 9554,
    "°@@": 9555,
    "anni": 9556,
    "consci@@": 9557,
    "brig@@": 9558,
    "homony@@": 9559,
    "ition": 9560,
    "scén@@": 9561,
    "nesse": 9562,
    "ici@@": 9563,
    "signi@@": 9564,
    "issons": 9565,
    "indivi@@": 9566,
    "essenti@@": 9567,
    "ules": 9568,
    "κ@@": 9569,
    "ي@@": 9570,
    "èce": 9571,
    "enreg@@": 9572,
    "élior@@": 9573,
    "ili@@": 9574,
    "ambass@@": 9575,
    "ennent": 9576,
    "ques@@": 9577,
    "tribu@@": 9578,
    "А@@": 9579,
    "ety": 9580,
    "médec@@": 9581,
    "€@@": 9582,
    "ン@@": 9583,
    "refu@@": 9584,
    "ourd": 9585,
    "épo@@": 9586,
    "afflu@@": 9587,
    "М@@": 9588,
    "ffici@@": 9589,
    "quez": 9590,
    "doi@@": 9591,
    "manche": 9592,
    "aco": 9593,
    "queur": 9594,
    "orges": 9595,
    "jau@@": 9596,
    "pagne": 9597,
    "ı@@": 9598,
    "Fé@@": 9599,
    "Р@@": 9600,
    "estion": 9601,
    "asion": 9602,
    "manie": 9603,
    "candid@@": 9604,
    "tudes": 9605,
    "circ@@": 9606,
    "σ@@": 9607,
    "parois@@": 9608,
    "Sén@@": 9609,
    "adel@@": 9610,
    "ś@@": 9611,
    "éh@@": 9612,
    "└@@": 9613,
    "Fré@@": 9614,
    "Tok@@": 9615,
    "Tib@@": 9616,
    "égal": 9617,
    "inois": 9618,
    "В@@": 9619,
    "péci@@": 9620,
    "isées": 9621,
    "professionn@@": 9622,
    "Carol@@": 9623,
    "pê@@": 9624,
    "concer@@": 9625,
    "Catal@@": 9626,
    "tâ@@": 9627,
    "droi@@": 9628,
    "kilom@@": 9629,
    "ue@@": 9630,
    "Vl@@": 9631,
    "Jack@@": 9632,
    "Alg@@": 9633,
    "joint": 9634,
    "Bourg@@": 9635,
    "Class@@": 9636,
    "ône": 9637,
    "tur": 9638,
    "Hô@@": 9639,
    "issions": 9640,
    "gique": 9641,
    "empor@@": 9642,
    "ril@@": 9643,
    "Isra@@": 9644,
    "siè@@": 9645,
    "public@@": 9646,
    "anni@@": 9647,
    "sovi@@": 9648,
    "tré@@": 9649,
    "ù": 9650,
    "gar": 9651,
    "Nation@@": 9652,
    "construi@@": 9653,
    "ر@@": 9654,
    "н": 9655,
    "emble": 9656,
    "Jé@@": 9657,
    "even": 9658,
    "play@@": 9659,
    "μ@@": 9660,
    "esco": 9661,
    "puis@@": 9662,
    "mile": 9663,
    "onneur": 9664,
    "diam@@": 9665,
    "octo@@": 9666,
    "NF@@": 9667,
    "nombr@@": 9668,
    "Fried@@": 9669,
    "Ō@@": 9670,
    "و@@": 9671,
    "auche": 9672,
    "anterie": 9673,
    "incen@@": 9674,
    "coph@@": 9675,
    "achnologie": 9676,
    "²": 9677,
    "voyag@@": 9678,
    "princip@@": 9679,
    "ètres": 9680,
    "encyclop@@": 9681,
    "ě@@": 9682,
    "êts": 9683,
    "canadi@@": 9684,
    "&@@": 9685,
    "Angl@@": 9686,
    "ults": 9687,
    "Galli@@": 9688,
    "excl@@": 9689,
    "inaison": 9690,
    "peu@@": 9691,
    "renseign@@": 9692,
    "ī@@": 9693,
    "asses": 9694,
    "vérifi@@": 9695,
    "jap@@": 9696,
    "flex@@": 9697,
    "igh": 9698,
    "Wikis@@": 9699,
    "chiff@@": 9700,
    "cou": 9701,
    "Ander@@": 9702,
    "prol@@": 9703,
    "satelli@@": 9704,
    "cellu@@": 9705,
    "Norm@@": 9706,
    "ш@@": 9707,
    "∂": 9708,
    "ν": 9709,
    "@": 9710,
    "ɔ@@": 9711,
    "board": 9712,
    "suéd@@": 9713,
    "stat@@": 9714,
    "orbi@@": 9715,
    "pereur": 9716,
    "š": 9717,
    "norvégi@@": 9718,
    "sieur": 9719,
    "Č@@": 9720,
    "vais@@": 9721,
    "avant@@": 9722,
    "lisabeth": 9723,
    "ć@@": 9724,
    "How@@": 9725,
    "tice": 9726,
    "istère": 9727,
    "Philip@@": 9728,
    "Phili@@": 9729,
    "itre": 9730,
    "ork": 9731,
    "ب@@": 9732,
    "Б@@": 9733,
    "entifi@@": 9734,
    "asi": 9735,
    "import@@": 9736,
    "échal": 9737,
    "aptis@@": 9738,
    "sécu@@": 9739,
    "entielle": 9740,
    "Élec@@": 9741,
    "Allem@@": 9742,
    "∈": 9743,
    "propr@@": 9744,
    "empr@@": 9745,
    "oiles": 9746,
    "suiv@@": 9747,
    "Labor@@": 9748,
    "vict@@": 9749,
    "ît": 9750,
    "révoluti@@": 9751,
    "Ox@@": 9752,
    "évol@@": 9753,
    "arrond@@": 9754,
    "Cali@@": 9755,
    "garo": 9756,
    "classi@@": 9757,
    "ueil": 9758,
    "sept@@": 9759,
    "Cler@@": 9760,
    "anisation": 9761,
    "tenti@@": 9762,
    "apparti@@": 9763,
    "р": 9764,
    "magni@@": 9765,
    "hel@@": 9766,
    "devi@@": 9767,
    "Ç@@": 9768,
    "nées": 9769,
    "memb@@": 9770,
    "rop@@": 9771,
    "grès": 9772,
    "conseill@@": 9773,
    "ń": 9774,
    "visions": 9775,
    "positif": 9776,
    "ergie": 9777,
    "lises": 9778,
    "kil@@": 9779,
    "produi@@": 9780,
    "ą@@": 9781,
    "aucoup": 9782,
    "mach@@": 9783,
    "BI": 9784,
    "È@@": 9785,
    "caract@@": 9786,
    "bes@@": 9787,
    "dioc@@": 9788,
    "tribun@@": 9789,
    "leaux": 9790,
    "recens@@": 9791,
    "ogle": 9792,
    "ramme": 9793,
    "Anto@@": 9794,
    "tudi@@": 9795,
    "blesse": 9796,
    "ă": 9797,
    "Н@@": 9798,
    "Alex@@": 9799,
    "recommand@@": 9800,
    "ference": 9801,
    "π@@": 9802,
    "pseu@@": 9803,
    "Virgin@@": 9804,
    "drap@@": 9805,
    "hui@@": 9806,
    "autés": 9807,
    "cito@@": 9808,
    "т": 9809,
    "démique": 9810,
    "gles": 9811,
    "lov@@": 9812,
    "Isab@@": 9813,
    "John@@": 9814,
    "Colomb@@": 9815,
    "épr@@": 9816,
    "autique": 9817,
    "ж@@": 9818,
    "bomb@@": 9819,
    "ý": 9820,
    "ț@@": 9821,
    "grap@@": 9822,
    "ouvent": 9823,
    "Fay@@": 9824,
    "métr@@": 9825,
    "portug@@": 9826,
    "avoc@@": 9827,
    "scru@@": 9828,
    "entifier": 9829,
    "Chic@@": 9830,
    "issance": 9831,
    "Provin@@": 9832,
    "tion@@": 9833,
    "π": 9834,
    "plement": 9835,
    "Publish@@": 9836,
    "réfu@@": 9837,
    "æ": 9838,
    "я@@": 9839,
    "statis@@": 9840,
    "torat": 9841,
    "enle@@": 9842,
    "â": 9843,
    "ч": 9844,
    "certai@@": 9845,
    "manuel": 9846,
    "ä": 9847,
    "consid@@": 9848,
    "`": 9849,
    "intro@@": 9850,
    "β": 9851,
    "ôles": 9852,
    "⋅": 9853,
    "ulations": 9854,
    "réqu@@": 9855,
    "Acad@@": 9856,
    "199@@": 9857,
    "î": 9858,
    "$@@": 9859,
    "peti@@": 9860,
    "θ": 9861,
    "Gouvern@@": 9862,
    "х@@": 9863,
    "И@@": 9864,
    "laire": 9865,
    "édrale": 9866,
    "II@@": 9867,
    "ş@@": 9868,
    "Г@@": 9869,
    "attan": 9870,
    "tié": 9871,
    "dget": 9872,
    "º": 9873,
    "Д@@": 9874,
    "ɛ@@": 9875,
    "GC": 9876,
    "seign@@": 9877,
    "évê@@": 9878,
    "Wik@@": 9879,
    "cath@@": 9880,
    "gueur": 9881,
    "volu@@": 9882,
    "éon": 9883,
    "Aca@@": 9884,
    "Commun@@": 9885,
    "exempl@@": 9886,
    "cyc@@": 9887,
    "η@@": 9888,
    "Œ@@": 9889,
    "comport@@": 9890,
    "cél@@": 9891,
    "fav@@": 9892,
    "automobi@@": 9893,
    "ā": 9894,
    "Consul@@": 9895,
    "ð@@": 9896,
    "cisme": 9897,
    "itime": 9898,
    "dépu@@": 9899,
    "erres": 9900,
    "réussi@@": 9901,
    "Arth@@": 9902,
    "XI@@": 9903,
    "ن@@": 9904,
    "ί@@": 9905,
    "orig@@": 9906,
    "ú": 9907,
    "й@@": 9908,
    "イ@@": 9909,
    "ь": 9910,
    "ww@@": 9911,
    "ź": 9912,
    "probl@@": 9913,
    "otion": 9914,
    "aéron@@": 9915,
    "niv@@": 9916,
    "λ": 9917,
    "ż@@": 9918,
    "lv@@": 9919,
    "Stéph@@": 9920,
    "accu@@": 9921,
    "pét@@": 9922,
    "mat": 9923,
    "ò": 9924,
    "dirige@@": 9925,
    "Mém@@": 9926,
    "rid": 9927,
    "interpr@@": 9928,
    "erine": 9929,
    "Dat@@": 9930,
    "dui@@": 9931,
    "band@@": 9932,
    "ego": 9933,
    "к": 9934,
    "citoy@@": 9935,
    "département@@": 9936,
    "WW@@": 9937,
    "§": 9938,
    "Soph@@": 9939,
    "F1": 9940,
    "у": 9941,
    "Éco@@": 9942,
    "jets": 9943,
    "abord@@": 9944,
    "olin": 9945,
    "Jim@@": 9946,
    "allée": 9947,
    "Ž@@": 9948,
    "・": 9949,
    "∑": 9950,
    "Â@@": 9951,
    "encyclopédi@@": 9952,
    "isseau": 9953,
    "sar": 9954,
    "Œu@@": 9955,
    "Présid@@": 9956,
    "pagno@@": 9957,
    "О@@": 9958,
    "ègre": 9959,
    "douard": 9960,
    "derni@@": 9961,
    "intitu@@": 9962,
    "PL": 9963,
    "exhaus@@": 9964,
    "—@@": 9965,
    "stitution": 9966,
    "apol@@": 9967,
    "س@@": 9968,
    "work": 9969,
    "大@@": 9970,
    "ة": 9971,
    "ancy": 9972,
    "ö": 9973,
    "ن": 9974,
    "´": 9975,
    "eball": 9976,
    "erry": 9977,
    "letin": 9978,
    "μ": 9979,
    "non@@": 9980,
    "agnes": 9981,
    "Т@@": 9982,
    "д": 9983,
    "nologie": 9984,
    "World@@": 9985,
    "xemb@@": 9986,
    "ά@@": 9987,
    "péd@@": 9988,
    "ы": 9989,
    "ò@@": 9990,
    "duit": 9991,
    "SN": 9992,
    "Cat": 9993,
    "υ@@": 9994,
    "ourne": 9995,
    "γ@@": 9996,
    "ob": 9997,
    "bless@@": 9998,
    "Enter@@": 9999,
    "ètement": 10000,
    "ス@@": 10001,
    "ğ@@": 10002,
    "ê": 10003,
    "ع@@": 10004,
    "jard@@": 10005,
    "mouv@@": 10006,
    "Féli@@": 10007,
    "Aug@@": 10008,
    "secré@@": 10009,
    "ω": 10010,
    "fred": 10011,
    "ラ@@": 10012,
    "δ@@": 10013,
    "ı": 10014,
    "198@@": 10015,
    "ル@@": 10016,
    "oppe": 10017,
    "Barcel@@": 10018,
    "strat@@": 10019,
    "absol@@": 10020,
    "nécess@@": 10021,
    "navig@@": 10022,
    "discus@@": 10023,
    "∞": 10024,
    "pron@@": 10025,
    "ypte": 10026,
    "∗": 10027,
    "rejo@@": 10028,
    "//": 10029,
    "osl@@": 10030,
    "évrier": 10031,
    "Libr@@": 10032,
    "د@@": 10033,
    "cipa@@": 10034,
    "Ü@@": 10035,
    "anger@@": 10036,
    "mina": 10037,
    "vière": 10038,
    "û": 10039,
    "ό@@": 10040,
    "éter": 10041,
    "élè@@": 10042,
    "ա@@": 10043,
    "σ": 10044,
    "compéti@@": 10045,
    "idata": 10046,
    "atory": 10047,
    "リ@@": 10048,
    "réguli@@": 10049,
    "inture": 10050,
    "Mathi@@": 10051,
    "ي": 10052,
    "érieur": 10053,
    "étrang@@": 10054,
    "Ê@@": 10055,
    "Lew@@": 10056,
    "ī": 10057,
    "ッ@@": 10058,
    "É": 10059,
    "ditions": 10060,
    "Whi@@": 10061,
    "dinal": 10062,
    "Л@@": 10063,
    "levard": 10064,
    "ennement": 10065,
    "ympi@@": 10066,
    "conce@@": 10067,
    "Amphi@@": 10068,
    "č": 10069,
    "sélec@@": 10070,
    "fense": 10071,
    "tish": 10072,
    "ː": 10073,
    "espa@@": 10074,
    "tième": 10075,
    "Napol@@": 10076,
    "ф@@": 10077,
    "190@@": 10078,
    "м": 10079,
    "décid@@": 10080,
    "Wrest@@": 10081,
    "ence@@": 10082,
    "Charl@@": 10083,
    "γ": 10084,
    "́": 10085,
    "emple": 10086,
    "dici@@": 10087,
    "cipe": 10088,
    "righ@@": 10089,
    "∫": 10090,
    "≤": 10091,
    "rar@@": 10092,
    "monast@@": 10093,
    "õ@@": 10094,
    "ρ": 10095,
    "ω@@": 10096,
    "ý@@": 10097,
    "sat@@": 10098,
    "ì": 10099,
    "édia": 10100,
    "ß": 10101,
    "Frédé@@": 10102,
    "archev@@": 10103,
    "éric@@": 10104,
    "±": 10105,
    "ferrovi@@": 10106,
    "raine": 10107,
    "ح@@": 10108,
    "owa": 10109,
    "ogramme": 10110,
    "êque": 10111,
    "ア@@": 10112,
    "espagno@@": 10113,
    "φ": 10114,
    "Quel@@": 10115,
    "worl@@": 10116,
    ";@@": 10117,
    "rième": 10118,
    "crit@@": 10119,
    "Navi@@": 10120,
    "¯": 10121,
    "Đ@@": 10122,
    "âteaux": 10123,
    "dération": 10124,
    "►": 10125,
    "ē@@": 10126,
    "đ@@": 10127,
    "י@@": 10128,
    "film@@": 10129,
    "détaill@@": 10130,
    "л": 10131,
    "Barbar@@": 10132,
    "quième": 10133,
    "Americ@@": 10134,
    "Δ@@": 10135,
    "Ś@@": 10136,
    "Colle@@": 10137,
    "Autri@@": 10138,
    "glom@@": 10139,
    "͡": 10140,
    "Æ@@": 10141,
    "premi@@": 10142,
    "і@@": 10143,
    "Francis@@": 10144,
    "pétologie": 10145,
    "olympi@@": 10146,
    "ridge": 10147,
    "contres": 10148,
    "έ@@": 10149,
    "Giov@@": 10150,
    "améric@@": 10151,
    "◄": 10152,
    "◄@@": 10153,
    "coles": 10154,
    "<@@": 10155,
    "ü": 10156,
    "►@@": 10157,
    "い@@": 10158,
    "Als@@": 10159,
    "clé@@": 10160,
    "ritan@@": 10161,
    "Δ": 10162,
    "ő@@": 10163,
    "Meill@@": 10164,
    "versity": 10165,
    "ト@@": 10166,
    "astie": 10167,
    "agas@@": 10168,
    "mard": 10169,
    "х": 10170,
    "Å@@": 10171,
    "د": 10172,
    "èces": 10173,
    "secon@@": 10174,
    "éclip@@": 10175,
    "rm": 10176,
    "Ż@@": 10177,
    "Hél@@": 10178,
    "Uk@@": 10179,
    "ت@@": 10180,
    "195@@": 10181,
    "uscri@@": 10182,
    "éron@@": 10183,
    "atement": 10184,
    "187@@": 10185,
    "ו@@": 10186,
    "^": 10187,
    "ε": 10188,
    "ț": 10189,
    "日@@": 10190,
    "SNC@@": 10191,
    "ources": 10192,
    "ł": 10193,
    "ク@@": 10194,
    "ر": 10195,
    "DV@@": 10196,
    "ansons": 10197,
    "185@@": 10198,
    "oupes": 10199,
    "placement": 10200,
    "traver@@": 10201,
    "perform@@": 10202,
    "ml": 10203,
    "η": 10204,
    "Portug@@": 10205,
    "ancs": 10206,
    "197@@": 10207,
    "Tay@@": 10208,
    "„": 10209,
    "ə@@": 10210,
    "–@@": 10211,
    "ー": 10212,
    "sule": 10213,
    "étu@@": 10214,
    "disponi@@": 10215,
    "~@@": 10216,
    "apes": 10217,
    "@@@": 10218,
    "véc@@": 10219,
    ">@@": 10220,
    "jà": 10221,
    "alerie": 10222,
    "£": 10223,
    "Champions@@": 10224,
    "ン": 10225,
    "ɛ": 10226,
    "choisi@@": 10227,
    "uela": 10228,
    "Ó@@": 10229,
    "θ@@": 10230,
    "δ": 10231,
    "Е@@": 10232,
    "Nap@@": 10233,
    "193@@": 10234,
    "タ@@": 10235,
    "ف@@": 10236,
    "ocrate": 10237,
    "な@@": 10238,
    "シ@@": 10239,
    "Herz@@": 10240,
    "と@@": 10241,
    "accompli@@": 10242,
    "Marse@@": 10243,
    "blioth@@": 10244,
    "ロ@@": 10245,
    "deaux": 10246,
    "З@@": 10247,
    "ج@@": 10248,
    "‖": 10249,
    "å": 10250,
    "moder@@": 10251,
    "њ@@": 10252,
    "gr": 10253,
    "た@@": 10254,
    "196@@": 10255,
    "catholi@@": 10256,
    "ș": 10257,
    "ј@@": 10258,
    "レ@@": 10259,
    "с": 10260,
    "Muni@@": 10261,
    "énom@@": 10262,
    "paravant": 10263,
    "中@@": 10264,
    "ι": 10265,
    "Prov@@": 10266,
    "agglom@@": 10267,
    "ジ@@": 10268,
    "Ω": 10269,
    "本@@": 10270,
    "grois": 10271,
    "lor": 10272,
    "‍": 10273,
    "Vers@@": 10274,
    "Franç@@": 10275,
    "マ@@": 10276,
    "Formu@@": 10277,
    "φ@@": 10278,
    "、": 10279,
    "Ú@@": 10280,
    "ق@@": 10281,
    "Youn@@": 10282,
    "perfor@@": 10283,
    "に@@": 10284,
    "ϕ": 10285,
    "ю@@": 10286,
    "У@@": 10287,
    "foot@@": 10288,
    "sormais": 10289,
    "poni@@": 10290,
    "doll@@": 10291,
    "186@@": 10292,
    "cime@@": 10293,
    "İ@@": 10294,
    "èr@@": 10295,
    "moi@@": 10296,
    "onaise": 10297,
    "Bio": 10298,
    "tionary": 10299,
    "onnat": 10300,
    "し@@": 10301,
    "ywood": 10302,
    "人@@": 10303,
    "Vladi@@": 10304,
    "scul@@": 10305,
    "ì@@": 10306,
    "χ@@": 10307,
    "Ф@@": 10308,
    "Secon@@": 10309,
    "organ@@": 10310,
    "Québ@@": 10311,
    "natu@@": 10312,
    "cyclop@@": 10313,
    "ύ@@": 10314,
    "љ@@": 10315,
    "Phi@@": 10316,
    "τ": 10317,
[...]
