{
    "<s>": 0,
    "<pad>": 1,
    "</s>": 2,
    "<unk>": 3,
    ".": 4,
    ",": 5,
    "der": 6,
    "und": 7,
    ")": 8,
    "(": 9,
    "in": 10,
    ":": 11,
    "die": 12,
    "von": 13,
    "den": 14,
    "des": 15,
    "er": 16,
    "im": 17,
    "mit": 18,
    "Die": 19,
    "ist": 20,
    "dem": 21,
    "an": 22,
    "wurde": 23,
    "für": 24,
    "auf": 25,
    "am": 26,
    "das": 27,
    "als": 28,
    "zu": 29,
    "ein": 30,
    "-@@": 31,
    "eine": 32,
    "es": 33,
    "en": 34,
    "s": 35,
    "sich": 36,
    "e": 37,
    "a": 38,
    "war": 39,
    "s@@": 40,
    "k@@": 41,
    "t": 42,
    "S@@": 43,
    "en@@": 44,
    "er@@": 45,
    "aus": 46,
    "t@@": 47,
    "–": 48,
    "ten": 49,
    "“": 50,
    "In": 51,
    "„": 52,
    "Der": 53,
    "bei": 54,
    "n@@": 55,
    "B@@": 56,
    "bis": 57,
    "b@@": 58,
    "auch": 59,
    "nach": 60,
    "g@@": 61,
    "st@@": 62,
    "P@@": 63,
    "K@@": 64,
    "L@@": 65,
    "o": 66,
    "T@@": 67,
    "m@@": 68,
    "an@@": 69,
    "c@@": 70,
    "f@@": 71,
    "N@@": 72,
    "i": 73,
    "te": 74,
    "z@@": 75,
    "be@@": 76,
    "H@@": 77,
    "de": 78,
    "1": 79,
    "d@@": 80,
    "einer": 81,
    "ver@@": 82,
    "D@@": 83,
    ";": 84,
    "-": 85,
    "zum": 86,
    "G@@": 87,
    "F@@": 88,
    "um": 89,
    "C@@": 90,
    "A@@": 91,
    "ischen": 92,
    "W@@": 93,
    "sch@@": 94,
    "ung": 95,
    "y": 96,
    "p@@": 97,
    "e@@": 98,
    "M@@": 99,
    "R@@": 100,
    "E@@": 101,
    "2": 102,
    "of": 103,
    "a@@": 104,
    "sie": 105,
    "l@@": 106,
    "ge@@": 107,
    "ische": 108,
    "in@@": 109,
    "nicht": 110,
    "h@@": 111,
    "ar@@": 112,
    "o@@": 113,
    "Das": 114,
    "y@@": 115,
    "d": 116,
    "zur": 117,
    "al@@": 118,
    "durch": 119,
    "vom": 120,
    "St@@": 121,
    "un@@": 122,
    "über": 123,
    "w@@": 124,
    "einem": 125,
    "I@@": 126,
    ".@@": 127,
    "i@@": 128,
    "werden": 129,
    "*": 130,
    "einen": 131,
    "sind": 132,
    "v@@": 133,
    "ab@@": 134,
    "S.": 135,
    "wird": 136,
    "O@@": 137,
    "on": 138,
    "An@@": 139,
    "Ver@@": 140,
    "ch@@": 141,
    "|": 142,
    "ent@@": 143,
    "on@@": 144,
    "n": 145,
    "Sch@@": 146,
    "ISBN": 147,
    "ter": 148,
    "oder": 149,
    "V@@": 150,
    "al": 151,
    "Im": 152,
    "3": 153,
    "re@@": 154,
    "/@@": 155,
    "Z@@": 156,
    "ein@@": 157,
    "el@@": 158,
    "r@@": 159,
    "us": 160,
    "u@@": 161,
    "m": 162,
    "{": 163,
    "}": 164,
    "li@@": 165,
    "or@@": 166,
    "S": 167,
    "4": 168,
    "de@@": 169,
    "it@@": 170,
    "ungen": 171,
    "gen": 172,
    "l": 173,
    "abgerufen": 174,
    "wurden": 175,
    "z": 176,
    "Be@@": 177,
    "Re@@": 178,
    "j@@": 179,
    "5": 180,
    "ischer": 181,
    "and": 182,
    "Ab@@": 183,
    "unter": 184,
    "at@@": 185,
    "J@@": 186,
    "ing": 187,
    "aus@@": 188,
    "sp@@": 189,
    "is@@": 190,
    "dass": 191,
    "ge": 192,
    "ern": 193,
    "g": 194,
    "lich": 195,
    "ck@@": 196,
    "el": 197,
    "st": 198,
    "6": 199,
    "Er": 200,
    "vor": 201,
    "Er@@": 202,
    "di@@": 203,
    "3@@": 204,
    "ler": 205,
    "isch": 206,
    "U@@": 207,
    "et@@": 208,
    "um@@": 209,
    "Jahr": 210,
    "7": 211,
    "noch": 212,
    "ungs@@": 213,
    "ro@@": 214,
    "8": 215,
    "th@@": 216,
    "k": 217,
    "wie": 218,
    "the": 219,
    "The": 220,
    "liche": 221,
    "am@@": 222,
    "ar": 223,
    "ra@@": 224,
    "Ein@@": 225,
    "auf@@": 226,
    "ur@@": 227,
    "le": 228,
    "Vor@@": 229,
    "ber@@": 230,
    "ger@@": 231,
    "gen@@": 232,
    "h": 233,
    "ri@@": 234,
    "4@@": 235,
    "lichen": 236,
    "u": 237,
    "9": 238,
    "Aus@@": 239,
    "A": 240,
    "nur": 241,
    "ut@@": 242,
    "la@@": 243,
    "sowie": 244,
    "ie": 245,
    "ti@@": 246,
    "ä@@": 247,
    "ation": 248,
    "Ch@@": 249,
    "Jahre": 250,
    "il@@": 251,
    "5@@": 252,
    "seiner": 253,
    "vor@@": 254,
    "au@@": 255,
    "ss@@": 256,
    "ol@@": 257,
    "at": 258,
    "as": 259,
    "ad@@": 260,
    "om@@": 261,
    "ab": 262,
    "eines": 263,
    "Mar@@": 264,
    "ger": 265,
    "em@@": 266,
    "ens@@": 267,
    "seine": 268,
    "16@@": 269,
    "über@@": 270,
    "Nach": 271,
    "englisch": 272,
    "0": 273,
    "ter@@": 274,
    "18@@": 275,
    "9@@": 276,
    "Januar": 277,
    "hat": 278,
    "aber": 279,
    "as@@": 280,
    "Band": 281,
    "15@@": 282,
    "0@@": 283,
    "man": 284,
    "der@@": 285,
    "6@@": 286,
    "sten": 287,
    "es@@": 288,
    "10@@": 289,
    "us@@": 290,
    "hatte": 291,
    "os": 292,
    "7@@": 293,
    "Sp@@": 294,
    "Sie": 295,
    "ende": 296,
    "le@@": 297,
    "zu@@": 298,
    "ers": 299,
    "zwei": 300,
    "August": 301,
    "ot@@": 302,
    "si@@": 303,
    "Oktober": 304,
    "ul@@": 305,
    "2016": 306,
    "März": 307,
    "Al@@": 308,
    "den@@": 309,
    "ie@@": 310,
    "ten@@": 311,
    "8@@": 312,
    "sk@@": 313,
    "Stadt": 314,
    "Mai": 315,
    "13@@": 316,
    "2015": 317,
    "Dezember": 318,
    "enden": 319,
    "zwischen": 320,
    "2017": 321,
    "ag@@": 322,
    "In@@": 323,
    "’": 324,
    "17@@": 325,
    "September": 326,
    "is": 327,
    "14@@": 328,
    "2014": 329,
    "12@@": 330,
    "os@@": 331,
    "2013": 332,
    "2011": 333,
    "waren": 334,
    "op@@": 335,
    "Juni": 336,
    "qu@@": 337,
    "mann": 338,
    "2012": 339,
    "mi@@": 340,
    "ei@@": 341,
    "f": 342,
    "deutscher": 343,
    "ir@@": 344,
    "2018": 345,
    "Juli": 346,
    "sein": 347,
    "Berlin": 348,
    "ert": 349,
    "3-@@": 350,
    "November": 351,
    "gegen": 352,
    "April": 353,
    "et": 354,
    "ak@@": 355,
    "eg@@": 356,
    "2@@": 357,
    "Ober@@": 358,
    "2010": 359,
    "gel@@": 360,
    "ap@@": 361,
    "or": 362,
    "Jahren": 363,
    "p": 364,
    "ens": 365,
    "da": 366,
    "dieser": 367,
    "&": 368,
    "Se@@": 369,
    "é@@": 370,
    "ke": 371,
    "b": 372,
    "ö@@": 373,
    "De@@": 374,
    "Am": 375,
    "ch": 376,
    "seit": 377,
    "ck": 378,
    "Februar": 379,
    "Ma@@": 380,
    "Zeit": 381,
    "Es": 382,
    "te@@": 383,
    "r": 384,
    "ste": 385,
    "ner": 386,
    "ac@@": 387,
    "–@@": 388,
    "lo@@": 389,
    "ben": 390,
    "lin@@": 391,
    "chen": 392,
    "so": 393,
    "2009": 394,
    "all@@": 395,
    "ia": 396,
    "unter@@": 397,
    ".de": 398,
    "Ge@@": 399,
    "x": 400,
    "ts@@": 401,
    "ne@@": 402,
    "2008": 403,
    "ig@@": 404,
    "dann": 405,
    "mehr": 406,
    "Auf@@": 407,
    "Ber@@": 408,
    "ph@@": 409,
    "ersten": 410,
    "iert": 411,
    "=": 412,
    "Bau@@": 413,
    "e-@@": 414,
    "x@@": 415,
    "ts": 416,
    "†": 417,
    "c": 418,
    "Abgerufen": 419,
    "Kon@@": 420,
    "ok@@": 421,
    "ale": 422,
    "2007": 423,
    "jedoch": 424,
    "enk@@": 425,
    "land": 426,
    "ü@@": 427,
    "Hrsg": 428,
    "au": 429,
    "eh@@": 430,
    "im@@": 431,
    "berg": 432,
    "Bo@@": 433,
    "ien": 434,
    "Unter@@": 435,
    "ach@@": 436,
    "and@@": 437,
    "ik@@": 438,
    "etwa": 439,
    "1.": 440,
    "\\@@": 441,
    "drei": 442,
    "hr@@": 443,
    "Ro@@": 444,
    "her@@": 445,
    "Verlag": 446,
    "%": 447,
    "Gemeinde": 448,
    "Ein": 449,
    "ed@@": 450,
    "ist@@": 451,
    "ob@@": 452,
    "ine": 453,
    "end": 454,
    "wieder": 455,
    "beim": 456,
    "Th@@": 457,
    "tet": 458,
    "2006": 459,
    "Ar@@": 460,
    "ic@@": 461,
    "ier@@": 462,
    "ell@@": 463,
    "Geschichte": 464,
    "Neu@@": 465,
    "gt": 466,
    "av@@": 467,
    "Mon@@": 468,
    "Deutschland": 469,
    "ne": 470,
    "elle": 471,
    "ent": 472,
    "od@@": 473,
    ",@@": 474,
    "to": 475,
    "Y@@": 476,
    "kann": 477,
    "Von": 478,
    "Als": 479,
    "ern@@": 480,
    "I": 481,
    "Land@@": 482,
    "seinem": 483,
    "ru@@": 484,
    "ep@@": 485,
    "sen": 486,
    "schaft": 487,
    "enb@@": 488,
    "tes": 489,
    "a-@@": 490,
    "O": 491,
    "Teil": 492,
    "ur": 493,
    "2005": 494,
    "ant@@": 495,
    "Sammlung": 496,
    "ken": 497,
    "id@@": 498,
    "eb@@": 499,
    "seinen": 500,
    "kon@@": 501,
    "diese": 502,
    "sh@@": 503,
    "Un@@": 504,
    "ihre": 505,
    "ce": 506,
    "B": 507,
    "liegt": 508,
    "''": 509,
    "enen": 510,
    "ov@@": 511,
    "Normdaten": 512,
    "später": 513,
    "Con@@": 514,
    "Bei": 515,
    "ik": 516,
    "Mit": 517,
    "0-@@": 518,
    "fen": 519,
    "ster": 520,
    "enz@@": 521,
    "Her@@": 522,
    "Universität": 523,
    "[": 524,
    "]": 525,
    "ig": 526,
    "ill@@": 527,
    "``": 528,
    "enn@@": 529,
    "Ende": 530,
    "Kirche": 531,
    "gesch@@": 532,
    "se": 533,
    "N": 534,
    "än@@": 535,
    "ow@@": 536,
    "len": 537,
    "@": 538,
    "gew@@": 539,
    "wo": 540,
    "en-@@": 541,
    "erte": 542,
    "geb@@": 543,
    "C": 544,
    "Haupt@@": 545,
    "ker": 546,
    "Über@@": 547,
    "licher": 548,
    "em": 549,
    "New": 550,
    "El@@": 551,
    "ca": 552,
    "og@@": 553,
    "ers@@": 554,
    "isches": 555,
    "heute": 556,
    "Um@@": 557,
    "burg": 558,
    "München": 559,
    "ing@@": 560,
    "Bildern": 561,
    "ran@@": 562,
    "Mo@@": 563,
    "Eine": 564,
    "be": 565,
    "2004": 566,
    "eren": 567,
    "Car@@": 568,
    "Pro@@": 569,
    "1-@@": 570,
    ".com": 571,
    "ene": 572,
    "1@@": 573,
    "schen": 574,
    "erste": 575,
    "ast@@": 576,
    "er-@@": 577,
    "/": 578,
    "Qu@@": 579,
    "Stadt@@": 580,
    "man@@": 581,
    "Person": 582,
    "ell": 583,
    "haben": 584,
    "stand": 585,
    "Commons": 586,
    "end@@": 587,
    "me": 588,
    "Bundes@@": 589,
    "ges": 590,
    "alle": 591,
    "erung": 592,
    "ins": 593,
    "Par@@": 594,
    "10": 595,
    "20@@": 596,
    "ali@@": 597,
    "kt": 598,
    "Nr.": 599,
    "L": 600,
    "ihm": 601,
    "ard": 602,
    "Internet": 603,
    "ster@@": 604,
    "D": 605,
    "und@@": 606,
    "Platz": 607,
    "ierte": 608,
    "Videos": 609,
    "wer@@": 610,
    "Nach@@": 611,
    "00@@": 612,
    "Co@@": 613,
    "zi@@": 614,
    "Deutschen": 615,
    "ff@@": 616,
    "ann@@": 617,
    "kam": 618,
    "R": 619,
    "konnte": 620,
    "lei@@": 621,
    "deutschen": 622,
    "bo@@": 623,
    "Audiodateien": 624,
    "ellen": 625,
    "Man@@": 626,
    "af@@": 627,
    "Kar@@": 628,
    "Jahrhundert": 629,
    "verb@@": 630,
    "diesen": 631,
    "pro@@": 632,
    "AKS": 633,
    "pf@@": 634,
    "se@@": 635,
    "Sh@@": 636,
    "2000": 637,
    "lan@@": 638,
    "ihrer": 639,
    "igen": 640,
    "Le@@": 641,
    "2003": 642,
    "est@@": 643,
    "dessen": 644,
    "är@@": 645,
    "re": 646,
    "Am@@": 647,
    "rei@@": 648,
    "Süd@@": 649,
    "VIAF": 650,
    "tung": 651,
    "kt@@": 652,
    "Bar@@": 653,
    "ra": 654,
    "amm@@": 655,
    "Wikipedia-Personensuche": 656,
    "II": 657,
    "2001": 658,
    "anderen": 659,
    "bereits": 660,
    "ed": 661,
    "vier": 662,
    "eu@@": 663,
    "GND": 664,
    "ige": 665,
    "P": 666,
    "ib@@": 667,
    "En@@": 668,
    "2002": 669,
    "men": 670,
    "ati@@": 671,
    "ß": 672,
    "sche": 673,
    "X@@": 674,
    "11@@": 675,
    "dort": 676,
    "Frei@@": 677,
    "19.": 678,
    "alen": 679,
    "\\displaystyle": 680,
    "tz@@": 681,
    "min@@": 682,
    "1–@@": 683,
    "19@@": 684,
    "rä@@": 685,
    "ang@@": 686,
    "gab": 687,
    "Landes@@": 688,
    "Ha@@": 689,
    "Diese": 690,
    "tra@@": 691,
    "Or@@": 692,
    "ihn": 693,
    "dern": 694,
    "gel": 695,
    "während": 696,
    "He@@": 697,
    "ün@@": 698,
    "gibt": 699,
    "w": 700,
    "Ad@@": 701,
    "oli@@": 702,
    "Seite": 703,
    "20": 704,
    "Zu@@": 705,
    "ot": 706,
    "können": 707,
    "erk@@": 708,
    "cht": 709,
    "2-@@": 710,
    "zeit": 711,
    "ologie": 712,
    "22@@": 713,
    "ere": 714,
    "ho@@": 715,
    "Ger@@": 716,
    "Wei@@": 717,
    "bach": 718,
    "200@@": 719,
    "eng@@": 720,
    "ihr": 721,
    "E": 722,
    "wei@@": 723,
    "G": 724,
    "Gra@@": 725,
    "201@@": 726,
    "il": 727,
    "ationen": 728,
    "rau@@": 729,
    "az@@": 730,
    "Nord@@": 731,
    "pp@@": 732,
    "24@@": 733,
    "-B@@": 734,
    "ien@@": 735,
    "ber": 736,
    "Mor@@": 737,
    "ah@@": 738,
    "beiden": 739,
    "So@@": 740,
    "hal@@": 741,
    "Di@@": 742,
    "cken": 743,
    "diesem": 744,
    "stadt": 745,
    "Gu@@": 746,
    "Ur@@": 747,
    "it": 748,
    "erhielt": 749,
    "art@@": 750,
    "Ru@@": 751,
    "Su@@": 752,
    "Friedrich": 753,
    "Spiel@@": 754,
    "20.": 755,
    "Kunst@@": 756,
    ".000": 757,
    "ate": 758,
    "ow": 759,
    "ess@@": 760,
    "he@@": 761,
    "30@@": 762,
    "Film": 763,
    "25@@": 764,
    "deutsche": 765,
    "dung": 766,
    "ons": 767,
    "ß@@": 768,
    "Mitglied": 769,
    "Wien": 770,
    "oc@@": 771,
    "sse": 772,
    "′": 773,
    "ve": 774,
    "ka": 775,
    "sch": 776,
    "T": 777,
    "fe": 778,
    "Auf": 779,
    "Schw@@": 780,
    "M": 781,
    "o-@@": 782,
    "ma@@": 783,
    "t-@@": 784,
    "St.": 785,
    "Seit": 786,
    "del": 787,
    "ft": 788,
    "50": 789,
    "12": 790,
    "Har@@": 791,
    "á@@": 792,
    "gu@@": 793,
    "26@@": 794,
    "ich@@": 795,
    "1999": 796,
    "zen": 797,
    "v": 798,
    "heim": 799,
    "Grund@@": 800,
    "ör@@": 801,
    "Saison": 802,
    "18.": 803,
    "hin@@": 804,
    "ender": 805,
    "PDF": 806,
    "tigen": 807,
    "ad": 808,
    "Politiker": 809,
    "iv@@": 810,
    "nen": 811,
    "Ex@@": 812,
    "gef@@": 813,
    "27@@": 814,
    "ord@@": 815,
    "Peter": 816,
    "ür@@": 817,
    "ay@@": 818,
    "6-@@": 819,
    "°": 820,
    "15": 821,
    "la": 822,
    "mar@@": 823,
    "Lin@@": 824,
    "det": 825,
    "tete": 826,
    "Groß@@": 827,
    "F": 828,
    "Lu@@": 829,
    "kan@@": 830,
    "feld": 831,
    "5–@@": 832,
    "ick@@": 833,
    "ier": 834,
    "deren": 835,
    "ausge@@": 836,
    "erst@@": 837,
    "Liste": 838,
    "Johann": 839,
    "Sa@@": 840,
    "K": 841,
    "bau": 842,
    "lu@@": 843,
    "che": 844,
    "io": 845,
    "dar@@": 846,
    "8-@@": 847,
    "inn@@": 848,
    "ieren": 849,
    "Ne@@": 850,
    "Auch": 851,
    "?": 852,
    "ass@@": 853,
    "ath@@": 854,
    "gte": 855,
    "keine": 856,
    "_": 857,
    "ic": 858,
    "enz": 859,
    "23@@": 860,
    "haus": 861,
    "ina": 862,
    "Ost@@": 863,
    "Mittel@@": 864,
    "sehr": 865,
    "hier": 866,
    "15.": 867,
    "Mit@@": 868,
    "tt@@": 869,
    "zusammen": 870,
    "185@@": 871,
    "ges@@": 872,
    "statt": 873,
    "u.": 874,
    "ub@@": 875,
    "30": 876,
    "mit@@": 877,
    "1998": 878,
    "enh@@": 879,
    "iss@@": 880,
    "Ort": 881,
    "zurück": 882,
    "me@@": 883,
    "9–@@": 884,
    "steht": 885,
    "damit": 886,
    "cke": 887,
    "kommen": 888,
    "Für": 889,
    "isch@@": 890,
    "2.": 891,
    "Schul@@": 892,
    "Karl": 893,
    "rit@@": 894,
    "5-@@": 895,
    "stein": 896,
    "OGND": 897,
    "Link": 898,
    "ev@@": 899,
    "4-@@": 900,
    "17.": 901,
    "1945": 902,
    "Film@@": 903,
    "16.": 904,
    "werk": 905,
    "ange@@": 906,
    "eingesetzt": 907,
    "Wal@@": 908,
    "äl@@": 909,
    "Archive": 910,
    "ssen": 911,
    "oll@@": 912,
    "ßen": 913,
    "ang": 914,
    "ohne": 915,
    "X": 916,
    "Memento": 917,
    "del@@": 918,
    "14": 919,
    "Namen": 920,
    "bekannt": 921,
    "was": 922,
    "16": 923,
    "Ho@@": 924,
    "ach": 925,
    "For@@": 926,
    "for@@": 927,
    "Hei@@": 928,
    "mer": 929,
    "Sohn": 930,
    "denen": 931,
    "immer": 932,
    "8–@@": 933,
    "mo@@": 934,
    "ihren": 935,
    "13": 936,
    "nahm": 937,
    "off@@": 938,
    "3.": 939,
    "18": 940,
    "iz@@": 941,
    "Auflage": 942,
    "Sk@@": 943,
    "anz@@": 944,
    "bzw.": 945,
    "University": 946,
    "Gr@@": 947,
    "isch-@@": 948,
    "Art": 949,
    "Familie": 950,
    "straße": 951,
    "Bet@@": 952,
    "3–@@": 953,
    "Go@@": 954,
    "schaften": 955,
    "bet@@": 956,
    "rie@@": 957,
    "11": 958,
    "nach@@": 959,
    "4.": 960,
    "Au@@": 961,
    "om": 962,
    "ling": 963,
    "itz": 964,
    "1997": 965,
    "1996": 966,
    "ip@@": 967,
    "s-@@": 968,
    "é": 969,
    "14.": 970,
    "erin": 971,
    "gr@@": 972,
    "befindet": 973,
    "Wilhelm": 974,
    "weitere": 975,
    "ta@@": 976,
    "John": 977,
    "York": 978,
    "Bi@@": 979,
    "teil": 980,
    "zunächst": 981,
    "km": 982,
    "13.": 983,
    "Staats@@": 984,
    "par@@": 985,
    "kte": 986,
    "50@@": 987,
    "Po@@": 988,
    "fer@@": 989,
    "184@@": 990,
    "5.": 991,
    "eln": 992,
    "ci@@": 993,
    "40@@": 994,
    "durch@@": 995,
    "12.": 996,
    "reg@@": 997,
    "Gen@@": 998,
    "ums": 999,
    "son": 1000,
    "Cor@@": 1001,
    "ze": 1002,
    "V": 1003,
    "Pf@@": 1004,
    "enf@@": 1005,
    "ech@@": 1006,
    "1990": 1007,
    "ex@@": 1008,
    "2–@@": 1009,
    "allem": 1010,
    "29@@": 1011,
    "La@@": 1012,
    "West@@": 1013,
    "ierten": 1014,
    "W": 1015,
    "8.": 1016,
    "da@@": 1017,
    "gemäß": 1018,
    "″": 1019,
    "Bur@@": 1020,
    "one": 1021,
    "bar": 1022,
    "Me@@": 1023,
    "schule": 1024,
    "7.": 1025,
    "6.": 1026,
    "worden": 1027,
    "1994": 1028,
    "ierung": 1029,
    "ton": 1030,
    "-D@@": 1031,
    "183@@": 1032,
    "Hoch@@": 1033,
    "US-amerikanischer": 1034,
    "Wil@@": 1035,
    "allen": 1036,
    "zwei@@": 1037,
    "1995": 1038,
    "Reg@@": 1039,
    "trat": 1040,
    "ey": 1041,
    "einge@@": 1042,
    "bau@@": 1043,
    "Nieder@@": 1044,
    "ou@@": 1045,
    "-S@@": 1046,
    "neue": 1047,
    "Kultur@@": 1048,
    "Rei@@": 1049,
    "Jahrhunderts": 1050,
    "Fre@@": 1051,
    "rich@@": 1052,
    "wegen": 1053,
    "begann": 1054,
    "B.": 1055,
    "ktion": 1056,
    "ben@@": 1057,
    "Heinrich": 1058,
    "Hans": 1059,
    "neuen": 1060,
    "ebenfalls": 1061,
    "enst@@": 1062,
    "schw@@": 1063,
    "geschichte": 1064,
    "ies": 1065,
    "tig": 1066,
    "9.": 1067,
    "978-3-@@": 1068,
    "Bu@@": 1069,
    "6–@@": 1070,
    "if@@": 1071,
    "rat@@": 1072,
    "180@@": 1073,
    "selbst": 1074,
    "ung@@": 1075,
    "ation@@": 1076,
    "10.": 1077,
    "Michael": 1078,
    "Verb@@": 1079,
    "uch@@": 1080,
    "Min@@": 1081,
    "mon@@": 1082,
    "Deutsche": 1083,
    "Website": 1084,
    "land@@": 1085,
    "öl@@": 1086,
    "1992": 1087,
    "tern": 1088,
    "11.": 1089,
    "25": 1090,
    "17": 1091,
    "ut": 1092,
    "so@@": 1093,
    "all": 1094,
    "Ka@@": 1095,
    "7–@@": 1096,
    "4–@@": 1097,
    "anderem": 1098,
    "ich": 1099,
    "ost@@": 1100,
    "gebiet": 1101,
    "met@@": 1102,
    "geben": 1103,
    "ort": 1104,
    "for": 1105,
    "oh@@": 1106,
    "heit": 1107,
    "tr@@": 1108,
    "rech@@": 1109,
    "ging": 1110,
    "lung": 1111,
    "Tra@@": 1112,
    "30.": 1113,
    "spielte": 1114,
    "con@@": 1115,
    "Personen": 1116,
    "Berg@@": 1117,
    "ingen": 1118,
    "Kl@@": 1119,
    "Met@@": 1120,
    "erst": 1121,
    "Musik@@": 1122,
    "bel": 1123,
    "9-@@": 1124,
    "44@@": 1125,
    "gl@@": 1126,
    "Paul": 1127,
    "lig@@": 1128,
    "21.": 1129,
    "oren": 1130,
    "Lo@@": 1131,
    "fer": 1132,
    "no@@": 1133,
    "dabei": 1134,
    "1993": 1135,
    "fe@@": 1136,
    "per@@": 1137,
    "vers@@": 1138,
    "ett@@": 1139,
    "1991": 1140,
    "arbeitete": 1141,
    "führte": 1142,
    "33@@": 1143,
    "acht": 1144,
    "25.": 1145,
    "ore": 1146,
    "ma": 1147,
    "-K@@": 1148,
    "Hel@@": 1149,
    "War@@": 1150,
    "rü@@": 1151,
    "28.": 1152,
    "König": 1153,
    "'@@": 1154,
    "J.": 1155,
    "men@@": 1156,
    "Stuttgart": 1157,
    "28@@": 1158,
    "ion@@": 1159,
    "Fl@@": 1160,
    "bezeichnet": 1161,
    "22.": 1162,
    "je@@": 1163,
    "war@@": 1164,
    "Ra@@": 1165,
    "olog@@": 1166,
    "age": 1167,
    "art": 1168,
    "rat": 1169,
    "ron@@": 1170,
    "tel@@": 1171,
    "we@@": 1172,
    "!": 1173,
    "gehörte": 1174,
    "Ent@@": 1175,
    "ct@@": 1176,
    "Leben": 1177,
    "ili@@": 1178,
    "Ta@@": 1179,
    "Sc@@": 1180,
    "-P@@": 1181,
    "lt": 1182,
    "gs@@": 1183,
    "Per@@": 1184,
    "ro": 1185,
    "LCCN": 1186,
    "Rück@@": 1187,
    "nung": 1188,
    "23.": 1189,
    "Gesch@@": 1190,
    "27.": 1191,
    "ersch@@": 1192,
    "London": 1193,
    "automatisch": 1194,
    "Name": 1195,
    "geh@@": 1196,
    "http": 1197,
    "1989": 1198,
    "Ba@@": 1199,
    "führt": 1200,
    "Leipzig": 1201,
    "gewann": 1202,
    "Natur@@": 1203,
    "Hand@@": 1204,
    "wal@@": 1205,
    "du@@": 1206,
    "Pa@@": 1207,
    "ek@@": 1208,
    "24.": 1209,
    "ations@@": 1210,
    "Info": 1211,
    "Lebens@@": 1212,
    "Titel": 1213,
    "Bor@@": 1214,
    "Sie@@": 1215,
    "Anleitung": 1216,
    "Menschen": 1217,
    "our@@": 1218,
    "26.": 1219,
    "sa@@": 1220,
    "2Vorlage": 1221,
    "gang": 1222,
    "Tri@@": 1223,
    "Christ@@": 1224,
    "Pal@@": 1225,
    "erh@@": 1226,
    "stellt": 1227,
    "schon": 1228,
    "Bitte": 1229,
    "ismus": 1230,
    "ud@@": 1231,
    "ry": 1232,
    "kten": 1233,
    "í@@": 1234,
    "Ph@@": 1235,
    "29.": 1236,
    "Br@@": 1237,
    "77@@": 1238,
    "37@@": 1239,
    "beg@@": 1240,
    "ks": 1241,
    "All@@": 1242,
    "erstmals": 1243,
    "So": 1244,
    "stellen": 1245,
    "Während": 1246,
    "ja": 1247,
    "Lan@@": 1248,
    "gehört": 1249,
    "Landkreis": 1250,
    "zeit@@": 1251,
    "andere": 1252,
    "Hinweis": 1253,
    "lä@@": 1254,
    "he": 1255,
    "Wer@@": 1256,
    "fest@@": 1257,
    "siehe": 1258,
    "Kor@@": 1259,
    "fünf": 1260,
    "47@@": 1261,
    "yn@@": 1262,
    "Paris": 1263,
    "wor@@": 1264,
    "-St@@": 1265,
    "kl@@": 1266,
    "ol": 1267,
    "Ros@@": 1268,
    "80@@": 1269,
    "Ö@@": 1270,
    "etz@@": 1271,
    "iger": 1272,
    "sondern": 1273,
    "=@@": 1274,
    "Tor@@": 1275,
    "hei@@": 1276,
    "19": 1277,
    "scher": 1278,
    "40": 1279,
    "ähr@@": 1280,
    "Alt@@": 1281,
    "To@@": 1282,
    "wenn": 1283,
    "prüfe": 1284,
    "entferne": 1285,
    "sin@@": 1286,
    "her": 1287,
    "gn@@": 1288,
    "erten": 1289,
    "ec@@": 1290,
    "97@@": 1291,
    "gem@@": 1292,
    "Zeit@@": 1293,
    "eit@@": 1294,
    "tige": 1295,
    "Georg": 1296,
    "sich@@": 1297,
    "je": 1298,
    "besch@@": 1299,
    "Mal@@": 1300,
    "Volks@@": 1301,
    "ana": 1302,
    "fin@@": 1303,
    "1,@@": 1304,
    "Dar@@": 1305,
    "1988": 1306,
    "stei@@": 1307,
    "komm@@": 1308,
    "gra@@": 1309,
    "bel@@": 1310,
    "Zu": 1311,
    "uf@@": 1312,
    "Thomas": 1313,
    "halten": 1314,
    "a.": 1315,
    "ft@@": 1316,
    "einige": 1317,
    "itz@@": 1318,
    "stellung": 1319,
    "äh@@": 1320,
    "Meter": 1321,
    "Kur@@": 1322,
    "Vi@@": 1323,
    "meister": 1324,
    "auer": 1325,
    "ure": 1326,
    "ire": 1327,
    "Welt@@": 1328,
    "Kol@@": 1329,
    "Gruppe": 1330,
    "are": 1331,
    "III": 1332,
    "Gesellschaft": 1333,
    "Bro@@": 1334,
    "Du@@": 1335,
    "große": 1336,
    "fel@@": 1337,
    "tro@@": 1338,
    "Ed@@": 1339,
    "teten": 1340,
    "bar@@": 1341,
    "Hamburg": 1342,
    "inger": 1343,
    "ee": 1344,
    "rin@@": 1345,
    "USA": 1346,
    "ff": 1347,
    "Sal@@": 1348,
    "36@@": 1349,
    "1987": 1350,
    "seines": 1351,
    "inter@@": 1352,
    "Buch@@": 1353,
    "H": 1354,
    "fand": 1355,
    "179@@": 1356,
    "lin": 1357,
    "alt@@": 1358,
    "Hin@@": 1359,
    "National@@": 1360,
    "21": 1361,
    "sei": 1362,
    "100": 1363,
    "Literatur": 1364,
    "lagen": 1365,
    "Seine": 1366,
    "spe@@": 1367,
    "Ser@@": 1368,
    "üb@@": 1369,
    "bes@@": 1370,
    "Gew@@": 1371,
    "aten": 1372,
    "co": 1373,
    "kommt": 1374,
    "ian@@": 1375,
    "cker": 1376,
    "Ab": 1377,
    "genannt": 1378,
    "Tod": 1379,
    "Kan@@": 1380,
    "Nor@@": 1381,
    "1.@@": 1382,
    "di": 1383,
    "ahn": 1384,
    "Pri@@": 1385,
    "Fahr@@": 1386,
    "Kn@@": 1387,
    ":@@": 1388,
    "Land": 1389,
    "24": 1390,
    "Sport@@": 1391,
    "ans": 1392,
    "193@@": 1393,
    "ren@@": 1394,
    "Fin@@": 1395,
    "großen": 1396,
    "1986": 1397,
    "Im@@": 1398,
    "bert": 1399,
    "letzten": 1400,
    "Orts@@": 1401,
    "zweiten": 1402,
    "Sein": 1403,
    "ser@@": 1404,
    "dieses": 1405,
    "res@@": 1406,
    "hol@@": 1407,
    "amp@@": 1408,
    "y-@@": 1409,
    "35@@": 1410,
    "lich@@": 1411,
    "Ko@@": 1412,
    "gebaut": 1413,
    "а@@": 1414,
    "и@@": 1415,
    "ener": 1416,
    "frei@@": 1417,
    "Je@@": 1418,
    "31.": 1419,
    "48@@": 1420,
    "ön@@": 1421,
    "eller": 1422,
    "Stein@@": 1423,
    "neben": 1424,
    "Tro@@": 1425,
    "br@@": 1426,
    "Frankfurt": 1427,
    "zer": 1428,
    "M.": 1429,
    "Durch": 1430,
    "ard@@": 1431,
    "Stand": 1432,
    "Wohn@@": 1433,
    "ind@@": 1434,
    "49@@": 1435,
    "//www.@@": 1436,
    "Folge": 1437,
    "erb@@": 1438,
    "Kriegs@@": 1439,
    "Gar@@": 1440,
    "о@@": 1441,
    "Haus": 1442,
    "I.": 1443,
    "besteht": 1444,
    "äch@@": 1445,
    "rund": 1446,
    "Em@@": 1447,
    "Frau": 1448,
    "1983": 1449,
    "aut@@": 1450,
    "Museum": 1451,
    "Franz": 1452,
    "1985": 1453,
    "La": 1454,
    "ihrem": 1455,
    "00": 1456,
    "Lehr@@": 1457,
    "22": 1458,
    "Album": 1459,
    "na": 1460,
    "1980": 1461,
    "Welt": 1462,
    "alten": 1463,
    "gest@@": 1464,
    "mehrere": 1465,
    "enti@@": 1466,
    "1984": 1467,
    "38@@": 1468,
    "Haus@@": 1469,
    "soll": 1470,
    "Bel@@": 1471,
    "voll@@": 1472,
    "Mat@@": 1473,
    "ant": 1474,
    "opp@@": 1475,
    "form@@": 1476,
    "tion": 1477,
    "Z": 1478,
    "0–@@": 1479,
    "An": 1480,
    "Martin": 1481,
    "Gemeinde@@": 1482,
    "1982": 1483,
    "Robert": 1484,
    "zw@@": 1485,
    "liches": 1486,
    "Da": 1487,
    "bei@@": 1488,
    "recht": 1489,
    "gs": 1490,
    "ms": 1491,
    "ek": 1492,
    "Rechts@@": 1493,
    "gestellt": 1494,
    "hatten": 1495,
    "Aut@@": 1496,
    "Bre@@": 1497,
    "yl@@": 1498,
    "fte": 1499,
    "ment": 1500,
    "Ant@@": 1501,
    "chen@@": 1502,
    "…": 1503,
    "Datenbank": 1504,
    "lang": 1505,
    "issen": 1506,
    "tre@@": 1507,
    "Lau@@": 1508,
    "Fach@@": 1509,
    "Koordinaten": 1510,
    "1970": 1511,
    "A.": 1512,
    "Regie": 1513,
    "zug": 1514,
    "mal": 1515,
    "ha@@": 1516,
    "Lie@@": 1517,
    "th": 1518,
    "mer@@": 1519,
    "Hol@@": 1520,
    "ette": 1521,
    "bi@@": 1522,
    "stellte": 1523,
    "Reich@@": 1524,
    "ort@@": 1525,
    "Anfang": 1526,
    "ym@@": 1527,
    "unde": 1528,
    "Col@@": 1529,
    "45@@": 1530,
    "Gel@@": 1531,
    "ver": 1532,
    "Zeitung": 1533,
    "ität": 1534,
    "Inter@@": 1535,
    "sol@@": 1536,
    "dorf": 1537,
    "weise": 1538,
    "sollte": 1539,
    "allerdings": 1540,
    "tel": 1541,
    "co@@": 1542,
    "weiter": 1543,
    "Einwohner": 1544,
    "U": 1545,
    "studierte": 1546,
    "lie@@": 1547,
    "23": 1548,
    "Hor@@": 1549,
    "Ac@@": 1550,
    "meist": 1551,
    "39@@": 1552,
    "zen@@": 1553,
    "ei": 1554,
    "stell@@": 1555,
    "Zwei@@": 1556,
    "Straße": 1557,
    "zurück@@": 1558,
    "los": 1559,
    "Gebiet": 1560,
    "1972": 1561,
    "Unternehmen": 1562,
    "lau@@": 1563,
    "ven": 1564,
    "Region": 1565,
    "Do@@": 1566,
    "dem@@": 1567,
    "Bd.": 1568,
    "gegründet": 1569,
    "al-@@": 1570,
    "Ter@@": 1571,
    "ó@@": 1572,
    "Is@@": 1573,
    "è@@": 1574,
    "Tre@@": 1575,
    "gemeinde": 1576,
    "dro@@": 1577,
    "46@@": 1578,
    "е@@": 1579,
    "wen@@": 1580,
    "Gre@@": 1581,
    "Sen@@": 1582,
    "sion": 1583,
    "kor@@": 1584,
    "Da@@": 1585,
    "gewählt": 1586,
    "mel@@": 1587,
    "kur@@": 1588,
    "Bal@@": 1589,
    "neu@@": 1590,
    "'s": 1591,
    "ert@@": 1592,
    "fahr@@": 1593,
    "Hil@@": 1594,
    "ors": 1595,
    "Herr@@": 1596,
    "1978": 1597,
    "folgenden": 1598,
    "cht@@": 1599,
    "deten": 1600,
    "äm@@": 1601,
    "Fest@@": 1602,
    "berger": 1603,
    "lage": 1604,
    "zog": 1605,
    "Gro@@": 1606,
    "+": 1607,
    "spiel": 1608,
    "id": 1609,
    "sel@@": 1610,
    "ice": 1611,
    "Zweiten": 1612,
    "Mitte": 1613,
    "7-@@": 1614,
    "derung": 1615,
    "Pol@@": 1616,
    "des@@": 1617,
    "Kilometer": 1618,
    "Zur": 1619,
    "Don@@": 1620,
    "Köln": 1621,
    "2,@@": 1622,
    "j": 1623,
    "Aus": 1624,
    "Frankreich": 1625,
    "Ku@@": 1626,
    "Plat@@": 1627,
    "1981": 1628,
    "hof": 1629,
    "reich@@": 1630,
    "raum": 1631,
    "nun": 1632,
    "glich": 1633,
    "hausen": 1634,
    "ks@@": 1635,
    "1979": 1636,
    "Tur@@": 1637,
    "Lei@@": 1638,
    "dazu": 1639,
    "wobei": 1640,
    "Jo@@": 1641,
    "utz@@": 1642,
    "1974": 1643,
    "sor@@": 1644,
    "1975": 1645,
    "Maria": 1646,
    "178@@": 1647,
    "Fußballspieler": 1648,
    "onen": 1649,
    "mat@@": 1650,
    "Archivlink": 1651,
    "н@@": 1652,
    "iker": 1653,
    "Bru@@": 1654,
    "Mil@@": 1655,
    "grün@@": 1656,
    "ase": 1657,
    "els": 1658,
    "ys": 1659,
    "viele": 1660,
    "fre@@": 1661,
    "erfolgte": 1662,
    "tungs@@": 1663,
    "finden": 1664,
    "'": 1665,
    "gan@@": 1666,
    "stra@@": 1667,
    "genommen": 1668,
    "ion": 1669,
    "ley": 1670,
    "Form": 1671,
    "ary": 1672,
    "berg@@": 1673,
    "Ludwig": 1674,
    "kirche": 1675,
    "un": 1676,
    "National": 1677,
    "ian": 1678,
    "We@@": 1679,
    "sta@@": 1680,
    "Gemeinden": 1681,
    "lungen": 1682,
    "ents": 1683,
    "H.": 1684,
    "Lexikon": 1685,
    "28": 1686,
    "Sol@@": 1687,
    "üt@@": 1688,
    "1976": 1689,
    "bahn": 1690,
    "tätig": 1691,
    "Cl@@": 1692,
    "Pet@@": 1693,
    "60": 1694,
    "stelle": 1695,
    "27": 1696,
    "ließ": 1697,
    "enten": 1698,
    "Vater": 1699,
    "Provinz": 1700,
    "iel@@": 1701,
    "1968": 1702,
    "app@@": 1703,
    "unden": 1704,
    "neu": 1705,
    "Press": 1706,
    "isten": 1707,
    "amt": 1708,
    "Christian": 1709,
    "26": 1710,
    "elt": 1711,
    "leg@@": 1712,
    "Plan@@": 1713,
    "schrift": 1714,
    "ica": 1715,
    "welche": 1716,
    "Amt": 1717,
    "Ernst": 1718,
    "sport@@": 1719,
    "Wit@@": 1720,
    "Schweiz": 1721,
    "hen": 1722,
    "kar@@": 1723,
    "sechs": 1724,
    "_@@": 1725,
    "Gebäude": 1726,
    "lassen": 1727,
    "1973": 1728,
    "gung": 1729,
    "ey@@": 1730,
    "→": 1731,
    "lag": 1732,
    "geprüft": 1733,
    "burger": 1734,
    "schafts@@": 1735,
    "Kirchen@@": 1736,
    "Österreich": 1737,
    "Gi@@": 1738,
    "ade": 1739,
    "199@@": 1740,
    "ari@@": 1741,
    "bil@@": 1742,
    "les": 1743,
    "du": 1744,
    "west@@": 1745,
    "weg": 1746,
    "Tochter": 1747,
    "tungen": 1748,
    "vi@@": 1749,
    "Bereich": 1750,
    "ae": 1751,
    "verwendet": 1752,
    "1977": 1753,
    "weiteren": 1754,
    "Dorf": 1755,
    "190@@": 1756,
    "192@@": 1757,
    "Ul@@": 1758,
    "1971": 1759,
    "ta": 1760,
    "1969": 1761,
    "jeweils": 1762,
    "Nachdem": 1763,
    "Han@@": 1764,
    "ett": 1765,
    "erhalten": 1766,
    "cher": 1767,
    "ory": 1768,
    "by": 1769,
    "Staaten": 1770,
    "55@@": 1771,
    "musste": 1772,
    "schließlich": 1773,
    "Rhein@@": 1774,
    "Bayern": 1775,
    "Te@@": 1776,
    "Rad@@": 1777,
    "FC": 1778,
    "Mannschaft": 1779,
    "amen": 1780,
    "blieb": 1781,
    "omm@@": 1782,
    "ht": 1783,
    "gesetzt": 1784,
    "uss@@": 1785,
    "Musik": 1786,
    "v.": 1787,
    "sen@@": 1788,
    "geht": 1789,
    "schloss": 1790,
    "Bei@@": 1791,
    "net": 1792,
    "ograph@@": 1793,
    "yp@@": 1794,
    "Frauen": 1795,
    "Staat@@": 1796,
    "Pe@@": 1797,
    "ssp@@": 1798,
    "Verein": 1799,
    "per": 1800,
    "Produ@@": 1801,
    "han@@": 1802,
    "schei@@": 1803,
    "ative": 1804,
    "son@@": 1805,
    "Ju@@": 1806,
    "Kreis": 1807,
    "stein@@": 1808,
    "Kinder": 1809,
    "David": 1810,
    "Wasser@@": 1811,
    "leben": 1812,
    "mal@@": 1813,
    "ats@@": 1814,
    "ies@@": 1815,
    "Jugend@@": 1816,
    "histor@@": 1817,
    "Schl@@": 1818,
    "Norden": 1819,
    "66@@": 1820,
    "Eis@@": 1821,
    "ober@@": 1822,
    "ug@@": 1823,
    "Entwicklung": 1824,
    "teil@@": 1825,
    "Beispiel": 1826,
    "nahme": 1827,
    "194@@": 1828,
    "äu@@": 1829,
    "lat@@": 1830,
    "buch": 1831,
    "ül@@": 1832,
    "р@@": 1833,
    "wechselte": 1834,
    "ay": 1835,
    "spielen": 1836,
    "eich@@": 1837,
    "mann@@": 1838,
    "Schweizer": 1839,
    "Mau@@": 1840,
    "Techn@@": 1841,
    "Gl@@": 1842,
    "60@@": 1843,
    "verschiedenen": 1844,
    "Bis": 1845,
    "Wolfgang": 1846,
    "90@@": 1847,
    "International": 1848,
    "enberg": 1849,
    "gut": 1850,
    "aller": 1851,
    "seite": 1852,
    "Kin@@": 1853,
    "Komp@@": 1854,
    "up@@": 1855,
    "Pla@@": 1856,
    "Grün@@": 1857,
    "Weltkrieg": 1858,
    "stan@@": 1859,
    "erreichte": 1860,
    "dete": 1861,
    "Arbeit": 1862,
    "Ap@@": 1863,
    "übernahm": 1864,
    "stehen": 1865,
    "ehr@@": 1866,
    "County": 1867,
    "ir": 1868,
    "Kat@@": 1869,
    "Dies": 1870,
    "tä@@": 1871,
    "1964": 1872,
    "World": 1873,
    "1967": 1874,
    "tritt": 1875,
    "Schule": 1876,
    "produ@@": 1877,
    "aufge@@": 1878,
    "Reichs@@": 1879,
    "gar@@": 1880,
    "tiert": 1881,
    "Otto": 1882,
    "gleich@@": 1883,
    "Pre@@": 1884,
    "gilt": 1885,
    "Wahl@@": 1886,
    "i-@@": 1887,
    "ski": 1888,
    "erg@@": 1889,
    "uren": 1890,
    "ente": 1891,
    "1960": 1892,
    "At@@": 1893,
    "su@@": 1894,
    "Rolle": 1895,
    "Database": 1896,
    "cal": 1897,
    "the@@": 1898,
    "Dabei": 1899,
    "Prozent": 1900,
    "platz": 1901,
    "Schn@@": 1902,
    "größ@@": 1903,
    "Bau": 1904,
    "ly": 1905,
    "eli@@": 1906,
    "Luft@@": 1907,
    "ters": 1908,
    "hin": 1909,
    "ius": 1910,
    "29": 1911,
    "aufgrund": 1912,
    "ese": 1913,
    "Kirch@@": 1914,
    "insgesamt": 1915,
    "Dieser": 1916,
    "Li@@": 1917,
    "ai": 1918,
    "Kre@@": 1919,
    "online": 1920,
    "US-@@": 1921,
    "1933": 1922,
    "eit": 1923,
    "177@@": 1924,
    "errichtet": 1925,
    "Wor@@": 1926,
    "imm@@": 1927,
    "Win@@": 1928,
    "1966": 1929,
    "entstand": 1930,
    "wa@@": 1931,
    "Berliner": 1932,
    "dt": 1933,
    "34@@": 1934,
    "Artikel": 1935,
    "Mün@@": 1936,
    "burg@@": 1937,
    "Inn@@": 1938,
    "wald": 1939,
    "Carl": 1940,
    "leb@@": 1941,
    "dies": 1942,
    "Werk": 1943,
    "Hal@@": 1944,
    "Hu@@": 1945,
    "Schloss": 1946,
    "ator": 1947,
    "Ton@@": 1948,
    "Wa@@": 1949,
    "ult@@": 1950,
    "88@@": 1951,
    "General@@": 1952,
    "Mc@@": 1953,
    "insbesondere": 1954,
    "Bra@@": 1955,
    "do": 1956,
    "1965": 1957,
    "ess": 1958,
    "Walter": 1959,
    "führung": 1960,
    "Schauspieler": 1961,
    "C.": 1962,
    "sc@@": 1963,
    "V.": 1964,
    "reu@@": 1965,
    "also": 1966,
    "Rahmen": 1967,
    "spiel@@": 1968,
    "star@@": 1969,
    "Richard": 1970,
    "Johannes": 1971,
    "Süden": 1972,
    "A-@@": 1973,
    "Prä@@": 1974,
    "189@@": 1975,
    "fast": 1976,
    "mals": 1977,
    "stre@@": 1978,
    "Dis@@": 1979,
    "Rot@@": 1980,
    "ram@@": 1981,
    "oph@@": 1982,
    "lichkeit": 1983,
    "weit": 1984,
    "Mann": 1985,
    "ric@@": 1986,
    "35": 1987,
    "darauf": 1988,
    "oft": 1989,
    "Millionen": 1990,
    "amb@@": 1991,
    "erschien": 1992,
    "Mel@@": 1993,
    "Serie": 1994,
    "ko@@": 1995,
    "Dort": 1996,
    "spiele": 1997,
    "Joseph": 1998,
    "bef@@": 1999,
    "tigt": 2000,
    "tz": 2001,
    "ps": 2002,
    "eigenen": 2003,
    "dis@@": 2004,
    "Klein@@": 2005,
    "Einzel@@": 2006,
    "anc@@": 2007,
    "Kunst": 2008,
    "schn@@": 2009,
    "1963": 2010,
    "+@@": 2011,
    "Online": 2012,
    "Rom@@": 2013,
    "Siehe": 2014,
    "Res@@": 2015,
    "Ä@@": 2016,
    "GmbH": 2017,
    "liegen": 2018,
    "ler@@": 2019,
    "muss": 2020,
    "Men@@": 2021,
    "por@@": 2022,
    "teilt": 2023,
    "ise": 2024,
    "van": 2025,
    "Main": 2026,
    "1961": 2027,
    "ott@@": 2028,
    "let@@": 2029,
    "57@@": 2030,
    "ahn@@": 2031,
    "ehemaligen": 2032,
    "anz": 2033,
    "est": 2034,
    "findet": 2035,
    "Arbeits@@": 2036,
    "bl@@": 2037,
    "erw@@": 2038,
    "nahmen": 2039,
    "kel@@": 2040,
    "innerhalb": 2041,
    "Krieg": 2042,
    "Bischof": 2043,
    "ings": 2044,
    "San@@": 2045,
    "Durch@@": 2046,
    "Mal": 2047,
    "Hermann": 2048,
    "Jahres": 2049,
    "rig@@": 2050,
    "Partei": 2051,
    "port@@": 2052,
    "uch": 2053,
    "Son@@": 2054,
    "Kal@@": 2055,
    "Fußball@@": 2056,
    "arbeiten": 2057,
    "davon": 2058,
    "1939": 2059,
    "abge@@": 2060,
    "flu@@": 2061,
    "film": 2062,
    "Wo@@": 2063,
    "üh@@": 2064,
    "188@@": 2065,
    "innen": 2066,
    "eig@@": 2067,
    "Burg": 2068,
    "sehen": 2069,
    "Hof@@": 2070,
    "Leg@@": 2071,
    "eri@@": 2072,
    "Beg@@": 2073,
    "Bl@@": 2074,
    "Richtung": 2075,
    "gten": 2076,
    "folgender": 2077,
    "ze@@": 2078,
    "arb@@": 2079,
    "1938": 2080,
    "wo@@": 2081,
    "Einsatz": 2082,
    "form": 2083,
    "The@@": 2084,
    "Zum": 2085,
    "sie@@": 2086,
    "Neben": 2087,
    "e.@@": 2088,
    "1950": 2089,
    "Osten": 2090,
    "Dan@@": 2091,
    "Bevölkerung": 2092,
    "‘": 2093,
    "Bahn@@": 2094,
    "ons@@": 2095,
    "59@@": 2096,
    "1962": 2097,
    "ef@@": 2098,
    "führen": 2099,
    "fl@@": 2100,
    "Vol@@": 2101,
    "Unter": 2102,
    "Schriftsteller": 2103,
    "www.@@": 2104,
    "87@@": 2105,
    "š@@": 2106,
    "dig@@": 2107,
    "zehn": 2108,
    "ank@@": 2109,
    "ther": 2110,
    "Team": 2111,
    "Gef@@": 2112,
    "Exp@@": 2113,
    "fall": 2114,
    "Werk@@": 2115,
    "1944": 2116,
    "konnten": 2117,
    "Westen": 2118,
    "sicht": 2119,
    "stark": 2120,
    "Saint-@@": 2121,
    "Erst@@": 2122,
    "Tal@@": 2123,
    "süd@@": 2124,
    "Konz@@": 2125,
    ".org": 2126,
    "Werke": 2127,
    "ak": 2128,
    "nis": 2129,
    "halb": 2130,
    "ls": 2131,
    "führ@@": 2132,
    "Bad": 2133,
    "län@@": 2134,
    "Verwaltungs@@": 2135,
    "W.": 2136,
    "ald": 2137,
    "ete": 2138,
    "Dor@@": 2139,
    "po@@": 2140,
    "Institut": 2141,
    "ast": 2142,
    "Professor": 2143,
    "wes@@": 2144,
    "Ehr@@": 2145,
    "^": 2146,
    "handelt": 2147,
    "80": 2148,
    "ame": 2149,
    "enburg": 2150,
    "Regierung": 2151,
    "erneut": 2152,
    "187@@": 2153,
    "letz@@": 2154,
    "Teil@@": 2155,
    "Histor@@": 2156,
    "Ausgabe": 2157,
    "Reihe": 2158,
    "ah": 2159,
    "32": 2160,
    "schie@@": 2161,
    "krit@@": 2162,
    "Kap@@": 2163,
    "Beginn": 2164,
    "Bil@@": 2165,
    "Gesamt@@": 2166,
    "lange": 2167,
    "dat@@": 2168,
    "Phil@@": 2169,
    "vier@@": 2170,
    "Bedeutung": 2171,
    "Spiel": 2172,
    "Dem@@": 2173,
    "Mer@@": 2174,
    "Meister": 2175,
    "Gol@@": 2176,
    "uli@@": 2177,
    "ahl": 2178,
    "führer": 2179,
    "habe": 2180,
    "stieg": 2181,
    "ue": 2182,
    "Ol@@": 2183,
    "heutigen": 2184,
    "yr@@": 2185,
    "Ortsteil": 2186,
    "Um": 2187,
    "zweite": 2188,
    "AG": 2189,
    "1956": 2190,
    "damals": 2191,
    "drei@@": 2192,
    "inen": 2193,
    "gesellschaft": 2194,
    "Fran@@": 2195,
    "französischen": 2196,
    "Fo@@": 2197,
    "31": 2198,
    "ars": 2199,
    "Medi@@": 2200,
    "Lit@@": 2201,
    "zei@@": 2202,
    "William": 2203,
    "gruppe": 2204,
    "weil": 2205,
    "zeigt": 2206,
    "Außerdem": 2207,
    "0,@@": 2208,
    "veröffentlicht": 2209,
    "Kinder@@": 2210,
    "1959": 2211,
    "icht@@": 2212,
    "Original": 2213,
    "starb": 2214,
    "kel": 2215,
    "ser": 2216,
    "kB": 2217,
    "Tr@@": 2218,
    "ea": 2219,
    "elt@@": 2220,
    "Ag@@": 2221,
    "Alb@@": 2222,
    "Mark@@": 2223,
    "woh@@": 2224,
    "Buch": 2225,
    "tn@@": 2226,
    "eth@@": 2227,
    "Insel": 2228,
    "ater": 2229,
    "Höhe": 2230,
    "ano": 2231,
    "Heimat@@": 2232,
    "1958": 2233,
    "56@@": 2234,
    "Mi@@": 2235,
    "ften": 2236,
    "ungsp@@": 2237,
    "Pat@@": 2238,
    "stat@@": 2239,
    "win@@": 2240,
    "1952": 2241,
    "arbeitet": 2242,
    "gegenüber": 2243,
    "setzte": 2244,
    "Can@@": 2245,
    "asi@@": 2246,
    "ori@@": 2247,
    "Über": 2248,
    "45": 2249,
    "welt@@": 2250,
    "zeu@@": 2251,
    "bestand": 2252,
    "Klasse": 2253,
    "dor@@": 2254,
    "Europa": 2255,
    "1957": 2256,
    "Ben@@": 2257,
    "erei": 2258,
    "mittel@@": 2259,
    "Indi@@": 2260,
    "Off@@": 2261,
    "/0@@": 2262,
    "kre@@": 2263,
    "Comm@@": 2264,
    "on-@@": 2265,
    "lingen": 2266,
    "Sach@@": 2267,
    "ück@@": 2268,
    "Gast@@": 2269,
    "folgte": 2270,
    "bereich": 2271,
    "kurz": 2272,
    "bin@@": 2273,
    "Kurz@@": 2274,
    "American": 2275,
    "1955": 2276,
    "fil@@": 2277,
    "schrieb": 2278,
    "Mus@@": 2279,
    "zogen": 2280,
    "äre": 2281,
    "eigen@@": 2282,
    "Chr.": 2283,
    "89@@": 2284,
    "Na@@": 2285,
    "bt": 2286,
    "jahr@@": 2287,
    "Originals": 2288,
    "Alexander": 2289,
    "tag": 2290,
    "ss": 2291,
    "200": 2292,
    "Bon@@": 2293,
    "cken@@": 2294,
    "Bürger@@": 2295,
    "Arten": 2296,
    "ckt": 2297,
    "spieler": 2298,
    "198@@": 2299,
    "f.": 2300,
    "ara": 2301,
    "lige": 2302,
    "Ham@@": 2303,
    "Mu@@": 2304,
    "lässt": 2305,
    "tlich": 2306,
    "kauf@@": 2307,
    "doch": 2308,
    "liga": 2309,
    "ologe": 2310,
    "Katalog": 2311,
    "och": 2312,
    "prä@@": 2313,
    "ders": 2314,
    "ass": 2315,
    "ris@@": 2316,
    "besonders": 2317,
    "Präsident": 2318,
    "gehen": 2319,
    "Wirtschafts@@": 2320,
    "-L@@": 2321,
    "flü@@": 2322,
    "wahl": 2323,
    "selben": 2324,
    "halt": 2325,
    "Fern@@": 2326,
    "Ev@@": 2327,
    "1946": 2328,
    "ick": 2329,
    "ki": 2330,
    "Militär@@": 2331,
    "Tran@@": 2332,
    "stern": 2333,
    "yer": 2334,
    "186@@": 2335,
    "staat@@": 2336,
    "verein": 2337,
    "ł@@": 2338,
    "Schwar@@": 2339,
    "ena": 2340,
    "Roman": 2341,
    "Brü@@": 2342,
    "Stra@@": 2343,
    "Spieler": 2344,
    "lam@@": 2345,
    "haf@@": 2346,
    "Graf": 2347,
    "Far@@": 2348,
    "1953": 2349,
    "Fernsehserie": 2350,
    "gern": 2351,
    "Anti@@": 2352,
    "Mag@@": 2353,
    "San": 2354,
    "bew@@": 2355,
    "pre@@": 2356,
    "öh@@": 2357,
    "Zeitschrift": 2358,
    "ty": 2359,
    "Wein@@": 2360,
    "Fa@@": 2361,
    "nehmen": 2362,
    "ations": 2363,
    "merk@@": 2364,
    "gemein@@": 2365,
    "-0@@": 2366,
    "ffen": 2367,
    "2.@@": 2368,
    "Prin@@": 2369,
    "darunter": 2370,
    "ino": 2371,
    "Web@@": 2372,
    "Bern@@": 2373,
    "Tel@@": 2374,
    "Voll@@": 2375,
    "ann": 2376,
    "ical": 2377,
    "Le": 2378,
    "James": 2379,
    "sowohl": 2380,
    "gleichen": 2381,
    "zer@@": 2382,
    "Krank@@": 2383,
    "verschiedene": 2384,
    "Dr.": 2385,
    "od": 2386,
    "ology": 2387,
    "Movie": 2388,
    "Op@@": 2389,
    "36": 2390,
    "Jan@@": 2391,
    "1949": 2392,
    "Com@@": 2393,
    "fahren": 2394,
    "hoch@@": 2395,
    "Offizielle": 2396,
    "que": 2397,
    "aden": 2398,
    "zahlreiche": 2399,
    "genen": 2400,
    "1942": 2401,
    "pl@@": 2402,
    "uss": 2403,
    "Ir@@": 2404,
    "mor@@": 2405,
    "möglich": 2406,
    "Ges@@": 2407,
    "Sozial@@": 2408,
    "176@@": 2409,
    "gelegt": 2410,
    "schaft@@": 2411,
    "Flug@@": 2412,
    "Ann@@": 2413,
    "letzte": 2414,
    "Comp@@": 2415,
    "1954": 2416,
    "Akademie": 2417,
    "Bir@@": 2418,
    "33": 2419,
    "lieb@@": 2420,
    "wär@@": 2421,
    "pa@@": 2422,
    "Fernseh@@": 2423,
    "gers": 2424,
    "gleich": 2425,
    "ement": 2426,
    "mach@@": 2427,
    "ity": 2428,
    "Kreuz@@": 2429,
    "ände": 2430,
    "Sprache": 2431,
    "Fra@@": 2432,
    "nten": 2433,
    "1940": 2434,
    "ennung": 2435,
    "gegen@@": 2436,
    "Bla@@": 2437,
    "Wol@@": 2438,
    "wür@@": 2439,
    "1948": 2440,
    "einander": 2441,
    "Cal@@": 2442,
    "tsch@@": 2443,
    "Gold@@": 2444,
    "beispielsweise": 2445,
    "Kr@@": 2446,
    "Seiten": 2447,
    "Pap@@": 2448,
    "Tour@@": 2449,
    "punkt": 2450,
    "196@@": 2451,
    "Kom@@": 2452,
    "mei@@": 2453,
    "1/@@": 2454,
    "danach": 2455,
    "Wald@@": 2456,
    "mm@@": 2457,
    "Sitz": 2458,
    "Tag": 2459,
    "verband": 2460,
    "Eintrag": 2461,
    "akti@@": 2462,
    "Char@@": 2463,
    "Digitalisat": 2464,
    "geboren": 2465,
    "atur@@": 2466,
    "197@@": 2467,
    "best@@": 2468,
    "Josef": 2469,
    "34": 2470,
    "Geb@@": 2471,
    "dan@@": 2472,
    "gemeinsam": 2473,
    "Neue": 2474,
    "ance": 2475,
    "teilung": 2476,
    "Webachiv/IABot/www.@@": 2477,
    "test@@": 2478,
    "Ob@@": 2479,
    "Erd@@": 2480,
    "atur": 2481,
    "do@@": 2482,
    "anische": 2483,
    "1943": 2484,
    "Pra@@": 2485,
    "Val@@": 2486,
    "Ca@@": 2487,
    "Ang@@": 2488,
    "Gem@@": 2489,
    "Zürich": 2490,
    "teilweise": 2491,
    "ose": 2492,
    "Holz@@": 2493,
    "versch@@": 2494,
    "mut@@": 2495,
    "Maler": 2496,
    "anti@@": 2497,
    "Not@@": 2498,
    "54@@": 2499,
    "Mei@@": 2500,
    "70": 2501,
    "rö@@": 2502,
    ",5": 2503,
    "derte": 2504,
    "tliche": 2505,
    "kein": 2506,
    "zusammen@@": 2507,
    "fahrt": 2508,
    "1941": 2509,
    "gehören": 2510,
    "ham": 2511,
    "verk@@": 2512,
    "agn@@": 2513,
    "Flü@@": 2514,
    "rach@@": 2515,
    "Mutter": 2516,
    "ograf@@": 2517,
    "Q@@": 2518,
    "Dom@@": 2519,
    "gründete": 2520,
    "Kaiser": 2521,
    "-T@@": 2522,
    "Werner": 2523,
    "Mitglieder": 2524,
    "Hen@@": 2525,
    "Il@@": 2526,
    "ät@@": 2527,
    "deutsch": 2528,
    "ander@@": 2529,
    "Fer@@": 2530,
    "George": 2531,
    "standen": 2532,
    "stand@@": 2533,
    "meisten": 2534,
    "Stre@@": 2535,
    "Fot@@": 2536,
    "macht": 2537,
    "gesetz@@": 2538,
    "ola": 2539,
    "175@@": 2540,
    "get@@": 2541,
    "Eigen@@": 2542,
    "Republik": 2543,
    "ile": 2544,
    "90": 2545,
    "City": 2546,
    "schutz": 2547,
    "atz@@": 2548,
    "arch@@": 2549,
    "Weg": 2550,
    "§": 2551,
    "plan@@": 2552,
    "Psych@@": 2553,
    "hielt": 2554,
    "ka@@": 2555,
    "sion@@": 2556,
    "werk@@": 2557,
    "nt": 2558,
    "MB": 2559,
    "Sommer": 2560,
    "keit": 2561,
    "wir@@": 2562,
    "nte": 2563,
    "komp@@": 2564,
    "ds": 2565,
    "kleine": 2566,
    "ordnung": 2567,
    "fra@@": 2568,
    "Hy@@": 2569,
    "Feld@@": 2570,
    "z-@@": 2571,
    "vol@@": 2572,
    "sieben": 2573,
    "dr@@": 2574,
    "Studi@@": 2575,
    "Wieder@@": 2576,
    "werke": 2577,
    "wach@@": 2578,
    "ane": 2579,
    "D-@@": 2580,
    "Burg@@": 2581,
    "wagen": 2582,
    "feh@@": 2583,
    "Ren@@": 2584,
    "Rudolf": 2585,
    "bek@@": 2586,
    "Die@@": 2587,
    "Alter": 2588,
    "IV": 2589,
    "Andreas": 2590,
    "lungs@@": 2591,
    "ktor": 2592,
    "Bat@@": 2593,
    "daher": 2594,
    "reise": 2595,
    "Ach@@": 2596,
    "way": 2597,
    "195@@": 2598,
    "Ste@@": 2599,
    "General": 2600,
    "Bas@@": 2601,
    "ihnen": 2602,
    "Gal@@": 2603,
    "rie": 2604,
    "Zwischen": 2605,
    "70@@": 2606,
    "vis@@": 2607,
    "Gei@@": 2608,
    "1947": 2609,
    "d-@@": 2610,
    "etwas": 2611,
    "old": 2612,
    "dienst": 2613,
    "herr@@": 2614,
    "arten": 2615,
    "Selbst@@": 2616,
    "Hannover": 2617,
    "na@@": 2618,
    "eigene": 2619,
    "ve@@": 2620,
    "igkeit": 2621,
    "chten": 2622,
    "cti@@": 2623,
    "Regierungs@@": 2624,
    "England": 2625,
    "folge": 2626,
    "38": 2627,
    "neten": 2628,
    "Drei@@": 2629,
    "1936": 2630,
    "bild": 2631,
    "1951": 2632,
    "ehen": 2633,
    "Vereinigten": 2634,
    "satz": 2635,
    "U-@@": 2636,
    "dungen": 2637,
    "Geschäfts@@": 2638,
    "annt": 2639,
    "kamen": 2640,
    "machte": 2641,
    "Rh@@": 2642,
    "United": 2643,
    "einigen": 2644,
    "zudem": 2645,
    "ologische": 2646,
    "rom@@": 2647,
    "ähn@@": 2648,
    "Hon@@": 2649,
    "Geh@@": 2650,
    "Sau@@": 2651,
    "zuvor": 2652,
    "Italien": 2653,
    "österreichischer": 2654,
    "gebracht": 2655,
    "Rich@@": 2656,
    "Jun@@": 2657,
    "Park": 2658,
    "mm": 2659,
    "stellungen": 2660,
    "erz@@": 2661,
    "spielt": 2662,
    "ox@@": 2663,
    "hier@@": 2664,
    "ata": 2665,
    "IS@@": 2666,
    "Bezeichnung": 2667,
    "Preis": 2668,
    "1934": 2669,
    "mehr@@": 2670,
    "1918": 2671,
    "weisen": 2672,
    "befinden": 2673,
    "ri": 2674,
    "inn": 2675,
    "kleinen": 2676,
    "Pil@@": 2677,
    "Strecke": 2678,
    "fläche": 2679,
    "tigte": 2680,
    "Schla@@": 2681,
    "hö@@": 2682,
    "äuß@@": 2683,
    "37": 2684,
    "3-9@@": 2685,
    "No@@": 2686,
    "Fla@@": 2687,
    "hän@@": 2688,
    "verein@@": 2689,
    "86@@": 2690,
    "anischen": 2691,
    "schwar@@": 2692,
    "−": 2693,
    "Schwer@@": 2694,
    "bezirk": 2695,
    "л@@": 2696,
    "»": 2697,
    "uh@@": 2698,
    "ium": 2699,
    "Ak@@": 2700,
    "Komm@@": 2701,
    "Prof@@": 2702,
    "Jur@@": 2703,
    "esen": 2704,
    "ction": 2705,
    "folgende": 2706,
    "besuchte": 2707,
    "Fe@@": 2708,
    "Winter@@": 2709,
    "Vier@@": 2710,
    "Spiele": 2711,
    "cks": 2712,
    "tem": 2713,
    "Sel@@": 2714,
    "1937": 2715,
    "Pop@@": 2716,
    "sis": 2717,
    "genutzt": 2718,
    "R.": 2719,
    "Linie": 2720,
    "Den": 2721,
    "geführt": 2722,
    "«": 2723,
    "iner": 2724,
    "Form@@": 2725,
    "Wie": 2726,
    "lauf@@": 2727,
    "hinaus": 2728,
    "bedeut@@": 2729,
    "E.": 2730,
    "Vo@@": 2731,
    "verl@@": 2732,
    "Armee": 2733,
    "т@@": 2734,
    "za": 2735,
    "Gut@@": 2736,
    "Fel@@": 2737,
    "Liga": 2738,
    "ew@@": 2739,
    "Feu@@": 2740,
    "schul@@": 2741,
    "alte": 2742,
    "aff@@": 2743,
    "č@@": 2744,
    "ographie": 2745,
    "Ersten": 2746,
    "sei@@": 2747,
    "DDR": 2748,
    "Por@@": 2749,
    "Rein@@": 2750,
    "Max": 2751,
    "ssi@@": 2752,
    "Man": 2753,
    "Schiff@@": 2754,
    "ark@@": 2755,
    "Hier": 2756,
    "emp@@": 2757,
    "Schön@@": 2758,
    "sto@@": 2759,
    "reichen": 2760,
    "Bruder": 2761,
    "Poli@@": 2762,
    "fü@@": 2763,
    "ven@@": 2764,
    "Sei@@": 2765,
    "Dresden": 2766,
    "tierte": 2767,
    "Amts@@": 2768,
    "J": 2769,
    "gebäude": 2770,
    "vielen": 2771,
    "häufig": 2772,
    "ā@@": 2773,
    "Reich": 2774,
    "-R@@": 2775,
    "Autor": 2776,
    "prof@@": 2777,
    "ste@@": 2778,
    "85@@": 2779,
    "Deutscher": 2780,
    "preis": 2781,
    "ral@@": 2782,
    "cs": 2783,
    "Theater": 2784,
    "gol@@": 2785,
    "verlag": 2786,
    "aler": 2787,
    "Bay@@": 2788,
    "erie": 2789,
    "pol@@": 2790,
    "System": 2791,
    "lauf": 2792,
    "Sil@@": 2793,
    "48": 2794,
    "ya": 2795,
    "geschlossen": 2796,
    "Drit@@": 2797,
    "Fall": 2798,
    "langen": 2799,
    "schluss": 2800,
    "Wiener": 2801,
    "Kloster": 2802,
    "1935": 2803,
    "gelang": 2804,
    "Et@@": 2805,
    "2/@@": 2806,
    "uth": 2807,
    "legen": 2808,
    "Denkmal@@": 2809,
    "direkt": 2810,
    "1930": 2811,
    "minister": 2812,
    "Betrieb": 2813,
    "lit@@": 2814,
    "Vertrag": 2815,
    "Gegen@@": 2816,
    "heit@@": 2817,
    "39": 2818,
    "angeb@@": 2819,
    "lig": 2820,
    "oten": 2821,
    "China": 2822,
    "ond@@": 2823,
    "aren": 2824,
    "Karriere": 2825,
    "ins@@": 2826,
    "Wasser": 2827,
    "grenz@@": 2828,
    "angen": 2829,
    "sozi@@": 2830,
    "ling@@": 2831,
    "ces": 2832,
    "urm": 2833,
    "Landes": 2834,
    "Sand@@": 2835,
    "Suche": 2836,
    "Nationalbibliothek": 2837,
    "mu@@": 2838,
    "rän@@": 2839,
    "S-@@": 2840,
    "42": 2841,
    "Mos@@": 2842,
    "spezi@@": 2843,
    "fun@@": 2844,
    "gän@@": 2845,
    "Homepage": 2846,
    "französischer": 2847,
    "tigkeit": 2848,
    "á": 2849,
    "kat@@": 2850,
    "Stelle": 2851,
    "alter": 2852,
    "É@@": 2853,
    "frü@@": 2854,
    "res": 2855,
    "iel": 2856,
    "ob": 2857,
    "beide": 2858,
    "kti@@": 2859,
    "Charles": 2860,
    "digung": 2861,
    "ktionen": 2862,
    "Version": 2863,
    "jahr": 2864,
    "entstanden": 2865,
    "erster": 2866,
    "000": 2867,
    "ade@@": 2868,
    "-Verlag": 2869,
    "76@@": 2870,
    "fen@@": 2871,
    "Cre@@": 2872,
    "Cro@@": 2873,
    "44": 2874,
    "aufgenommen": 2875,
    "erreicht": 2876,
    "tig@@": 2877,
    "asse": 2878,
    "schau@@": 2879,
    "zwar": 2880,
    "Ep@@": 2881,
    "yc@@": 2882,
    "ologischen": 2883,
    "dire@@": 2884,
    "bur@@": 2885,
    "Cap@@": 2886,
    "Fun@@": 2887,
    "nord@@": 2888,
    "stri@@": 2889,
    "G.": 2890,
    "Grund": 2891,
    "League": 2892,
    "System@@": 2893,
    "On@@": 2894,
    "tei": 2895,
    "kn@@": 2896,
    "tei@@": 2897,
    "Kü@@": 2898,
    "viel@@": 2899,
    "Bild": 2900,
    "istischen": 2901,
    "Sub@@": 2902,
    "Dra@@": 2903,
    "chte": 2904,
    "medi@@": 2905,
    "org@@": 2906,
    "städ@@": 2907,
    "App@@": 2908,
    "Bahnhof": 2909,
    "lex@@": 2910,
    "evangeli@@": 2911,
    "oll": 2912,
    "nah@@": 2913,
    "Award": 2914,
    "heim@@": 2915,
    "F.": 2916,
    "Lö@@": 2917,
    "abili@@": 2918,
    "deutlich": 2919,
    "ha": 2920,
    "ney": 2921,
    "End@@": 2922,
    "ße": 2923,
    "nieder@@": 2924,
    "lo": 2925,
    "Bus@@": 2926,
    "sien": 2927,
    "stammt": 2928,
    "Informationen": 2929,
    "Danach": 2930,
    "ipp@@": 2931,
    "grund@@": 2932,
    "hinter": 2933,
    "Nähe": 2934,
    "1:@@": 2935,
    "Rech@@": 2936,
    "Komponist": 2937,
    "Sy@@": 2938,
    "nachdem": 2939,
    "Hom@@": 2940,
    "Handbuch": 2941,
    "anne": 2942,
    "fs@@": 2943,
    "teile": 2944,
    "Innen@@": 2945,
    "Lig@@": 2946,
    "politischen": 2947,
    "dens": 2948,
    "Sonn@@": 2949,
    "ace": 2950,
    "ment@@": 2951,
    "jährigen": 2952,
    "Mur@@": 2953,
    "ko": 2954,
    "ekt@@": 2955,
    "kla@@": 2956,
    "ursprünglich": 2957,
    "raße": 2958,
    "Del@@": 2959,
    "De": 2960,
    "tigung": 2961,
    "Spe@@": 2962,
    "Blo@@": 2963,
    "Pan@@": 2964,
    "Sar@@": 2965,
    "organis@@": 2966,
    "fäl@@": 2967,
    "Stat@@": 2968,
    "ode": 2969,
    "1928": 2970,
    "q@@": 2971,
    "Sin@@": 2972,
    "ul": 2973,
    "\\": 2974,
    "somit": 2975,
    "Schauspielerin": 2976,
    "gericht": 2977,
    "Raum": 2978,
    "endet": 2979,
    "empf@@": 2980,
    "AT@@": 2981,
    "Finanz@@": 2982,
    "Künstler": 2983,
    "0er": 2984,
    "ären": 2985,
    "AR@@": 2986,
    "Wind@@": 2987,
    "schutz@@": 2988,
    "Studium": 2989,
    "3,@@": 2990,
    "genden": 2991,
    "nimmt": 2992,
    "Kreis@@": 2993,
    "etz": 2994,
    "ichten": 2995,
    "plat@@": 2996,
    "Ath@@": 2997,
    "eur@@": 2998,
    "Kla@@": 2999,
    "ong": 3000,
    "Glo@@": 3001,
    "stie@@": 3002,
    "Europ@@": 3003,
    "erwähnt": 3004,
    "dre@@": 3005,
    "gene": 3006,
    "Mess@@": 3007,
    "chter": 3008,
    "go@@": 3009,
    "zep@@": 3010,
    "alt": 3011,
    "...": 3012,
    "Brand@@": 3013,
    "internationalen": 3014,
    "Post@@": 3015,
    "tragen": 3016,
    "ville": 3017,
    "benannt": 3018,
    "1920": 3019,
    "gaben": 3020,
    "col@@": 3021,
    "ganz": 3022,
    "leist@@": 3023,
    "Evangeli@@": 3024,
    "linie": 3025,
    "lief": 3026,
    "len@@": 3027,
    "Motor@@": 3028,
    "с@@": 3029,
    "SV": 3030,
    "veröffentlichte": 3031,
    "Lang@@": 3032,
    "zeichen": 3033,
    "ont@@": 3034,
    "bach@@": 3035,
    "vert@@": 3036,
    "fach@@": 3037,
    "Bot@@": 3038,
    "nor@@": 3039,
    "Hä@@": 3040,
    "größte": 3041,
    "sdorf": 3042,
    "Wel@@": 3043,
    "för@@": 3044,
    "sionen": 3045,
    "Ziel": 3046,
    "Karte": 3047,
    "och@@": 3048,
    "100@@": 3049,
    "film@@": 3050,
    "lebte": 3051,
    "Vic@@": 3052,
    "wehr@@": 3053,
    "wil@@": 3054,
    "weniger": 3055,
    "assi@@": 3056,
    "US@@": 3057,
    "1932": 3058,
    "Af@@": 3059,
    "trä@@": 3060,
    "folgt": 3061,
    "König@@": 3062,
    "unn@@": 3063,
    "Os@@": 3064,
    "Wass@@": 3065,
    "diente": 3066,
    "sia": 3067,
    "oti@@": 3068,
    "Alp@@": 3069,
    "dafür": 3070,
    "‚@@": 3071,
    "lö@@": 3072,
    "see": 3073,
    "enthält": 3074,
    "ther@@": 3075,
    "außerdem": 3076,
    "Düsseldorf": 3077,
    "×": 3078,
    "Sim@@": 3079,
    "kehrte": 3080,
    "go": 3081,
    "pro": 3082,
    "eau": 3083,
    "tin@@": 3084,
    "zo@@": 3085,
    "Hessen": 3086,
    "statt@@": 3087,
    "französische": 3088,
    "58@@": 3089,
    "Hoh@@": 3090,
    "deut@@": 3091,
    "stit@@": 3092,
    "treten": 3093,
    "mehreren": 3094,
    "li": 3095,
    "kunde": 3096,
    "own": 3097,
    "1929": 3098,
    "verkehr": 3099,
    ".c@@": 3100,
    "leh@@": 3101,
    "Jes@@": 3102,
    "arti@@": 3103,
    "lok@@": 3104,
    "orn@@": 3105,
    "omen": 3106,
    "Kra@@": 3107,
    "Hör@@": 3108,
    "Männer": 3109,
    "Bereits": 3110,
    "41": 3111,
    "Russ@@": 3112,
    "ehemalige": 3113,
    "Mart@@": 3114,
    "hel@@": 3115,
    "Forschungs@@": 3116,
    "studi@@": 3117,
    "ligen": 3118,
    "größten": 3119,
    "kenn@@": 3120,
    "schriften": 3121,
    "3/@@": 3122,
    "d.": 3123,
    "Besch@@": 3124,
    "79@@": 3125,
    "edi@@": 3126,
    "ash@@": 3127,
    "umm@@": 3128,
    "iken": 3129,
    "Frank": 3130,
    "Nachbar@@": 3131,
    "verkehr@@": 3132,
    "Teile": 3133,
    "stru@@": 3134,
    "Spielen": 3135,
    "500": 3136,
    "reis@@": 3137,
    "Hilfe": 3138,
    "Flor@@": 3139,
    "Fal@@": 3140,
    "fol@@": 3141,
    "reich": 3142,
    "Klaus": 3143,
    "Pass@@": 3144,
    "Kenn@@": 3145,
    "Cast@@": 3146,
    "schwer@@": 3147,
    "47": 3148,
    "Tage": 3149,
    "Bild@@": 3150,
    "See": 3151,
    "Eisenbahn@@": 3152,
    "amm": 3153,
    "arbeit": 3154,
    "170@@": 3155,
    "ide@@": 3156,
    "Les@@": 3157,
    "digt": 3158,
    "legte": 3159,
    "Weitere": 3160,
    "75": 3161,
    "Zentral@@": 3162,
    "Volk@@": 3163,
    "sprech@@": 3164,
    "gabe": 3165,
    "dau@@": 3166,
    "of@@": 3167,
    "Stamm@@": 3168,
    "arr@@": 3169,
    "bro@@": 3170,
    "1914": 3171,
    "ied@@": 3172,
    "1919": 3173,
    "Literatur@@": 3174,
    "text": 3175,
    "ichte": 3176,
    "museum": 3177,
    "heiten": 3178,
    "43": 3179,
    "Sonder@@": 3180,
    "gewesen": 3181,
    "bare": 3182,
    "Inf@@": 3183,
    "tere": 3184,
    "absolvierte": 3185,
    "südlich": 3186,
    "bruch": 3187,
    "fei@@": 3188,
    "Gener@@": 3189,
    "Erfolg": 3190,
    "AS@@": 3191,
    "Arbeit@@": 3192,
    "Turn@@": 3193,
    "ital": 3194,
    "Ly@@": 3195,
    "machen": 3196,
    "niederländ@@": 3197,
    "Zentrum": 3198,
    "Bunde@@": 3199,
    "tion@@": 3200,
    "Nov@@": 3201,
    "jähr@@": 3202,
    "itt@@": 3203,
    "Fol@@": 3204,
    "Hann@@": 3205,
    "Ga@@": 3206,
    "46": 3207,
    "Lim@@": 3208,
    "Herzog": 3209,
    "Radi@@": 3210,
    "gro@@": 3211,
    "enhaus": 3212,
    "Nachfolger": 3213,
    "fik@@": 3214,
    "Verbindung": 3215,
    "Fort@@": 3216,
    "ga": 3217,
    "ret@@": 3218,
    "Müller": 3219,
    "nie": 3220,
    "Journal": 3221,
    "bs": 3222,
    "europ@@": 3223,
    "umen": 3224,
    "Rö@@": 3225,
    "Polen": 3226,
    "West": 3227,
    "izi@@": 3228,
    "Ihre": 3229,
    "nete": 3230,
    "mus@@": 3231,
    "erv@@": 3232,
    "Gründung": 3233,
    "tor": 3234,
    "Webseite": 3235,
    "tischen": 3236,
    "Heft": 3237,
    "3.@@": 3238,
    "ce@@": 3239,
    "ütz@@": 3240,
    "usi@@": 3241,
    "dient": 3242,
    "zent@@": 3243,
    "lech@@": 3244,
    "betrieb": 3245,
    "basi@@": 3246,
    "Kun@@": 3247,
    "ini": 3248,
    "gebie@@": 3249,
    "Trans@@": 3250,
    "geleg@@": 3251,
    "reiche": 3252,
    "65": 3253,
    "Japan": 3254,
    "Euro": 3255,
    "ok": 3256,
    "ç@@": 3257,
    "Mis@@": 3258,
    "omet@@": 3259,
    "ika": 3260,
    "Art@@": 3261,
    "Mad@@": 3262,
    "mes": 3263,
    "Olympischen": 3264,
    "49": 3265,
    "tät": 3266,
    "mar": 3267,
    "Sat@@": 3268,
    "ama": 3269,
    "kultur@@": 3270,
    "Ban@@": 3271,
    "verheiratet": 3272,
    "Kli@@": 3273,
    "ernannt": 3274,
    "welches": 3275,
    "Hit@@": 3276,
    "ison": 3277,
    "rist@@": 3278,
    "Heinz": 3279,
    "kämpf@@": 3280,
    "schiff@@": 3281,
    "gegeben": 3282,
    "elli@@": 3283,
    "ihres": 3284,
    "Kron@@": 3285,
    "Produktion": 3286,
    "baren": 3287,
    "ih@@": 3288,
    "gende": 3289,
    "entwickelte": 3290,
    "Zw@@": 3291,
    "nehm@@": 3292,
    "Höh@@": 3293,
    "under@@": 3294,
    "Kais@@": 3295,
    "Pau@@": 3296,
    "deck@@": 3297,
    "Mark": 3298,
    "History": 3299,
    "Lage": 3300,
    "oben": 3301,
    "weis@@": 3302,
    "Wir@@": 3303,
    "Kanton": 3304,
    "esse": 3305,
    "eben": 3306,
    "ide": 3307,
    "Vom": 3308,
    "Sam@@": 3309,
    "fest": 3310,
    "Haf@@": 3311,
    "Rom": 3312,
    "River": 3313,
    "Weiter@@": 3314,
    "55": 3315,
    "1925": 3316,
    "ella": 3317,
    "blatt": 3318,
    "Ander@@": 3319,
    "zeichnet": 3320,
    "Dam@@": 3321,
    "Letzte": 3322,
    "ford": 3323,
    "musi@@": 3324,
    "einmal": 3325,
    "dar": 3326,
    "Publi@@": 3327,
    "Kultur": 3328,
    "Christoph": 3329,
    "Arm@@": 3330,
    "endorf": 3331,
    "nördlich": 3332,
    "schla@@": 3333,
    "1900": 3334,
    "aw@@": 3335,
    "zig": 3336,
    "ula": 3337,
    "Überprüfung": 3338,
    "D.": 3339,
    "lossen": 3340,
    "Länge": 3341,
    "Begriff": 3342,
    "mir": 3343,
    "Person@@": 3344,
    "Arbeiten": 3345,
    "Lat@@": 3346,
    "wesen": 3347,
    "Wik@@": 3348,
    "1931": 3349,
    "politische": 3350,
    "ote": 3351,
    "Mont@@": 3352,
    "ō@@": 3353,
    "Truppen": 3354,
    "will": 3355,
    "wissenschaften": 3356,
    "ales": 3357,
    "forschung": 3358,
    "Außen@@": 3359,
    "Ausbildung": 3360,
    "les@@": 3361,
    "besteh@@": 3362,
    "with": 3363,
    "German@@": 3364,
    "amer@@": 3365,
    "B-@@": 3366,
    "nahe": 3367,
    "Camp@@": 3368,
    "otte": 3369,
    "Dieses": 3370,
    "Thr@@": 3371,
    "orin": 3372,
    "dritten": 3373,
    "Dienst@@": 3374,
    "Tour": 3375,
    "erungs@@": 3376,
    "ez": 3377,
    "san@@": 3378,
    "annte": 3379,
    "Ulrich": 3380,
    "Lab@@": 3381,
    "Wahl": 3382,
    "entwickelt": 3383,
    "sper@@": 3384,
    "stände": 3385,
    "Gran@@": 3386,
    "our": 3387,
    "eff@@": 3388,
    ".de/@@": 3389,
    "Hir@@": 3390,
    "mün@@": 3391,
    "up": 3392,
    "anischer": 3393,
    "use": 3394,
    "aben": 3395,
    "Temp@@": 3396,
    "Hinter@@": 3397,
    "Union": 3398,
    "1927": 3399,
    "Fritz": 3400,
    "Herrschaft": 3401,
    "kam@@": 3402,
    "Besitz": 3403,
    "Records": 3404,
    "Fürst@@": 3405,
    "Schlacht": 3406,
    "no": 3407,
    "Gerhard": 3408,
    "bildet": 3409,
    "ille": 3410,
    "Cat@@": 3411,
    "kreis": 3412,
    "ona": 3413,
    "Eli@@": 3414,
    "Mas@@": 3415,
    "Eng@@": 3416,
    "erzielte": 3417,
    "ppe": 3418,
    "Lor@@": 3419,
    "anschließend": 3420,
    "stoff@@": 3421,
    "zentrum": 3422,
    "Hum@@": 3423,
    "lang@@": 3424,
    "Einwohnern": 3425,
    "für@@": 3426,
    "umfasst": 3427,
    "Top@@": 3428,
    "gebildet": 3429,
    "archiv": 3430,
    "lte": 3431,
    "ativen": 3432,
    "Königs@@": 3433,
    "britischer": 3434,
    "röm@@": 3435,
    "Albert": 3436,
    "rel@@": 3437,
    "Berg": 3438,
    "Typ@@": 3439,
    "from": 3440,
    "sport": 3441,
    "lands": 3442,
    "hohen": 3443,
    "Dav@@": 3444,
    "ätz@@": 3445,
    "Cent@@": 3446,
    "ball": 3447,
    "liste": 3448,
    "sberg": 3449,
    "Mac@@": 3450,
    "fung": 3451,
    "rip@@": 3452,
    "Hälfte": 3453,
    "amt@@": 3454,
    "typ@@": 3455,
    "Super@@": 3456,
    "wohl": 3457,
    "führten": 3458,
    "ct": 3459,
    "wenig": 3460,
    "wieder@@": 3461,
    "zü@@": 3462,
    "Eich@@": 3463,
    "Denk@@": 3464,
    "pla@@": 3465,
    "Gleich@@": 3466,
    "spro@@": 3467,
    "enbach": 3468,
    "Weltmeisterschaft": 3469,
    "dy": 3470,
    "Mun@@": 3471,
    "zahl": 3472,
    "Zudem": 3473,
    "Frank@@": 3474,
    "erne": 3475,
    "ute": 3476,
    "angs@@": 3477,
    "Sprach@@": 3478,
    "Schil@@": 3479,
    "eher": 3480,
    "Damit": 3481,
    "Part@@": 3482,
    "Frie@@": 3483,
    "ision": 3484,
    "Rang": 3485,
    "müssen": 3486,
    "Arn@@": 3487,
    "ou": 3488,
    "en-": 3489,
    "Anzahl": 3490,
    "Projekt": 3491,
    "ence": 3492,
    "Privat@@": 3493,
    "Beim": 3494,
    "Gru@@": 3495,
    "Sieg": 3496,
    "nis@@": 3497,
    "Bonn": 3498,
    "britischen": 3499,
    "Folgen": 3500,
    "Grenz@@": 3501,
    "lexikon": 3502,
    "Wahr@@": 3503,
    "Physi@@": 3504,
    "here": 3505,
    "ada": 3506,
    "Division": 3507,
    "52": 3508,
    "op": 3509,
    "Markt@@": 3510,
    "4/@@": 3511,
    "rechts": 3512,
    "ome": 3513,
    "daten": 3514,
    "Anna": 3515,
    "ys@@": 3516,
    "heiratete": 3517,
    "ele": 3518,
    "Society": 3519,
    "Schwei@@": 3520,
    "Rau@@": 3521,
    "allgem@@": 3522,
    "bürger@@": 3523,
    "Ther@@": 3524,
    "park": 3525,
    "ammer": 3526,
    "ie-@@": 3527,
    "sogar": 3528,
    "stal@@": 3529,
    "frühen": 3530,
    "cy": 3531,
    "Publik@@": 3532,
    "Pl@@": 3533,
    "oss": 3534,
    "Ti@@": 3535,
    "str@@": 3536,
    "cm": 3537,
    "befand": 3538,
    "Familienname": 3539,
    "adi@@": 3540,
    "reis": 3541,
    "Dat@@": 3542,
    "Quellen": 3543,
    "Alfred": 3544,
    "Firma": 3545,
    "к@@": 3546,
    "upp@@": 3547,
    "ständige": 3548,
    "Grenze": 3549,
    "onn@@": 3550,
    "//@@": 3551,
    "spar@@": 3552,
    "wich@@": 3553,
    "Jürgen": 3554,
    "Leiter": 3555,
    "latt": 3556,
    "Tab@@": 3557,
    "Göttingen": 3558,
    "icht": 3559,
    "rad": 3560,
    "Music": 3561,
    "Deutsch@@": 3562,
    "Gesetz@@": 3563,
    "ø@@": 3564,
    "är": 3565,
    "amerikanischen": 3566,
    "preuß@@": 3567,
    "wert": 3568,
    "fahrer": 3569,
    "ands": 3570,
    "Hart@@": 3571,
    "ball@@": 3572,
    "lebt": 3573,
    "lichkeiten": 3574,
    "Leitung": 3575,
    "Kein": 3576,
    "Grab@@": 3577,
    "ebenso": 3578,
    "1924": 3579,
    "gefähr@@": 3580,
    "Juli@@": 3581,
    "L.": 3582,
    "fanden": 3583,
    "uß@@": 3584,
    "Internet@@": 3585,
    "rich": 3586,
    "nutz@@": 3587,
    "Bürgermeister": 3588,
    "region@@": 3589,
    "setzung": 3590,
    "Regional@@": 3591,
    "tor@@": 3592,
    "ill": 3593,
    "Mem@@": 3594,
    "such@@": 3595,
    "Sig@@": 3596,
    "Hier@@": 3597,
    "Pu@@": 3598,
    "Finale": 3599,
    "Anton": 3600,
    "tik": 3601,
    "Louis": 3602,
    "brachte": 3603,
    "K.": 3604,
    "dert": 3605,
    "1910": 3606,
    "nam@@": 3607,
    "poln@@": 3608,
    "ats": 3609,
    "port": 3610,
    "Joachim": 3611,
    "à": 3612,
    "64": 3613,
    "ics": 3614,
    "gemeinschaft": 3615,
    "besitzt": 3616,
    "gefunden": 3617,
    "Mich@@": 3618,
    "wissenschaft": 3619,
    "ba@@": 3620,
    "ico": 3621,
    "würde": 3622,
    "Ihr": 3623,
    "schlag": 3624,
    "minist@@": 3625,
    "iere": 3626,
    "reihe": 3627,
    "ritt": 3628,
    "ns": 3629,
    "1926": 3630,
    "cc@@": 3631,
    "Hochschule": 3632,
    "Gö@@": 3633,
    "7/@@": 3634,
    "tiger": 3635,
    "Mol@@": 3636,
    "Halb@@": 3637,
    "fran@@": 3638,
    "Renn@@": 3639,
    "Model@@": 3640,
    "einzige": 3641,
    "Mach@@": 3642,
    "ssen@@": 3643,
    "ht@@": 3644,
    "Johann@@": 3645,
    "bes": 3646,
    "Zeich@@": 3647,
    "alität": 3648,
    "Wes@@": 3649,
    "Sachsen": 3650,
    "Vie@@": 3651,
    "Coun@@": 3652,
    "Gattung": 3653,
    "weist": 3654,
    "hren": 3655,
    "Jahres@@": 3656,
    "Brau@@": 3657,
    "istische": 3658,
    "C-@@": 3659,
    "Hein@@": 3660,
    "damaligen": 3661,
    "lers": 3662,
    "we": 3663,
    "tlichen": 3664,
    "zy@@": 3665,
    "viel": 3666,
    "Sozi@@": 3667,
    "Vil@@": 3668,
    "tum": 3669,
    "ain": 3670,
    "Beiträge": 3671,
    "va": 3672,
    "Flugzeu@@": 3673,
    "denkmäler": 3674,
    "bra@@": 3675,
    "eten": 3676,
    ".0@@": 3677,
    "ziehen": 3678,
    "pe": 3679,
    "Heidelberg": 3680,
    "bekann@@": 3681,
    "schaf@@": 3682,
    "Gemein@@": 3683,
    "Itali@@": 3684,
    "fort@@": 3685,
    "schied": 3686,
    "länd@@": 3687,
    "169@@": 3688,
    "anf@@": 3689,
    "läuf@@": 3690,
    "wie@@": 3691,
    "rück@@": 3692,
    "Hans-@@": 3693,
    "Zahl": 3694,
    "verwaltung": 3695,
    "maß@@": 3696,
    "Alle": 3697,
    "Sing@@": 3698,
    "km²": 3699,
    "SPD": 3700,
    "Schwe@@": 3701,
    "diger": 3702,
    "entlichen": 3703,
    "fu@@": 3704,
    "Daniel": 3705,
    "buch@@": 3706,
    "US-amerikanische": 3707,
    "Vorsitzender": 3708,
    "stellten": 3709,
    "spor@@": 3710,
    "Spr@@": 3711,
    "riff": 3712,
    "wechsel@@": 3713,
    "mitt@@": 3714,
    "Pr@@": 3715,
    "ziert": 3716,
    "Miss@@": 3717,
    "cker@@": 3718,
    "leitung": 3719,
    "Doppel@@": 3720,
    "gewiesen": 3721,
    "publi@@": 3722,
    "99@@": 3723,
    "bisher": 3724,
    "ache": 3725,
    "ag": 3726,
    "agen": 3727,
    "abrufbar": 3728,
    "eute": 3729,
    "uter": 3730,
    "UN@@": 3731,
    "Bisch@@": 3732,
    "51": 3733,
    "gem": 3734,
    "Chor@@": 3735,
    "tern@@": 3736,
    "verzeichnis": 3737,
    "auss@@": 3738,
    "168@@": 3739,
    "Stiftung": 3740,
    "vo@@": 3741,
    "Namens@@": 3742,
    "anlage": 3743,
    "rieb": 3744,
    "Kir@@": 3745,
    "ungss@@": 3746,
    "sign@@": 3747,
    "Des@@": 3748,
    "Biographie": 3749,
    "druck": 3750,
    "Moder@@": 3751,
    "techn@@": 3752,
    "Proje@@": 3753,
    "Kant@@": 3754,
    "Mehr@@": 3755,
    "Stad@@": 3756,
    "stamm@@": 3757,
    "mp@@": 3758,
    "Wehr@@": 3759,
    "klein@@": 3760,
    "Parlam@@": 3761,
    "beträgt": 3762,
    "öffentlichen": 3763,
    "Tit@@": 3764,
    "q": 3765,
    "Prot@@": 3766,
    "â@@": 3767,
    "Theat@@": 3768,
    "Ergebnisse": 3769,
    "Star@@": 3770,
    "Hauptartikel": 3771,
    "ris": 3772,
    "rum": 3773,
    "haus@@": 3774,
    "Stadtteil": 3775,
    "zuletzt": 3776,
    "Hess@@": 3777,
    "bildung": 3778,
    "ju@@": 3779,
    "atz": 3780,
    "Gold": 3781,
    "Staffel": 3782,
    "erseits": 3783,
    ".-@@": 3784,
    "ennen": 3785,
    "sprach@@": 3786,
    "fiel": 3787,
    "brei@@": 3788,
    "erer": 3789,
    "Instru@@": 3790,
    "türk@@": 3791,
    "ny": 3792,
    "Tu@@": 3793,
    "Stand@@": 3794,
    "de-@@": 3795,
    "Str@@": 3796,
    "Sü@@": 3797,
    "win": 3798,
    "Brit@@": 3799,
    "osen": 3800,
    "Sta@@": 3801,
    "Eh@@": 3802,
    "Böh@@": 3803,
    "56": 3804,
    "1912": 3805,
    "54": 3806,
    "riert": 3807,
    "meister@@": 3808,
    "späteren": 3809,
    "bilden": 3810,
    "Holl@@": 3811,
    "ays": 3812,
    "Air@@": 3813,
    "leiter": 3814,
    "Adolf": 3815,
    "steller": 3816,
    "runde": 3817,
    "Auss@@": 3818,
    "Ehe": 3819,
    "Österreich@@": 3820,
    "tu@@": 3821,
    "sident": 3822,
    "Marc@@": 3823,
    "1921": 3824,
    "Fuß@@": 3825,
    "Rec@@": 3826,
    "dienst@@": 3827,
    "Münster": 3828,
    "Bremen": 3829,
    "akt@@": 3830,
    "lief@@": 3831,
    "enstein": 3832,
    "hand@@": 3833,
    "yst@@": 3834,
    "mark": 3835,
    "anderer": 3836,
    "Pun@@": 3837,
    "ehr": 3838,
    "stimm@@": 3839,
    "Mainz": 3840,
    "Text": 3841,
    "Det@@": 3842,
    "Regel": 3843,
    "rieben": 3844,
    "wel@@": 3845,
    "Mass@@": 3846,
    "ikan@@": 3847,
    "urg@@": 3848,
    "Fischer": 3849,
    "poli@@": 3850,
    "1923": 3851,
    ".at": 3852,
    "Zuge": 3853,
    "Dro@@": 3854,
    "eil@@": 3855,
    "weiter@@": 3856,
    "schlä@@": 3857,
    "in-@@": 3858,
    "ehemaliger": 3859,
    "keits@@": 3860,
    "dium": 3861,
    "verwen@@": 3862,
    "östlich": 3863,
    "Tar@@": 3864,
    "Sied@@": 3865,
    "P.": 3866,
    "Ich": 3867,
    "sa": 3868,
    "Fläche": 3869,
    "Kategorie": 3870,
    "6/@@": 3871,
    "verbunden": 3872,
    "160@@": 3873,
    "öpf@@": 3874,
    "Sym@@": 3875,
    "gert": 3876,
    "Abschnitt": 3877,
    "Bun@@": 3878,
    "Bezirk": 3879,
    "Kil@@": 3880,
    "richtung": 3881,
    "Politik": 3882,
    "ong@@": 3883,
    "ersetzt": 3884,
    "ierungen": 3885,
    "ř@@": 3886,
    "53": 3887,
    "setzt": 3888,
    "Rund@@": 3889,
    "1922": 3890,
    "Vor": 3891,
    "Spiegel": 3892,
    "Kop@@": 3893,
    "lass@@": 3894,
    "Liebe": 3895,
    "sive": 3896,
    "jap@@": 3897,
    "ahnen": 3898,
    "ISSN": 3899,
    "ktion@@": 3900,
    "Club": 3901,
    "dene": 3902,
    "wan@@": 3903,
    "ume": 3904,
    "osition": 3905,
    "roph@@": 3906,
    "anten": 3907,
    "Halle": 3908,
    "kap@@": 3909,
    "riff@@": 3910,
    "ester": 3911,
    "utt@@": 3912,
    "Milli@@": 3913,
    "orium": 3914,
    "entschei@@": 3915,
    "Bach@@": 3916,
    "Uhr": 3917,
    "herr": 3918,
    "ix@@": 3919,
    "französisch": 3920,
    "Erst": 3921,
    "ship": 3922,
    "Ess@@": 3923,
    "Royal": 3924,
    "zip@@": 3925,
    "uel": 3926,
    "setz@@": 3927,
    "historischen": 3928,
    "ystem@@": 3929,
    "zierte": 3930,
    "Funktion": 3931,
    "tische": 3932,
    "Stan@@": 3933,
    "67@@": 3934,
    "früher": 3935,
    "entfernt": 3936,
    "Heute": 3937,
    "bevor": 3938,
    "priv@@": 3939,
    "Philipp": 3940,
    "digen": 3941,
    "aktiv": 3942,
    "ken@@": 3943,
    "mittel": 3944,
    "ral": 3945,
    "ita": 3946,
    "Angaben": 3947,
    "weiterhin": 3948,
    "#": 3949,
    "Stil": 3950,
    "emann": 3951,
    "AN@@": 3952,
    "ausgezeichnet": 3953,
    "Recht": 3954,
    "Strei@@": 3955,
    "Bevölkerungs@@": 3956,
    "Feh@@": 3957,
    "Russland": 3958,
    "Stell@@": 3959,
    "westlich": 3960,
    "spä@@": 3961,
    "Bri@@": 3962,
    "Salz@@": 3963,
    "österreichischen": 3964,
    "5/@@": 3965,
    "westlichen": 3966,
    "lass": 3967,
    "ves": 3968,
    "School": 3969,
    "stag": 3970,
    "Runde": 3971,
    "frei": 3972,
    "kol@@": 3973,
    "Minist@@": 3974,
    "omi@@": 3975,
    "Vers@@": 3976,
    "Aufgrund": 3977,
    "Brandenburg": 3978,
    "ystem": 3979,
    "besten": 3980,
    "Rock@@": 3981,
    "sel": 3982,
    "Kamer@@": 3983,
    "Musi@@": 3984,
    "tran@@": 3985,
    "Rä@@": 3986,
    "ique": 3987,
    "schau": 3988,
    "reisen": 3989,
    "nungen": 3990,
    "Verkehrs@@": 3991,
    "ora": 3992,
    "Straß@@": 3993,
    "ES@@": 3994,
    "itze": 3995,
    "eröffnet": 3996,
    "States": 3997,
    "1913": 3998,
    "Meisterschaft": 3999,
    "öff@@": 4000,
    "Ehren@@": 4001,
    "hy@@": 4002,
    "College": 4003,
    "sk": 4004,
    "aup@@": 4005,
    "Fr@@": 4006,
    "las@@": 4007,
    "ando": 4008,
    "ulation": 4009,
    "Herzog@@": 4010,
    "hohe": 4011,
    "Tru@@": 4012,
    "Schiff": 4013,
    "lediglich": 4014,
    "Nav@@": 4015,
    "ite": 4016,
    "kom@@": 4017,
    "Jan": 4018,
    "Studien": 4019,
    "Tier@@": 4020,
    "Kapelle": 4021,
    "My@@": 4022,
    "Hau@@": 4023,
    "Washington": 4024,
    "Veranstal@@": 4025,
    "brü@@": 4026,
    "Vertei@@": 4027,
    "erhöh@@": 4028,
    "Fron@@": 4029,
    "dän@@": 4030,
    "Bernhard": 4031,
    "Weiß@@": 4032,
    "wahr@@": 4033,
    "ani": 4034,
    "Boden@@": 4035,
    "bald": 4036,
    "Anschließend": 4037,
    "gesetz": 4038,
    "57": 4039,
    "TV": 4040,
    "Musiker": 4041,
    "Später": 4042,
    "us-@@": 4043,
    "Liv@@": 4044,
    "Cur@@": 4045,
    "geschrieben": 4046,
    "fluss@@": 4047,
    "Dre@@": 4048,
    "3-8@@": 4049,
    "Männ@@": 4050,
    "Körper@@": 4051,
    "Test@@": 4052,
    "New@@": 4053,
    "Schutz@@": 4054,
    "itionen": 4055,
    "europäischen": 4056,
    "Rü@@": 4057,
    "ix": 4058,
    "sollen": 4059,
    "enheit": 4060,
    "Statist@@": 4061,
    "eter": 4062,
    "Wall@@": 4063,
    "Fisch@@": 4064,
    "Hall@@": 4065,
    "sz@@": 4066,
    "stuf@@": 4067,
    "Mein@@": 4068,
    "Heim@@": 4069,
    "ish": 4070,
    "reibung": 4071,
    "zählt": 4072,
    "rom": 4073,
    "une": 4074,
    "arbei@@": 4075,
    "Step@@": 4076,
    "pers@@": 4077,
    "69@@": 4078,
    "leitete": 4079,
    "steh@@": 4080,
    "Sä@@": 4081,
    "hl": 4082,
    "mus": 4083,
    "Handels@@": 4084,
    "yn": 4085,
    "Zwei": 4086,
    "Meister@@": 4087,
    "Freiburg": 4088,
    "erfol@@": 4089,
    "Daten": 4090,
    "Herz@@": 4091,
    "brau@@": 4092,
    "Bundesrepublik": 4093,
    "Y": 4094,
    "Mot@@": 4095,
    "ungst@@": 4096,
    "Ern@@": 4097,
    "Syn@@": 4098,
    "Krit@@": 4099,
    "leich@@": 4100,
    "Tschech@@": 4101,
    "linge": 4102,
    "onie": 4103,
    "Henry": 4104,
    "Clau@@": 4105,
    "August@@": 4106,
    "sub@@": 4107,
    "cial": 4108,
    "Mär@@": 4109,
    "entwick@@": 4110,
    "frie@@": 4111,
    "band": 4112,
    "wollte": 4113,
    "aktion": 4114,
    "engl": 4115,
    "58": 4116,
    "Den@@": 4117,
    "Wach@@": 4118,
    "leit@@": 4119,
    "ränk@@": 4120,
    "ower": 4121,
    "Künst@@": 4122,
    "stätte": 4123,
    "ive": 4124,
    "Pin@@": 4125,
    "entsp@@": 4126,
    "een": 4127,
    "ala": 4128,
    "Mari@@": 4129,
    "entum": 4130,
    "markiert": 4131,
    "Spanien": 4132,
    "167@@": 4133,
    "laub@@": 4134,
    "etzen": 4135,
    "Darstellung": 4136,
    "dam@@": 4137,
    "Grä@@": 4138,
    "Gustav": 4139,
    "Ran@@": 4140,
    "wand": 4141,
    "ée": 4142,
    "Wh@@": 4143,
    "konstru@@": 4144,
    "8/@@": 4145,
    "Abteilung": 4146,
    "ellen@@": 4147,
    "Sor@@": 4148,
    "att@@": 4149,
    "85": 4150,
    "Mitarbeiter": 4151,
    "Blu@@": 4152,
    "Département": 4153,
    "í": 4154,
    "dur@@": 4155,
    "2:@@": 4156,
    "Vert@@": 4157,
    "vertei@@": 4158,
    "etzung": 4159,
    "Beschreibung": 4160,
    "ón": 4161,
    "59": 4162,
    "kin@@": 4163,
    "wa": 4164,
    "tur@@": 4165,
    "mie@@": 4166,
    "Gymnasium": 4167,
    "ition": 4168,
    "wuchs": 4169,
    "Hü@@": 4170,
    "ph": 4171,
    "sollten": 4172,
    "geschütz@@": 4173,
    "Kurt": 4174,
    "erreichen": 4175,
    "Tau@@": 4176,
    "nit@@": 4177,
    "Wolf@@": 4178,
    "Toter": 4179,
    "erbaut": 4180,
    "qualifiz@@": 4181,
    "Archiv": 4182,
    "militär@@": 4183,
    "uten": 4184,
    "fa@@": 4185,
    "archiv@@": 4186,
    "Bul@@": 4187,
    "zahlreichen": 4188,
    "Rie@@": 4189,
    "einzelnen": 4190,
    "orie": 4191,
    "State": 4192,
    "fal@@": 4193,
    "alisi@@": 4194,
    "got@@": 4195,
    "Gerichts@@": 4196,
    "Films": 4197,
    "reib@@": 4198,
    "Bilder": 4199,
    "oper@@": 4200,
    "Krie@@": 4201,
    "keinen": 4202,
    "9/@@": 4203,
    "ministerium": 4204,
    "liegenden": 4205,
    "ari": 4206,
    "wertung": 4207,
    "Ass@@": 4208,
    "zz@@": 4209,
    "fig@@": 4210,
    "aktu@@": 4211,
    "Fahrzeu@@": 4212,
    "Island": 4213,
    "bung": 4214,
    "Metho@@": 4215,
    "Seg@@": 4216,
    "schütz@@": 4217,
    "trägt": 4218,
    "hervor@@": 4219,
    "druck@@": 4220,
    "GND-Personendatensatz": 4221,
    "bess@@": 4222,
    "oni@@": 4223,
    "sur@@": 4224,
    "Abgeord@@": 4225,
    "978-3-9@@": 4226,
    "beteiligt": 4227,
    "Ferdinand": 4228,
    "strei@@": 4229,
    "tau@@": 4230,
    "Hof": 4231,
    "erheb@@": 4232,
    "Einführung": 4233,
    "uk@@": 4234,
    "umb@@": 4235,
    "Statistik": 4236,
    "ex": 4237,
    "Cup": 4238,
    "Eur@@": 4239,
    "weg@@": 4240,
    "bauten": 4241,
    "kün@@": 4242,
    "rechts@@": 4243,
    "ding": 4244,
    "russisch": 4245,
    "Bes@@": 4246,
    "Oper@@": 4247,
    "gar": 4248,
    "Vis@@": 4249,
    "Friedhof": 4250,
    "ungar@@": 4251,
    "Thema": 4252,
    "Soldaten": 4253,
    "Gruppen": 4254,
    "Oxford": 4255,
    "pass@@": 4256,
    "300": 4257,
    "ois": 4258,
    "an-@@": 4259,
    "Basis": 4260,
    "1911": 4261,
    "Auftrag": 4262,
    "Schüler": 4263,
    "Anf@@": 4264,
    "bringen": 4265,
    "prin@@": 4266,
    "Königreich": 4267,
    "heraus": 4268,
    "dun@@": 4269,
    "Gegensatz": 4270,
    "ischem": 4271,
    "Spitz@@": 4272,
    "denn": 4273,
    "Zeitpunkt": 4274,
    "eien": 4275,
    "le-@@": 4276,
    "darf": 4277,
    "Flu@@": 4278,
    "Hö@@": 4279,
    "Zug@@": 4280,
    "Lied": 4281,
    "ath": 4282,
    "ole": 4283,
    "Vertreter": 4284,
    "zin@@": 4285,
    "sprä@@": 4286,
    "iens": 4287,
    ".net": 4288,
    "4,@@": 4289,
    "folgten": 4290,
    "Himm@@": 4291,
    "schle@@": 4292,
    "Nam@@": 4293,
    "peri@@": 4294,
    "ös@@": 4295,
    "zeichnungen": 4296,
    "links": 4297,
    "Ins@@": 4298,
    "lten": 4299,
    "Ram@@": 4300,
    "Fluss": 4301,
    "Organisation": 4302,
    "tradition@@": 4303,
    "Sw@@": 4304,
    "rechte": 4305,
    "M-@@": 4306,
    "Webarchiven": 4307,
    "fern@@": 4308,
    "P-@@": 4309,
    "tal": 4310,
    "Baden-Württemberg": 4311,
    "far@@": 4312,
    "gliedert": 4313,
    "gesehen": 4314,
    "erfolg@@": 4315,
    "wirk@@": 4316,
    "Rel@@": 4317,
    "Verfügung": 4318,
    "Zo@@": 4319,
    "gesamte": 4320,
    "neun": 4321,
    "Wen@@": 4322,
    "ran": 4323,
    "ff.": 4324,
    "alisten": 4325,
    "pri@@": 4326,
    "mannschaft": 4327,
    "int@@": 4328,
    "sig@@": 4329,
    "vollständig": 4330,
    "bietet": 4331,
    "fiz@@": 4332,
    "Vorlage": 4333,
    "min": 4334,
    "agt": 4335,
    "в@@": 4336,
    "italienischer": 4337,
    "Regisseur": 4338,
    "ät": 4339,
    "ografie": 4340,
    "bu@@": 4341,
    "Metern": 4342,
    "Ziel@@": 4343,
    "moder@@": 4344,
    "Umgebung": 4345,
    "setzen": 4346,
    "scht": 4347,
    "auff@@": 4348,
    "endes": 4349,
    "Leh@@": 4350,
    "Stru@@": 4351,
    "Ven@@": 4352,
    "wirtschaft": 4353,
    "Brun@@": 4354,
    "Dun@@": 4355,
    "hauptsächlich": 4356,
    "katholischen": 4357,
    "unt": 4358,
    "zeigen": 4359,
    "66": 4360,
    "1907": 4361,
    "gemacht": 4362,
    "formen": 4363,
    "Allgemeine": 4364,
    "Chr@@": 4365,
    "omat@@": 4366,
    "verlor": 4367,
    "pen@@": 4368,
    "line": 4369,
    "ker@@": 4370,
    "schnitt": 4371,
    "var@@": 4372,
    "net@@": 4373,
    "IN@@": 4374,
    "höh@@": 4375,
    "Wissenschaften": 4376,
    "Unterstützung": 4377,
    "nächsten": 4378,
    "Bü@@": 4379,
    "hor@@": 4380,
    "wenige": 4381,
    "iff@@": 4382,
    "Tä@@": 4383,
    "Sab@@": 4384,
    "OR@@": 4385,
    "Ausstellung": 4386,
    "DE@@": 4387,
    "deutsch@@": 4388,
    "heißt": 4389,
    "iges": 4390,
    "Bayerischen": 4391,
    "erungen": 4392,
    "tex@@": 4393,
    "Jean": 4394,
    "North": 4395,
    "dner": 4396,
    "formation": 4397,
    "fall@@": 4398,
    "Raum@@": 4399,
    "Besonder@@": 4400,
    "Silber@@": 4401,
    "Wissenschaft@@": 4402,
    "alismus": 4403,
    "zahl@@": 4404,
    "Helmut": 4405,
    "lehr@@": 4406,
    "vermutlich": 4407,
    "Mili@@": 4408,
    "essi@@": 4409,
    "Trainer": 4410,
    "1905": 4411,
    "zäh@@": 4412,
    "Anlage": 4413,
    "Trau@@": 4414,
    "Lou@@": 4415,
    "einfach@@": 4416,
    "61": 4417,
    "ank": 4418,
    "ration": 4419,
    "Ker@@": 4420,
    "Philosophie": 4421,
    "Kern@@": 4422,
    "Eg@@": 4423,
    "Juden": 4424,
    "Bö@@": 4425,
    "wissenschaftler": 4426,
    "gewicht": 4427,
    "sicht@@": 4428,
    "assen": 4429,
    "isiert": 4430,
    "dadurch": 4431,
    "alist@@": 4432,
    "hält": 4433,
    "Papst": 4434,
    "US": 4435,
    "arbeitung": 4436,
    "Edition": 4437,
    "Abschluss": 4438,
    "beein@@": 4439,
    "1908": 4440,
    "ringen": 4441,
    "Dienst": 4442,
    "ms@@": 4443,
    "Herbert": 4444,
    "haupt@@": 4445,
    "keiten": 4446,
    "eil": 4447,
    "erfolgreich": 4448,
    "gek@@": 4449,
    "ō": 4450,
    "yth@@": 4451,
    "62": 4452,
    "Bildung": 4453,
    "wirkte": 4454,
    "mindestens": 4455,
    "Rennen": 4456,
    "Tat@@": 4457,
    "Kommun@@": 4458,
    "Festival": 4459,
    "1917": 4460,
    "verz@@": 4461,
    "essen": 4462,
    "reiben": 4463,
    "jeder": 4464,
    "Pfarr@@": 4465,
    "leicht": 4466,
    "regierung": 4467,
    "ais": 4468,
    "Fu@@": 4469,
    "griech@@": 4470,
    "53@@": 4471,
    "Ali@@": 4472,
    "pun@@": 4473,
    "jährlich": 4474,
    "63": 4475,
    "ñ@@": 4476,
    "entsprech@@": 4477,
    "Markt": 4478,
    "masch@@": 4479,
    "dit@@": 4480,
    "liefert": 4481,
    "Mann@@": 4482,
    "ollen": 4483,
    "Tsch@@": 4484,
    "South": 4485,
    "Minuten": 4486,
    "Direktor": 4487,
    "Max@@": 4488,
    "Dorf@@": 4489,
    "geschicht@@": 4490,
    "Friedrich@@": 4491,
    "ological": 4492,
    "darüber": 4493,
    "Verwendung": 4494,
    "grei@@": 4495,
    "Stock@@": 4496,
    "euer": 4497,
    "schiff": 4498,
    "gehörten": 4499,
    "а": 4500,
    "kommun@@": 4501,
    "aut": 4502,
    "hard": 4503,
    "atik": 4504,
    "ück": 4505,
    "Pen@@": 4506,
    "Schloss@@": 4507,
    "ahl@@": 4508,
    "Lü@@": 4509,
    "House": 4510,
    "haltung": 4511,
    "lern": 4512,
    "Stefan": 4513,
    "riebe": 4514,
    "Punkte": 4515,
    "ov": 4516,
    "Zusammenarbeit": 4517,
    "exu@@": 4518,
    "stet": 4519,
    "Industrie@@": 4520,
    "ight": 4521,
    "ausgabe": 4522,
    "heits@@": 4523,
    "mund": 4524,
    "Sto@@": 4525,
    "Press@@": 4526,
    "ela": 4527,
    "Beh@@": 4528,
    "zerstört": 4529,
    "д@@": 4530,
    "wahlen": 4531,
    "bezir@@": 4532,
    "rad@@": 4533,
    "ständigen": 4534,
    "Lehrer": 4535,
    "gleichzeitig": 4536,
    "Verlags@@": 4537,
    "II@@": 4538,
    "Netz@@": 4539,
    "Jahr@@": 4540,
    "ritten": 4541,
    "Position": 4542,
    "Port@@": 4543,
    "wort": 4544,
    "Ten@@": 4545,
    "Jung@@": 4546,
    "Eltern": 4547,
    "kg": 4548,
    "gerung": 4549,
    "betrug": 4550,
    "endete": 4551,
    "östlichen": 4552,
    "nitz": 4553,
    "hu@@": 4554,
    "zel@@": 4555,
    "ij@@": 4556,
    "lebten": 4557,
    "978-@@": 4558,
    "67": 4559,
    "berech@@": 4560,
    "heraus@@": 4561,
    "T.": 4562,
    "let": 4563,
    "Völ@@": 4564,
    "Vorgän@@": 4565,
    "Elisabeth": 4566,
    "ahr": 4567,
    "Lib@@": 4568,
    "belegte": 4569,
    "Städte": 4570,
    "Ländern": 4571,
    "länger@@": 4572,
    "tik@@": 4573,
    "persön@@": 4574,
    "sam": 4575,
    "männ@@": 4576,
    "sätze": 4577,
    "Charl@@": 4578,
    "radi@@": 4579,
    "ias": 4580,
    "Lad@@": 4581,
    "Hauptstadt": 4582,
    "richt": 4583,
    "Interview": 4584,
    "Stück": 4585,
    "ution": 4586,
    "Alter@@": 4587,
    "bst@@": 4588,
    "ú@@": 4589,
    "alog@@": 4590,
    "eck": 4591,
    "omp@@": 4592,
    "68": 4593,
    "etten": 4594,
    "koh@@": 4595,
    "78@@": 4596,
    "ets": 4597,
    "terin": 4598,
    "Dreh@@": 4599,
    "lau": 4600,
    "statist@@": 4601,
    "sach@@": 4602,
    "ild": 4603,
    "Samm@@": 4604,
    "zieht": 4605,
    "Verfahren": 4606,
    "tnisse": 4607,
    "erschienen": 4608,
    "Druck@@": 4609,
    "besie@@": 4610,
    "Hamburger": 4611,
    "Schä@@": 4612,
    "erfolgt": 4613,
    "CD": 4614,
    "IA@@": 4615,
    "Los": 4616,
    "zeiten": 4617,
    "Schmidt": 4618,
    "Pfer@@": 4619,
    "Schutz": 4620,
    "zt": 4621,
    "igt": 4622,
    "fla@@": 4623,
    "Kampf": 4624,
    "dia": 4625,
    "org": 4626,
    "Bundesliga": 4627,
    "formi@@": 4628,
    "gerin": 4629,
    "Viel@@": 4630,
    "Herren": 4631,
    "lieg@@": 4632,
    "Wappen": 4633,
    "3:@@": 4634,
    "Best@@": 4635,
    "glie@@": 4636,
    "dru@@": 4637,
    "änden": 4638,
    "unterstütz@@": 4639,
    "Gebäu@@": 4640,
    "Ja@@": 4641,
    "Orte": 4642,
    "cor@@": 4643,
    "20-@@": 4644,
    "Geg@@": 4645,
    "name": 4646,
    "sson": 4647,
    "trag": 4648,
    "aly@@": 4649,
    "ão": 4650,
    "trag@@": 4651,
    "Stern@@": 4652,
    "1909": 4653,
    "bibliothek": 4654,
    "Lar@@": 4655,
    "ktions@@": 4656,
    "Großen": 4657,
    "Fried@@": 4658,
    "Einfluss": 4659,
    "fort": 4660,
    "Rat@@": 4661,
    "Leon@@": 4662,
    "ren": 4663,
    "knapp": 4664,
    "dien@@": 4665,
    "Champion@@": 4666,
    "olo@@": 4667,
    "Landesamt": 4668,
    "Biograph@@": 4669,
    "schwed@@": 4670,
    "gangen": 4671,
    "ünst@@": 4672,
    "bay@@": 4673,
    "gerich@@": 4674,
    "tag@@": 4675,
    "rechen": 4676,
    "Zuf@@": 4677,
    "exp@@": 4678,
    "DI@@": 4679,
    "Wur@@": 4680,
    "denden": 4681,
    "1903": 4682,
    "1904": 4683,
    "Fluss@@": 4684,
    "Staat": 4685,
    "Dach@@": 4686,
    "großer": 4687,
    "male": 4688,
    "gend": 4689,
    "ution@@": 4690,
    "ine@@": 4691,
    "Miner@@": 4692,
    "Information": 4693,
    "ott": 4694,
    "ruf": 4695,
    "mb@@": 4696,
    "sogenannten": 4697,
    "Zusammenhang": 4698,
    "SC": 4699,
    "orn": 4700,
    "Arch@@": 4701,
    "iesen": 4702,
    "schl@@": 4703,
    "mussten": 4704,
    "Australi@@": 4705,
    "tnis": 4706,
    "00-@@": 4707,
    "indem": 4708,
    "nisse": 4709,
    "fir@@": 4710,
    "159@@": 4711,
    "hil@@": 4712,
    "Neben@@": 4713,
    "Provin@@": 4714,
    "Früh@@": 4715,
    "lub": 4716,
    "verkauft": 4717,
    "ynam@@": 4718,
    "ο@@": 4719,
    "Nürnberg": 4720,
    "acher": 4721,
    "freien": 4722,
    "sech@@": 4723,
    "Ori@@": 4724,
    "uche": 4725,
    "Dire@@": 4726,
    "verläuft": 4727,
    "äss@@": 4728,
    "1906": 4729,
    "Song": 4730,
    "Gie@@": 4731,
    "wander@@": 4732,
    "Urs@@": 4733,
    "rateg@@": 4734,
    "schnit@@": 4735,
    "etzt": 4736,
    "akt": 4737,
    "owski": 4738,
    "kaum": 4739,
    "Wat@@": 4740,
    "Oh@@": 4741,
    "dens@@": 4742,
    "Log@@": 4743,
    "grenzt": 4744,
    "Quali@@": 4745,
    "wir": 4746,
    "verfahren": 4747,
    "legung": 4748,
    "Luf@@": 4749,
    "gener@@": 4750,
    "ief@@": 4751,
    "wood": 4752,
    "Wenn": 4753,
    "Gat@@": 4754,
    "gesamten": 4755,
    "Erich": 4756,
    "groß@@": 4757,
    "gens": 4758,
    "ura": 4759,
    "bahn@@": 4760,
    "Fir@@": 4761,
    "besondere": 4762,
    "Merk@@": 4763,
    "Wider@@": 4764,
    "beck": 4765,
    "Spielzeit": 4766,
    "Klin@@": 4767,
    "furt": 4768,
    "Times": 4769,
    "Dieter": 4770,
    "testen": 4771,
    "Turm": 4772,
    "geln": 4773,
    "dest@@": 4774,
    "42@@": 4775,
    "000@@": 4776,
    "Zwisch@@": 4777,
    "russischen": 4778,
    "übernommen": 4779,
    "anstalt": 4780,
    "utnant": 4781,
    "orien@@": 4782,
    "tschech@@": 4783,
    "igung": 4784,
    "low@@": 4785,
    "bekannten": 4786,
    "ds@@": 4787,
    "ister": 4788,
    "arm@@": 4789,
    "Eck@@": 4790,
    "ska": 4791,
    "Französ@@": 4792,
    "fern": 4793,
    "laut": 4794,
    "Der@@": 4795,
    "Bezirks@@": 4796,
    "klasse": 4797,
    "Forschung": 4798,
    "vin@@": 4799,
    "wiederum": 4800,
    "gangs@@": 4801,
    "Cra@@": 4802,
    "Bis@@": 4803,
    "Schweden": 4804,
    "Haup@@": 4805,
    "Bom@@": 4806,
    "Rin@@": 4807,
    "eis@@": 4808,
    "Wech@@": 4809,
    "wissenschaft@@": 4810,
    "kir@@": 4811,
    "wid@@": 4812,
    "Quelle": 4813,
    "Organis@@": 4814,
    "Autob@@": 4815,
    "schen@@": 4816,
    "regelmäßig": 4817,
    "uns": 4818,
    "othe@@": 4819,
    "iegel@@": 4820,
    "itte": 4821,
    "daraufhin": 4822,
    "ac": 4823,
    "Titel@@": 4824,
    "tenberg": 4825,
    "lager": 4826,
    "Gau@@": 4827,
    "elles": 4828,
    "Train@@": 4829,
    "Richter": 4830,
    "strah@@": 4831,
    "euch@@": 4832,
    "bestehen": 4833,
    "ı@@": 4834,
    "Tim@@": 4835,
    "anlagen": 4836,
    "Cam@@": 4837,
    "namen": 4838,
    "angen@@": 4839,
    "emat@@": 4840,
    "Sitz@@": 4841,
    "Av@@": 4842,
    "sprochen": 4843,
    "eck@@": 4844,
    "defekt": 4845,
    "Wander@@": 4846,
    "indi@@": 4847,
    "Dazu": 4848,
    "Theodor": 4849,
    "burg-@@": 4850,
    "Brig@@": 4851,
    "gent": 4852,
    "Main@@": 4853,
    "Gla@@": 4854,
    "überwiegend": 4855,
    "ausschließlich": 4856,
    "ards": 4857,
    "Dist@@": 4858,
    "lis": 4859,
    "Proz@@": 4860,
    "mo": 4861,
    "GB": 4862,
    "Gir@@": 4863,
    "psych@@": 4864,
    "ept@@": 4865,
    "ER@@": 4866,
    "Verwaltung": 4867,
    "ruppe": 4868,
    "Ungarn": 4869,
    "trainer": 4870,
    "Erb@@": 4871,
    "Anschluss": 4872,
    "ativ": 4873,
    "ator@@": 4874,
    "Magn@@": 4875,
    "ý": 4876,
    "Frankfurter": 4877,
    "5,@@": 4878,
    "Sz@@": 4879,
    "kirchen": 4880,
    "enc@@": 4881,
    "unternehmen": 4882,
    "heutige": 4883,
    "Tätigkeit": 4884,
    "mö@@": 4885,
    "Einige": 4886,
    "tie@@": 4887,
    "rh@@": 4888,
    "Science": 4889,
    "system@@": 4890,
    "zuge@@": 4891,
    "Preußen": 4892,
    "Herbst": 4893,
    "Archä@@": 4894,
    "Nummer": 4895,
    "träge": 4896,
    "etter@@": 4897,
    "Stei@@": 4898,
    "rang@@": 4899,
    "leitet": 4900,
    "Siedlung": 4901,
    "derungen": 4902,
    "hi": 4903,
    "ition@@": 4904,
    "68@@": 4905,
    "Berlin@@": 4906,
    "Bud@@": 4907,
    "stimmung": 4908,
    "Pie@@": 4909,
    "verloren": 4910,
    "Nutz@@": 4911,
    "ior": 4912,
    "Georg@@": 4913,
    "verliehen": 4914,
    "enzen": 4915,
    "Ball@@": 4916,
    "Demokrat@@": 4917,
    "Aktiv@@": 4918,
    "to@@": 4919,
    "Kaiser@@": 4920,
    "medaille": 4921,
    "ror@@": 4922,
    "welcher": 4923,
    "Vgl.": 4924,
    "Med@@": 4925,
    "Bericht": 4926,
    "Deb@@": 4927,
    "Fund@@": 4928,
    "Deutschlands": 4929,
    "CDU": 4930,
    "dungs@@": 4931,
    "71": 4932,
    "Tore": 4933,
    "ager": 4934,
    "har@@": 4935,
    "zus@@": 4936,
    "errich@@": 4937,
    "Polizei@@": 4938,
    "150@@": 4939,
    "Online-@@": 4940,
    "ossi@@": 4941,
    "Ide@@": 4942,
    "Dissertation": 4943,
    "natür@@": 4944,
    "nes": 4945,
    "Ergebnis": 4946,
    "1915": 4947,
    "Kro@@": 4948,
    "Hun@@": 4949,
    "69": 4950,
    "kali@@": 4951,
    "Fil@@": 4952,
    "neuer": 4953,
    "43@@": 4954,
    "südlichen": 4955,
    "Bank@@": 4956,
    "Ritter@@": 4957,
    "ucht": 4958,
    "Programm@@": 4959,
    "klassi@@": 4960,
    "äf@@": 4961,
    "Kraft@@": 4962,
    "Straßen@@": 4963,
    "musik": 4964,
    "kul@@": 4965,
    "its": 4966,
    "Infanter@@": 4967,
    "dür@@": 4968,
    "eichen": 4969,
    "teils": 4970,
    "Gesetz": 4971,
    "odi@@": 4972,
    "defin@@": 4973,
    "alo@@": 4974,
    "hr": 4975,
    "kun@@": 4976,
    "Red@@": 4977,
    "Peters@@": 4978,
    "rise": 4979,
    "sters": 4980,
    "400": 4981,
    "dig": 4982,
    "Ü@@": 4983,
    "fahrzeu@@": 4984,
    "es-@@": 4985,
    "änd@@": 4986,
    "ssel": 4987,
    "beginnt": 4988,
    "zeich@@": 4989,
    "out": 4990,
    "eus": 4991,
    "gebiete": 4992,
    "stands@@": 4993,
    "handel@@": 4994,
    "Führ@@": 4995,
    "Ortschaft": 4996,
    "Wör@@": 4997,
    "Vergleich": 4998,
    "ont": 4999,
    "Heimat": 5000,
    "rolle": 5001,
    "Organ@@": 5002,
    "weite": 5003,
    "1916": 5004,
    "ante": 5005,
    "Erzbischof": 5006,
    "Jugend": 5007,
    "Bab@@": 5008,
    "IT@@": 5009,
    "Just@@": 5010,
    "verän@@": 5011,
    "Brücke": 5012,
    "gingen": 5013,
    "Cas@@": 5014,
    "historische": 5015,
    "Kommission": 5016,
    "Historiker": 5017,
    "aussch@@": 5018,
    "Wie@@": 5019,
    "Kompon@@": 5020,
    "stung": 5021,
    "sitz@@": 5022,
    "Jazz@@": 5023,
    "bewegung": 5024,
    "Kind": 5025,
    "Objekte": 5026,
    "delt": 5027,
    "Opfer": 5028,
    "72": 5029,
    "Monate": 5030,
    "ammlung": 5031,
    "Gil@@": 5032,
    "CO@@": 5033,
    "Eff@@": 5034,
    "Les": 5035,
    "enne": 5036,
    ".com/@@": 5037,
    "entlang": 5038,
    "Association": 5039,
    "”": 5040,
    "Galerie": 5041,
    "klär@@": 5042,
    "trug": 5043,
    "zes": 5044,
    "Chemi@@": 5045,
    "VI": 5046,
    "Nie@@": 5047,
    "Heiligen": 5048,
    "sprung": 5049,
    "ota": 5050,
    "natur@@": 5051,
    "ws": 5052,
    "Winter": 5053,
    "Marie": 5054,
    "SP@@": 5055,
    "Röm@@": 5056,
    "Sommer@@": 5057,
    "Internationalen": 5058,
    "beendete": 5059,
    "sten@@": 5060,
    "-M@@": 5061,
    "Wort": 5062,
    "Sp": 5063,
    "Architekt": 5064,
    "gemeinden": 5065,
    "stück": 5066,
    "ziger": 5067,
    "indungen": 5068,
    "Fac@@": 5069,
    "Pfarrkirche": 5070,
    "schein@@": 5071,
    "pt@@": 5072,
    "Sänger": 5073,
    "DN@@": 5074,
    "Sum@@": 5075,
    "Güter@@": 5076,
    "sky": 5077,
    "entwicklung": 5078,
    "Europäischen": 5079,
    "Jurist": 5080,
    "gnis": 5081,
    "verließ": 5082,
    "Kritik": 5083,
    "Glas@@": 5084,
    "vil@@": 5085,
    "978-3-8@@": 5086,
    "Betriebs@@": 5087,
    "Obje@@": 5088,
    "Che@@": 5089,
    "anda": 5090,
    "Hall": 5091,
    "heimer": 5092,
    "aner": 5093,
    "aux": 5094,
    "Bewegung": 5095,
    "Masch@@": 5096,
    "No": 5097,
    "entdeckt": 5098,
    "bericht": 5099,
    "omie": 5100,
    "Hand": 5101,
    "ania": 5102,
    "wahrscheinlich": 5103,
    "Besatz@@": 5104,
    "Konfli@@": 5105,
    "Schei@@": 5106,
    "kreuz": 5107,
    "Mannschaften": 5108,
    "olle": 5109,
    "Cambridge": 5110,
    "18-@@": 5111,
    "Wiesbaden": 5112,
    "deshalb": 5113,
    "DV@@": 5114,
    "jün@@": 5115,
    "Großbritannien": 5116,
    "britische": 5117,
    "tha": 5118,
    "Än@@": 5119,
    "zwölf": 5120,
    "hof@@": 5121,
    "Darmstadt": 5122,
    "ô@@": 5123,
    "gestal@@": 5124,
    "sam@@": 5125,
    "Schu@@": 5126,
    "ungspro@@": 5127,
    "annten": 5128,
    "Ret@@": 5129,
    "selten": 5130,
    "Programm": 5131,
    "Nacht": 5132,
    "mühle": 5133,
    "stanz": 5134,
    "Manfred": 5135,
    "Bibliothek": 5136,
    "galt": 5137,
    "eiche": 5138,
    "95": 5139,
    "aub@@": 5140,
    "Vir@@": 5141,
    "Schach@@": 5142,
    "pflan@@": 5143,
    "row": 5144,
    "kal@@": 5145,
    "thei@@": 5146,
    "Prü@@": 5147,
    "ous": 5148,
    "e/@@": 5149,
    "barkeit": 5150,
    "fr@@": 5151,
    "Company": 5152,
    "Schriften": 5153,
    "fuhr": 5154,
    "British": 5155,
    "taus@@": 5156,
    "eits@@": 5157,
    "betrieben": 5158,
    "gewöhn@@": 5159,
    "stammen": 5160,
    "erwarb": 5161,
    "Basel": 5162,
    "car@@": 5163,
    "Ange@@": 5164,
    "vertre@@": 5165,
    "FI@@": 5166,
    "SS@@": 5167,
    "Kno@@": 5168,
    "indust@@": 5169,
    "Rob@@": 5170,
    "Air": 5171,
    "Weg@@": 5172,
    "Sur@@": 5173,
    "emit@@": 5174,
    "150": 5175,
    "Cu@@": 5176,
    "abri@@": 5177,
    "Var@@": 5178,
    "Erz@@": 5179,
    "nichts": 5180,
    "handlungen": 5181,
    "kop@@": 5182,
    "zusätzlich": 5183,
    "Theater@@": 5184,
    "bus": 5185,
    "Weise": 5186,
    "elte": 5187,
    "licht": 5188,
    "\\frac": 5189,
    "alls": 5190,
    "n-@@": 5191,
    "ros": 5192,
    "versammlung": 5193,
    "Domin@@": 5194,
    "durchgeführt": 5195,
    "könig@@": 5196,
    "Chicago": 5197,
    "mess@@": 5198,
    "satz@@": 5199,
    "Modell": 5200,
    "off": 5201,
    "vie@@": 5202,
    "ler-@@": 5203,
    "Leit@@": 5204,
    "Grafen": 5205,
    "Rundfun@@": 5206,
    "Vereins": 5207,
    "comp@@": 5208,
    "nungs@@": 5209,
    "88": 5210,
    "Frage": 5211,
    "Freund@@": 5212,
    "schwer": 5213,
    "echan@@": 5214,
    "Fün@@": 5215,
    "Grundlage": 5216,
    "genannten": 5217,
    "Institute": 5218,
    "doi:10.@@": 5219,
    "Doch": 5220,
    "handlung": 5221,
    "able": 5222,
    "0/@@": 5223,
    "weiterer": 5224,
    "Nordrhein-Westfalen": 5225,
    "Katholi@@": 5226,
    "illa": 5227,
    "Simon": 5228,
    "wand@@": 5229,
    "wehr": 5230,
    "Übersetzung": 5231,
    "Math@@": 5232,
    "Seit@@": 5233,
    "Darüber": 5234,
    "Olden@@": 5235,
    "DB": 5236,
    "o.@@": 5237,
    "wissenschaftlichen": 5238,
    "verfass@@": 5239,
    "Universitäts@@": 5240,
    "a.@@": 5241,
    "Kos@@": 5242,
    "Center": 5243,
    "strecke": 5244,
    "Zent@@": 5245,
    "Landschafts@@": 5246,
    "Bol@@": 5247,
    "gehalten": 5248,
    "englischen": 5249,
    "Bern": 5250,
    "1902": 5251,
    "gau": 5252,
    "lassung": 5253,
    "F-@@": 5254,
    "born": 5255,
    "wit@@": 5256,
    "Wald": 5257,
    "ämpf@@": 5258,
    "vent@@": 5259,
    "Ingenie@@": 5260,
    "over": 5261,
    "Schau@@": 5262,
    "Pos@@": 5263,
    "own@@": 5264,
    "E-@@": 5265,
    "pra@@": 5266,
    "jährige": 5267,
    "vorhanden": 5268,
    "ement@@": 5269,
    "kost@@": 5270,
    "ku@@": 5271,
    "polit@@": 5272,
    "italienischen": 5273,
    "el-@@": 5274,
    "ufen": 5275,
    "Life": 5276,
    "Stud@@": 5277,
    "weltweit": 5278,
    "affen": 5279,
    "Stimmen": 5280,
    "Baum@@": 5281,
    "ows": 5282,
    "rand": 5283,
    "CA@@": 5284,
    "zent": 5285,
    "alog": 5286,
    "Gab@@": 5287,
    "Tübingen": 5288,
    "rale": 5289,
    "sch-@@": 5290,
    "Alber@@": 5291,
    "Glei@@": 5292,
    "fäh@@": 5293,
    "agement": 5294,
    "Tor": 5295,
    "darin": 5296,
    "int": 5297,
    "PS": 5298,
    "Journalist": 5299,
    "denk@@": 5300,
    "Obwohl": 5301,
    "berufen": 5302,
    "Dies@@": 5303,
    "stau@@": 5304,
    "komplet@@": 5305,
    "äuf@@": 5306,
    "iell": 5307,
    "erstes": 5308,
    "Kandi@@": 5309,
    "Preuß@@": 5310,
    "serv@@": 5311,
    "86": 5312,
    "jeweiligen": 5313,
    "seien": 5314,
    "schwei@@": 5315,
    "alistischen": 5316,
    "CH@@": 5317,
    "rang": 5318,
    "kan": 5319,
    "Cla@@": 5320,
    "itäten": 5321,
    "Bä@@": 5322,
    "eur": 5323,
    "Weltmeisterschaften": 5324,
    "Open": 5325,
    "Nationalmannschaft": 5326,
    "Assist@@": 5327,
    "El": 5328,
    "Ri@@": 5329,
    "sions@@": 5330,
    "Spor@@": 5331,
    "82": 5332,
    "Matthias": 5333,
    "Bank": 5334,
    "relativ": 5335,
    "Tenn@@": 5336,
    "Stu@@": 5337,
    "lei": 5338,
    "ule": 5339,
    "eins": 5340,
    "ua": 5341,
    "Moskau": 5342,
    "anden": 5343,
    "Jazz": 5344,
    "ner@@": 5345,
    "römischen": 5346,
    "Daneben": 5347,
    "vorzu@@": 5348,
    "Ast@@": 5349,
    "ark": 5350,
    "Panz@@": 5351,
    "una": 5352,
    "tri@@": 5353,
    "You": 5354,
    "schaff@@": 5355,
    "d'@@": 5356,
    "Englisch": 5357,
    "unbe@@": 5358,
    "Insgesamt": 5359,
    "mäch@@": 5360,
    "Jakob": 5361,
    "Wochen": 5362,
    "Att@@": 5363,
    "Liber@@": 5364,
    "Zusamm@@": 5365,
    "zentr@@": 5366,
    "sah": 5367,
    "Zwe@@": 5368,
    "Eb@@": 5369,
    "Orch@@": 5370,
    "sieht": 5371,
    "Gü@@": 5372,
    "gebau@@": 5373,
    "ünd@@": 5374,
    "Feder@@": 5375,
    "stär@@": 5376,
    "Kam@@": 5377,
    "litz": 5378,
    "Dokum@@": 5379,
    "Führung": 5380,
    "ange": 5381,
    "abe": 5382,
    "vern@@": 5383,
    "High@@": 5384,
    "Grand": 5385,
    "iten": 5386,
    "Roman@@": 5387,
    "Junior@@": 5388,
    "Pi@@": 5389,
    "Radio": 5390,
    "gang@@": 5391,
    "verhin@@": 5392,
    "riffe": 5393,
    "schließen": 5394,
    "Eduard": 5395,
    "Möglichkeit": 5396,
    "ährt": 5397,
    "elektr@@": 5398,
    "Stunden": 5399,
    "Dram@@": 5400,
    "Förder@@": 5401,
    "Empf@@": 5402,
    "Rem@@": 5403,
    "oss@@": 5404,
    "ktive": 5405,
    "te-@@": 5406,
    "stor@@": 5407,
    "uk": 5408,
    "besonder@@": 5409,
    "elten": 5410,
    "ativ@@": 5411,
    "eres": 5412,
    "öch@@": 5413,
    "dritte": 5414,
    "Mitglie@@": 5415,
    "jetzt": 5416,
    "markt": 5417,
    "schnell": 5418,
    "afri@@": 5419,
    "alyse": 5420,
    "Große": 5421,
    "Alten@@": 5422,
    "Jon@@": 5423,
    "Get@@": 5424,
    "ron": 5425,
    "erischen": 5426,
    "römisch-@@": 5427,
    "gehend": 5428,
    "bekannte": 5429,
    "m-@@": 5430,
    "2019": 5431,
    "rechten": 5432,
    "Vik@@": 5433,
    "Restau@@": 5434,
    "Wirtschaft": 5435,
    "Geor@@": 5436,
    "Kohl@@": 5437,
    "96": 5438,
    "immen": 5439,
    "Gri@@": 5440,
    "kehr@@": 5441,
    "nördlichen": 5442,
    "garten": 5443,
    "Inseln": 5444,
    "ti": 5445,
    "84": 5446,
    "rest@@": 5447,
    "haupt": 5448,
    "Engli@@": 5449,
    "Ah@@": 5450,
    "anzu@@": 5451,
    "veranstal@@": 5452,
    "verwal@@": 5453,
    "ère": 5454,
    "zur@@": 5455,
    "chem@@": 5456,
    "ax@@": 5457,
    "oth@@": 5458,
    "Sm@@": 5459,
    "Atlan@@": 5460,
    "Lös@@": 5461,
    "81": 5462,
    "weitgehend": 5463,
    "näch@@": 5464,
    "isierung": 5465,
    "lings@@": 5466,
    "dell": 5467,
    "alb@@": 5468,
    "Roh@@": 5469,
    "ily": 5470,
    "australi@@": 5471,
    "verbess@@": 5472,
    "sph@@": 5473,
    "geber": 5474,
    "bildete": 5475,
    "Got@@": 5476,
    "fül@@": 5477,
    "vergleich@@": 5478,
    "Wissenschaft": 5479,
    "Schne@@": 5480,
    "Allerdings": 5481,
    "finanz@@": 5482,
    "Kas@@": 5483,
    "Ott@@": 5484,
    "1901": 5485,
    "Uni@@": 5486,
    "blick": 5487,
    "99": 5488,
    "is-@@": 5489,
    "Nur": 5490,
    "dienste": 5491,
    "Kirchen": 5492,
    "posit@@": 5493,
    "Tages@@": 5494,
    "vir@@": 5495,
    "Vorder@@": 5496,
    "ossen": 5497,
    "tier@@": 5498,
    "ütte": 5499,
    "Materi@@": 5500,
    "Bundesstaat": 5501,
    "83": 5502,
    "wahl@@": 5503,
    "Revolution": 5504,
    "owa": 5505,
    "chester": 5506,
    "ffer": 5507,
    "Orgel": 5508,
    "geleitet": 5509,
    "Größe": 5510,
    "Schwarz@@": 5511,
    "mittelalter@@": 5512,
    "α@@": 5513,
    "1000": 5514,
    "autor": 5515,
    "gerade": 5516,
    "eiten": 5517,
    "geren": 5518,
    "Statistisches": 5519,
    "Tiere": 5520,
    "eter@@": 5521,
    "1871": 5522,
    "pen": 5523,
    "Villa": 5524,
    "Arthur": 5525,
    "Krieges": 5526,
    "ston": 5527,
    "hoch": 5528,
    "Nat@@": 5529,
    "nich@@": 5530,
    "Gegenwart": 5531,
    "See@@": 5532,
    "Reb@@": 5533,
    "umfass@@": 5534,
    "startete": 5535,
    "raten": 5536,
    "größere": 5537,
    "vat@@": 5538,
    "dat": 5539,
    "Lok@@": 5540,
    "ž@@": 5541,
    "han": 5542,
    "geist@@": 5543,
    "Berufs@@": 5544,
    "Schauspiel@@": 5545,
    "illon": 5546,
    "Span@@": 5547,
    "Din@@": 5548,
    "ave": 5549,
    "enthalten": 5550,
    "78": 5551,
    "bekam": 5552,
    "angs": 5553,
    "sä@@": 5554,
    "wärts": 5555,
    "Depart@@": 5556,
    "Margar@@": 5557,
    "ysi@@": 5558,
    "e.de": 5559,
    "ums@@": 5560,
    "Kanada": 5561,
    "Sprin@@": 5562,
    "Est@@": 5563,
    "Volkszählung": 5564,
    "weiht": 5565,
    "Opp@@": 5566,
    "Julius": 5567,
    "geschä@@": 5568,
    "jun@@": 5569,
    "tru@@": 5570,
    "tigten": 5571,
    "Familien": 5572,
    "Springer": 5573,
    "án": 5574,
    "Schmi@@": 5575,
    "zeichnung": 5576,
    "Aufstieg": 5577,
    "los@@": 5578,
    "Silber": 5579,
    "rupp@@": 5580,
    "itel": 5581,
    "1898": 5582,
    "Blü@@": 5583,
    "unten": 5584,
    "verfü@@": 5585,
    "Tom@@": 5586,
    "auszu@@": 5587,
    "katholische": 5588,
    "Station": 5589,
    "74": 5590,
    "spruch": 5591,
    "emi@@": 5592,
    "mitglied": 5593,
    "vertreten": 5594,
    "bot": 5595,
    "latein@@": 5596,
    "ierungs@@": 5597,
    "Zusammen@@": 5598,
    "belieb@@": 5599,
    "Astron@@": 5600,
    "mot@@": 5601,
    "Hab@@": 5602,
    "116@@": 5603,
    "1899": 5604,
    "Kru@@": 5605,
    "gut@@": 5606,
    "dent@@": 5607,
    "Straf@@": 5608,
    "inzwischen": 5609,
    "hergestellt": 5610,
    "sh": 5611,
    "zugleich": 5612,
    "ständi@@": 5613,
    "Ris@@": 5614,
    "österreich": 5615,
    "Rock": 5616,
    "technik": 5617,
    "Kie@@": 5618,
    "Anteil": 5619,
    "Lam@@": 5620,
    "geworden": 5621,
    "fün@@": 5622,
    "öst@@": 5623,
    "76": 5624,
    "Patri@@": 5625,
    "Nordosten": 5626,
    "Verband": 5627,
    "bun@@": 5628,
    "jungen": 5629,
    "ots": 5630,
    "mensch@@": 5631,
    "grenze": 5632,
    "Books": 5633,
    "sogenannte": 5634,
    "Tex@@": 5635,
    "Technik": 5636,
    "Geschichts@@": 5637,
    "ello": 5638,
    "Fle@@": 5639,
    "halten@@": 5640,
    "Boden": 5641,
    "beruf@@": 5642,
    "entspricht": 5643,
    "orte": 5644,
    "demokrat@@": 5645,
    "wäre": 5646,
    "igkeiten": 5647,
    "Länder@@": 5648,
    "k-@@": 5649,
    "äst@@": 5650,
    "Tür@@": 5651,
    "elli": 5652,
    "Zer@@": 5653,
    "früheren": 5654,
    "gelegenen": 5655,
    "Rit@@": 5656,
    "ton@@": 5657,
    "77": 5658,
    "ligen@@": 5659,
    "17-@@": 5660,
    "Würzburg": 5661,
    "Wirk@@": 5662,
    "Premi@@": 5663,
    "bedeutet": 5664,
    "größeren": 5665,
    "häuser": 5666,
    "Cour@@": 5667,
    "Rud@@": 5668,
    "spoli@@": 5669,
    "drü@@": 5670,
    "Australien": 5671,
    "Fri@@": 5672,
    "din@@": 5673,
    "ohn": 5674,
    "87": 5675,
    "f-@@": 5676,
    "Kali@@": 5677,
    "Eu@@": 5678,
    "Gott": 5679,
    "erzeu@@": 5680,
    "Erde": 5681,
    "Konrad": 5682,
    "Edward": 5683,
    "unkt": 5684,
    "130@@": 5685,
    "Phili@@": 5686,
    "Rod@@": 5687,
    "Motor": 5688,
    "eitung": 5689,
    "teilen": 5690,
    "Smith": 5691,
    "lan": 5692,
    "gewinnen": 5693,
    "verstär@@": 5694,
    "ail@@": 5695,
    "RA@@": 5696,
    "ession@@": 5697,
    "halle": 5698,
    "Gebir@@": 5699,
    "89": 5700,
    "gi@@": 5701,
    "utsch@@": 5702,
    "Frau@@": 5703,
    "Wert": 5704,
    "Verein@@": 5705,
    "Für@@": 5706,
    "у@@": 5707,
    "Single": 5708,
    "Mül@@": 5709,
    "Koh@@": 5710,
    "beschrieben": 5711,
    "förmi@@": 5712,
    "ents@@": 5713,
    "pat@@": 5714,
    "Historisches": 5715,
    "ahr@@": 5716,
    "zit@@": 5717,
    "rol": 5718,
    "Forsch@@": 5719,
    "mis@@": 5720,
    "alien": 5721,
    "cur@@": 5722,
    "Allgem@@": 5723,
    "73": 5724,
    "Archiv@@": 5725,
    "begrün@@": 5726,
    "FA@@": 5727,
    "ado": 5728,
    "4.@@": 5729,
    "Kassel": 5730,
    "vgl.": 5731,
    "wäh@@": 5732,
    "erwar@@": 5733,
    "Regel@@": 5734,
    "Regim@@": 5735,
    "dagegen": 5736,
    "Salzburg": 5737,
    "fass@@": 5738,
    "Hard@@": 5739,
    "Mön@@": 5740,
    "läufer": 5741,
    "kanischen": 5742,
    "Wild@@": 5743,
    "geg@@": 5744,
    "nischen": 5745,
    "Sus@@": 5746,
    "recht@@": 5747,
    "spielerin": 5748,
    "Prop@@": 5749,
    "Afri@@": 5750,
    "Laufe": 5751,
    "Ele@@": 5752,
    "France": 5753,
    "Mitt@@": 5754,
    "Olympi@@": 5755,
    "gleichnamigen": 5756,
    "mau@@": 5757,
    "bru@@": 5758,
    "ental": 5759,
    "utz": 5760,
    "blätter": 5761,
    "Weltkriegs": 5762,
    "ing-@@": 5763,
    "gere": 5764,
    "bauen": 5765,
    "ssel@@": 5766,
    "Beide": 5767,
    "sucht": 5768,
    "Basket@@": 5769,
    "Kauf@@": 5770,
    "Chor": 5771,
    "wissenschaftliche": 5772,
    "außerhalb": 5773,
    "ck-@@": 5774,
    "x-@@": 5775,
    "Ke@@": 5776,
    "räger": 5777,
    "stellungs@@": 5778,
    "Südwesten": 5779,
    "zählen": 5780,
    "produziert": 5781,
    "Familien@@": 5782,
    "Are@@": 5783,
    "top@@": 5784,
    "Pot@@": 5785,
    "Kampf@@": 5786,
    "1890": 5787,
    "sodass": 5788,
    "cu@@": 5789,
    "Inv@@": 5790,
    "Beck": 5791,
    "kunden": 5792,
    "orien": 5793,
    "änge": 5794,
    "verfügt": 5795,
    "Frauen@@": 5796,
    "neues": 5797,
    "Luc@@": 5798,
    "beobach@@": 5799,
    "gerech@@": 5800,
    "Profil": 5801,
    "oden": 5802,
    ".html": 5803,
    "archiviert": 5804,
    "Band@@": 5805,
    "bein@@": 5806,
    "eingestellt": 5807,
    "Distri@@": 5808,
    "12-@@": 5809,
    "wider@@": 5810,
    "wichtige": 5811,
    "alis@@": 5812,
    "hör@@": 5813,
    "Einwohnerz@@": 5814,
    "110@@": 5815,
    "Schrift@@": 5816,
    "l-@@": 5817,
    "Gelände": 5818,
    "Farb@@": 5819,
    "deln": 5820,
    "möglich@@": 5821,
    "pal@@": 5822,
    "Mand@@": 5823,
    "Arbeiter@@": 5824,
    "luss": 5825,
    "gelassen": 5826,
    "wasser": 5827,
    "verhäl@@": 5828,
    "Love": 5829,
    "züge": 5830,
    "Herausgeber": 5831,
    "liger": 5832,
    "rus": 5833,
    "gliche": 5834,
    "dargestellt": 5835,
    "SE@@": 5836,
    "Kloster@@": 5837,
    "Verlauf": 5838,
    "Chem@@": 5839,
    "Lake": 5840,
    "м@@": 5841,
    "ky": 5842,
    "iers": 5843,
    "benen": 5844,
    "gehö@@": 5845,
    "ić": 5846,
    "anerk@@": 5847,
    "ähnlich": 5848,
    "Umwelt@@": 5849,
    "alles": 5850,
    "ennt": 5851,
    "halte": 5852,
    "hardt": 5853,
    "Dol@@": 5854,
    "mäßig": 5855,
    "illi@@": 5856,
    "Ze@@": 5857,
    "mente": 5858,
    "nied@@": 5859,
    "bank": 5860,
    "Erfahr@@": 5861,
    "Medien": 5862,
    "Stor@@": 5863,
    "by@@": 5864,
    "Territ@@": 5865,
    "92": 5866,
    "ausgetragen": 5867,
    "brücke": 5868,
    "bul@@": 5869,
    "ii": 5870,
    "geschlagen": 5871,
    "geprägt": 5872,
    "lerin": 5873,
    "Angeles": 5874,
    "familie": 5875,
    "wirtschaft@@": 5876,
    "wasser@@": 5877,
    "Illu@@": 5878,
    "114@@": 5879,
    "derten": 5880,
    "höchsten": 5881,
    "sta": 5882,
    "kontr@@": 5883,
    "1895": 5884,
    "dienen": 5885,
    "dige": 5886,
    "ymp@@": 5887,
    "Häuser": 5888,
    "trans@@": 5889,
    "field": 5890,
    "könnte": 5891,
    "feld@@": 5892,
    "Mittelalter": 5893,
    "Dien@@": 5894,
    "Nah@@": 5895,
    "Norm@@": 5896,
    "pe@@": 5897,
    "kirch@@": 5898,
    "vers": 5899,
    "irche": 5900,
    "Teilen": 5901,
    "Gall@@": 5902,
    "1896": 5903,
    "wer": 5904,
    "tim@@": 5905,
    "Sinne": 5906,
    "Pian@@": 5907,
    "Rat": 5908,
    "Braunschweig": 5909,
    "NS@@": 5910,
    "978-0-@@": 5911,
    "eingeführt": 5912,
    "dende": 5913,
    "ria": 5914,
    "iegel": 5915,
    "musikali@@": 5916,
    "kro@@": 5917,
    "CD@@": 5918,
    "Straßenb@@": 5919,
    "Pfarrer": 5920,
    "sichts@@": 5921,
    "Wolf": 5922,
    "å@@": 5923,
    "verbreitet": 5924,
    "Raj@@": 5925,
    "Jak@@": 5926,
    "alisierung": 5927,
    "grund": 5928,
    "vertrag": 5929,
    "wäl@@": 5930,
    "mark@@": 5931,
    "gegründeten": 5932,
    "künstler@@": 5933,
    "ía": 5934,
    "ith@@": 5935,
    "theit": 5936,
    "dies@@": 5937,
    "Kraft": 5938,
    "bern": 5939,
    "aven": 5940,
    "98": 5941,
    "L-@@": 5942,
    "entsprechend": 5943,
    "Ruh@@": 5944,
    "internationale": 5945,
    "Engel@@": 5946,
    "run@@": 5947,
    "Nordwesten": 5948,
    "dorfer": 5949,
    "Schulen": 5950,
    "els@@": 5951,
    "englischer": 5952,
    "ierter": 5953,
    "Neb@@": 5954,
    "stattung": 5955,
    "blo@@": 5956,
    "ständig": 5957,
    "Div@@": 5958,
    "ress": 5959,
    "Barbara": 5960,
    "chines@@": 5961,
    "änger": 5962,
    "krank@@": 5963,
    "jüdischen": 5964,
    "voll": 5965,
    "Erzäh@@": 5966,
    "Ind@@": 5967,
    "Nicol@@": 5968,
    "FA": 5969,
    "Tal": 5970,
    "achten": 5971,
    "ga@@": 5972,
    "Fam@@": 5973,
    "olin@@": 5974,
    "Gott@@": 5975,
    "erklärt": 5976,
    "Är@@": 5977,
    "1897": 5978,
    "hätte": 5979,
    "Schül@@": 5980,
    "schrei@@": 5981,
    "Baden": 5982,
    "Santa": 5983,
    "Pierre": 5984,
    "Landwirtschaft": 5985,
    "chs@@": 5986,
    "ony": 5987,
    "kräfte": 5988,
    "Gesell@@": 5989,
    "Unabhäng@@": 5990,
    "Bände": 5991,
    "schluss@@": 5992,
    "entliche": 5993,
    "Günter": 5994,
    "Black": 5995,
    "istik": 5996,
    "benö@@": 5997,
    "hä@@": 5998,
    "Untersuchungen": 5999,
    "Journ@@": 6000,
    "Sowjetunion": 6001,
    "Partei@@": 6002,
    "ause": 6003,
    "Olymp@@": 6004,
    "engag@@": 6005,
    "divers@@": 6006,
    "Link/www.@@": 6007,
    "120@@": 6008,
    "lern@@": 6009,
    "Steuer@@": 6010,
    "án@@": 6011,
    "Wis@@": 6012,
    "Veröffentlichung": 6013,
    "arab@@": 6014,
    "gespielt": 6015,
    "Theologe": 6016,
    "Zeiten": 6017,
    "79": 6018,
    "Schwester": 6019,
    "Geheim@@": 6020,
    "Maschin@@": 6021,
    "Ehefrau": 6022,
    "Tot@@": 6023,
    "aufgeführt": 6024,
    "Theorie": 6025,
    "alin@@": 6026,
    "Zit@@": 6027,
    "schließt": 6028,
    "weib@@": 6029,
    "ě@@": 6030,
    "Kab@@": 6031,
    "schön@@": 6032,
    "teren": 6033,
    "itali@@": 6034,
    "Deutsch": 6035,
    "Südosten": 6036,
    "kreu@@": 6037,
    "halts@@": 6038,
    "post@@": 6039,
    "samm@@": 6040,
    "stags@@": 6041,
    "Alli@@": 6042,
    "genau": 6043,
    "Bach": 6044,
    "Kommunik@@": 6045,
    "klin@@": 6046,
    "trotz": 6047,
    "bü@@": 6048,
    "österreichische": 6049,
    "Red": 6050,
    "ücke": 6051,
    "klärung": 6052,
    "lob@@": 6053,
    "Stein": 6054,
    "möglichen": 6055,
    "fo@@": 6056,
    "Tei@@": 6057,
    "Ritter": 6058,
    "der-@@": 6059,
    "Moti@@": 6060,
    "Rheinland-Pfalz": 6061,
    "Jap@@": 6062,
    "Text@@": 6063,
    "Amerikan@@": 6064,
    "dition@@": 6065,
    "onien": 6066,
    "bleibt": 6067,
    "müh@@": 6068,
    "6,@@": 6069,
    "ball-@@": 6070,
    "Lande@@": 6071,
    "bre@@": 6072,
    "com@@": 6073,
    "asste": 6074,
    "integ@@": 6075,
    "unterstützt": 6076,
    "Commun@@": 6077,
    "Mé@@": 6078,
    "cre@@": 6079,
    "Wagen": 6080,
    "kampf": 6081,
    "Bron@@": 6082,
    "Comput@@": 6083,
    "Co": 6084,
    "Ful@@": 6085,
    "Mid@@": 6086,
    "ausen": 6087,
    "jur@@": 6088,
    "sprache": 6089,
    "umfang@@": 6090,
    "steu@@": 6091,
    "1970er": 6092,
    "Aqu@@": 6093,
    "European": 6094,
    "Des": 6095,
    "52@@": 6096,
    "0er-@@": 6097,
    "hen@@": 6098,
    "junge": 6099,
    "edition": 6100,
    "gruppen": 6101,
    "Best": 6102,
    "tö@@": 6103,
    "geschloss@@": 6104,
    "Group": 6105,
    "wachs@@": 6106,
    "schrift@@": 6107,
    "erneu@@": 6108,
    "dent": 6109,
    "ged@@": 6110,
    "Bahn": 6111,
    "Seiten@@": 6112,
    "Bücher": 6113,
    "Vit@@": 6114,
    "gre@@": 6115,
    "Fahrzeuge": 6116,
    "Zeu@@": 6117,
    "portugies@@": 6118,
    "kön@@": 6119,
    "Refer@@": 6120,
    "Aff@@": 6121,
    "kurz@@": 6122,
    "SG": 6123,
    "elf": 6124,
    "Tan@@": 6125,
    "Fakultät": 6126,
    "Essen": 6127,
    "punkte": 6128,
    "Präsidenten": 6129,
    "Jud@@": 6130,
    "Nich@@": 6131,
    "einzu@@": 6132,
    "Kri@@": 6133,
    "zeitung": 6134,
    "Aufgaben": 6135,
    "Autoren": 6136,
    "Š@@": 6137,
    "ktor@@": 6138,
    "obwohl": 6139,
    "spricht": 6140,
    "gerufen": 6141,
    ">": 6142,
    "leger": 6143,
    "Sign@@": 6144,
    "iet": 6145,
    "Anton@@": 6146,
    "Licht@@": 6147,
    "bor@@": 6148,
    "era": 6149,
    "93": 6150,
    "preußischen": 6151,
    "Gedenk@@": 6152,
    "groß": 6153,
    "jen@@": 6154,
    "Plän@@": 6155,
    "itu@@": 6156,
    "ted": 6157,
    "weiß": 6158,
    "Video": 6159,
    "lü@@": 6160,
    "Fi@@": 6161,
    "krie@@": 6162,
    "Mädchen": 6163,
    "reform": 6164,
    "Tö@@": 6165,
    "schlü@@": 6166,
    "τ@@": 6167,
    "Frü@@": 6168,
    "norweg@@": 6169,
    "Fili@@": 6170,
    "Bibli@@": 6171,
    "mehrfach": 6172,
    "uc@@": 6173,
    "affe": 6174,
    "Regiment": 6175,
    "Hochschul@@": 6176,
    "walt": 6177,
    "Jahrzeh@@": 6178,
    "Macht": 6179,
    "ümer": 6180,
    "US-amerikanischen": 6181,
    "Qualifikation": 6182,
    "Anth@@": 6183,
    "ürz@@": 6184,
    "afrika": 6185,
    "proje@@": 6186,
    "wichtigsten": 6187,
    "fällt": 6188,
    "stoff": 6189,
    "iw@@": 6190,
    "Alexand@@": 6191,
    "Mühl@@": 6192,
    "bs@@": 6193,
    "Horst": 6194,
    "lam": 6195,
    "offiziell": 6196,
    "linien": 6197,
    "zess@@": 6198,
    ".ch": 6199,
    "latz": 6200,
    "pres@@": 6201,
    "solche": 6202,
    "fli@@": 6203,
    "Niederlage": 6204,
    "Kopf": 6205,
    "entar@@": 6206,
    "mittels": 6207,
    "bers": 6208,
    "94": 6209,
    "las": 6210,
    "kürz@@": 6211,
    "ema": 6212,
    "Projekt@@": 6213,
    "Kapit@@": 6214,
    "e.V": 6215,
    "Dem": 6216,
    "Kindern": 6217,
    "Städ@@": 6218,
    "Landtag": 6219,
    "Bahnstrecke": 6220,
    "eite": 6221,
    "Aust@@": 6222,
    "ligung": 6223,
    "Nap@@": 6224,
    "CS@@": 6225,
    "Ni@@": 6226,
    "Polizei": 6227,
    "Philosoph@@": 6228,
    "vel@@": 6229,
    "krieg": 6230,
    "Viele": 6231,
    "Schle@@": 6232,
    "deckt": 6233,
    "Nik@@": 6234,
    "veröffentlich@@": 6235,
    "Fass@@": 6236,
    "stab@@": 6237,
    "ni@@": 6238,
    "Bildhauer": 6239,
    "ernen": 6240,
    "sied@@": 6241,
    "gewäh@@": 6242,
    "falls": 6243,
    "Prag": 6244,
    "Invest@@": 6245,
    "Benedi@@": 6246,
    "ake": 6247,
    "älteste": 6248,
    "fallen": 6249,
    "beste": 6250,
    "Dichter": 6251,
    "News": 6252,
    "Wies@@": 6253,
    "Parti@@": 6254,
    "gerin@@": 6255,
    "amerika": 6256,
    "Denn@@": 6257,
    "Fernsehen": 6258,
    "h.": 6259,
    "part@@": 6260,
    "witz": 6261,
    "spr@@": 6262,
    "Leistung": 6263,
    "Verlu@@": 6264,
    "Weltkrieges": 6265,
    "Aufgabe": 6266,
    "Westf@@": 6267,
    "Inde@@": 6268,
    "Autor@@": 6269,
    "legt": 6270,
    "erscheint": 6271,
    "MS": 6272,
    "fließt": 6273,
    "1893": 6274,
    "wirtschaftlichen": 6275,
    "Wun@@": 6276,
    "Bildungs@@": 6277,
    "Profess@@": 6278,
    "allein": 6279,
    "bestimmt": 6280,
    "Č@@": 6281,
    "97": 6282,
    "Ve@@": 6283,
    "ding@@": 6284,
    "19-@@": 6285,
    "enten@@": 6286,
    "durchschnit@@": 6287,
    "fel": 6288,
    "emm@@": 6289,
    "Tom": 6290,
    "syn@@": 6291,
    "Emp@@": 6292,
    "direktor": 6293,
    "reicher": 6294,
    "Academy": 6295,
    "Angeb@@": 6296,
    "Moh@@": 6297,
    "sbach": 6298,
    "Arzt": 6299,
    "ständen": 6300,
    "Hub@@": 6301,
    "FD@@": 6302,
    "115@@": 6303,
    "1980er": 6304,
    "Besuch@@": 6305,
    "Länder": 6306,
    "\\mathrm": 6307,
    "n8@@": 6308,
    "Steu@@": 6309,
    "öder@@": 6310,
    "Bezir@@": 6311,
    "Dur@@": 6312,
    "Mah@@": 6313,
    "zusätz@@": 6314,
    "forsch@@": 6315,
    "lose": 6316,
    "Imm@@": 6317,
    "alisiert": 6318,
    "eres@@": 6319,
    "tar@@": 6320,
    "nominiert": 6321,
    "Vaters": 6322,
    "felder": 6323,
    "hingegen": 6324,
    "Hugo": 6325,
    "Ry@@": 6326,
    "politik": 6327,
    "Internationale": 6328,
    "unterschied@@": 6329,
    "Nord": 6330,
    "betre@@": 6331,
    "iftung": 6332,
    "gesp@@": 6333,
    "Söhne": 6334,
    "Sprachen": 6335,
    "Noch": 6336,
    "Was": 6337,
    "vierten": 6338,
    "Geschä@@": 6339,
    "Konstru@@": 6340,
    "Automobil@@": 6341,
    "Sav@@": 6342,
    "Lev@@": 6343,
    "1848": 6344,
    "wies": 6345,
    "Schon": 6346,
    "Energie@@": 6347,
    "fünf@@": 6348,
    "Lauf@@": 6349,
    "tation": 6350,
    "és": 6351,
    "Adam": 6352,
    "glichen": 6353,
    "stärk@@": 6354,
    "maxim@@": 6355,
    "krä@@": 6356,
    "mont": 6357,
    "Letz@@": 6358,
    "Oper": 6359,
    "King": 6360,
    "aufzu@@": 6361,
    "Architekten": 6362,
    "Schiffe": 6363,
    "verd@@": 6364,
    "Vog@@": 6365,
    "hervor": 6366,
    "ritte": 6367,
    "Blan@@": 6368,
    "Frühjahr": 6369,
    "erf@@": 6370,
    "Fein@@": 6371,
    "finale": 6372,
    "wenigen": 6373,
    "aj@@": 6374,
    "entlich": 6375,
    "funktion@@": 6376,
    "digte": 6377,
    "aufgelöst": 6378,
    "kund@@": 6379,
    "c.": 6380,
    "rol@@": 6381,
    "ger-@@": 6382,
    "Pas@@": 6383,
    "Pir@@": 6384,
    "linger": 6385,
    "selbst@@": 6386,
    "erweitert": 6387,
    "rik": 6388,
    "PD@@": 6389,
    "Si@@": 6390,
    "fehl@@": 6391,
    "apie": 6392,
    "verlassen": 6393,
    "bisher@@": 6394,
    "dh@@": 6395,
    "iden": 6396,
    "1885": 6397,
    "Roten": 6398,
    "Kost@@": 6399,
    "höchste": 6400,
    "versucht": 6401,
    "berei@@": 6402,
    "1888": 6403,
    "zug@@": 6404,
    "gen-@@": 6405,
    "Rückkehr": 6406,
    "ack": 6407,
    "5.@@": 6408,
    "wirtschaftliche": 6409,
    "Freund": 6410,
    "umbenannt": 6411,
    "Biografie": 6412,
    "Fü@@": 6413,
    "denkmal@@": 6414,
    "Sul@@": 6415,
    "afel": 6416,
    "Kommunal@@": 6417,
    "Bauern@@": 6418,
    "Q": 6419,
    "old@@": 6420,
    "Zerstör@@": 6421,
    "pp": 6422,
    "Marien@@": 6423,
    "Punkt": 6424,
    "ächlich": 6425,
    "Sport": 6426,
    "racht": 6427,
    "berühm@@": 6428,
    "Nachrichten": 6429,
    "akter@@": 6430,
    "91": 6431,
    "füh@@": 6432,
    "national@@": 6433,
    "Günther": 6434,
    "Meyer": 6435,
    "Zy@@": 6436,
    "ergän@@": 6437,
    "iv": 6438,
    "Medizin": 6439,
    "Saar@@": 6440,
    "mond": 6441,
    "Tok@@": 6442,
    "verantwortlich": 6443,
    "rieb@@": 6444,
    "Ebene": 6445,
    "Krä@@": 6446,
    "Jos@@": 6447,
    "Saison@@": 6448,
    "Ortes": 6449,
    "vorsitz@@": 6450,
    "Todes@@": 6451,
    "Indien": 6452,
    "hinter@@": 6453,
    "Back@@": 6454,
    "Rober@@": 6455,
    "Feuer@@": 6456,
    "Theologie": 6457,
    "ban@@": 6458,
    "wur@@": 6459,
    "Will@@": 6460,
    "Exempl@@": 6461,
    "1920@@": 6462,
    "hom@@": 6463,
    "Unternehmer": 6464,
    "PMID": 6465,
    "Kardin@@": 6466,
    "kör@@": 6467,
    "namens": 6468,
    "via": 6469,
    "But@@": 6470,
    "ero": 6471,
    "renn@@": 6472,
    "Wettbewerb": 6473,
    "flä@@": 6474,
    "1960er": 6475,
    "schafter": 6476,
    "Religion@@": 6477,
    "eigentlich": 6478,
    "pflich@@": 6479,
    "Persön@@": 6480,
    "Bos@@": 6481,
    "Aufnahme": 6482,
    "siden@@": 6483,
    "ultur": 6484,
    "Don": 6485,
    "13-@@": 6486,
    "Ortstei@@": 6487,
    "isse": 6488,
    "Jer@@": 6489,
    "redu@@": 6490,
    "Drei": 6491,
    "iden@@": 6492,
    "Cli@@": 6493,
    "länder": 6494,
    "Chemie": 6495,
    "Spann@@": 6496,
    "Natur": 6497,
    "Has@@": 6498,
    "Sprech@@": 6499,
    "1892": 6500,
    "Typ": 6501,
    "plan": 6502,
    "lich-@@": 6503,
    "denkmale": 6504,
    "Tradition": 6505,
    "Pic@@": 6506,
    "Zeh@@": 6507,
    "1894": 6508,
    "Anim@@": 6509,
    "NR@@": 6510,
    "Architektur": 6511,
    "kleiner": 6512,
    "ahlen": 6513,
    "Greg@@": 6514,
    "wen": 6515,
    "änderungen": 6516,
    "Wegen": 6517,
    "mü@@": 6518,
    "Box@@": 6519,
    "fertig@@": 6520,
    "werde": 6521,
    "Angel@@": 6522,
    "Len@@": 6523,
    "Poly@@": 6524,
    "lässi@@": 6525,
    "ander": 6526,
    "chron@@": 6527,
    "äd@@": 6528,
    "Frem@@": 6529,
    "Einheit": 6530,
    "ologen": 6531,
    "Lich@@": 6532,
    "drit@@": 6533,
    "Eisen@@": 6534,
    "volution@@": 6535,
    "José": 6536,
    "wirtschafts@@": 6537,
    "Themen": 6538,
    "Eri@@": 6539,
    "Felix": 6540,
    "album": 6541,
    "Prie@@": 6542,
    "ücksich@@": 6543,
    "Filme": 6544,
    "Ens@@": 6545,
    "ular@@": 6546,
    "ulti@@": 6547,
    "exist@@": 6548,
    "wohn@@": 6549,
    "Adels@@": 6550,
    "Flughafen": 6551,
    "ieder@@": 6552,
    "Nic@@": 6553,
    "Gut": 6554,
    "Py@@": 6555,
    "stehenden": 6556,
    "Bernd": 6557,
    "Punkten": 6558,
    "markt@@": 6559,
    "Leu@@": 6560,
    "usern": 6561,
    "1990er": 6562,
    "ebenda": 6563,
    "Tief@@": 6564,
    "Küh@@": 6565,
    "Brei@@": 6566,
    "Charts": 6567,
    "ë@@": 6568,
    "linken": 6569,
    "Integ@@": 6570,
    "Geist@@": 6571,
    "All": 6572,
    "Stol@@": 6573,
    "Teilnahme": 6574,
    "uchen": 6575,
    "wick@@": 6576,
    "lia": 6577,
    "ches": 6578,
    "ts-@@": 6579,
    "Garten@@": 6580,
    "ry@@": 6581,
    "abteilung": 6582,
    "üm@@": 6583,
    "riss": 6584,
    "wechsel": 6585,
    "Kell@@": 6586,
    "War": 6587,
    "grad": 6588,
    "Kob@@": 6589,
    "Reise": 6590,
    "modernen": 6591,
    "Temper@@": 6592,
    "Research": 6593,
    "rauch": 6594,
    "sili@@": 6595,
    "räume": 6596,
    "Zahl@@": 6597,
    "Kub@@": 6598,
    "Aussch@@": 6599,
    "bestimmten": 6600,
    "Landtags@@": 6601,
    "Sak@@": 6602,
    "blau@@": 6603,
    "Beitrag": 6604,
    "flächen": 6605,
    "abzu@@": 6606,
    "Fei@@": 6607,
    "Bad@@": 6608,
    "außer@@": 6609,
    "hte": 6610,
    "zuerst": 6611,
    "Arts": 6612,
    "ates": 6613,
    "organ@@": 6614,
    "Druck": 6615,
    "Israel": 6616,
    "domin@@": 6617,
    "Lieder": 6618,
    "Geld": 6619,
    "ock@@": 6620,
    "Schließ@@": 6621,
    "zeigte": 6622,
    "Herr": 6623,
    "weis": 6624,
    "hunder@@": 6625,
    "egen": 6626,
    "Maximili@@": 6627,
    "fried": 6628,
    "Erweiter@@": 6629,
    "welt": 6630,
    "Probleme": 6631,
    "Rab@@": 6632,
    "112@@": 6633,
    "Franc@@": 6634,
    "NH@@": 6635,
    "ι@@": 6636,
    "awa": 6637,
    "deutsch-@@": 6638,
    "pfel": 6639,
    "ques": 6640,
    "ов@@": 6641,
    "Pati@@": 6642,
    "Star": 6643,
    "oberen": 6644,
    "stän@@": 6645,
    "sächsischen": 6646,
    "stellvertreten@@": 6647,
    "Ö": 6648,
    "anisch": 6649,
    "Archiviert": 6650,
    "Wirkung": 6651,
    "Magazin": 6652,
    "zie@@": 6653,
    "DR": 6654,
    "ferenz": 6655,
    "ye": 6656,
    "ständ@@": 6657,
    "Ral@@": 6658,
    "10-@@": 6659,
    "Ye@@": 6660,
    "lex": 6661,
    "auen": 6662,
    "mut": 6663,
    "sprü@@": 6664,
    "deh@@": 6665,
    "Gründen": 6666,
    "oni": 6667,
    "Hotel": 6668,
    "entin": 6669,
    "ai@@": 6670,
    "äb@@": 6671,
    "Aufbau": 6672,
    "Karl-@@": 6673,
    "ū@@": 6674,
    "Ara@@": 6675,
    "struktur": 6676,
    "Woh@@": 6677,
    "eister@@": 6678,
    "Krist@@": 6679,
    "Trin@@": 6680,
    "hofen": 6681,
    "rot@@": 6682,
    "én@@": 6683,
    "15–@@": 6684,
    "Mig@@": 6685,
    "ago": 6686,
    "ü.": 6687,
    "113@@": 6688,
    "ole@@": 6689,
    "mäß@@": 6690,
    "As@@": 6691,
    "dahin": 6692,
    "aker": 6693,
    "Sieger": 6694,
    "istin": 6695,
    "Konkur@@": 6696,
    "Texte": 6697,
    "Kanz@@": 6698,
    "station": 6699,
    "Lieb@@": 6700,
    "ament@@": 6701,
    "Amat@@": 6702,
    "4:@@": 6703,
    "sitz": 6704,
    "tär": 6705,
    "digkeit": 6706,
    "häuf@@": 6707,
    "sichtlich": 6708,
    "09@@": 6709,
    "Gor@@": 6710,
    "Auswahl": 6711,
    "Instituts": 6712,
    "Tie@@": 6713,
    "alli@@": 6714,
    "tats@@": 6715,
    "klass@@": 6716,
    "teilungen": 6717,
    "Gebiete": 6718,
    "Albrecht": 6719,
    "Kurfür@@": 6720,
    "stätten": 6721,
    "https": 6722,
    "Monum@@": 6723,
    "ld@@": 6724,
    "aceae": 6725,
    "ission": 6726,
    "reicht": 6727,
    "lecht": 6728,
    "Sich@@": 6729,
    "klar": 6730,
    "met": 6731,
    "Grei@@": 6732,
    "hand": 6733,
    "annen": 6734,
    "Beruf@@": 6735,
    "Platz@@": 6736,
    "comm@@": 6737,
    "kturen": 6738,
    "jede": 6739,
    "Tabelle": 6740,
    "Ari@@": 6741,
    "Brie@@": 6742,
    "loss@@": 6743,
    "fic@@": 6744,
    "over@@": 6745,
    "gelten": 6746,
    "Hochschullehrer": 6747,
    "weiteres": 6748,
    "erhielten": 6749,
    "Zentimeter": 6750,
    ".S": 6751,
    "herzog@@": 6752,
    "Leich@@": 6753,
    "erd@@": 6754,
    "halt@@": 6755,
    "ganze": 6756,
    "Eisenb@@": 6757,
    "Erste": 6758,
    "versuchte": 6759,
    "öß@@": 6760,
    "Nationalsozialismus": 6761,
    "ausstellung": 6762,
    "en.": 6763,
    "low": 6764,
    "lernte": 6765,
    "kas": 6766,
    "graben": 6767,
    "gelan@@": 6768,
    "stedt": 6769,
    "medizin@@": 6770,
    "Rev@@": 6771,
    "wart": 6772,
    "sidenten": 6773,
    "gezogen": 6774,
    "atoren": 6775,
    "freie": 6776,
    "zugs@@": 6777,
    "tis": 6778,
    "Teams": 6779,
    "Regensburg": 6780,
    "Sain@@": 6781,
    "hang": 6782,
    "roman@@": 6783,
    "Gesprä@@": 6784,
    "Antonio": 6785,
    "Waff@@": 6786,
    "Gottfried": 6787,
    "Denkmalpflege": 6788,
    "ord": 6789,
    "Famili@@": 6790,
    "Kle@@": 6791,
    "l'@@": 6792,
    "spann@@": 6793,
    "ín": 6794,
    "andi@@": 6795,
    "1889": 6796,
    "law@@": 6797,
    "DDR-@@": 6798,
    "Elekt@@": 6799,
    "rid@@": 6800,
    "Micha@@": 6801,
    "Interesse": 6802,
    "ular": 6803,
    "rennen": 6804,
    "Höhen@@": 6805,
    "Sant@@": 6806,
    "Cru@@": 6807,
    "Türkei": 6808,
    "üch@@": 6809,
    "Jack@@": 6810,
    "Kreuz": 6811,
    "1880": 6812,
    "inne": 6813,
    "mol@@": 6814,
    "Aachen": 6815,
    "hn@@": 6816,
    "Kiel": 6817,
    "Hoff@@": 6818,
    "ift@@": 6819,
    "Univers@@": 6820,
    "bildungs@@": 6821,
    "Teilnehmer": 6822,
    "ländischen": 6823,
    "EU": 6824,
    "bewer@@": 6825,
    "teilte": 6826,
    "nationalen": 6827,
    "1870": 6828,
    "Beziehungen": 6829,
    "beschäftigt": 6830,
    "liter@@": 6831,
    "erfül@@": 6832,
    "achen": 6833,
    "Finn@@": 6834,
    "Myth@@": 6835,
    "Orgel@@": 6836,
    "Jena": 6837,
    "offiziellen": 6838,
    "Übersetzungen": 6839,
    "erhalten@@": 6840,
    "Turnier": 6841,
    "zahlen": 6842,
    "stad@@": 6843,
    "tin": 6844,
    "inde@@": 6845,
    "Hop@@": 6846,
    "üssel@@": 6847,
    "tieren": 6848,
    "ike": 6849,
    "Zeichen": 6850,
    "neg@@": 6851,
    "Praxis": 6852,
    "cus": 6853,
    "bestimm@@": 6854,
    "1891": 6855,
    "Instit@@": 6856,
    "eng": 6857,
    "Post": 6858,
    "Dic@@": 6859,
    "Weltc@@": 6860,
    "emin@@": 6861,
    "Ries@@": 6862,
    "Niedersachsen": 6863,
    "Meer": 6864,
    "/Wartung/@@": 6865,
    "Fen@@": 6866,
    "press@@": 6867,
    "zentrale": 6868,
    "Standort": 6869,
    "Bistum": 6870,
    "bleiben": 6871,
    "Bürger": 6872,
    "lehre": 6873,
    "May@@": 6874,
    "istan": 6875,
    "г@@": 6876,
    "ließen": 6877,
    "alist": 6878,
    "kurze": 6879,
    "7,@@": 6880,
    "geograph@@": 6881,
    "ams": 6882,
    "1867": 6883,
    "My": 6884,
    "wettbewer@@": 6885,
    "Geograph@@": 6886,
    "Parteien": 6887,
    "Soph@@": 6888,
    "tain@@": 6889,
    "Lokomoti@@": 6890,
    "gungs@@": 6891,
    "ci": 6892,
    "immer@@": 6893,
    "new@@": 6894,
    "gelöst": 6895,
    "Königs": 6896,
    "Epis@@": 6897,
    "Teu@@": 6898,
    "Pon@@": 6899,
    "Hay@@": 6900,
    "1875": 6901,
    "ehe": 6902,
    "s/@@": 6903,
    "hab@@": 6904,
    "angeboten": 6905,
    "folgen": 6906,
    "Blut@@": 6907,
    "kompon@@": 6908,
    "bli@@": 6909,
    "Lebens": 6910,
    "erlan@@": 6911,
    "Kö@@": 6912,
    "genie@@": 6913,
    "Apost@@": 6914,
    "117@@": 6915,
    "bas@@": 6916,
    "zeichnete": 6917,
    "Dru@@": 6918,
    "Fotos": 6919,
    "Ot@@": 6920,
    "früh@@": 6921,
    "IC@@": 6922,
    "Wand@@": 6923,
    "Jä@@": 6924,
    "haber": 6925,
    "Jean-@@": 6926,
    "eingerichtet": 6927,
    "R-@@": 6928,
    "Phot@@": 6929,
    "ssystem": 6930,
    "Rand@@": 6931,
    "hebung": 6932,
    "ekt": 6933,
    "Parlament": 6934,
    "Chron@@": 6935,
    "anders": 6936,
    "Vol": 6937,
    "Vereinigung": 6938,
    "Behör@@": 6939,
    "DA@@": 6940,
    "Gemeinder@@": 6941,
    "vereins": 6942,
    "ube": 6943,
    "s.@@": 6944,
    "eits": 6945,
    "Leip@@": 6946,
    "Augsburg": 6947,
    "belegt": 6948,
    "erhält": 6949,
    "sil@@": 6950,
    "1850": 6951,
    "verbandes": 6952,
    "Krei@@": 6953,
    "ödie": 6954,
    "traf": 6955,
    "Pok@@": 6956,
    "ery": 6957,
    "Schneider": 6958,
    "Herkunft": 6959,
    "Gewer@@": 6960,
    "länge": 6961,
    "schätz@@": 6962,
    "c-@@": 6963,
    "Regier@@": 6964,
    "BM@@": 6965,
    "präsenz": 6966,
    "instit@@": 6967,
    "bestimmte": 6968,
    "yp": 6969,
    "64@@": 6970,
    "Lis@@": 6971,
    "finanzi@@": 6972,
    "ils": 6973,
    "doi:10.10@@": 6974,
    "Arnold": 6975,
    "°C": 6976,
    "frage": 6977,
    "mein@@": 6978,
    "griechischen": 6979,
    "Betei@@": 6980,
    "erbau@@": 6981,
    "Stahl@@": 6982,
    "Grafschaft": 6983,
    "ump@@": 6984,
    "gerä@@": 6985,
    "gerichtet": 6986,
    "Weiteren": 6987,
    "tert": 6988,
    "ZD@@": 6989,
    "right": 6990,
    "obili@@": 6991,
    "Nutzung": 6992,
    "g-@@": 6993,
    "Sech@@": 6994,
    "spielten": 6995,
    "lieben": 6996,
    "Büch@@": 6997,
    "Geburts@@": 6998,
    "Kalifornien": 6999,
    "Bart@@": 7000,
    "gyp@@": 7001,
    "Mir@@": 7002,
    "Viertel@@": 7003,
    "eo": 7004,
    "tle": 7005,
    "Verk@@": 7006,
    "Jag@@": 7007,
    "Produktions@@": 7008,
    "Vide@@": 7009,
    "urs": 7010,
    "uther@@": 7011,
    "ja@@": 7012,
    "uf": 7013,
    "T-@@": 7014,
    "servat@@": 7015,
    "Start@@": 7016,
    "Jahrbuch": 7017,
    "Graz": 7018,
    "Kämpf@@": 7019,
    "Fru@@": 7020,
    "unmittelbar": 7021,
    "appe": 7022,
    "Zie@@": 7023,
    "Kurz": 7024,
    "Orden": 7025,
    "Folge@@": 7026,
    "erforder@@": 7027,
    "gend@@": 7028,
    "gewor@@": 7029,
    "gehörigen": 7030,
    "ardo": 7031,
    "benachbar@@": 7032,
    "ho": 7033,
    "char@@": 7034,
    "belg@@": 7035,
    "neb@@": 7036,
    "unterrich@@": 7037,
    "Adre@@": 7038,
    "außer": 7039,
    "3-89@@": 7040,
    "Dau@@": 7041,
    "verlegt": 7042,
    "physi@@": 7043,
    "alis": 7044,
    "Straßen": 7045,
    "stil": 7046,
    "Town@@": 7047,
    "anwalt": 7048,
    "Forst@@": 7049,
    "Metro@@": 7050,
    "Pflan@@": 7051,
    "Glob@@": 7052,
    "Sängerin": 7053,
    "erns": 7054,
    "Nar@@": 7055,
    "America": 7056,
    "angegeben": 7057,
    "V-@@": 7058,
    "hat@@": 7059,
    "gefer@@": 7060,
    "konz@@": 7061,
    "zusamm@@": 7062,
    "Leb@@": 7063,
    "ink@@": 7064,
    "Graf@@": 7065,
    "zip": 7066,
    "erkennen": 7067,
    "Begrün@@": 7068,
    "Adel@@": 7069,
    "Fau@@": 7070,
    "ehemals": 7071,
    "Eth@@": 7072,
    "Bronze": 7073,
    "Service": 7074,
    "ς": 7075,
    "kanad@@": 7076,
    "baute": 7077,
    "Gas@@": 7078,
    "Chronik": 7079,
    "Arti@@": 7080,
    "haft": 7081,
    "hum@@": 7082,
    "stammte": 7083,
    "platz@@": 7084,
    "Abs.": 7085,
    "ements": 7086,
    "unterschiedlichen": 7087,
    "seit@@": 7088,
    "Formen": 7089,
    "bahnhof": 7090,
    "offizielle": 7091,
    "mitteln": 7092,
    "Sebastian": 7093,
    "rates": 7094,
    "Abitur": 7095,
    "Bek@@": 7096,
    "Vel@@": 7097,
    "Wiederauf@@": 7098,
    "Krimin@@": 7099,
    "denkmal": 7100,
    "terte": 7101,
    "gh@@": 7102,
    "äli@@": 7103,
    "Duncker": 7104,
    "Brenn@@": 7105,
    "lor@@": 7106,
    "Landschaft": 7107,
    "Belgien": 7108,
    "Kölner": 7109,
    "okal": 7110,
    "rah@@": 7111,
    "\\mathb@@": 7112,
    "besaß": 7113,
    "ogra@@": 7114,
    "Nicht": 7115,
    "32@@": 7116,
    "96@@": 7117,
    "п@@": 7118,
    "rien": 7119,
    "dokum@@": 7120,
    "kriegs@@": 7121,
    "Geografikum": 7122,
    "Vorsitz@@": 7123,
    "titel": 7124,
    "Medizin@@": 7125,
    "sches": 7126,
    "⋅": 7127,
    "bungen": 7128,
    "wodurch": 7129,
    "gute": 7130,
    "gezeigt": 7131,
    "tal@@": 7132,
    "S.@@": 7133,
    "Jahrhunder@@": 7134,
    "Bew@@": 7135,
    "ne-@@": 7136,
    "Denkmal": 7137,
    "sal@@": 7138,
    "Fur@@": 7139,
    "brun@@": 7140,
    "Philipp@@": 7141,
    "breit": 7142,
    "Auflösung": 7143,
    "iz": 7144,
    "Hell@@": 7145,
    "bestritt": 7146,
    "völlig": 7147,
    "spanisch": 7148,
    "blieben": 7149,
    "betei@@": 7150,
    "ae@@": 7151,
    "ré@@": 7152,
    "\\cdot": 7153,
    "Versuch": 7154,
    "Zukunft": 7155,
    "Fernsehfilm": 7156,
    "Disc@@": 7157,
    "Asi@@": 7158,
    "ausch": 7159,
    "Ken@@": 7160,
    "stets": 7161,
    "Beobach@@": 7162,
    "rats@@": 7163,
    "Hey@@": 7164,
    "Auff@@": 7165,
    "dal@@": 7166,
    "Autom@@": 7167,
    "standes": 7168,
    "wiederhol@@": 7169,
    "Marine": 7170,
    "IM@@": 7171,
    "Gebiets@@": 7172,
    "Neur@@": 7173,
    "nie@@": 7174,
    "ce-@@": 7175,
    "Drehbuch@@": 7176,
    "Comi@@": 7177,
    "ova": 7178,
    "anien": 7179,
    "19–@@": 7180,
    "polnischen": 7181,
    "ligisten": 7182,
    "Minister": 7183,
    "Lee": 7184,
    "00–@@": 7185,
    "lätze": 7186,
    "Dampf@@": 7187,
    "sym@@": 7188,
    "prakt@@": 7189,
    "Kapitel": 7190,
    "Bayer@@": 7191,
    "meisterschaft": 7192,
    "Fro@@": 7193,
    "Bran@@": 7194,
    "⚭": 7195,
    "Gun@@": 7196,
    "derzeit": 7197,
    "Wett@@": 7198,
    "schauer": 7199,
    "Brasilien": 7200,
    "dae": 7201,
    "gelegene": 7202,
    "ba": 7203,
    "Deutsches": 7204,
    "cia": 7205,
    "aw": 7206,
    "stens": 7207,
    "Klassi@@": 7208,
    "völk@@": 7209,
    "Rolf": 7210,
    "volle": 7211,
    "amerikanische": 7212,
    "Ster@@": 7213,
    "ith": 7214,
    "Kombin@@": 7215,
    "Republi@@": 7216,
    "Eishockeyspieler": 7217,
    "-1": 7218,
    "unterschie@@": 7219,
    "Roth@@": 7220,
    "beschäf@@": 7221,
    "Nahr@@": 7222,
    "Partn@@": 7223,
    "Körper": 7224,
    "Past@@": 7225,
    "fur@@": 7226,
    "Karlsruhe": 7227,
    "140@@": 7228,
    "Rainer": 7229,
    "lowak@@": 7230,
    "Flä@@": 7231,
    "1860": 7232,
    "extre@@": 7233,
    "Nikol@@": 7234,
    "Fragen": 7235,
    "rücken": 7236,
    "10.@@": 7237,
    "system": 7238,
    "Förderung": 7239,
    "andt": 7240,
    "Biographisches": 7241,
    "Amsterdam": 7242,
    "gerte": 7243,
    "Lübeck": 7244,
    "za@@": 7245,
    "Songs": 7246,
    "Dänemark": 7247,
    "werken": 7248,
    "verbrei@@": 7249,
    "Awards": 7250,
    "Tode": 7251,
    "Brüder": 7252,
    "Und": 7253,
    "manns": 7254,
    "well": 7255,
    "gebil@@": 7256,
    "Dietrich": 7257,
    "Botan@@": 7258,
    "angelegt": 7259,
    "Dub@@": 7260,
    "rier@@": 7261,
    "Anwendung": 7262,
    "inf@@": 7263,
    "Mög@@": 7264,
    "onne": 7265,
    "Öl@@": 7266,
    "Streit@@": 7267,
    "entweder": 7268,
    "Wir": 7269,
    "geschaffen": 7270,
    "leistung": 7271,
    "Fenster": 7272,
    "rig": 7273,
    "regel@@": 7274,
    "Jahrgang": 7275,
    "mischen": 7276,
    "sthe@@": 7277,
    "D.@@": 7278,
    "120": 7279,
    "Architekt@@": 7280,
    "anzen": 7281,
    "Sankt": 7282,
    "Texas": 7283,
    "Webachiv/IABot/@@": 7284,
    "eta": 7285,
    "sprechen": 7286,
    "erinnen": 7287,
    "ierenden": 7288,
    "Trotz": 7289,
    "rierte": 7290,
    "A.@@": 7291,
    "Colle@@": 7292,
    "übertragen": 7293,
    "Gestal@@": 7294,
    "Wür@@": 7295,
    "Ax@@": 7296,
    "zte": 7297,
    "gewonnen": 7298,
    "Play@@": 7299,
    "Stur@@": 7300,
    "Wagner": 7301,
    "Schlagzeu@@": 7302,
    "theater": 7303,
    "entschieden": 7304,
    "Lehre": 7305,
    "Beste": 7306,
    "12–@@": 7307,
    "appen": 7308,
    "Stimm@@": 7309,
    "fung@@": 7310,
    "ends": 7311,
    "Wort@@": 7312,
    "verschw@@": 7313,
    "ohl": 7314,
    "blem@@": 7315,
    "versich@@": 7316,
    "ession": 7317,
    "Seel@@": 7318,
    "Schlu@@": 7319,
    "errichtete": 7320,
    "Veröffentlichungen": 7321,
    "1887": 7322,
    "stes": 7323,
    "Portugal": 7324,
    "etter": 7325,
    "Emil": 7326,
    "alph@@": 7327,
    "Beam@@": 7328,
    "kes": 7329,
    "christ@@": 7330,
    "Register": 7331,
    "Synchron@@": 7332,
    "straß@@": 7333,
    "Francisco": 7334,
    "Gewäss@@": 7335,
    "Mod@@": 7336,
    "US-Dollar": 7337,
    "Trieb@@": 7338,
    "Roll@@": 7339,
    "Leistungen": 7340,
    "East": 7341,
    "fein@@": 7342,
    "Schie@@": 7343,
    "ücken": 7344,
    "Entwick@@": 7345,
    "gebro@@": 7346,
    "besitzen": 7347,
    "Tag@@": 7348,
    "Liz@@": 7349,
    "Alex@@": 7350,
    "Situation": 7351,
    "zieh@@": 7352,
    "Fußball-@@": 7353,
    "sburg": 7354,
    "stoffe": 7355,
    "Oli@@": 7356,
    "hrop@@": 7357,
    "ehmi@@": 7358,
    "Auß@@": 7359,
    "Laut": 7360,
    "Öffentlichkeit": 7361,
    "Humblot": 7362,
    "Hot@@": 7363,
    "Königin": 7364,
    "russischer": 7365,
    "1866": 7366,
    "One": 7367,
    "pdf": 7368,
    "Berlin-@@": 7369,
    "staaten": 7370,
    "RE@@": 7371,
    "mili@@": 7372,
    "wirkt": 7373,
    "fron@@": 7374,
    "lowakei": 7375,
    "Untersuchung": 7376,
    "Opern@@": 7377,
    "gestaltet": 7378,
    "hilfe": 7379,
    "kreis@@": 7380,
    "Kosten": 7381,
    "Maß@@": 7382,
    "bereit@@": 7383,
    "Menschen@@": 7384,
    "1879": 7385,
    "ras": 7386,
    "Blick": 7387,
    "Rechte": 7388,
    "ctor": 7389,
    "terer": 7390,
    "folgung": 7391,
    "Spitze": 7392,
    "sinn@@": 7393,
    "Mary": 7394,
    "zut@@": 7395,
    "losen": 7396,
    "Bass@@": 7397,
    "Dig@@": 7398,
    "verur@@": 7399,
    "Kammer@@": 7400,
    "seh@@": 7401,
    "tenden": 7402,
    "etts": 7403,
    "ebene": 7404,
    "Leichtathlet@@": 7405,
    "Moun@@": 7406,
    "religiö@@": 7407,
    "nei@@": 7408,
    "Portal": 7409,
    "venti@@": 7410,
    "lichem": 7411,
    "ji": 7412,
    "Altern@@": 7413,
    "Offiz@@": 7414,
    "Orchester": 7415,
    "Mö@@": 7416,
    "G-@@": 7417,
    "ρ@@": 7418,
    "Dim@@": 7419,
    "geplan@@": 7420,
    "oline": 7421,
    "Gericht": 7422,
    "Rig@@": 7423,
    "Ron@@": 7424,
    "ensus": 7425,
    "Rail@@": 7426,
    "Zweit@@": 7427,
    "mali@@": 7428,
    "Ordnung": 7429,
    "Elektro@@": 7430,
    "Geburtstag": 7431,
    "Vall@@": 7432,
    "geschoss": 7433,
    "Review": 7434,
    "Verfassungs@@": 7435,
    "bauer": 7436,
    "Verhältnis": 7437,
    "akte": 7438,
    "rief": 7439,
    "kern": 7440,
    "Auseinander@@": 7441,
    "Bester": 7442,
    "ktiv@@": 7443,
    "1886": 7444,
    "Eber@@": 7445,
    "tiges": 7446,
    "neh@@": 7447,
    "itzer": 7448,
    "Auft@@": 7449,
    "au-@@": 7450,
    "egel@@": 7451,
    "oper": 7452,
    "Bewohner": 7453,
    "ington": 7454,
    "Fut@@": 7455,
    "abger@@": 7456,
    "Austri@@": 7457,
    "Klavier": 7458,
    "Vin@@": 7459,
    "ips": 7460,
    "lic@@": 7461,
    "geb": 7462,
    "110": 7463,
    "Durchmesser": 7464,
    "Künste": 7465,
    "mauer": 7466,
    "AB@@": 7467,
    "international": 7468,
    "Geld@@": 7469,
    "jedes": 7470,
    "yt@@": 7471,
    "ergeb@@": 7472,
    "Material": 7473,
    "OSM": 7474,
    "orf": 7475,
    "aufen": 7476,
    "zweimal": 7477,
    "maler": 7478,
    "Besitz@@": 7479,
    "aria": 7480,
    "witsch": 7481,
    "Penn@@": 7482,
    "bild@@": 7483,
    "IS": 7484,
    "Erschein@@": 7485,
    "aufgestellt": 7486,
    "Wettbewer@@": 7487,
    "wass@@": 7488,
    "Werken": 7489,
    "800": 7490,
    "Mannschafts@@": 7491,
    "Ech@@": 7492,
    "gegründete": 7493,
    "arte": 7494,
    "Meg@@": 7495,
    "1874": 7496,
    "Ala@@": 7497,
    "tent@@": 7498,
    "eister": 7499,
    "olleg@@": 7500,
    "600": 7501,
    "Fabri@@": 7502,
    "It": 7503,
    "Mensch": 7504,
    "übersetzt": 7505,
    "Amer@@": 7506,
    "Strom@@": 7507,
    "ody": 7508,
    "auses": 7509,
    "starken": 7510,
    "benutzt": 7511,
    "Jar@@": 7512,
    "wesentlich": 7513,
    "betrieb@@": 7514,
    "emble": 7515,
    "Niederlande": 7516,
    "erien": 7517,
    "1868": 7518,
    "öffentliche": 7519,
    "C.@@": 7520,
    "einschließlich": 7521,
    "älteren": 7522,
    "sheim": 7523,
    "Friedens@@": 7524,
    "Markus": 7525,
    "gerichts@@": 7526,
    "Rap@@": 7527,
    "Hockey": 7528,
    "daran": 7529,
    "Herstellung": 7530,
    "Historic": 7531,
    "schaffen": 7532,
    "archit@@": 7533,
    "Eig@@": 7534,
    "erklär@@": 7535,
    "unterhalb": 7536,
    "echn@@": 7537,
    "atische": 7538,
    "VP": 7539,
    "ef": 7540,
    "Lot@@": 7541,
    "holz": 7542,
    "High": 7543,
    "1884": 7544,
    "Entscheidung": 7545,
    "1882": 7546,
    "verkaufte": 7547,
    "südöstlich": 7548,
    "herrsch@@": 7549,
    "jedem": 7550,
    "richter": 7551,
    "zunehmend": 7552,
    "wollen": 7553,
    "Volk": 7554,
    "mil@@": 7555,
    "Prozess": 7556,
    "Gründungs@@": 7557,
    "Ky@@": 7558,
    "Mikro@@": 7559,
    "10–@@": 7560,
    "Bezug": 7561,
    "Gewerk@@": 7562,
    "leu@@": 7563,
    "Hav@@": 7564,
    "ley@@": 7565,
    "Franz@@": 7566,
    "japanischen": 7567,
    "anie": 7568,
    "WM": 7569,
    "Tagen": 7570,
    "Eugen": 7571,
    "Atlas": 7572,
    "Anhän@@": 7573,
    "pul@@": 7574,
    "indung": 7575,
    "dakteur": 7576,
    "traten": 7577,
    "bücher": 7578,
    "Start": 7579,
    "First": 7580,
    "iller@@": 7581,
    "Bli@@": 7582,
    "GE@@": 7583,
    "senk@@": 7584,
    "Abgeordneter": 7585,
    "ish@@": 7586,
    "werte": 7587,
    "Nass@@": 7588,
    "Clu@@": 7589,
    "vertrat": 7590,
    "Einheiten": 7591,
    "mi": 7592,
    "Cop@@": 7593,
    "hauses": 7594,
    "Presse": 7595,
    "chinesischen": 7596,
    "Thüringen": 7597,
    "erium": 7598,
    "Dou@@": 7599,
    "malen": 7600,
    "asen": 7601,
    "Quell@@": 7602,
    "Zei@@": 7603,
    "ukrain@@": 7604,
    "orig@@": 7605,
    "Hill": 7606,
    "Gitar@@": 7607,
    "Zug": 7608,
    "della": 7609,
    "Kä@@": 7610,
    "Gefän@@": 7611,
    "ial": 7612,
    "agte": 7613,
    "boli@@": 7614,
    "Hektar": 7615,
    "Kommand@@": 7616,
    "Synonyme": 7617,
    "digungs@@": 7618,
    "ensch@@": 7619,
    "Rhein": 7620,
    "15-@@": 7621,
    "Magdeburg": 7622,
    "Bruno": 7623,
    "nier": 7624,
    "Mex@@": 7625,
    "würden": 7626,
    "gehei@@": 7627,
    "Erkenn@@": 7628,
    "brasili@@": 7629,
    "atischen": 7630,
    "Ero@@": 7631,
    "Leopold": 7632,
    "Weimar": 7633,
    "vari@@": 7634,
    "sum@@": 7635,
    "Harry": 7636,
    "Management": 7637,
    "Fürst": 7638,
    "leihung": 7639,
    "pft": 7640,
    "rück": 7641,
    "ato": 7642,
    "Figur": 7643,
    "Besuch": 7644,
    "Offizier": 7645,
    "dé@@": 7646,
    "lös@@": 7647,
    "Daher": 7648,
    "begriff": 7649,
    "Street": 7650,
    "18–@@": 7651,
    "wuch@@": 7652,
    "Jones": 7653,
    "Daten@@": 7654,
    "südwestlich": 7655,
    "Dadurch": 7656,
    "selten@@": 7657,
    "Google-Buchsuche": 7658,
    "Wer": 7659,
    "zerstör@@": 7660,
    "Österreichischen": 7661,
    "enheiten": 7662,
    "liegende": 7663,
    "kraft@@": 7664,
    "Quadrat@@": 7665,
    "ī@@": 7666,
    "ensis": 7667,
    "Baron": 7668,
    "ez@@": 7669,
    "65@@": 7670,
    "8,@@": 7671,
    "elektron@@": 7672,
    "ê@@": 7673,
    "feu@@": 7674,
    "künf@@": 7675,
    "wör@@": 7676,
    "95@@": 7677,
    "Figuren": 7678,
    "Bühn@@": 7679,
    "onia": 7680,
    "Magaz@@": 7681,
    "Tunn@@": 7682,
    "14–@@": 7683,
    "Mexiko": 7684,
    "Big": 7685,
    "trags@@": 7686,
    "Mik@@": 7687,
    "ruppen": 7688,
    "Recht@@": 7689,
    "Widerstand": 7690,
    "Antar@@": 7691,
    "gewer@@": 7692,
    "itäts@@": 7693,
    "getragen": 7694,
    "Hans@@": 7695,
    "liber@@": 7696,
    "epp@@": 7697,
    "enthal": 7698,
    "Alte": 7699,
    "schott@@": 7700,
    "250": 7701,
    "ric": 7702,
    "NS-@@": 7703,
    "heb@@": 7704,
    "Me": 7705,
    "literar@@": 7706,
    "verfasste": 7707,
    "Hauses": 7708,
    "Klosters": 7709,
    "Dich@@": 7710,
    "ladi@@": 7711,
    "gesellschaft@@": 7712,
    "1881": 7713,
    "Top": 7714,
    "Marburg": 7715,
    "akademie": 7716,
    "toria": 7717,
    "gzeu@@": 7718,
    "Medien@@": 7719,
    "-Preis": 7720,
    "Seh@@": 7721,
    "Kabin@@": 7722,
    "osa": 7723,
    "gesell@@": 7724,
    "nehmer": 7725,
    "tain": 7726,
    "Bem@@": 7727,
    "ń@@": 7728,
    "aktiv@@": 7729,
    "1883": 7730,
    "zugeordnet": 7731,
    "temp@@": 7732,
    "O-@@": 7733,
    "richtungen": 7734,
    "ältesten": 7735,
    "lach": 7736,
    "Sn@@": 7737,
    "fälle": 7738,
    "mär@@": 7739,
    "englische": 7740,
    "OS": 7741,
    "Brown": 7742,
    "lätter": 7743,
    "Braun@@": 7744,
    "rank@@": 7745,
    "Sieg@@": 7746,
    "mög@@": 7747,
    "hoff": 7748,
    "atten": 7749,
    "selb@@": 7750,
    "Neubau": 7751,
    "unteren": 7752,
    "bilder": 7753,
    "Boston": 7754,
    "fiziert": 7755,
    "verwand@@": 7756,
    "debü@@": 7757,
    "Elemente": 7758,
    "kunst": 7759,
    "Classi@@": 7760,
    "Luxem@@": 7761,
    "riebenen": 7762,
    "bayerischen": 7763,
    "Hersteller": 7764,
    "63@@": 7765,
    "essor": 7766,
    "nennt": 7767,
    "plätze": 7768,
    "zweiter": 7769,
    "besser": 7770,
    "mittelt": 7771,
    "nahezu": 7772,
    "How@@": 7773,
    "Schriftstellerin": 7774,
    "Oblast": 7775,
    "ated": 7776,
    "grü@@": 7777,
    "rhein@@": 7778,
    "tierten": 7779,
    "kopf": 7780,
    "hü@@": 7781,
    "Stadion": 7782,
    "Städten": 7783,
    "Holz": 7784,
    "Angriff": 7785,
    "Original@@": 7786,
    "Tol@@": 7787,
    "verw@@": 7788,
    "Fig@@": 7789,
    "forscher": 7790,
    "Ty@@": 7791,
    "ängen": 7792,
    "ca@@": 7793,
    "beweg@@": 7794,
    "ual": 7795,
    "bie@@": 7796,
    "enbank": 7797,
    "bezeichnete": 7798,
    "Bekann@@": 7799,
    "Vereins@@": 7800,
    "ar-@@": 7801,
    "verstor@@": 7802,
    "XX@@": 7803,
    "aufgebaut": 7804,
    "bit@@": 7805,
    "gan": 7806,
    "tes@@": 7807,
    "ift": 7808,
    "sau@@": 7809,
    "abgeord@@": 7810,
    "flo@@": 7811,
    "nationale": 7812,
    "Party": 7813,
    "eburg": 7814,
    "glei@@": 7815,
    "Lind@@": 7816,
    "Neuen": 7817,
    "tigkeiten": 7818,
    "denken": 7819,
    "Eigent@@": 7820,
    "Mak@@": 7821,
    "Versor@@": 7822,
    "dingt": 7823,
    "weiten": 7824,
    "Misch@@": 7825,
    "Stif@@": 7826,
    "oslaw@@": 7827,
    "verlänger@@": 7828,
    "ps@@": 7829,
    "1876": 7830,
    "ealog@@": 7831,
    "höhe": 7832,
    "alem": 7833,
    "Ki@@": 7834,
    "italienische": 7835,
    "erstreckt": 7836,
    "Bund": 7837,
    "ktur": 7838,
    "Wan@@": 7839,
    "geeig@@": 7840,
    "omb@@": 7841,
    "licherweise": 7842,
    "Cin@@": 7843,
    "Vergangenheit": 7844,
    "begonnen": 7845,
    "PDF-Datei": 7846,
    "ersdorf": 7847,
    "oli": 7848,
    "1877": 7849,
    "Chin@@": 7850,
    "Interpre@@": 7851,
    "Verfassung": 7852,
    "russische": 7853,
    "technischen": 7854,
    "Andre@@": 7855,
    "Münchner": 7856,
    "liefer@@": 7857,
    "Aka@@": 7858,
    "Pflanzen@@": 7859,
    "Aar@@": 7860,
    "olo": 7861,
    "й": 7862,
    "quali@@": 7863,
    "esi@@": 7864,
    "mittlerweile": 7865,
    "späten": 7866,
    "Kath@@": 7867,
    "weiß@@": 7868,
    "ozi@@": 7869,
    "Alben": 7870,
    "Weber": 7871,
    "Live": 7872,
    "organisation": 7873,
    "andelt": 7874,
    "Arab@@": 7875,
    "glück@@": 7876,
    "berg-@@": 7877,
    "arbeit@@": 7878,
    "stur@@": 7879,
    "Neustadt": 7880,
    "Freiheit": 7881,
    "Stellung": 7882,
    "frem@@": 7883,
    "Encyclopedia": 7884,
    "Jack": 7885,
    "erzi@@": 7886,
    "änder": 7887,
    "Energie": 7888,
    "et-@@": 7889,
    "gal@@": 7890,
    "Linz": 7891,
    "Ped@@": 7892,
    "handelte": 7893,
    "White": 7894,
    "Cri@@": 7895,
    "amtes": 7896,
    "befest@@": 7897,
    "dad": 7898,
    "Heil@@": 7899,
    "ögel": 7900,
    "Lauf": 7901,
    "ket@@": 7902,
    "ines": 7903,
    "struktur@@": 7904,
    "Prote@@": 7905,
    "Aufnahmen": 7906,
    "Wahlkreis": 7907,
    "Cit@@": 7908,
    "verschie@@": 7909,
    "Pel@@": 7910,
    "16-@@": 7911,
    "abrik": 7912,
    "besetzt": 7913,
    "Dör@@": 7914,
    "Dir@@": 7915,
    "sein@@": 7916,
    "nordöstlich": 7917,
    "Cha@@": 7918,
    "spanischen": 7919,
    "fach": 7920,
    "Bür@@": 7921,
    "Ort@@": 7922,
    "Trag@@": 7923,
    "kunst@@": 7924,
    "m.": 7925,
    "anen": 7926,
    "Dal@@": 7927,
    "1872": 7928,
    "zeichnen": 7929,
    "Kast@@": 7930,
    "nordwestlich": 7931,
    "verschiedener": 7932,
    "aka": 7933,
    "ktiv": 7934,
    "Ukraine": 7935,
    "Reise@@": 7936,
    "beauftra@@": 7937,
    "etabli@@": 7938,
    "Besetzung": 7939,
    "don": 7940,
    "aturen": 7941,
    "Einsatz@@": 7942,
    "Gedichte": 7943,
    "Weihnach@@": 7944,
    "vater": 7945,
    "burgischen": 7946,
    "Tob@@": 7947,
    "Franzis@@": 7948,
    "kraft": 7949,
    "Katast@@": 7950,
    "Oster@@": 7951,
    "Züge": 7952,
    "Zusammen": 7953,
    "ogs": 7954,
    "rischen": 7955,
    "schulen": 7956,
    "Kel@@": 7957,
    "Handel": 7958,
    "orum": 7959,
    "Schleswig-Holstein": 7960,
    "Hohen@@": 7961,
    "ands@@": 7962,
    "emb@@": 7963,
    "pot@@": 7964,
    "hofs": 7965,
    "Int@@": 7966,
    "heiligen": 7967,
    "1878": 7968,
    "kü@@": 7969,
    "kehrt": 7970,
    "1950er": 7971,
    "1873": 7972,
    "Md@@": 7973,
    "magaz@@": 7974,
    "Stern": 7975,
    "Mutter@@": 7976,
    "Dres@@": 7977,
    "löste": 7978,
    "silber@@": 7979,
    "Media": 7980,
    "gress": 7981,
    "Schreib@@": 7982,
    "ridge": 7983,
    "Digit@@": 7984,
    "etten@@": 7985,
    "Google": 7986,
    "Alten": 7987,
    "Lager@@": 7988,
    "Entschei@@": 7989,
    "Glau@@": 7990,
    "dati@@": 7991,
    "Stro@@": 7992,
    "Experim@@": 7993,
    "rix": 7994,
    "wert@@": 7995,
    "Stephan": 7996,
    "verstarb": 7997,
    "fried@@": 7998,
    "isierte": 7999,
    "zählte": 8000,
    "Konzept": 8001,
    "tinu@@": 8002,
    "Geschichten": 8003,
    "ST@@": 8004,
    "emper@@": 8005,
    "Entwicklungs@@": 8006,
    "0:@@": 8007,
    "By@@": 8008,
    "Gründer": 8009,
    "Pflanzen": 8010,
    "Ursprün@@": 8011,
    "dest": 8012,
    "Somm@@": 8013,
    "holm": 8014,
    "ichts@@": 8015,
    "bieten": 8016,
    "verändert": 8017,
    "enter": 8018,
    "aku@@": 8019,
    "Norwegen": 8020,
    "val@@": 8021,
    "ursprünglichen": 8022,
    "ear@@": 8023,
    "geschie@@": 8024,
    "Diskus@@": 8025,
    "kretär": 8026,
    "allen@@": 8027,
    "Cir@@": 8028,
    "Beau@@": 8029,
    "Stimme": 8030,
    "bin": 8031,
    "ppen": 8032,
    "Vertre@@": 8033,
    "ough": 8034,
    "echnik": 8035,
    "yle": 8036,
    "iser": 8037,
    "iat@@": 8038,
    "Wirt@@": 8039,
    "Entfern@@": 8040,
    "Religion": 8041,
    "AC@@": 8042,
    "tage": 8043,
    "küste": 8044,
    "ungen@@": 8045,
    "eum": 8046,
    "Cer@@": 8047,
    "lege": 8048,
    "Yor@@": 8049,
    "erinnert": 8050,
    "Conc@@": 8051,
    "75@@": 8052,
    "mod@@": 8053,
    "hess@@": 8054,
    "dreht": 8055,
    "Umwelt": 8056,
    "rach": 8057,
    "zuständig": 8058,
    "Zustand": 8059,
    "kri@@": 8060,
    "einfach": 8061,
    "Bibliothe@@": 8062,
    "Brem@@": 8063,
    "Tats@@": 8064,
    "Premier@@": 8065,
    "gemeinsamen": 8066,
    "Höch@@": 8067,
    "Flei@@": 8068,
    "Williams": 8069,
    "1861": 8070,
    "fasst": 8071,
    "beam@@": 8072,
    "iss": 8073,
    "14-@@": 8074,
    "Reinhard": 8075,
    "gänge": 8076,
    "ings@@": 8077,
    "philosoph@@": 8078,
    "Mitgliedern": 8079,
    "Gon@@": 8080,
    "Scho@@": 8081,
    "ballspieler": 8082,
    "seitdem": 8083,
    "Volume": 8084,
    "kr@@": 8085,
    "herausgegeben": 8086,
    "ees": 8087,
    "Aber": 8088,
    "rumän@@": 8089,
    "inten@@": 8090,
    "ν@@": 8091,
    "gefasst": 8092,
    "On": 8093,
    "Harald": 8094,
    "schnei@@": 8095,
    "2-0@@": 8096,
    "Erzieh@@": 8097,
    "rigkeit": 8098,
    "Series": 8099,
    "Kleine": 8100,
    "Kontakt": 8101,
    "Verkehr": 8102,
    "rats": 8103,
    "enes": 8104,
    "entschied": 8105,
    "Personen@@": 8106,
    "gehör@@": 8107,
    "VII": 8108,
    "kow@@": 8109,
    "lal@@": 8110,
    "werks": 8111,
    "erklärte": 8112,
    "Pseud@@": 8113,
    "Carolin@@": 8114,
    "Gör@@": 8115,
    "sowjet@@": 8116,
    "abhäng@@": 8117,
    "Pul@@": 8118,
    "Sächs@@": 8119,
    "Wahlen": 8120,
    "zeitig": 8121,
    "ires": 8122,
    "teste": 8123,
    "Link@@": 8124,
    "Gegner": 8125,
    "kennen": 8126,
    "rot": 8127,
    "produktion": 8128,
    "udi@@": 8129,
    "Laufbahn": 8130,
    "europa": 8131,
    "erinn@@": 8132,
    "wirken": 8133,
    "raut": 8134,
    "Design": 8135,
    "Rand": 8136,
    "Gedi@@": 8137,
    "Gottes@@": 8138,
    "lien": 8139,
    "verg@@": 8140,
    "Denkmalliste": 8141,
    "dler": 8142,
    "13–@@": 8143,
    "journ@@": 8144,
    "verurteilt": 8145,
    "Bit@@": 8146,
    "ism": 8147,
    "ior@@": 8148,
    "lieb": 8149,
    "1864": 8150,
    "stücke": 8151,
    "Mul@@": 8152,
    "Samuel": 8153,
    "vorwiegend": 8154,
    "wort@@": 8155,
    "verp@@": 8156,
    "Chef@@": 8157,
    "11-@@": 8158,
    "etzte": 8159,
    "versehen": 8160,
    "Weib@@": 8161,
    "Ortschaften": 8162,
    "überra@@": 8163,
    "übrigen": 8164,
    "weiler": 8165,
    "vorhand@@": 8166,
    "ganzen": 8167,
    "aue": 8168,
    "beziehungsweise": 8169,
    "kleinere": 8170,
    "iana": 8171,
    "Beziehung": 8172,
    "Län@@": 8173,
    "gä@@": 8174,
    "Them@@": 8175,
    "Jacques": 8176,
    "Augen@@": 8177,
    "Time": 8178,
    "spätere": 8179,
    "mündet": 8180,
    "zone": 8181,
    "Jörg": 8182,
    "Schö@@": 8183,
    "Medaille": 8184,
    "sätz@@": 8185,
    "kapelle": 8186,
    "baus": 8187,
    "vo": 8188,
    "volution": 8189,
    "AL@@": 8190,
    "Rum@@": 8191,
    "Idee": 8192,
    "künst@@": 8193,
    "abgeschlossen": 8194,
    "fle@@": 8195,
    "Standard@@": 8196,
    "rachten": 8197,
    "ausgestattet": 8198,
    "ogen@@": 8199,
    "ossen@@": 8200,
    "Wilhel@@": 8201,
    "sätzen": 8202,
    "Amt@@": 8203,
    "Boch@@": 8204,
    "Jüd@@": 8205,
    "AM@@": 8206,
    "Hintergrund": 8207,
    "Einrichtung": 8208,
    "Erfin@@": 8209,
    "geplant": 8210,
    "Scott": 8211,
    "Ludwigs@@": 8212,
    "Generation": 8213,
    "Tam@@": 8214,
    "Bay": 8215,
    "ament": 8216,
    "и": 8217,
    "Information@@": 8218,
    "schar@@": 8219,
    "Gouverneur": 8220,
    "ima": 8221,
    "Pier@@": 8222,
    "Jacob": 8223,
    "unterschiedliche": 8224,
    "log@@": 8225,
    "schafft": 8226,
    "beschä@@": 8227,
    "Spezi@@": 8228,
    "25-@@": 8229,
    "langs@@": 8230,
    "Mio.": 8231,
    "tragung": 8232,
    "entstand@@": 8233,
    "Entstehung": 8234,
    "ipen@@": 8235,
    "ktiven": 8236,
    "Stoff@@": 8237,
    "bibli@@": 8238,
    "6.@@": 8239,
    "tic": 8240,
    "1865": 8241,
    "enhagen": 8242,
    "Informations@@": 8243,
    "steigen": 8244,
    "Serv@@": 8245,
    "Tak@@": 8246,
    "Real@@": 8247,
    "hoh@@": 8248,
    "Lew@@": 8249,
    "Van": 8250,
    "Joh@@": 8251,
    "Pfei@@": 8252,
    "1°": 8253,
    "kurzen": 8254,
    "glas": 8255,
    "zung": 8256,
    "erische": 8257,
    "Fab@@": 8258,
    "zwe@@": 8259,
    "st-@@": 8260,
    "1,5": 8261,
    "æ@@": 8262,
    "tens": 8263,
    "Halbfinale": 8264,
    "Höl@@": 8265,
    "arzt": 8266,
    "kanadischer": 8267,
    "betra@@": 8268,
    "lätzen": 8269,
    "öffent@@": 8270,
    "Ausland": 8271,
    "angew@@": 8272,
    "Mannheim": 8273,
    "Innsbruck": 8274,
    "ringt": 8275,
    "landes@@": 8276,
    "großes": 8277,
    "gge": 8278,
    "Konstant@@": 8279,
    "Schott@@": 8280,
    "Erfolge": 8281,
    "delte": 8282,
    "sprach": 8283,
    "wig": 8284,
    "rt": 8285,
    "treffen": 8286,
    "Henn@@": 8287,
    "Verzeichnis": 8288,
    "Rub@@": 8289,
    "staat": 8290,
    "starke": 8291,
    "8.@@": 8292,
    "Vogel@@": 8293,
    "Differ@@": 8294,
    "out@@": 8295,
    "Aur@@": 8296,
    "Princ@@": 8297,
    "zel": 8298,
    "Leo": 8299,
    "Preis@@": 8300,
    "urkundlich": 8301,
    "1869": 8302,
    "Studies": 8303,
    "978-1-@@": 8304,
    "fahrts@@": 8305,
    "Episode": 8306,
    "weder": 8307,
    "ring": 8308,
    "Erzb@@": 8309,
    "Show": 8310,
    "Kopf@@": 8311,
    "Stev@@": 8312,
    "osop@@": 8313,
    "MI@@": 8314,
    "kord": 8315,
    "Kongress": 8316,
    "Sicherheits@@": 8317,
    "Karl@@": 8318,
    "Ré@@": 8319,
    "Entwurf": 8320,
    "Eberhard": 8321,
    "ami": 8322,
    "3-0@@": 8323,
    "mich": 8324,
    "Küste": 8325,
    "vide@@": 8326,
    "Metall@@": 8327,
    "N.": 8328,
    "shire": 8329,
    "einheit": 8330,
    "hoher": 8331,
    "sw@@": 8332,
    "Universitäten": 8333,
    "einzigen": 8334,
    "entiert": 8335,
    "<": 8336,
    "Anwen@@": 8337,
    "André": 8338,
    "Argentin@@": 8339,
    "Giovanni": 8340,
    "Künstler@@": 8341,
    "die@@": 8342,
    "Politikerin": 8343,
    "North@@": 8344,
    "Sper@@": 8345,
    "beschreibt": 8346,
    "ec": 8347,
    "Enter@@": 8348,
    "Errichtung": 8349,
    "inform@@": 8350,
    "|@@": 8351,
    "pfer": 8352,
    "Osnab@@": 8353,
    "fussball@@": 8354,
    "bür@@": 8355,
    "Woche": 8356,
    "erhoben": 8357,
    "fels": 8358,
    "orden": 8359,
    "Auszeichnung": 8360,
    "Vorschau": 8361,
    "Nikolaus": 8362,
    "Bulgar@@": 8363,
    "ux": 8364,
    "umfasste": 8365,
    "Initiative": 8366,
    "reten": 8367,
    "geborene": 8368,
    "hinzu": 8369,
    "graf": 8370,
    "Abend@@": 8371,
    "zig@@": 8372,
    "eton": 8373,
    "nörd@@": 8374,
    "Lem@@": 8375,
    "Michel": 8376,
    "ó": 8377,
    "Nau@@": 8378,
    "Paul@@": 8379,
    "zin": 8380,
    "act@@": 8381,
    "Chef": 8382,
    "Fassung": 8383,
    "atus": 8384,
    "steiger": 8385,
    "Sachsen-Anhalt": 8386,
    "sieb@@": 8387,
    "train@@": 8388,
    "eintrag": 8389,
    "Datenb@@": 8390,
    "EP": 8391,
    "kunft": 8392,
    "Patrick": 8393,
    "italienisch": 8394,
    "Schm@@": 8395,
    "vorher": 8396,
    "Breite": 8397,
    "Fuß": 8398,
    "beschrän@@": 8399,
    "rigen": 8400,
    "Sem@@": 8401,
    "erweiterte": 8402,
    "mögen": 8403,
    "schweren": 8404,
    "any": 8405,
    "Bam@@": 8406,
    "Dec@@": 8407,
    "day": 8408,
    "Klei@@": 8409,
    "Now@@": 8410,
    "ürzt": 8411,
    "Freder@@": 8412,
    "Thür@@": 8413,
    "möglicherweise": 8414,
    "KG": 8415,
    "rer": 8416,
    "ckel": 8417,
    "rums": 8418,
    "parti@@": 8419,
    "mitglieder": 8420,
    "Köl@@": 8421,
    "Origin@@": 8422,
    "adel@@": 8423,
    "Sicherheit": 8424,
    "nummer": 8425,
    "woll@@": 8426,
    "Park@@": 8427,
    "3333@@": 8428,
    "1862": 8429,
    "ati": 8430,
    "Abt": 8431,
    "bir@@": 8432,
    "Reference": 8433,
    "Route": 8434,
    "Cy@@": 8435,
    "Satz": 8436,
    "gekommen": 8437,
    "suchen": 8438,
    "Anne": 8439,
    "Ring@@": 8440,
    "gor@@": 8441,
    "Reiches": 8442,
    "aya": 8443,
    "sy@@": 8444,
    "Stich@@": 8445,
    "ign@@": 8446,
    "Sicht": 8447,
    "John@@": 8448,
    "illen": 8449,
    "3-5@@": 8450,
    "Plan": 8451,
    "Kamp@@": 8452,
    "sächs@@": 8453,
    "eicht": 8454,
    "oppel@@": 8455,
    "az": 8456,
    "hätten": 8457,
    "einst@@": 8458,
    "Roger": 8459,
    "Millimeter": 8460,
    "Team@@": 8461,
    "ep": 8462,
    "Licht": 8463,
    "alistische": 8464,
    "kov@@": 8465,
    "ock": 8466,
    "promoviert": 8467,
    "Jul@@": 8468,
    "gleiche": 8469,
    "en/@@": 8470,
    "dortigen": 8471,
    "brach": 8472,
    "Jagd@@": 8473,
    "stuhl": 8474,
    "sozialen": 8475,
    "Bayerische": 8476,
    "Wü@@": 8477,
    "Präsident@@": 8478,
    "Mund@@": 8479,
    "Grenzen": 8480,
    "stütz@@": 8481,
    "Schlei@@": 8482,
    "Dür@@": 8483,
    "Whit@@": 8484,
    "Schrift": 8485,
    "Unternehmens@@": 8486,
    "Freunde": 8487,
    "ader": 8488,
    "ungs-": 8489,
    "stift": 8490,
    "zugän@@": 8491,
    "Som@@": 8492,
    "betrachtet": 8493,
    "hammer": 8494,
    "bislang": 8495,
    "bet": 8496,
    "verpflichtet": 8497,
    "amerikanischer": 8498,
    "Bör@@": 8499,
    "Industri@@": 8500,
    "mä@@": 8501,
    "kil@@": 8502,
    "schaffte": 8503,
    "erlau@@": 8504,
    "Zahn@@": 8505,
    "harmon@@": 8506,
    "Europameisterschaft": 8507,
    "entsteht": 8508,
    "begannen": 8509,
    "lehrer": 8510,
    "og": 8511,
    "schlug": 8512,
    "Schick@@": 8513,
    "Betrieb@@": 8514,
    "Zahlen": 8515,
    "Tir@@": 8516,
    "reiber": 8517,
    "Neck@@": 8518,
    "gehoben": 8519,
    "Rio": 8520,
    "ufer": 8521,
    "Staf@@": 8522,
    "überzeu@@": 8523,
    "Hafen": 8524,
    "terbuch": 8525,
    "stehende": 8526,
    "erwor@@": 8527,
    "barer": 8528,
    "Skulpt@@": 8529,
    "schwier@@": 8530,
    "ador": 8531,
    "weich@@": 8532,
    "Erster": 8533,
    "dra@@": 8534,
    "Aspe@@": 8535,
    "ér@@": 8536,
    "Christop@@": 8537,
    "Renaiss@@": 8538,
    "ßt": 8539,
    "Bell@@": 8540,
    "icip@@": 8541,
    "Szene": 8542,
    "einiger": 8543,
    "geschwindigkeit": 8544,
    "Juan": 8545,
    "ehrt": 8546,
    "Zunächst": 8547,
    "massi@@": 8548,
    "Zau@@": 8549,
    "eingesch@@": 8550,
    "Names": 8551,
    "schuf": 8552,
    "schließ@@": 8553,
    "zurückzu@@": 8554,
    "Rumänien": 8555,
    "Gleichzeitig": 8556,
    "folgen@@": 8557,
    "ban": 8558,
    "Hur@@": 8559,
    "Biele@@": 8560,
    "onischen": 8561,
    "kus": 8562,
    "Verhäl@@": 8563,
    "issi@@": 8564,
    "Status": 8565,
    "Tonnen": 8566,
    "verbrachte": 8567,
    "lad@@": 8568,
    "Problem": 8569,
    "rop@@": 8570,
    "Schwerpunkt": 8571,
    "I-@@": 8572,
    "Studien@@": 8573,
    "offizi@@": 8574,
    "Übersicht": 8575,
    "3D~@@": 8576,
    "alia": 8577,
    "Intern@@": 8578,
    "Lein@@": 8579,
    "Tageb@@": 8580,
    "rid": 8581,
    "U-Bo@@": 8582,
    "1863": 8583,
    "ter-@@": 8584,
    "forderungen": 8585,
    "BA": 8586,
    "Arz@@": 8587,
    "loh@@": 8588,
    "Europe": 8589,
    "AS": 8590,
    "Gruppen@@": 8591,
    "Einzel": 8592,
    "karte": 8593,
    "behörde": 8594,
    "hl@@": 8595,
    "Akti@@": 8596,
    "ßig@@": 8597,
    "bedeutend@@": 8598,
    "It@@": 8599,
    "Ägypten": 8600,
    "Drehbuch": 8601,
    "räum@@": 8602,
    "Fic@@": 8603,
    "Rostock": 8604,
    "Oliver": 8605,
    "unterscheiden": 8606,
    "Zeitraum": 8607,
    "Fant@@": 8608,
    "Kooper@@": 8609,
    "Mathemati@@": 8610,
    "1840": 8611,
    "vention": 8612,
    "Flora": 8613,
    "anges@@": 8614,
    "öss@@": 8615,
    "Besitzer": 8616,
    "hung": 8617,
    "sicher": 8618,
    "Frieden": 8619,
    "ministeriums": 8620,
    "eröffnete": 8621,
    "n.": 8622,
    "gehörige": 8623,
    "Variante": 8624,
    "Becker": 8625,
    "Kör@@": 8626,
    "BC": 8627,
    "gestaltung": 8628,
    "uth@@": 8629,
    "Standard": 8630,
    "Joe": 8631,
    "Wohl@@": 8632,
    "lav": 8633,
    "Heilbron@@": 8634,
    "ason": 8635,
    "Diri@@": 8636,
    "km/h": 8637,
    "α": 8638,
    "zif@@": 8639,
    "Earl": 8640,
    "erter": 8641,
    "atte": 8642,
    "kin": 8643,
    "horn": 8644,
    "Gruyter": 8645,
    "reibt": 8646,
    "Verwand@@": 8647,
    "Rak@@": 8648,
    "С@@": 8649,
    "ning": 8650,
    "Rathaus": 8651,
    "vereinigung": 8652,
    "Gemälde": 8653,
    "Label": 8654,
    "Dokumentar@@": 8655,
    "Hoffmann": 8656,
    "Zugang": 8657,
    "farb@@": 8658,
    "б@@": 8659,
    "Sendung": 8660,
    "Problem@@": 8661,
    "einzelne": 8662,
    "Priester": 8663,
    "tags@@": 8664,
    "Brief": 8665,
    "wirkung": 8666,
    "marsch@@": 8667,
    "eingeschränkte": 8668,
    "3-7@@": 8669,
    "ubilä@@": 8670,
    "1849": 8671,
    "halb@@": 8672,
    "Presse@@": 8673,
    "alysi@@": 8674,
    "Loh@@": 8675,
    "arbeiter": 8676,
    "säm@@": 8677,
    "Pader@@": 8678,
    "Neues": 8679,
    "Anat@@": 8680,
    "Mike": 8681,
    "Operation": 8682,
    "Gerä@@": 8683,
    "Verordnung": 8684,
    "Chap@@": 8685,
    "parallel": 8686,
    "Ufer": 8687,
    "1500": 8688,
    "iele": 8689,
    "Speich@@": 8690,
    "NE@@": 8691,
    "ă@@": 8692,
    "book": 8693,
    "ändert": 8694,
    "onder@@": 8695,
    "OS@@": 8696,
    "chs": 8697,
    "ا@@": 8698,
    "~@@": 8699,
    "gül@@": 8700,
    "bergs": 8701,
    "Arg@@": 8702,
    "Klavier@@": 8703,
    "Hex@@": 8704,
    "Pokal@@": 8705,
    "Gär@@": 8706,
    "material": 8707,
    "Arrondissement": 8708,
    "gress@@": 8709,
    "beit@@": 8710,
    "Nu@@": 8711,
    "Wupp@@": 8712,
    "Mission": 8713,
    "schä@@": 8714,
    "Regionen": 8715,
    "orial": 8716,
    "Geistlicher": 8717,
    "fähigkeit": 8718,
    "mehrerer": 8719,
    "Amtszeit": 8720,
    "ense": 8721,
    "ungefähr": 8722,
    "anlässlich": 8723,
    "12.@@": 8724,
    "Rol@@": 8725,
    "re-@@": 8726,
    "t.": 8727,
    "Guide": 8728,
    "Versich@@": 8729,
    "laufen": 8730,
    "Gitarr@@": 8731,
    "SO@@": 8732,
    "onlin@@": 8733,
    "pfen": 8734,
    "Hyp@@": 8735,
    "inson": 8736,
    "verkauf@@": 8737,
    "ud": 8738,
    "grä@@": 8739,
    "Ausnahme": 8740,
    "Ethn@@": 8741,
    "Pion@@": 8742,
    "Naturschutzgebiet": 8743,
    "Ebenfalls": 8744,
    "François": 8745,
    "artige": 8746,
    "idi@@": 8747,
    "bad@@": 8748,
    "Rah@@": 8749,
    "Bill": 8750,
    "derer": 8751,
    "Thor@@": 8752,
    "Diöz@@": 8753,
    "Schall@@": 8754,
    "Clar@@": 8755,
    "eth": 8756,
    "bourg": 8757,
    "Fällen": 8758,
    "ulen": 8759,
    "bek": 8760,
    "chter@@": 8761,
    "Uwe": 8762,
    "Trier": 8763,
    "oge": 8764,
    "get": 8765,
    "ummer": 8766,
    "dach@@": 8767,
    "cal@@": 8768,
    "besitz": 8769,
    "gebirge": 8770,
    "Prinz": 8771,
    "luther@@": 8772,
    "katholischer": 8773,
    "NG@@": 8774,
    "Beck@@": 8775,
    "Mehrheit": 8776,
    "Farbe": 8777,
    "guten": 8778,
    "Meisterschaften": 8779,
    ",2": 8780,
    "17–@@": 8781,
    "Mittel": 8782,
    "Führer": 8783,
    "Halbinsel": 8784,
    "pommern": 8785,
    "30-@@": 8786,
    "hören": 8787,
    "wege": 8788,
    "fr": 8789,
    "Studenten": 8790,
    "ao": 8791,
    "Übersetz@@": 8792,
    "version": 8793,
    "mag@@": 8794,
    "präs@@": 8795,
    "Grab": 8796,
    "ig-@@": 8797,
    "TV-@@": 8798,
    "fot@@": 8799,
    "3-88@@": 8800,
    "univers@@": 8801,
    "deter": 8802,
    "tags": 8803,
    "rige": 8804,
    "wechselt": 8805,
    "DF@@": 8806,
    "Mes@@": 8807,
    "führenden": 8808,
    "AC": 8809,
    "Church": 8810,
    "Gesundheits@@": 8811,
    "Beweg@@": 8812,
    "ión": 8813,
    "ursprün@@": 8814,
    "stadt@@": 8815,
    "oda": 8816,
    "versorgung": 8817,
    "klassischen": 8818,
    "jeden": 8819,
    "seitig": 8820,
    "Langen@@": 8821,
    "kli@@": 8822,
    "ziplin@@": 8823,
    "Industrie": 8824,
    "anna": 8825,
    "Football": 8826,
    "owitsch": 8827,
    "Dr@@": 8828,
    "Eröffnung": 8829,
    "ş@@": 8830,
    "ständnis": 8831,
    "Fell@@": 8832,
    "umst@@": 8833,
    "Politik@@": 8834,
    "Chris": 8835,
    "riere": 8836,
    "ielt": 8837,
    "olli@@": 8838,
    "berichtet": 8839,
    "moderne": 8840,
    "kts": 8841,
    "bestätigt": 8842,
    "griffen": 8843,
    "Mühle": 8844,
    "benannte": 8845,
    "Gegen": 8846,
    "Leistungs@@": 8847,
    "landes": 8848,
    "Cle@@": 8849,
    "ów": 8850,
    "Mathematik": 8851,
    "rollen": 8852,
    "Bundesamt": 8853,
    "Griechenland": 8854,
    "Rav@@": 8855,
    "ond": 8856,
    "1800": 8857,
    "Kontrolle": 8858,
    "put@@": 8859,
    "u-@@": 8860,
    "obile": 8861,
    "licht@@": 8862,
    "Stau@@": 8863,
    "Enzyklopädie": 8864,
    "unabhäng@@": 8865,
    "PD": 8866,
    "Schri@@": 8867,
    "erfolgreich@@": 8868,
    "Gam@@": 8869,
    "konzent@@": 8870,
    "Brand": 8871,
    "Multi@@": 8872,
    "scha": 8873,
    "einzel@@": 8874,
    "Jerus@@": 8875,
    "Vf@@": 8876,
    "Feld": 8877,
    "vest@@": 8878,
    "Viz@@": 8879,
    "berich@@": 8880,
    "archä@@": 8881,
    "bal@@": 8882,
    "pos@@": 8883,
    "famili@@": 8884,
    "Flucht": 8885,
    "den-@@": 8886,
    "gebenen": 8887,
    "athan": 8888,
    "altar": 8889,
    "het@@": 8890,
    "vorgesehen": 8891,
    "Vinc@@": 8892,
    "sicherh@@": 8893,
    "Wiktionary": 8894,
    "idae": 8895,
    "Pow@@": 8896,
    "verli@@": 8897,
    "Wege": 8898,
    "vergeben": 8899,
    "Num@@": 8900,
    "Dokumentation": 8901,
    "von@@": 8902,
    "uchs": 8903,
    "Augen": 8904,
    "7.@@": 8905,
    "Linien": 8906,
    "keit@@": 8907,
    "inner": 8908,
    "ogen": 8909,
    "schwedischen": 8910,
    "Christian@@": 8911,
    "sist@@": 8912,
    "ila": 8913,
    "-Bahn@@": 8914,
    "Wortherkunft": 8915,
    "Gemeinschaft": 8916,
    "wähnung": 8917,
    "Taschenb@@": 8918,
    "Fort": 8919,
    "erenden": 8920,
    "Fas@@": 8921,
    "Koch": 8922,
    "Schar@@": 8923,
    "Jam@@": 8924,
    "Rus@@": 8925,
    "gart@@": 8926,
    "Dorfes": 8927,
    "Hamm@@": 8928,
    "Riv@@": 8929,
    "Ähn@@": 8930,
    "AG@@": 8931,
    "bewahr@@": 8932,
    "SS": 8933,
    "Siegfried": 8934,
    "Fertig@@": 8935,
    "deckung": 8936,
    "Flücht@@": 8937,
    "Young": 8938,
    "Lord": 8939,
    "Gymnasi@@": 8940,
    "Verantwort@@": 8941,
    "herren": 8942,
    "Venedig": 8943,
    "ckte": 8944,
    "vin": 8945,
    "regul@@": 8946,
    "ultur@@": 8947,
    "respon@@": 8948,
    "LE@@": 8949,
    "zweit@@": 8950,
    "Kupf@@": 8951,
    "Nominierung": 8952,
    "ordnet": 8953,
    "Libr@@": 8954,
    "Elect@@": 8955,
    "1-0@@": 8956,
    "Woiwod@@": 8957,
    "Flori@@": 8958,
    "spanischer": 8959,
    "existiert": 8960,
    "Symp@@": 8961,
    "nieder": 8962,
    "Schütz@@": 8963,
    "trifft": 8964,
    "Alf@@": 8965,
    "Tanz@@": 8966,
    "eigenes": 8967,
    "as-@@": 8968,
    "Europameister@@": 8969,
    "Elektron@@": 8970,
    "Bill@@": 8971,
    "Klein": 8972,
    "major": 8973,
    "gemeinsame": 8974,
    "endor@@": 8975,
    "verhaf@@": 8976,
    "Dortmund": 8977,
    "entu@@": 8978,
    "bedingungen": 8979,
    "Museums": 8980,
    "Detail@@": 8981,
    "last@@": 8982,
    "mex@@": 8983,
    "Blüten@@": 8984,
    "Boh@@": 8985,
    "Daraufhin": 8986,
    "Bedeutungserklärungen": 8987,
    "entierte": 8988,
    "Bour@@": 8989,
    "hieß": 8990,
    "sprin@@": 8991,
    "lat": 8992,
    "Europäische": 8993,
    "nannte": 8994,
    "8-0@@": 8995,
    "Verbrei@@": 8996,
    "genannte": 8997,
    "onym": 8998,
    "Vereine": 8999,
    "miss@@": 9000,
    "Survey": 9001,
    "freier": 9002,
    "Ereignisse": 9003,
    "Esp@@": 9004,
    "täts@@": 9005,
    "Monaten": 9006,
    "Virginia": 9007,
    "wegs": 9008,
    "hart": 9009,
    "bö@@": 9010,
    "rate": 9011,
    "führungen": 9012,
    "Verbreitung": 9013,
    "erzählt": 9014,
    "regelmäß@@": 9015,
    "viertel": 9016,
    "1815": 9017,
    "Kär@@": 9018,
    "getötet": 9019,
    "Königreichs": 9020,
    "ofs@@": 9021,
    "dierte": 9022,
    "Central": 9023,
    "betro@@": 9024,
    "or-@@": 9025,
    "getrennt": 9026,
    "Physik": 9027,
    "Zusätz@@": 9028,
    "tär@@": 9029,
    "ermöglicht": 9030,
    "mittleren": 9031,
    "Blue": 9032,
    "Gottes": 9033,
    "zählung": 9034,
    "ori": 9035,
    "Afrika": 9036,
    "turm": 9037,
    "Zivil@@": 9038,
    "Wilhelm@@": 9039,
    "Garten": 9040,
    "Semin@@": 9041,
    "zah@@": 9042,
    "84@@": 9043,
    "Datum": 9044,
    "Direkt@@": 9045,
    "Verdienst@@": 9046,
    "\\le@@": 9047,
    "hts": 9048,
    "St": 9049,
    "fordert": 9050,
    "Bestandteil": 9051,
    "agne": 9052,
    "may@@": 9053,
    "ск@@": 9054,
    "Francis": 9055,
    "bol@@": 9056,
    "undet": 9057,
    "jüdische": 9058,
    "entstehen": 9059,
    "Badmin@@": 9060,
    "Kreises": 9061,
    "sieger": 9062,
    "undenen": 9063,
    "gewinn@@": 9064,
    "miteinander": 9065,
    "under": 9066,
    "Handlung": 9067,
    "Mathematiker": 9068,
    "Freiwil@@": 9069,
    "Wy@@": 9070,
    "Synag@@": 9071,
    "ädagoge": 9072,
    "güter": 9073,
    "Zus@@": 9074,
    "Andrew": 9075,
    "schü@@": 9076,
    "Sir": 9077,
    "gelegentlich": 9078,
    "ime": 9079,
    "Thom@@": 9080,
    "Handel@@": 9081,
    "Komment@@": 9082,
    "Pit@@": 9083,
    "Europas": 9084,
    "Unternehmens": 9085,
    "aufnahmen": 9086,
    "programm": 9087,
    "user": 9088,
    "RO@@": 9089,
    "olph": 9090,
    "Dann": 9091,
    "Barcelona": 9092,
    "Alph@@": 9093,
    "dach": 9094,
    "baum": 9095,
    "spiegel@@": 9096,
    "Soli@@": 9097,
    "Dörfer": 9098,
    "Astero@@": 9099,
    "Gesund@@": 9100,
    "spru@@": 9101,
    "ausbildung": 9102,
    "Maßnahmen": 9103,
    "schreiben": 9104,
    "Roland": 9105,
    "aki": 9106,
    "sträger": 9107,
    "Law@@": 9108,
    "frist@@": 9109,
    "decken": 9110,
    "Historische": 9111,
    "technische": 9112,
    "entlassen": 9113,
    "kosten": 9114,
    "moti@@": 9115,
    "anschließ@@": 9116,
    "aft": 9117,
    "Gedan@@": 9118,
    "ansässi@@": 9119,
    "befördert": 9120,
    "Vereinigte": 9121,
    "rachen": 9122,
    "unabhängig": 9123,
    "Klu@@": 9124,
    "Of": 9125,
    "978-3-86@@": 9126,
    "Studio": 9127,
    "Produzent": 9128,
    "Schum@@": 9129,
    "ik-@@": 9130,
    "musiker": 9131,
    "förmig": 9132,
    "Johnson": 9133,
    "ses": 9134,
    "geblich": 9135,
    "vermut@@": 9136,
    "Software": 9137,
    "Ministerpräsident": 9138,
    "umin@@": 9139,
    "popul@@": 9140,
    "ierende": 9141,
    "ield": 9142,
    "ielten": 9143,
    "Pfarrei": 9144,
    "weit@@": 9145,
    "Bauer": 9146,
    "tschaft": 9147,
    "Ausdruck": 9148,
    "tour@@": 9149,
    "Diplomat": 9150,
    "Arbei@@": 9151,
    "ermor@@": 9152,
    "körper@@": 9153,
    "büh@@": 9154,
    "Museu@@": 9155,
    "Erinner@@": 9156,
    "ökon@@": 9157,
    "zylin@@": 9158,
    "ip": 9159,
    "nische": 9160,
    "Steve": 9161,
    "ergibt": 9162,
    "new": 9163,
    "Publishing": 9164,
    "Halte@@": 9165,
    "erziel@@": 9166,
    "lied": 9167,
    "enth@@": 9168,
    "Aufl": 9169,
    "cul@@": 9170,
    "Spezial@@": 9171,
    "cz@@": 9172,
    "Abent@@": 9173,
    "ury": 9174,
    "ye@@": 9175,
    "Vul@@": 9176,
    "präsentiert": 9177,
    "Funktionen": 9178,
    "intensi@@": 9179,
    "bundes@@": 9180,
    "NSDAP": 9181,
    "schreibt": 9182,
    "ickt": 9183,
    "erreich@@": 9184,
    "Aufent@@": 9185,
    "Is": 9186,
    "Gesang": 9187,
    "jo": 9188,
    "promovierte": 9189,
    "ags": 9190,
    "konserv@@": 9191,
    "fabrik": 9192,
    "riffen": 9193,
    "teb@@": 9194,
    "kas@@": 9195,
    "itän": 9196,
    "List@@": 9197,
    "platte": 9198,
    "Sciences": 9199,
    "Gegend": 9200,
    "Eric": 9201,
    "riebene": 9202,
    "Lager": 9203,
    "Mill@@": 9204,
    "Gebur@@": 9205,
    "Rezen@@": 9206,
    "dürfen": 9207,
    "Studie": 9208,
    "zufolge": 9209,
    "Justiz@@": 9210,
    "bol": 9211,
    "California": 9212,
    "uns@@": 9213,
    "angesehen": 9214,
    "fs": 9215,
    "Jacob@@": 9216,
    "isra@@": 9217,
    "Kind@@": 9218,
    "Sho@@": 9219,
    "Filmen": 9220,
    "etti": 9221,
    "sing": 9222,
    "urn": 9223,
    "zell@@": 9224,
    "Pak@@": 9225,
    "nationaler": 9226,
    "zeitgenöss@@": 9227,
    "Phase": 9228,
    "Einrichtungen": 9229,
    "kaiser@@": 9230,
    "rische": 9231,
    "charakter@@": 9232,
    "politisch": 9233,
    "Adam@@": 9234,
    "inus": 9235,
    "ε@@": 9236,
    "κ@@": 9237,
    "unterricht": 9238,
    "fielen": 9239,
    "Verwal@@": 9240,
    "manchmal": 9241,
    "Wär@@": 9242,
    "Forum": 9243,
    "gesich@@": 9244,
    "zeitweise": 9245,
    "Kaufmann": 9246,
    "sequ@@": 9247,
    "3-1": 9248,
    "progr@@": 9249,
    "andte": 9250,
    "kammer": 9251,
    "Perspe@@": 9252,
    "té": 9253,
    "Wilson": 9254,
    "Debüt": 9255,
    "Benn@@": 9256,
    "latt@@": 9257,
    "Ih@@": 9258,
    "lebens@@": 9259,
    "Gul@@": 9260,
    "Om@@": 9261,
    "fragen": 9262,
    "sofort": 9263,
    "я": 9264,
    "Breslau": 9265,
    "Kön@@": 9266,
    "Neuseel@@": 9267,
    "Katharina": 9268,
    "Landkreises": 9269,
    "äische": 9270,
    "enbür@@": 9271,
    "Aktu@@": 9272,
    "iness": 9273,
    "cio": 9274,
    "Ear@@": 9275,
    "Anlagen": 9276,
    "Ost": 9277,
    "tner": 9278,
    "sowjetischen": 9279,
    "passi@@": 9280,
    "breite": 9281,
    "Großteil": 9282,
    "Blau@@": 9283,
    "takt@@": 9284,
    "scheint": 9285,
    "Malerei": 9286,
    "inner@@": 9287,
    "obje@@": 9288,
    "zunehmen": 9289,
    "Heu@@": 9290,
    "ero@@": 9291,
    "christlichen": 9292,
    "drück@@": 9293,
    "gru@@": 9294,
    "Schaff@@": 9295,
    "pädagog@@": 9296,
    "gerü@@": 9297,
    "Benjam@@": 9298,
    "Ski@@": 9299,
    "besitzer": 9300,
    "Anzei@@": 9301,
    "differ@@": 9302,
    "deutschsprachigen": 9303,
    "theoret@@": 9304,
    "Bod@@": 9305,
    "siert": 9306,
    "Wien@@": 9307,
    "verfügbar": 9308,
    "Potsdam": 9309,
    "Spekt@@": 9310,
    "Nacional": 9311,
    "Mut@@": 9312,
    "Mie@@": 9313,
    "1856": 9314,
    "verbindet": 9315,
    "Anerk@@": 9316,
    "Code": 9317,
    "Repräsentantenhaus": 9318,
    "abet@@": 9319,
    "sylv@@": 9320,
    "Institut@@": 9321,
    "strahlung": 9322,
    "Zur@@": 9323,
    "adt": 9324,
    "velop@@": 9325,
    "Scien@@": 9326,
    "1859": 9327,
    "aufführung": 9328,
    "seln": 9329,
    "thod@@": 9330,
    "ario": 9331,
    "jüng@@": 9332,
    "Blatt@@": 9333,
    "Mailand": 9334,
    "λ@@": 9335,
    "graf@@": 9336,
    "bury": 9337,
    "obil@@": 9338,
    "South@@": 9339,
    "dün@@": 9340,
    "Wapp@@": 9341,
    "fassung": 9342,
    "gesetzten": 9343,
    "DE": 9344,
    "Cel@@": 9345,
    "zo": 9346,
    "ito": 9347,
    "Schrö@@": 9348,
    "motor": 9349,
    "Herausge@@": 9350,
    "Games": 9351,
    "gewal@@": 9352,
    "BBC": 9353,
    "Western": 9354,
    "Gestaltung": 9355,
    "Budap@@": 9356,
    "stör@@": 9357,
    "könne": 9358,
    "Gebieten": 9359,
    "aktuellen": 9360,
    "Force": 9361,
    "iko": 9362,
    "nationalsozi@@": 9363,
    "500@@": 9364,
    "befind@@": 9365,
    "aktiven": 9366,
    "Individu@@": 9367,
    "Green": 9368,
    "endgültig": 9369,
    "Madrid": 9370,
    "Behandlung": 9371,
    "Book": 9372,
    "Bob@@": 9373,
    "Micro@@": 9374,
    "Minder@@": 9375,
    "Verletz@@": 9376,
    "Networ@@": 9377,
    "ynastie": 9378,
    "Pac@@": 9379,
    "rice": 9380,
    "erreichten": 9381,
    "Oscar": 9382,
    "ge-@@": 9383,
    "erober@@": 9384,
    "versetzt": 9385,
    "ational": 9386,
    "Jord@@": 9387,
    "Mecklenburg-@@": 9388,
    "existieren": 9389,
    "Well@@": 9390,
    "beth": 9391,
    "enhausen": 9392,
    "isp@@": 9393,
    "Festung": 9394,
    "Vorstand": 9395,
    "assung": 9396,
    "Nachrich@@": 9397,
    "arden": 9398,
    "spur@@": 9399,
    "Brief@@": 9400,
    "kra@@": 9401,
    "Bie@@": 9402,
    "notwendig": 9403,
    "Klass@@": 9404,
    "itions@@": 9405,
    "—": 9406,
    "gent@@": 9407,
    "Lud@@": 9408,
    "kommission": 9409,
    "schu@@": 9410,
    "ray": 9411,
    "Äm@@": 9412,
    "fang": 9413,
    "Hg.": 9414,
    "deutschland": 9415,
    "Porträt": 9416,
    "Mom@@": 9417,
    "bischof": 9418,
    "zehn@@": 9419,
    "digit@@": 9420,
    "Diplom@@": 9421,
    "Glet@@": 9422,
    "Leop@@": 9423,
    "Taylor": 9424,
    "Struktur": 9425,
    "ograf": 9426,
    "iro": 9427,
    "Österreichs": 9428,
    "wirkungen": 9429,
    "entur": 9430,
    "how": 9431,
    "Türk@@": 9432,
    "schef": 9433,
    "andeur": 9434,
    "dichte": 9435,
    "Gest@@": 9436,
    "damalige": 9437,
    "esc@@": 9438,
    "eut@@": 9439,
    "zentralen": 9440,
    "Charakter": 9441,
    "Columbia": 9442,
    "zeichneten": 9443,
    "orph@@": 9444,
    "Bühne": 9445,
    "wurf": 9446,
    "warf": 9447,
    "tende": 9448,
    "Ing@@": 9449,
    "dram@@": 9450,
    "echt": 9451,
    "unterschei@@": 9452,
    "NN": 9453,
    "Champ@@": 9454,
    "Bürgermeister@@": 9455,
    "erschien@@": 9456,
    "bringt": 9457,
    "höheren": 9458,
    "ido": 9459,
    "behaup@@": 9460,
    "Cultur@@": 9461,
    "16–@@": 9462,
    "kow": 9463,
    "Bronzeme@@": 9464,
    "bat@@": 9465,
    "aga": 9466,
    "Andrea": 9467,
    "initi@@": 9468,
    "Jänner": 9469,
    "zem@@": 9470,
    "riel": 9471,
    "Squ@@": 9472,
    "gasse": 9473,
    "serie": 9474,
    "unmittel@@": 9475,
    "Wissen@@": 9476,
    "Region@@": 9477,
    "insel": 9478,
    "Ox@@": 9479,
    "Erfol@@": 9480,
    "Naturschutz@@": 9481,
    "Nationalsozi@@": 9482,
    "jor": 9483,
    "ğ@@": 9484,
    "ę@@": 9485,
    "Vat@@": 9486,
    "Grie@@": 9487,
    "Erei@@": 9488,
    "ßer@@": 9489,
    "örd@@": 9490,
    "ʿ@@": 9491,
    "ival": 9492,
    "hard@@": 9493,
    "dingungen": 9494,
    "Größ@@": 9495,
    "wirt@@": 9496,
    "ometer": 9497,
    "höch@@": 9498,
    "Kont@@": 9499,
    "entfern@@": 9500,
    "ș@@": 9501,
    "land-@@": 9502,
    "Yo@@": 9503,
    "neter": 9504,
    "dener": 9505,
    "²": 9506,
    "ordin@@": 9507,
    "hre": 9508,
    "Bist@@": 9509,
    "·": 9510,
    "$": 9511,
    "tter": 9512,
    "prü@@": 9513,
    "1111@@": 9514,
    "solv@@": 9515,
    "rache": 9516,
    "з@@": 9517,
    "Westfalen": 9518,
    "s.": 9519,
    "bst": 9520,
    "gebung": 9521,
    "Hug@@": 9522,
    "Nachfol@@": 9523,
    "Energ@@": 9524,
    "..": 9525,
    "omoti@@": 9526,
    "ines@@": 9527,
    "CN": 9528,
    "в": 9529,
    "Audi@@": 9530,
    "vidu@@": 9531,
    "daille": 9532,
    "Edu@@": 9533,
    "atholi@@": 9534,
    "ь@@": 9535,
    "mittl@@": 9536,
    "Fäl@@": 9537,
    "Niederlan@@": 9538,
    "Müh@@": 9539,
    "materi@@": 9540,
    "Zü@@": 9541,
    "isseur": 9542,
    "russ@@": 9543,
    "agem@@": 9544,
    "Grupp@@": 9545,
    "eim@@": 9546,
    "ware": 9547,
    "läuft": 9548,
    "tionary": 9549,
    "Arme@@": 9550,
    "geord@@": 9551,
    "oks": 9552,
    "Lex@@": 9553,
    "ı": 9554,
    "า@@": 9555,
    "republik": 9556,
    "Verla@@": 9557,
    "ensburg": 9558,
    "−@@": 9559,
    "versor@@": 9560,
    "Nomin@@": 9561,
    "edia": 9562,
    "ädagog@@": 9563,
    "ä": 9564,
    "Eishockey@@": 9565,
    "Gött@@": 9566,
    "adem@@": 9567,
    "einander@@": 9568,
    "Foot@@": 9569,
    "math@@": 9570,
    "Rath@@": 9571,
    "6666@@": 9572,
    "üter": 9573,
    "ebenf@@": 9574,
    "⁡": 9575,
    "andes": 9576,
    "stät@@": 9577,
    "Verkehr@@": 9578,
    "frau": 9579,
    "ßer": 9580,
    "Matth@@": 9581,
    "entation": 9582,
    "е": 9583,
    "ames": 9584,
    "ร@@": 9585,
    "Württemberg": 9586,
    "Politi@@": 9587,
    "š": 9588,
    "herausge@@": 9589,
    "Qualifik@@": 9590,
    "³": 9591,
    "bestä@@": 9592,
    "not@@": 9593,
    "km@@": 9594,
    "erweise": 9595,
    "σ@@": 9596,
    "Universit@@": 9597,
    "wichtig@@": 9598,
    "ammer@@": 9599,
    "egt": 9600,
    "ī": 9601,
    "www@@": 9602,
    "ą@@": 9603,
    "Lond@@": 9604,
    "xis": 9605,
    "Dipl@@": 9606,
    "ktur@@": 9607,
    "Schü@@": 9608,
    "ć": 9609,
    "Á@@": 9610,
    "∞": 9611,
    "ś@@": 9612,
    "erweiter@@": 9613,
    "stellerin": 9614,
    "Dollar": 9615,
    "Braunschwei@@": 9616,
    "ü": 9617,
    "Frit@@": 9618,
    "о": 9619,
    "alz": 9620,
    "­@@": 9621,
    "191@@": 9622,
    "verf@@": 9623,
    "Sowjet@@": 9624,
    "lösung": 9625,
    "Baden-@@": 9626,
    "International@@": 9627,
    "Sachsen-@@": 9628,
    "gebir@@": 9629,
    "fließ@@": 9630,
    "cel@@": 9631,
    "Zun@@": 9632,
    "perim@@": 9633,
    "А@@": 9634,
    "Inform@@": 9635,
    "olf": 9636,
    "gentin@@": 9637,
    "ymnasi@@": 9638,
    "issen@@": 9639,
    "verpflich@@": 9640,
    "Kass@@": 9641,
    "ords": 9642,
    "Porträ@@": 9643,
    "gemä@@": 9644,
    "notwen@@": 9645,
    "de/@@": 9646,
    "alter@@": 9647,
    "Konzep@@": 9648,
    "Emi@@": 9649,
    "dah@@": 9650,
    "zeh@@": 9651,
    "ommern": 9652,
    "Nürn@@": 9653,
    "elekt@@": 9654,
    "kau": 9655,
    "•": 9656,
    "Öff@@": 9657,
    "dust@@": 9658,
    "anten@@": 9659,
    "Mov@@": 9660,
    "iff": 9661,
    "∈": 9662,
    "Ž@@": 9663,
    "bis@@": 9664,
    "2222@@": 9665,
    "Beit@@": 9666,
    "gebor@@": 9667,
    "ttem@@": 9668,
    "absolv@@": 9669,
    "istor@@": 9670,
    "aum": 9671,
    "Ei@@": 9672,
    "﻿@@": 9673,
    "ächst": 9674,
    "ð@@": 9675,
    "GND-@@": 9676,
    "erhäl@@": 9677,
    "jüd@@": 9678,
    "Wern@@": 9679,
    "ilie": 9680,
    "engli@@": 9681,
    "Ord@@": 9682,
    "К@@": 9683,
    "Initi@@": 9684,
    "Diet@@": 9685,
    "oug@@": 9686,
    "Belg@@": 9687,
    "В@@": 9688,
    "bron@@": 9689,
    "Sow@@": 9690,
    "Schnei@@": 9691,
    "häl@@": 9692,
    "ikum": 9693,
    "Ludw@@": 9694,
    "อ@@": 9695,
    "zunehm@@": 9696,
    "П@@": 9697,
    "ouver@@": 9698,
    "Württem@@": 9699,
    "μ@@": 9700,
    "fluss": 9701,
    ".com@@": 9702,
    "geprä@@": 9703,
    "schwe@@": 9704,
    "reichs": 9705,
    "ermöglich@@": 9706,
    "Verfass@@": 9707,
    "erfor@@": 9708,
    "Lov@@": 9709,
    "Gebie@@": 9710,
    "3D@@": 9711,
    "mäler": 9712,
    "ld": 9713,
    "Kreu@@": 9714,
    "oret@@": 9715,
    "Varian@@": 9716,
    "Jac@@": 9717,
    "Pfar@@": 9718,
    "gei@@": 9719,
    "bezieh@@": 9720,
    "gnisse": 9721,
    "Frankfur@@": 9722,
    "Düssel@@": 9723,
    "hafen": 9724,
    "gelei@@": 9725,
    "rs@@": 9726,
    "Willi@@": 9727,
    "ward": 9728,
    "g.": 9729,
    "zei": 9730,
    "Theod@@": 9731,
    "Gouver@@": 9732,
    "Isra@@": 9733,
    "Portug@@": 9734,
    "ч@@": 9735,
    "österreich@@": 9736,
    "4444@@": 9737,
    "windigkeit": 9738,
    "amerikan@@": 9739,
    "view": 9740,
    "М@@": 9741,
    "î@@": 9742,
    "aupt@@": 9743,
    "Weih@@": 9744,
    "ū": 9745,
    "Disk@@": 9746,
    "emente": 9747,
    "stattet": 9748,
    "ý@@": 9749,
    "ы@@": 9750,
    "Josep@@": 9751,
    "beteili@@": 9752,
    "stant@@": 9753,
    "eröff@@": 9754,
    "Ungar@@": 9755,
    "Fak@@": 9756,
    "Brow@@": 9757,
    "Humb@@": 9758,
    "riech@@": 9759,
    "Stuttgar@@": 9760,
    "neur": 9761,
    "urg": 9762,
    "ited": 9763,
    "pop@@": 9764,
    "utzt": 9765,
    "ل@@": 9766,
    "mitglie@@": 9767,
    "Liter@@": 9768,
    "Kateg@@": 9769,
    "sweise": 9770,
    "Meck@@": 9771,
    "Git@@": 9772,
    "deutschsprach@@": 9773,
    "Soft@@": 9774,
    "Ps@@": 9775,
    "gelö@@": 9776,
    "ög@@": 9777,
    "ationale": 9778,
    "η@@": 9779,
    "ony@@": 9780,
    "ördert": 9781,
    "Andr@@": 9782,
    "Stef@@": 9783,
    "Pfalz": 9784,
    "і@@": 9785,
    "bene": 9786,
    "ö": 9787,
    "rug": 9788,
    "π@@": 9789,
    "à@@": 9790,
    "ν": 9791,
    "Pers@@": 9792,
    "meter": 9793,
    "chtet": 9794,
    "zun@@": 9795,
    "beginn@@": 9796,
    "Bildh@@": 9797,
    "AK@@": 9798,
    "ider@@": 9799,
    "DD@@": 9800,
    "räge": 9801,
    "last": 9802,
    "Münch@@": 9803,
    "8888@@": 9804,
    "häng@@": 9805,
    "Okt@@": 9806,
    "adrat@@": 9807,
    "Koordin@@": 9808,
    "phil@@": 9809,
    "Untersuch@@": 9810,
    "Stutt@@": 9811,
    "Rog@@": 9812,
    "Spä@@": 9813,
    "Wart@@": 9814,
    "schlu@@": 9815,
    "5555@@": 9816,
    "Büh@@": 9817,
    "Weltmeister@@": 9818,
    "Deut@@": 9819,
    "seel@@": 9820,
    "Americ@@": 9821,
    "atist@@": 9822,
    "Progr@@": 9823,
    "\\math@@": 9824,
    "erschein@@": 9825,
    "lop@@": 9826,
    "französ@@": 9827,
    "katholi@@": 9828,
    "Arb@@": 9829,
    "◄": 9830,
    "stock": 9831,
    "ließ@@": 9832,
    ".ht@@": 9833,
    "İ@@": 9834,
    "behör@@": 9835,
    "omin@@": 9836,
    "osten": 9837,
    "č": 9838,
    "Feli@@": 9839,
    "artikel": 9840,
    "o.": 9841,
    "erstre@@": 9842,
    "urop@@": 9843,
    "ί@@": 9844,
    "ember": 9845,
    "getr@@": 9846,
    "ˈ@@": 9847,
    "union": 9848,
    "hock@@": 9849,
    "Jaz@@": 9850,
    "endgül@@": 9851,
    "ч": 9852,
    "Osc@@": 9853,
    "Augs@@": 9854,
    "ц@@": 9855,
    "►": 9856,
    "För@@": 9857,
    "üd@@": 9858,
    "€": 9859,
    "Kün@@": 9860,
    "kreises": 9861,
    "ż@@": 9862,
    "Р@@": 9863,
    "ml": 9864,
    "okrat@@": 9865,
    "Kontr@@": 9866,
    "บ@@": 9867,
    "r.": 9868,
    "Ziv@@": 9869,
    "Dé@@": 9870,
    "mov@@": 9871,
    "Öffent@@": 9872,
    "Heidel@@": 9873,
    "Stadi@@": 9874,
    "umf@@": 9875,
    "Ägyp@@": 9876,
    "Unterstütz@@": 9877,
    "schri@@": 9878,
    "rag": 9879,
    "sign": 9880,
    "verbin@@": 9881,
    "Wikipedi@@": 9882,
    "н": 9883,
    "Wag@@": 9884,
    "dam": 9885,
    "pflege": 9886,
    "gin@@": 9887,
    "sen-@@": 9888,
    "präsent@@": 9889,
    "Leichtath@@": 9890,
    "prüfung": 9891,
    "Augu@@": 9892,
    "Sän@@": 9893,
    "Akt@@": 9894,
    "blei@@": 9895,
    "ț@@": 9896,
    "messer": 9897,
    "wohner": 9898,
    "Encyclop@@": 9899,
    "besitz@@": 9900,
    "hockey@@": 9901,
    "Dah@@": 9902,
    "italis@@": 9903,
    "เ@@": 9904,
    "brit@@": 9905,
    "ï@@": 9906,
    "ymn@@": 9907,
    "Klo@@": 9908,
    "Mail@@": 9909,
    "vey": 9910,
    "Б@@": 9911,
    "pd@@": 9912,
    "itsch": 9913,
    "´@@": 9914,
    "Dän@@": 9915,
    "heut@@": 9916,
    "γ@@": 9917,
    "iti@@": 9918,
    "Ergeb@@": 9919,
    "aufhin": 9920,
    "Franç@@": 9921,
    "okum@@": 9922,
    "dels@@": 9923,
    "automat@@": 9924,
    "ürger@@": 9925,
    "gleichnam@@": 9926,
    "app": 9927,
    "Vereinig@@": 9928,
    "uni@@": 9929,
    "eich": 9930,
    "immt": 9931,
    "nat@@": 9932,
    "Н@@": 9933,
    "män@@": 9934,
    "uhl": 9935,
    "Hig@@": 9936,
    "Soc@@": 9937,
    "Onlin@@": 9938,
    "Darm@@": 9939,
    "Gün@@": 9940,
    "Ç@@": 9941,
    "Repräsent@@": 9942,
    "dition": 9943,
    "site": 9944,
    "Lux@@": 9945,
    "edt": 9946,
    "ande@@": 9947,
    "ό@@": 9948,
    "nommen": 9949,
    "öhn@@": 9950,
    "Charak@@": 9951,
    "я@@": 9952,
    "verantwort@@": 9953,
    "ean": 9954,
    "hie@@": 9955,
    "Ukra@@": 9956,
    "х@@": 9957,
    "Ł@@": 9958,
    "й@@": 9959,
    "einzi@@": 9960,
    "öffentlich@@": 9961,
    "geordnet": 9962,
    "Associ@@": 9963,
    "ά@@": 9964,
    "\\c@@": 9965,
    "fam@@": 9966,
    "wech@@": 9967,
    "rei": 9968,
    "eingeschrän@@": 9969,
    "Mäd@@": 9970,
    "intern@@": 9971,
    "Datei": 9972,
    "น@@": 9973,
    "ə@@": 9974,
    "Einwohn@@": 9975,
    "nomin@@": 9976,
    "Unternehm@@": 9977,
    "urkund@@": 9978,
    "affel": 9979,
    "Jugen@@": 9980,
    "Roy@@": 9981,
    "ง@@": 9982,
    "Gerh@@": 9983,
    "υ@@": 9984,
    "lot": 9985,
    "Leicht@@": 9986,
    "И@@": 9987,
    "ational@@": 9988,
    "Sicherh@@": 9989,
    "Rumän@@": 9990,
    "δ@@": 9991,
    "osoph@@": 9992,
    "Zenti@@": 9993,
    "vertreten@@": 9994,
    "kteur": 9995,
    "ikon": 9996,
    "õ@@": 9997,
    "Eröff@@": 9998,
    "allel": 9999,
    "raß@@": 10000,
    "beleg@@": 10001,
    "sident@@": 10002,
    "Ministerprä@@": 10003,
    "ำ@@": 10004,
    "zir@@": 10005,
    "gemeins@@": 10006,
    "×@@": 10007,
    "fekt": 10008,
    "ehemali@@": 10009,
    "Minister@@": 10010,
    "م@@": 10011,
    "Leist@@": 10012,
    "Europam@@": 10013,
    "§@@": 10014,
    "gil@@": 10015,
    "°@@": 10016,
    "Г@@": 10017,
    "ampf": 10018,
    "Assi@@": 10019,
    "besa@@": 10020,
    "Magde@@": 10021,
    "ė": 10022,
    "lär@@": 10023,
    "ж@@": 10024,
    "Schleswig-Hol@@": 10025,
    "GN@@": 10026,
    "Å@@": 10027,
    "Départ@@": 10028,
    "heirat@@": 10029,
    "blem": 10030,
    "Т@@": 10031,
    "Bestand@@": 10032,
    "verheirat@@": 10033,
    "utn@@": 10034,
    "ล@@": 10035,
    "の@@": 10036,
    "Barbar@@": 10037,
    "jet@@": 10038,
    "ш@@": 10039,
    "Ehe@@": 10040,
    "О@@": 10041,
    "kehr": 10042,
    "ů@@": 10043,
    "wards": 10044,
    "beauf@@": 10045,
    "Würz@@": 10046,
    "ë": 10047,
    "uchs@@": 10048,
    "Д@@": 10049,
    "ā": 10050,
    "Ś@@": 10051,
    "ituation": 10052,
    "älde": 10053,
    "ก@@": 10054,
    "zwöl@@": 10055,
    "jewei@@": 10056,
    "erwähn@@": 10057,
    "∂": 10058,
    "ril": 10059,
    "äfts@@": 10060,
    "Bres@@": 10061,
    "ganis@@": 10062,
    "onnen": 10063,
    "ibliothe@@": 10064,
    "genöss@@": 10065,
    "т": 10066,
    "lässlich": 10067,
    "ė@@": 10068,
    "Kathar@@": 10069,
    "ober": 10070,
    "denten": 10071,
    "Offizi@@": 10072,
    "Bedeut@@": 10073,
    "Ō@@": 10074,
    "Pots@@": 10075,
    "abli@@": 10076,
    "р": 10077,
    "å": 10078,
    "schieden": 10079,
    "LC@@": 10080,
    "Jür@@": 10081,
    "enda": 10082,
    "π": 10083,
    "religi@@": 10084,
    "Mecklen@@": 10085,
    "heren": 10086,
    "link": 10087,
    "ω@@": 10088,
    "Doll@@": 10089,
    "ace@@": 10090,
    "ubli@@": 10091,
    "beträ@@": 10092,
    "demie": 10093,
    "herz@@": 10094,
    "Enzy@@": 10095,
    "ć@@": 10096,
    "ă": 10097,
    "Indust@@": 10098,
    "ş": 10099,
    "µ@@": 10100,
    "³@@": 10101,
    "Columb@@": 10102,
    "Socie@@": 10103,
    "chn@@": 10104,
    "sych@@": 10105,
    "syl@@": 10106,
    "ruf@@": 10107,
    "ي@@": 10108,
    "י@@": 10109,
    "Brasili@@": 10110,
    "Schlesw@@": 10111,
    "Sebast@@": 10112,
    "ر@@": 10113,
    "thur": 10114,
    "Smit@@": 10115,
    "öz@@": 10116,
    "cyc@@": 10117,
    "sterreich": 10118,
    "λ": 10119,
    "ว@@": 10120,
    "unft": 10121,
    "Hock@@": 10122,
    "wendung": 10123,
    "Schles@@": 10124,
    "β@@": 10125,
    "cyclop@@": 10126,
    "offiz@@": 10127,
    "itä@@": 10128,
    "sogen@@": 10129,
    "igs@@": 10130,
    "jam@@": 10131,
    "Л@@": 10132,
    "enname": 10133,
    "ihr@@": 10134,
    "aka@@": 10135,
    "ò": 10136,
    "eriums": 10137,
    "Orig@@": 10138,
    "ē@@": 10139,
    "klop@@": 10140,
    "ibt": 10141,
    "่@@": 10142,
    "ě": 10143,
    "Entsteh@@": 10144,
    "Geburt@@": 10145,
    "relig@@": 10146,
    "rifft": 10147,
    "к": 10148,
    "Elisa@@": 10149,
    "Ş@@": 10150,
    "Janu@@": 10151,
    "lerweile": 10152,
    "Dort@@": 10153,
    "Archite@@": 10154,
    "Dez@@": 10155,
    "ung/@@": 10156,
    "ห@@": 10157,
    "ł": 10158,
    "Ferns@@": 10159,
    "schenb@@": 10160,
    "∑": 10161,
    "ú": 10162,
    "spielsweise": 10163,
    "Söh@@": 10164,
    "sod@@": 10165,
    "mbH": 10166,
    "rün@@": 10167,
    "Κ@@": 10168,
    "ต@@": 10169,
    "Mic@@": 10170,
    "rachte": 10171,
    "empl@@": 10172,
    "verfüg@@": 10173,
    "ו@@": 10174,
    "ь": 10175,
    "Karlsru@@": 10176,
    "è": 10177,
    "ungsweise": 10178,
    "ädie": 10179,
    "oci@@": 10180,
    "Seb@@": 10181,
    "έ@@": 10182,
    "ω": 10183,
    "ulpt@@": 10184,
    "و@@": 10185,
    "eud@@": 10186,
    "Ú@@": 10187,
    "ibli@@": 10188,
    "ourn@@": 10189,
    "μ": 10190,
    "ő@@": 10191,
    "ب@@": 10192,
    "Diss@@": 10193,
    "½": 10194,
    "…@@": 10195,
    "anni": 10196,
    "ː@@": 10197,
    "Synony@@": 10198,
    "Biel@@": 10199,
    "Dip@@": 10200,
    "nab@@": 10201,
    "Camb@@": 10202,
    "ー@@": 10203,
    "ิ@@": 10204,
    "anstal@@": 10205,
    "völ@@": 10206,
    "ส@@": 10207,
    "Zusammenh@@": 10208,
    "ühm@@": 10209,
    "ń": 10210,
    "emati@@": 10211,
    "œ@@": 10212,
    "anter@@": 10213,
    "Leag@@": 10214,
    "Män@@": 10215,
    "Sais@@": 10216,
    "US-amerikan@@": 10217,
    "⊙@@": 10218,
[...]
