{
    "<s>": 0,
    "<pad>": 1,
    "</s>": 2,
    "<unk>": 3,
    ".": 4,
    ",": 5,
    "der": 6,
    "-": 7,
    "und": 8,
    "in": 9,
    "(": 10,
    ":": 11,
    "die": 12,
    "von": 13,
    ")": 14,
    "den": 15,
    "des": 16,
    "er": 17,
    "im": 18,
    "–": 19,
    "mit": 20,
    "Die": 21,
    "ist": 22,
    "an": 23,
    "dem": 24,
    "wurde": 25,
    "für": 26,
    "auf": 27,
    "am": 28,
    "das": 29,
    "als": 30,
    "zu": 31,
    "ein": 32,
    "eine": 33,
    "es": 34,
    "),": 35,
    "a": 36,
    "s": 37,
    "sich": 38,
    "e": 39,
    "/": 40,
    "en": 41,
    "1": 42,
    "war": 43,
    "s@@": 44,
    "de": 45,
    "aus": 46,
    "S@@": 47,
    "3": 48,
    "S": 49,
    "In": 50,
    "t@@": 51,
    "er@@": 52,
    "t": 53,
    "k@@": 54,
    "en@@": 55,
    "ten": 56,
    "Der": 57,
    "„": 58,
    "bei": 59,
    "b@@": 60,
    "bis": 61,
    "2": 62,
    "auch": 63,
    "o": 64,
    "n@@": 65,
    "nach": 66,
    "B@@": 67,
    "T@@": 68,
    "i": 69,
    "P@@": 70,
    "K@@": 71,
    ").": 72,
    "st@@": 73,
    "g@@": 74,
    "L@@": 75,
    "m@@": 76,
    "te": 77,
    "an@@": 78,
    "c@@": 79,
    "z@@": 80,
    "einer": 81,
    "d@@": 82,
    "H@@": 83,
    "be@@": 84,
    "zum": 85,
    "ver@@": 86,
    "f@@": 87,
    "um": 88,
    "G@@": 89,
    "y": 90,
    "D@@": 91,
    "N@@": 92,
    ";": 93,
    "F@@": 94,
    "C@@": 95,
    "p@@": 96,
    "ung": 97,
    "sch@@": 98,
    "A@@": 99,
    "d": 100,
    "ischen": 101,
    "M@@": 102,
    "e@@": 103,
    "sie": 104,
    "of": 105,
    "nicht": 106,
    "W@@": 107,
    "E@@": 108,
    "ar@@": 109,
    "ge@@": 110,
    "h@@": 111,
    "Das": 112,
    "ische": 113,
    "a@@": 114,
    "R@@": 115,
    "l@@": 116,
    "zur": 117,
    "in@@": 118,
    "durch": 119,
    "vom": 120,
    "“": 121,
    "o@@": 122,
    "4": 123,
    "über": 124,
    "n": 125,
    "einem": 126,
    "werden": 127,
    "5": 128,
    "An@@": 129,
    "y@@": 130,
    "un@@": 131,
    "sind": 132,
    "wird": 133,
    "St@@": 134,
    "einen": 135,
    "on": 136,
    "al": 137,
    "al@@": 138,
    "|": 139,
    "ab@@": 140,
    "w@@": 141,
    "Ver@@": 142,
    "i@@": 143,
    "Sch@@": 144,
    "ent@@": 145,
    "ISBN": 146,
    "oder": 147,
    "ter": 148,
    "v@@": 149,
    "Im": 150,
    "(*": 151,
    "O@@": 152,
    "on@@": 153,
    "ch@@": 154,
    "m": 155,
    "re@@": 156,
    "us": 157,
    "6": 158,
    "or@@": 159,
    "I@@": 160,
    "V@@": 161,
    "Z@@": 162,
    "ein@@": 163,
    "7": 164,
    "r@@": 165,
    "el@@": 166,
    "l": 167,
    "u@@": 168,
    "z": 169,
    "j@@": 170,
    "8": 171,
    "de@@": 172,
    "ungen": 173,
    "u": 174,
    "li@@": 175,
    "abgerufen": 176,
    "Be@@": 177,
    "it@@": 178,
    "wurden": 179,
    "isch": 180,
    "A": 181,
    "9": 182,
    "and": 183,
    "ischer": 184,
    "unter": 185,
    "Ab@@": 186,
    "ing": 187,
    "gen": 188,
    "17@@": 189,
    "dass": 190,
    "J@@": 191,
    "Re@@": 192,
    "sp@@": 193,
    "at@@": 194,
    "aus@@": 195,
    "st": 196,
    "ck@@": 197,
    "is@@": 198,
    "k": 199,
    "g": 200,
    "lich": 201,
    "vor": 202,
    "ler": 203,
    "Er": 204,
    "Er@@": 205,
    "ge": 206,
    "el": 207,
    "Jahr": 208,
    "ern": 209,
    "noch": 210,
    "ro@@": 211,
    "the": 212,
    "wie": 213,
    "16@@": 214,
    "ungs@@": 215,
    "The": 216,
    "di@@": 217,
    "2@@": 218,
    "4@@": 219,
    "at": 220,
    "th@@": 221,
    "am@@": 222,
    "10": 223,
    "ar": 224,
    "liche": 225,
    "h": 226,
    "le": 227,
    "ation": 228,
    "um@@": 229,
    "ra@@": 230,
    "Ein@@": 231,
    "U@@": 232,
    "ie": 233,
    "gen@@": 234,
    "auf@@": 235,
    "ut@@": 236,
    "0": 237,
    "et@@": 238,
    "Vor@@": 239,
    "3@@": 240,
    "nur": 241,
    "ber@@": 242,
    "Aus@@": 243,
    "as": 244,
    "ger@@": 245,
    "sowie": 246,
    "Jahre": 247,
    "lichen": 248,
    "ti@@": 249,
    "ä@@": 250,
    "Ch@@": 251,
    "seiner": 252,
    "vor@@": 253,
    "ur@@": 254,
    "ri@@": 255,
    "5@@": 256,
    "la@@": 257,
    "ss@@": 258,
    "ab": 259,
    "20": 260,
    "B": 261,
    "il@@": 262,
    "eines": 263,
    "f": 264,
    "seine": 265,
    "ad@@": 266,
    "über@@": 267,
    "Nach": 268,
    "englisch": 269,
    "15@@": 270,
    "man": 271,
    "hat": 272,
    "ol@@": 273,
    "ger": 274,
    "Januar": 275,
    "om@@": 276,
    "Band": 277,
    "aber": 278,
    "sten": 279,
    "ers": 280,
    "ens@@": 281,
    "em@@": 282,
    "os": 283,
    "hatte": 284,
    "b": 285,
    "ter@@": 286,
    "2016": 287,
    "Sie": 288,
    "zwei": 289,
    "12": 290,
    "August": 291,
    "In@@": 292,
    "Berlin": 293,
    "der@@": 294,
    "2015": 295,
    "2017": 296,
    "Stadt": 297,
    "au@@": 298,
    "Oktober": 299,
    "ende": 300,
    "März": 301,
    "2013": 302,
    "si@@": 303,
    "15": 304,
    "2014": 305,
    "2011": 306,
    "Sp@@": 307,
    "Mai": 308,
    "le@@": 309,
    "zu@@": 310,
    "2012": 311,
    "is": 312,
    "Dezember": 313,
    "et": 314,
    "zwischen": 315,
    "or": 316,
    "as@@": 317,
    "\"": 318,
    "2018": 319,
    "us@@": 320,
    "September": 321,
    "sk@@": 322,
    "Mar@@": 323,
    "es@@": 324,
    "Al@@": 325,
    "waren": 326,
    "I": 327,
    "Juni": 328,
    "p": 329,
    "2010": 330,
    "6@@": 331,
    "den@@": 332,
    "deutscher": 333,
    "’": 334,
    "Juli": 335,
    "ul@@": 336,
    "sein": 337,
    "mann": 338,
    "ag@@": 339,
    "18": 340,
    "qu@@": 341,
    "):": 342,
    "19": 343,
    "November": 344,
    "ei@@": 345,
    "April": 346,
    "gegen": 347,
    "ck": 348,
    "C": 349,
    "enden": 350,
    "16": 351,
    "11": 352,
    "ch": 353,
    "ir@@": 354,
    "mi@@": 355,
    "ert": 356,
    "ts": 357,
    "ten@@": 358,
    "ot@@": 359,
    "9@@": 360,
    "13@@": 361,
    "13": 362,
    "da": 363,
    "17": 364,
    "ke": 365,
    "ens": 366,
    "os@@": 367,
    "Jahren": 368,
    "eg@@": 369,
    "op@@": 370,
    "dieser": 371,
    "14": 372,
    "ak@@": 373,
    "gel@@": 374,
    "Se@@": 375,
    "14@@": 376,
    "ie@@": 377,
    "ner": 378,
    "Am": 379,
    "18@@": 380,
    "r": 381,
    "seit": 382,
    "De@@": 383,
    "Zeit": 384,
    "unter@@": 385,
    "2009": 386,
    "Februar": 387,
    "Ober@@": 388,
    "10@@": 389,
    "Es": 390,
    "ap@@": 391,
    "&": 392,
    "ig@@": 393,
    "ste": 394,
    "é@@": 395,
    "US": 396,
    "7@@": 397,
    "Verlag": 398,
    "2008": 399,
    "ia": 400,
    "c": 401,
    "30": 402,
    "so": 403,
    "Ge@@": 404,
    "'": 405,
    "8@@": 406,
    "12@@": 407,
    "0@@": 408,
    "land": 409,
    "L": 410,
    "ben": 411,
    "Ma@@": 412,
    "ö@@": 413,
    "lo@@": 414,
    "mehr": 415,
    "dann": 416,
    "2007": 417,
    "Ber@@": 418,
    "25": 419,
    "{\\": 420,
    "x": 421,
    "berg": 422,
    "ne@@": 423,
    "all@@": 424,
    "enk@@": 425,
    "ph@@": 426,
    "ersten": 427,
    "iert": 428,
    "x@@": 429,
    "M": 430,
    "au": 431,
    "chen": 432,
    "Abgerufen": 433,
    "Auf@@": 434,
    "ale": 435,
    "te@@": 436,
    "Bo@@": 437,
    "jedoch": 438,
    "Hrsg": 439,
    "21": 440,
    "O": 441,
    "lin@@": 442,
    "ok@@": 443,
    "978": 444,
    "ine": 445,
    "=": 446,
    "E": 447,
    "drei": 448,
    "2006": 449,
    "etwa": 450,
    "ent": 451,
    "ien": 452,
    "ac@@": 453,
    "Unter@@": 454,
    "Bau@@": 455,
    "ts@@": 456,
    "R": 457,
    "{": 458,
    "im@@": 459,
    "Ein": 460,
    "Ro@@": 461,
    "Gemeinde": 462,
    "D": 463,
    "eh@@": 464,
    "Ar@@": 465,
    "end": 466,
    "22": 467,
    "N": 468,
    "ne": 469,
    "ob@@": 470,
    "her@@": 471,
    "ü@@": 472,
    "wieder": 473,
    "com": 474,
    "beim": 475,
    "Kon@@": 476,
    "24": 477,
    "hr@@": 478,
    "to": 479,
    "23": 480,
    "ene": 481,
    "elle": 482,
    "www": 483,
    "28": 484,
    "Geschichte": 485,
    "G": 486,
    "Th@@": 487,
    "Deutschland": 488,
    "ster": 489,
    "Mon@@": 490,
    "enen": 491,
    "2005": 492,
    ".):": 493,
    "V": 494,
    "ik": 495,
    "ce": 496,
    "v": 497,
    "kann": 498,
    "ken": 499,
    "P": 500,
    "Von": 501,
    "Neu@@": 502,
    "Als": 503,
    "tet": 504,
    "27": 505,
    "and@@": 506,
    "ell@@": 507,
    "seinem": 508,
    "tes": 509,
    "ep@@": 510,
    "Teil": 511,
    "Land@@": 512,
    "ier@@": 513,
    "Sammlung": 514,
    "F": 515,
    "sen": 516,
    "seinen": 517,
    "diese": 518,
    "ist@@": 519,
    "26": 520,
    "ihre": 521,
    "od@@": 522,
    "Y@@": 523,
    "liegt": 524,
    "se": 525,
    "ik@@": 526,
    "Normdaten": 527,
    "ca": 528,
    "kon@@": 529,
    "GND": 530,
    "fen": 531,
    "später": 532,
    "gt": 533,
    "Mit": 534,
    "Con@@": 535,
    "Bei": 536,
    "len": 537,
    "ach@@": 538,
    "Mo@@": 539,
    "sh@@": 540,
    "ic@@": 541,
    "2004": 542,
    "München": 543,
    "31": 544,
    ".,": 545,
    "ru@@": 546,
    "em": 547,
    "schaft": 548,
    "Universität": 549,
    "000": 550,
    "29": 551,
    "Un@@": 552,
    "ierte": 553,
    "Pro@@": 554,
    "ig": 555,
    "50": 556,
    "Ende": 557,
    "Kirche": 558,
    "wo": 559,
    "%": 560,
    "ell": 561,
    "ges": 562,
    "me": 563,
    "enz@@": 564,
    "gew@@": 565,
    "ant@@": 566,
    "ur": 567,
    "erte": 568,
    "New": 569,
    "w": 570,
    "ern@@": 571,
    "licher": 572,
    "enb@@": 573,
    "gesch@@": 574,
    "heute": 575,
    "end@@": 576,
    "isches": 577,
    "Über@@": 578,
    "ov@@": 579,
    "1@@": 580,
    "geb@@": 581,
    "ill@@": 582,
    "eren": 583,
    "El@@": 584,
    "Bildern": 585,
    "än@@": 586,
    "burg": 587,
    "Um@@": 588,
    "Eine": 589,
    "Haupt@@": 590,
    "schen": 591,
    "be": 592,
    "\\": 593,
    "Nach@@": 594,
    "tung": 595,
    "Internet": 596,
    "ra": 597,
    "erste": 598,
    "id@@": 599,
    "ker": 600,
    "Qu@@": 601,
    "haben": 602,
    "K": 603,
    "ins": 604,
    "Person": 605,
    "kt": 606,
    "stand": 607,
    "Nr": 608,
    "Commons": 609,
    "alle": 610,
    "erung": 611,
    "eb@@": 612,
    "Her@@": 613,
    "W": 614,
    "pro@@": 615,
    "ed@@": 616,
    "ihm": 617,
    "pp@@": 618,
    "T": 619,
    "†": 620,
    "II": 621,
    "og@@": 622,
    "ali@@": 623,
    "Bundes@@": 624,
    "Platz": 625,
    "Par@@": 626,
    "2000": 627,
    "Videos": 628,
    "man@@": 629,
    "ers@@": 630,
    "H": 631,
    "enn@@": 632,
    "Stadt@@": 633,
    "Deutschen": 634,
    "Di@@": 635,
    "ed": 636,
    "ellen": 637,
    "ran@@": 638,
    "konnte": 639,
    "kam": 640,
    "2003": 641,
    "deutschen": 642,
    "Audiodateien": 643,
    "lei@@": 644,
    "Wikipedia": 645,
    "zi@@": 646,
    "Jahrhundert": 647,
    "diesen": 648,
    "verb@@": 649,
    "AKS": 650,
    "2001": 651,
    "ard": 652,
    "wer@@": 653,
    "af@@": 654,
    "ow@@": 655,
    "alen": 656,
    "av@@": 657,
    "°": 658,
    "St": 659,
    "ihrer": 660,
    "ann@@": 661,
    "2002": 662,
    "ff@@": 663,
    "Le@@": 664,
    "“.": 665,
    "He@@": 666,
    "00@@": 667,
    "dessen": 668,
    "ster@@": 669,
    "Am@@": 670,
    "VIAF": 671,
    "sch": 672,
    "ing@@": 673,
    "Personensuche": 674,
    "kt@@": 675,
    "Or@@": 676,
    "ast@@": 677,
    "är@@": 678,
    "eu@@": 679,
    "Car@@": 680,
    "J": 681,
    "vier": 682,
    "pf@@": 683,
    "men": 684,
    "anderen": 685,
    "ma@@": 686,
    "it": 687,
    "bereits": 688,
    "ber": 689,
    "sche": 690,
    "gel": 691,
    "Kar@@": 692,
    "Sh@@": 693,
    "ft": 694,
    "ot": 695,
    "En@@": 696,
    "[": 697,
    "Co@@": 698,
    "Ha@@": 699,
    "ib@@": 700,
    "cht": 701,
    "dort": 702,
    "se@@": 703,
    "So@@": 704,
    "rei@@": 705,
    "ige": 706,
    "U": 707,
    "Man@@": 708,
    "displaystyle": 709,
    "bach": 710,
    "zeit": 711,
    "und@@": 712,
    "gab": 713,
    "}": 714,
    "Diese": 715,
    "ihn": 716,
    "rä@@": 717,
    "Friedrich": 718,
    "ow": 719,
    "während": 720,
    "ologie": 721,
    "PDF": 722,
    "gibt": 723,
    "tra@@": 724,
    "Süd@@": 725,
    "ün@@": 726,
    "Link": 727,
    "Seite": 728,
    "oli@@": 729,
    "können": 730,
    "Ger@@": 731,
    "Film": 732,
    "ere": 733,
    "igen": 734,
    "Landes@@": 735,
    "Ad@@": 736,
    "Har@@": 737,
    "cken": 738,
    "stadt": 739,
    "“,": 740,
    "amm@@": 741,
    "Bar@@": 742,
    "est@@": 743,
    "ihr": 744,
    "ho@@": 745,
    "straße": 746,
    "ate": 747,
    "40": 748,
    "re": 749,
    "ka": 750,
    "ad": 751,
    "deutsche": 752,
    "Gra@@": 753,
    "ons": 754,
    "Wien": 755,
    "ß": 756,
    "lan@@": 757,
    "beiden": 758,
    "eng@@": 759,
    "sse": 760,
    "he@@": 761,
    "diesem": 762,
    "Karl": 763,
    "del": 764,
    "Sa@@": 765,
    "ati@@": 766,
    "dern": 767,
    "la": 768,
    "Ru@@": 769,
    "erhielt": 770,
    "1999": 771,
    "ah@@": 772,
    "Gu@@": 773,
    "Hans": 774,
    "enz": 775,
    "fe": 776,
    "′": 777,
    "nen": 778,
    "dung": 779,
    "Mitglied": 780,
    "hal@@": 781,
    "il": 782,
    "Ur@@": 783,
    "Auf": 784,
    "Spiel@@": 785,
    "Zu@@": 786,
    "ang@@": 787,
    "cke": 788,
    "20@@": 789,
    "ic": 790,
    "Schw@@": 791,
    "zen": 792,
    "erk@@": 793,
    "Wei@@": 794,
    "Seit": 795,
    "Lin@@": 796,
    "ß@@": 797,
    "min@@": 798,
    "Peter": 799,
    "ess@@": 800,
    "ationen": 801,
    "Lu@@": 802,
    "gu@@": 803,
    "art@@": 804,
    "ve": 805,
    "art": 806,
    "bo@@": 807,
    "che": 808,
    "mar@@": 809,
    "Su@@": 810,
    "Kunst@@": 811,
    "tz@@": 812,
    "enf@@": 813,
    "X@@": 814,
    "Saison": 815,
    "á@@": 816,
    "tigen": 817,
    "gef@@": 818,
    "Politiker": 819,
    "wei@@": 820,
    "Grund@@": 821,
    "hin@@": 822,
    "Johann": 823,
    "km": 824,
    "bau": 825,
    "1945": 826,
    "det": 827,
    "ina": 828,
    "ach": 829,
    "1998": 830,
    "ier": 831,
    "deren": 832,
    "Liste": 833,
    "Gr@@": 834,
    "X": 835,
    "haus": 836,
    "Mor@@": 837,
    "Frei@@": 838,
    "Nord@@": 839,
    "ieren": 840,
    "ang": 841,
    "Auch": 842,
    "_": 843,
    "ord@@": 844,
    "gte": 845,
    "lu@@": 846,
    "keine": 847,
    "ta@@": 848,
    "stein": 849,
    "ssen": 850,
    "statt": 851,
    "rau@@": 852,
    "sehr": 853,
    "hier": 854,
    "zusammen": 855,
    "all": 856,
    "Ort": 857,
    "zurück": 858,
    "kommen": 859,
    "steht": 860,
    "mer": 861,
    "Ho@@": 862,
    "Groß@@": 863,
    "werk": 864,
    "damit": 865,
    "Ex@@": 866,
    "Für": 867,
    "Mit@@": 868,
    "Ba@@": 869,
    "tt@@": 870,
    "amerikanischer": 871,
    "ff": 872,
    "ür@@": 873,
    "é": 874,
    "Ne@@": 875,
    "OGND": 876,
    "oc@@": 877,
    "ling": 878,
    "om": 879,
    "iss@@": 880,
    "ci@@": 881,
    "ender": 882,
    "eingesetzt": 883,
    "Archive": 884,
    "1997": 885,
    "1996": 886,
    "Ra@@": 887,
    "Hei@@": 888,
    "ohne": 889,
    "äl@@": 890,
    "Wilhelm": 891,
    "ub@@": 892,
    "was": 893,
    "Namen": 894,
    "Mittel@@": 895,
    "ass@@": 896,
    "bekannt": 897,
    "Memento": 898,
    "ze": 899,
    "ör@@": 900,
    "Sohn": 901,
    "ges@@": 902,
    "ev@@": 903,
    "immer": 904,
    "ange@@": 905,
    "Schul@@": 906,
    "Po@@": 907,
    "Wal@@": 908,
    "denen": 909,
    "rit@@": 910,
    "ey": 911,
    "Art": 912,
    "bzw": 913,
    "ihren": 914,
    "iv@@": 915,
    "nahm": 916,
    "@": 917,
    "Auflage": 918,
    "University": 919,
    "La@@": 920,
    "Familie": 921,
    "mo@@": 922,
    "enh@@": 923,
    "1990": 924,
    "Sk@@": 925,
    "ausge@@": 926,
    "kan@@": 927,
    "York": 928,
    "Au@@": 929,
    "Bet@@": 930,
    "erb@@": 931,
    "son": 932,
    "for@@": 933,
    "ton": 934,
    "Go@@": 935,
    ".“": 936,
    "ich@@": 937,
    "erin": 938,
    "one": 939,
    "John": 940,
    "For@@": 941,
    "heim": 942,
    "rie@@": 943,
    "io": 944,
    "nach@@": 945,
    "befindet": 946,
    "teil": 947,
    "weitere": 948,
    "eln": 949,
    "tete": 950,
    "az@@": 951,
    "1994": 952,
    "dar@@": 953,
    "://": 954,
    "60": 955,
    "zunächst": 956,
    "kte": 957,
    "ums": 958,
    "1995": 959,
    "Me@@": 960,
    "inn@@": 961,
    "Bi@@": 962,
    "ies": 963,
    "ierten": 964,
    "del@@": 965,
    "durch@@": 966,
    "Ost@@": 967,
    "ili@@": 968,
    "ou@@": 969,
    "anz@@": 970,
    "Film@@": 971,
    "Verb@@": 972,
    ".)": 973,
    "erst@@": 974,
    "bar": 975,
    "allem": 976,
    "iz@@": 977,
    "gemäß": 978,
    "Bur@@": 979,
    "allen": 980,
    "″": 981,
    "oll@@": 982,
    "Heinrich": 983,
    "off@@": 984,
    "bet@@": 985,
    "+": 986,
    "par@@": 987,
    "worden": 988,
    "Wil@@": 989,
    "25@@": 990,
    "Bu@@": 991,
    "ierung": 992,
    "ech@@": 993,
    "ath@@": 994,
    "1992": 995,
    "mit@@": 996,
    "feld": 997,
    "ut": 998,
    "fer@@": 999,
    "geschichte": 1000,
    "itz": 1001,
    "100": 1002,
    "trat": 1003,
    "ip@@": 1004,
    "einge@@": 1005,
    "neue": 1006,
    "Hoch@@": 1007,
    "Fre@@": 1008,
    "age": 1009,
    "ma": 1010,
    "Jahrhunderts": 1011,
    "ktion": 1012,
    "Rei@@": 1013,
    "ex@@": 1014,
    "zwei@@": 1015,
    "isch@@": 1016,
    "tig": 1017,
    "wegen": 1018,
    "ingen": 1019,
    "begann": 1020,
    "Staats@@": 1021,
    "neuen": 1022,
    "ebenfalls": 1023,
    "co": 1024,
    "Stuttgart": 1025,
    "ore": 1026,
    "Michael": 1027,
    "1993": 1028,
    "schaften": 1029,
    "selbst": 1030,
    "erten": 1031,
    "gr@@": 1032,
    "tern": 1033,
    "Pf@@": 1034,
    "fer": 1035,
    "Paul": 1036,
    "To@@": 1037,
    "Nieder@@": 1038,
    "1991": 1039,
    "schw@@": 1040,
    "Deutsche": 1041,
    "Website": 1042,
    "reg@@": 1043,
    "Christ@@": 1044,
    "Personen": 1045,
    "Gen@@": 1046,
    "Reg@@": 1047,
    "net": 1048,
    "rat@@": 1049,
    "öl@@": 1050,
    "for": 1051,
    "geben": 1052,
    "anderem": 1053,
    "so@@": 1054,
    "Kultur@@": 1055,
    "fe@@": 1056,
    "heit": 1057,
    "War@@": 1058,
    "ging": 1059,
    "Tra@@": 1060,
    "uch@@": 1061,
    "Welt@@": 1062,
    "spielte": 1063,
    "30@@": 1064,
    "}@@": 1065,
    "erst": 1066,
    "80": 1067,
    "lung": 1068,
    "Lo@@": 1069,
    "oren": 1070,
    "dabei": 1071,
    "Min@@": 1072,
    "acht": 1073,
    "ol": 1074,
    "1989": 1075,
    "da@@": 1076,
    "con@@": 1077,
    "no@@": 1078,
    "rü@@": 1079,
    "ett@@": 1080,
    "König": 1081,
    "enti@@": 1082,
    "90": 1083,
    "arbeitete": 1084,
    "org": 1085,
    "führte": 1086,
    "cker": 1087,
    "bau@@": 1088,
    "Pa@@": 1089,
    "schule": 1090,
    "ich": 1091,
    "rech@@": 1092,
    "Leipzig": 1093,
    "rat": 1094,
    "ßen": 1095,
    "Fl@@": 1096,
    "ron@@": 1097,
    "Meter": 1098,
    "Ka@@": 1099,
    "Hel@@": 1100,
    "oh@@": 1101,
    "Berg@@": 1102,
    "nung": 1103,
    "24@@": 1104,
    "ks": 1105,
    "hei@@": 1106,
    "bezeichnet": 1107,
    "me@@": 1108,
    "Bro@@": 1109,
    "Hinweis": 1110,
    "lin": 1111,
    "London": 1112,
    "Cor@@": 1113,
    "Per@@": 1114,
    "Ta@@": 1115,
    "Leben": 1116,
    "ry": 1117,
    ".:": 1118,
    "gehörte": 1119,
    "met@@": 1120,
    "Ent@@": 1121,
    "ro": 1122,
    "je@@": 1123,
    "Kl@@": 1124,
    "we@@": 1125,
    "LCCN": 1126,
    "ismus": 1127,
    "Sc@@": 1128,
    "Rück@@": 1129,
    "Musik@@": 1130,
    "West@@": 1131,
    "Name": 1132,
    "Pal@@": 1133,
    "ersch@@": 1134,
    "ort": 1135,
    "mon@@": 1136,
    "ja": 1137,
    "per@@": 1138,
    "automatisch": 1139,
    "http": 1140,
    "26@@": 1141,
    "Info": 1142,
    "gewann": 1143,
    "eit@@": 1144,
    "70": 1145,
    "ft@@": 1146,
    "fahr@@": 1147,
    "Titel": 1148,
    "Menschen": 1149,
    "Bor@@": 1150,
    "gang": 1151,
    "geh@@": 1152,
    "gs": 1153,
    "ana": 1154,
    "Hamburg": 1155,
    "men@@": 1156,
    "33": 1157,
    "Paris": 1158,
    "inger": 1159,
    "Anleitung": 1160,
    "ost@@": 1161,
    "enst@@": 1162,
    "tel@@": 1163,
    "her": 1164,
    "2Vorlage": 1165,
    "35": 1166,
    "stellt": 1167,
    "land@@": 1168,
    "1988": 1169,
    "fin@@": 1170,
    "schon": 1171,
    "kten": 1172,
    "Bitte": 1173,
    "if@@": 1174,
    "Georg": 1175,
    "Hand@@": 1176,
    "iger": 1177,
    "di": 1178,
    "Kor@@": 1179,
    "vers@@": 1180,
    "Lebens@@": 1181,
    "So": 1182,
    "ms": 1183,
    "beg@@": 1184,
    "34": 1185,
    "erstmals": 1186,
    "Natur@@": 1187,
    "Während": 1188,
    "scher": 1189,
    "ee": 1190,
    "Tri@@": 1191,
    "gehört": 1192,
    "bel": 1193,
    "Landkreis": 1194,
    "erh@@": 1195,
    "andere": 1196,
    "Br@@": 1197,
    "ori@@": 1198,
    "ener": 1199,
    "fünf": 1200,
    "í@@": 1201,
    "siehe": 1202,
    "lig@@": 1203,
    "auer": 1204,
    "lä@@": 1205,
    "je": 1206,
    "Alt@@": 1207,
    "ans": 1208,
    "Ph@@": 1209,
    "Wer@@": 1210,
    "gebiet": 1211,
    "Kol@@": 1212,
    "1987": 1213,
    "32": 1214,
    "sondern": 1215,
    "are": 1216,
    "Frankfurt": 1217,
    "gra@@": 1218,
    "Du@@": 1219,
    "wenn": 1220,
    "Thomas": 1221,
    "ähr@@": 1222,
    "Z": 1223,
    "prüfe": 1224,
    "entferne": 1225,
    "Dar@@": 1226,
    "gl@@": 1227,
    "ations@@": 1228,
    "Tor@@": 1229,
    "tige": 1230,
    "ben@@": 1231,
    "Land": 1232,
    "Zu": 1233,
    "ud@@": 1234,
    "Seine": 1235,
    "gem@@": 1236,
    "besch@@": 1237,
    "Ö@@": 1238,
    "meister": 1239,
    "sich@@": 1240,
    "gs@@": 1241,
    "Literatur": 1242,
    "enten": 1243,
    ")@@": 1244,
    "stellung": 1245,
    "einige": 1246,
    "bert": 1247,
    "USA": 1248,
    "du@@": 1249,
    "uf@@": 1250,
    "Vi@@": 1251,
    "Mal@@": 1252,
    "Gruppe": 1253,
    "ant": 1254,
    "komm@@": 1255,
    "1986": 1256,
    "Gesellschaft": 1257,
    "fest@@": 1258,
    "Is@@": 1259,
    "gn@@": 1260,
    "lt": 1261,
    "kl@@": 1262,
    "stei@@": 1263,
    "Volks@@": 1264,
    "sin@@": 1265,
    "große": 1266,
    "teten": 1267,
    "Zeit@@": 1268,
    "yn@@": 1269,
    "tro@@": 1270,
    "etz@@": 1271,
    "sei": 1272,
    "Buch@@": 1273,
    "lagen": 1274,
    "]": 1275,
    "our@@": 1276,
    "Inter@@": 1277,
    "fand": 1278,
    "seines": 1279,
    "bel@@": 1280,
    "Ed@@": 1281,
    "19@@": 1282,
    "war@@": 1283,
    "Kur@@": 1284,
    "ym@@": 1285,
    "48": 1286,
    "Ko@@": 1287,
    "?": 1288,
    "üb@@": 1289,
    "aten": 1290,
    "ian@@": 1291,
    "Franz": 1292,
    "spe@@": 1293,
    "Sal@@": 1294,
    "00": 1295,
    "Kn@@": 1296,
    "ahn": 1297,
    "kommt": 1298,
    "Ab": 1299,
    "Fin@@": 1300,
    "Straße": 1301,
    "III": 1302,
    "genannt": 1303,
    "51": 1304,
    "Tod": 1305,
    "alt@@": 1306,
    "eller": 1307,
    "Gesch@@": 1308,
    "1985": 1309,
    "1980": 1310,
    "1983": 1311,
    "Online": 1312,
    "Nor@@": 1313,
    "j": 1314,
    "bi@@": 1315,
    "na": 1316,
    "Fahr@@": 1317,
    "Martin": 1318,
    "1984": 1319,
    "29@@": 1320,
    "Ant@@": 1321,
    "großen": 1322,
    "zer": 1323,
    "onen": 1324,
    "Reich@@": 1325,
    "Welt": 1326,
    "Je@@": 1327,
    "Hol@@": 1328,
    "45": 1329,
    "he": 1330,
    "Bel@@": 1331,
    "1982": 1332,
    "Im@@": 1333,
    "fel@@": 1334,
    "rich@@": 1335,
    "Sein": 1336,
    "id": 1337,
    "letzten": 1338,
    "(@@": 1339,
    "zweiten": 1340,
    "rin@@": 1341,
    "27@@": 1342,
    "führt": 1343,
    "dieses": 1344,
    "bes@@": 1345,
    "Haus": 1346,
    "Gew@@": 1347,
    "Stand": 1348,
    "Flug@@": 1349,
    "ay@@": 1350,
    "Sie@@": 1351,
    "neben": 1352,
    "ek@@": 1353,
    "ct@@": 1354,
    "Tro@@": 1355,
    "La": 1356,
    "Album": 1357,
    "th": 1358,
    "Stein@@": 1359,
    "frei@@": 1360,
    "ick@@": 1361,
    "hol@@": 1362,
    "Durch": 1363,
    "и@@": 1364,
    "1970": 1365,
    "les": 1366,
    "lau@@": 1367,
    "89@@": 1368,
    "ön@@": 1369,
    "An": 1370,
    "Orts@@": 1371,
    "Robert": 1372,
    "Folge": 1373,
    "Frau": 1374,
    "rund": 1375,
    "alten": 1376,
    "besteht": 1377,
    "Museum": 1378,
    "mal": 1379,
    "tel": 1380,
    "stellen": 1381,
    "а@@": 1382,
    "äch@@": 1383,
    "wal@@": 1384,
    "ihrem": 1385,
    "amp@@": 1386,
    "Bre@@": 1387,
    "ys": 1388,
    "yl@@": 1389,
    "tr@@": 1390,
    "recht": 1391,
    "Gar@@": 1392,
    "soll": 1393,
    "stra@@": 1394,
    "ind@@": 1395,
    "ire": 1396,
    "Mat@@": 1397,
    "mehrere": 1398,
    "wor@@": 1399,
    "ure": 1400,
    "gest@@": 1401,
    "inter@@": 1402,
    "ment": 1403,
    "33@@": 1404,
    "80@@": 1405,
    "о@@": 1406,
    "voll@@": 1407,
    "Da": 1408,
    "179@@": 1409,
    "Köln": 1410,
    "liches": 1411,
    "issen": 1412,
    "lang": 1413,
    "sa@@": 1414,
    "br@@": 1415,
    "ase": 1416,
    "zw@@": 1417,
    "ette": 1418,
    "els": 1419,
    "Te@@": 1420,
    "hatten": 1421,
    "dorf": 1422,
    "1972": 1423,
    "All@@": 1424,
    "fte": 1425,
    "tre@@": 1426,
    "ei": 1427,
    "bei@@": 1428,
    "36": 1429,
    "ice": 1430,
    "Lan@@": 1431,
    "Datenbank": 1432,
    "Haus@@": 1433,
    "zug": 1434,
    "We@@": 1435,
    "Regie": 1436,
    "form@@": 1437,
    "Ros@@": 1438,
    "zeit@@": 1439,
    "Lehr@@": 1440,
    "Do@@": 1441,
    "han@@": 1442,
    "Hin@@": 1443,
    "Koordinaten": 1444,
    "Wohn@@": 1445,
    "lich@@": 1446,
    "Kreis": 1447,
    "1978": 1448,
    ".@@": 1449,
    "stellte": 1450,
    "Fach@@": 1451,
    "olog@@": 1452,
    "halten": 1453,
    "tion": 1454,
    "Einwohner": 1455,
    "Anfang": 1456,
    "Zeitung": 1457,
    "kor@@": 1458,
    "Em@@": 1459,
    "38": 1460,
    "aut@@": 1461,
    "ität": 1462,
    "ai": 1463,
    "weise": 1464,
    "ary": 1465,
    "un": 1466,
    "sollte": 1467,
    "Col@@": 1468,
    "unde": 1469,
    "enberg": 1470,
    "37": 1471,
    "spiel": 1472,
    "allerdings": 1473,
    "Gel@@": 1474,
    "sol@@": 1475,
    "weiter": 1476,
    "äh@@": 1477,
    "Bd": 1478,
    "studierte": 1479,
    "Lie@@": 1480,
    "40@@": 1481,
    "meist": 1482,
    "Rechts@@": 1483,
    "1981": 1484,
    "ec@@": 1485,
    "bar@@": 1486,
    "1979": 1487,
    "Ac@@": 1488,
    "52": 1489,
    "Ludwig": 1490,
    "Gebiet": 1491,
    "National@@": 1492,
    "1974": 1493,
    "1975": 1494,
    "44@@": 1495,
    "Unternehmen": 1496,
    "zurück@@": 1497,
    "Österreich": 1498,
    "53": 1499,
    "Sen@@": 1500,
    "180@@": 1501,
    "ors": 1502,
    "Region": 1503,
    "ung@@": 1504,
    "gegründet": 1505,
    "berger": 1506,
    "42": 1507,
    "online": 1508,
    "47": 1509,
    "hausen": 1510,
    "ley": 1511,
    "sion": 1512,
    "Tre@@": 1513,
    "Aus": 1514,
    "lie@@": 1515,
    "Ku@@": 1516,
    "ation@@": 1517,
    "lage": 1518,
    "Maria": 1519,
    "Hor@@": 1520,
    "Bal@@": 1521,
    "Plan@@": 1522,
    "gewählt": 1523,
    "Mitte": 1524,
    "Ter@@": 1525,
    "National": 1526,
    "1976": 1527,
    "Ernst": 1528,
    "Tur@@": 1529,
    "28@@": 1530,
    "deten": 1531,
    "folgenden": 1532,
    "zog": 1533,
    "49": 1534,
    "е@@": 1535,
    "raum": 1536,
    "Kinder": 1537,
    "Kilometer": 1538,
    "leg@@": 1539,
    "ett": 1540,
    "wen@@": 1541,
    "1933": 1542,
    "äm@@": 1543,
    "ven": 1544,
    "Staat@@": 1545,
    "ó@@": 1546,
    "Zwei@@": 1547,
    "derung": 1548,
    "1968": 1549,
    "75": 1550,
    "39": 1551,
    "Frankreich": 1552,
    "Zweiten": 1553,
    "co@@": 1554,
    "Kan@@": 1555,
    "du": 1556,
    "Hil@@": 1557,
    "Zur": 1558,
    "Bru@@": 1559,
    "ents": 1560,
    "Met@@": 1561,
    "stell@@": 1562,
    "36@@": 1563,
    "neu@@": 1564,
    "cht@@": 1565,
    "eri@@": 1566,
    "Fest@@": 1567,
    "1973": 1568,
    "nun": 1569,
    "Lei@@": 1570,
    "Jo@@": 1571,
    "dazu": 1572,
    "1969": 1573,
    "wobei": 1574,
    "(†": 1575,
    ".@": 1576,
    "ica": 1577,
    "dem@@": 1578,
    "Mil@@": 1579,
    "ay": 1580,
    "Pol@@": 1581,
    "dt": 1582,
    "Herr@@": 1583,
    "Fußballspieler": 1584,
    "Sport@@": 1585,
    "Archivlink": 1586,
    "Musik": 1587,
    "Sol@@": 1588,
    "ade": 1589,
    "1977": 1590,
    "Christian": 1591,
    "amt": 1592,
    "ir": 1593,
    "gebaut": 1594,
    "viele": 1595,
    "ek": 1596,
    "finden": 1597,
    "unden": 1598,
    "1971": 1599,
    "Form": 1600,
    "erfolgte": 1601,
    "isten": 1602,
    "55": 1603,
    "Press": 1604,
    "н@@": 1605,
    "ard@@": 1606,
    "reich@@": 1607,
    "mat@@": 1608,
    "Lexikon": 1609,
    "Frauen": 1610,
    "sie@@": 1611,
    "88@@": 1612,
    "hof": 1613,
    "Bau": 1614,
    "ae": 1615,
    "sor@@": 1616,
    "gan@@": 1617,
    "Gemeinden": 1618,
    "elt": 1619,
    "lungen": 1620,
    "ta": 1621,
    "39@@": 1622,
    "grün@@": 1623,
    "hen": 1624,
    "üt@@": 1625,
    "stelle": 1626,
    "Vater": 1627,
    "tätig": 1628,
    "Pe@@": 1629,
    "44": 1630,
    "neu": 1631,
    "Cl@@": 1632,
    "Schweiz": 1633,
    "ließ": 1634,
    "weg": 1635,
    "ver": 1636,
    "sta@@": 1637,
    "Provinz": 1638,
    "→": 1639,
    "by": 1640,
    "Ju@@": 1641,
    "50@@": 1642,
    "gung": 1643,
    "burger": 1644,
    "bil@@": 1645,
    "fre@@": 1646,
    "sel@@": 1647,
    "üh@@": 1648,
    "schrift": 1649,
    "(=": 1650,
    "aler": 1651,
    "kar@@": 1652,
    "cher": 1653,
    "lassen": 1654,
    "ht": 1655,
    "lag": 1656,
    "Amt": 1657,
    "welche": 1658,
    "dig@@": 1659,
    "Plat@@": 1660,
    "Gebäude": 1661,
    "sechs": 1662,
    "utz@@": 1663,
    "Wit@@": 1664,
    "Dorf": 1665,
    "Pet@@": 1666,
    "Li@@": 1667,
    "Bayern": 1668,
    "41": 1669,
    "tungs@@": 1670,
    "geprüft": 1671,
    "Gi@@": 1672,
    "43": 1673,
    "kirche": 1674,
    "Aut@@": 1675,
    "kur@@": 1676,
    "FC": 1677,
    "Tochter": 1678,
    "app@@": 1679,
    "Bereich": 1680,
    "verwendet": 1681,
    "_@@": 1682,
    "erg@@": 1683,
    "1939": 1684,
    "weiteren": 1685,
    "ski": 1686,
    "buch": 1687,
    "Kriegs@@": 1688,
    "res@@": 1689,
    "ative": 1690,
    "1964": 1691,
    "46": 1692,
    "1967": 1693,
    "erhalten": 1694,
    "leben": 1695,
    "77@@": 1696,
    "jeweils": 1697,
    "Nachdem": 1698,
    "deutsch": 1699,
    "ks@@": 1700,
    "Staaten": 1701,
    "Ul@@": 1702,
    "musste": 1703,
    "1960": 1704,
    "geht": 1705,
    "gestellt": 1706,
    "uss@@": 1707,
    "schließlich": 1708,
    "schloss": 1709,
    "Otto": 1710,
    "gesetzt": 1711,
    "Produ@@": 1712,
    "Mannschaft": 1713,
    "blieb": 1714,
    "ss": 1715,
    "ssp@@": 1716,
    "David": 1717,
    "mer@@": 1718,
    "Verein": 1719,
    "ess": 1720,
    "iel@@": 1721,
    "Main": 1722,
    "do": 1723,
    "wald": 1724,
    "dro@@": 1725,
    "Kunst": 1726,
    "Gemeinde@@": 1727,
    "ente": 1728,
    "86@@": 1729,
    "Norden": 1730,
    "ograph@@": 1731,
    "Gl@@": 1732,
    "pre@@": 1733,
    "Webachiv": 1734,
    "IABot": 1735,
    "1966": 1736,
    "Entwicklung": 1737,
    "ius": 1738,
    "ly": 1739,
    "arb@@": 1740,
    "ator": 1741,
    "gut": 1742,
    "Rad@@": 1743,
    "54": 1744,
    "Beispiel": 1745,
    "1938": 1746,
    "Saint": 1747,
    "Wolfgang": 1748,
    "ari@@": 1749,
    "cal": 1750,
    "itz@@": 1751,
    "ha@@": 1752,
    "Wasser@@": 1753,
    "yp@@": 1754,
    "Schl@@": 1755,
    "spielen": 1756,
    "World": 1757,
    "Schweizer": 1758,
    "seite": 1759,
    "wechselte": 1760,
    "lat@@": 1761,
    "aller": 1762,
    "chen@@": 1763,
    "mel@@": 1764,
    "International": 1765,
    "Carl": 1766,
    "stan@@": 1767,
    "р@@": 1768,
    "Bis": 1769,
    "äu@@": 1770,
    "1965": 1771,
    "verschiedenen": 1772,
    "Dis@@": 1773,
    "tz": 1774,
    "37@@": 1775,
    "178@@": 1776,
    "Artikel": 1777,
    "Mau@@": 1778,
    "los": 1779,
    "Komp@@": 1780,
    "ül@@": 1781,
    "stehen": 1782,
    "Arbeit": 1783,
    "tä@@": 1784,
    "Weltkrieg": 1785,
    "wi@@": 1786,
    "ese": 1787,
    "County": 1788,
    "58": 1789,
    "anz": 1790,
    "Bürger@@": 1791,
    "erreichte": 1792,
    "Techn@@": 1793,
    "film": 1794,
    "ler@@": 1795,
    "DDR": 1796,
    "Kin@@": 1797,
    "dete": 1798,
    "erie": 1799,
    "übernahm": 1800,
    "uren": 1801,
    "tritt": 1802,
    "gar@@": 1803,
    "Dies": 1804,
    "Lau@@": 1805,
    "Prozent": 1806,
    "teil@@": 1807,
    "1963": 1808,
    "Schule": 1809,
    "ehr@@": 1810,
    "omm@@": 1811,
    "schafts@@": 1812,
    "Jugend@@": 1813,
    "hin": 1814,
    "platz": 1815,
    "Ap@@": 1816,
    "aufge@@": 1817,
    "56": 1818,
    "gilt": 1819,
    "65": 1820,
    "Kat@@": 1821,
    "eit": 1822,
    "vi@@": 1823,
    "Database": 1824,
    "gleich@@": 1825,
    "Rolle": 1826,
    "Grün@@": 1827,
    "eich@@": 1828,
    "200": 1829,
    "imm@@": 1830,
    "Dabei": 1831,
    "sb@@": 1832,
    "gemeinde": 1833,
    "ile": 1834,
    "Han@@": 1835,
    "1961": 1836,
    "ats@@": 1837,
    "Schn@@": 1838,
    "Kre@@": 1839,
    "Wahl@@": 1840,
    "ren@@": 1841,
    "Johannes": 1842,
    "At@@": 1843,
    "Gro@@": 1844,
    "Bra@@": 1845,
    "ult@@": 1846,
    "ug@@": 1847,
    "-@@": 1848,
    "aufgrund": 1849,
    "Joseph": 1850,
    "1950": 1851,
    "ps": 1852,
    "opp@@": 1853,
    "ze@@": 1854,
    "insgesamt": 1855,
    "Dieser": 1856,
    "Win@@": 1857,
    "Da@@": 1858,
    "ak": 1859,
    "ise": 1860,
    "Hu@@": 1861,
    "errichtet": 1862,
    "Pre@@": 1863,
    "Werk": 1864,
    "Berliner": 1865,
    "Walter": 1866,
    "49@@": 1867,
    "Richard": 1868,
    "the@@": 1869,
    "Schloss": 1870,
    "entstand": 1871,
    "dies": 1872,
    "Mann": 1873,
    "57": 1874,
    "Gre@@": 1875,
    "ion": 1876,
    "1962": 1877,
    "west@@": 1878,
    "Preis": 1879,
    "amb@@": 1880,
    "ser": 1881,
    "ings": 1882,
    "su@@": 1883,
    "Kirch@@": 1884,
    "ort@@": 1885,
    "1944": 1886,
    "tungen": 1887,
    "Wor@@": 1888,
    "doch": 1889,
    "po@@": 1890,
    "insbesondere": 1891,
    "Schauspieler": 1892,
    "Wa@@": 1893,
    "Mc@@": 1894,
    "!": 1895,
    "Millionen": 1896,
    "Hermann": 1897,
    "führung": 1898,
    "Bl@@": 1899,
    "Luft@@": 1900,
    "yer": 1901,
    "-,": 1902,
    "Rahmen": 1903,
    "Inn@@": 1904,
    "fast": 1905,
    "also": 1906,
    "Son@@": 1907,
    "Kal@@": 1908,
    "Süden": 1909,
    "lichkeit": 1910,
    "Serie": 1911,
    "mals": 1912,
    "Jahres": 1913,
    "glich": 1914,
    "mal@@": 1915,
    "oft": 1916,
    "ian": 1917,
    "weit": 1918,
    "son@@": 1919,
    "ko@@": 1920,
    "stre@@": 1921,
    "Eis@@": 1922,
    "darauf": 1923,
    "erschien": 1924,
    "ast": 1925,
    "tigt": 1926,
    "Mel@@": 1927,
    "Dort": 1928,
    "General@@": 1929,
    "ls": 1930,
    "zen@@": 1931,
    "dis@@": 1932,
    "bef@@": 1933,
    "van": 1934,
    "GmbH": 1935,
    "iker": 1936,
    "eigenen": 1937,
    "est": 1938,
    "Spe@@": 1939,
    "liegen": 1940,
    "muss": 1941,
    "Ton@@": 1942,
    "Siehe": 1943,
    "Partei": 1944,
    "teilt": 1945,
    "eli@@": 1946,
    "wa@@": 1947,
    "Baden": 1948,
    "oph@@": 1949,
    "findet": 1950,
    "Buch": 1951,
    "ehemaligen": 1952,
    "Unter": 1953,
    "è@@": 1954,
    "woh@@": 1955,
    "nis": 1956,
    "Mal": 1957,
    "Bischof": 1958,
    "schn@@": 1959,
    "form": 1960,
    "ert@@": 1961,
    "Burg": 1962,
    "Krieg": 1963,
    "ram@@": 1964,
    "sehen": 1965,
    "ah": 1966,
    "innen": 1967,
    "innerhalb": 1968,
    "1956": 1969,
    "Beg@@": 1970,
    "59": 1971,
    "Team": 1972,
    "arbeiten": 1973,
    "Pla@@": 1974,
    "Durch@@": 1975,
    "78": 1976,
    "ul": 1977,
    "ott@@": 1978,
    "ence": 1979,
    "davon": 1980,
    "genommen": 1981,
    "alb@@": 1982,
    "abge@@": 1983,
    "Rom@@": 1984,
    "ies@@": 1985,
    "eig@@": 1986,
    "ano": 1987,
    "ther": 1988,
    "ars": 1989,
    "bahn": 1990,
    "Exp@@": 1991,
    "Einsatz": 1992,
    "Leg@@": 1993,
    "fall": 1994,
    "Men@@": 1995,
    "1959": 1996,
    "Neben": 1997,
    "gten": 1998,
    "Ä@@": 1999,
    "66@@": 2000,
    "Richtung": 2001,
    "ena": 2002,
    "folgender": 2003,
    "38@@": 2004,
    "1952": 2005,
    "Bahn@@": 2006,
    "sen@@": 2007,
    "Sachsen": 2008,
    "79@@": 2009,
    "Europa": 2010,
    "Osten": 2011,
    "1946": 2012,
    "Zum": 2013,
    "ea": 2014,
    "}}@@": 2015,
    "1958": 2016,
    "ations": 2017,
    "Bevölkerung": 2018,
    "Arbeits@@": 2019,
    "Schriftsteller": 2020,
    "The@@": 2021,
    "führen": 2022,
    "Dor@@": 2023,
    "enburg": 2024,
    "reu@@": 2025,
    "Can@@": 2026,
    "sicht": 2027,
    "ino": 2028,
    "Dan@@": 2029,
    "55@@": 2030,
    "tiert": 2031,
    "ete": 2032,
    "Ehr@@": 2033,
    "ory": 2034,
    "ara": 2035,
    "Spiel": 2036,
    "Dem@@": 2037,
    "Original": 2038,
    "kel": 2039,
    "Westen": 2040,
    "American": 2041,
    "amen": 2042,
    "konnten": 2043,
    "Bad": 2044,
    "Gef@@": 2045,
    "1957": 2046,
    "AG": 2047,
    "Werke": 2048,
    "stark": 2049,
    "59@@": 2050,
    "ion@@": 2051,
    "lingen": 2052,
    "Chr": 2053,
    "1955": 2054,
    "Professor": 2055,
    "Institut": 2056,
    "Konz@@": 2057,
    "Fußball@@": 2058,
    "Dr": 2059,
    "handelt": 2060,
    "zehn": 2061,
    "Regierung": 2062,
    "Werk@@": 2063,
    "š@@": 2064,
    "erneut": 2065,
    "wes@@": 2066,
    "ame": 2067,
    "gruppe": 2068,
    "Rot@@": 2069,
    "ass": 2070,
    "“)": 2071,
    "län@@": 2072,
    "ater": 2073,
    "erei": 2074,
    "Ausgabe": 2075,
    "süd@@": 2076,
    "Um": 2077,
    "Einzel@@": 2078,
    "ric@@": 2079,
    "Meister": 2080,
    "Reihe": 2081,
    "Erst@@": 2082,
    "Klein@@": 2083,
    "lange": 2084,
    "führer": 2085,
    "Insel": 2086,
    "letz@@": 2087,
    "Beginn": 2088,
    "San@@": 2089,
    "habe": 2090,
    "krit@@": 2091,
    "Kap@@": 2092,
    "ity": 2093,
    "fl@@": 2094,
    "Mün@@": 2095,
    "schie@@": 2096,
    "Bedeutung": 2097,
    "Gol@@": 2098,
    "Reichs@@": 2099,
    "Fo@@": 2100,
    "gesellschaft": 2101,
    "yr@@": 2102,
    "Gesamt@@": 2103,
    "stieg": 2104,
    "1949": 2105,
    "ki": 2106,
    "führ@@": 2107,
    "Phil@@": 2108,
    "spiel@@": 2109,
    "ders": 2110,
    "Histor@@": 2111,
    "ue": 2112,
    "heutigen": 2113,
    "zweite": 2114,
    "Fern@@": 2115,
    "Bil@@": 2116,
    "(„": 2117,
    "64": 2118,
    "Ortsteil": 2119,
    "uli@@": 2120,
    "damals": 2121,
    "Pat@@": 2122,
    "Teil@@": 2123,
    "Bla@@": 2124,
    "Pri@@": 2125,
    "veröffentlicht": 2126,
    "Tr@@": 2127,
    "ungsp@@": 2128,
    "William": 2129,
    "französischen": 2130,
    "weil": 2131,
    "zeigt": 2132,
    "1940": 2133,
    "Mer@@": 2134,
    "erw@@": 2135,
    "Alexander": 2136,
    "Außerdem": 2137,
    "−": 2138,
    "Prä@@": 2139,
    "äre": 2140,
    "stein@@": 2141,
    "starb": 2142,
    "kB": 2143,
    "ef@@": 2144,
    "Ol@@": 2145,
    "1953": 2146,
    "ales": 2147,
    "Kirchen@@": 2148,
    "tag": 2149,
    "Höhe": 2150,
    "76": 2151,
    "Lit@@": 2152,
    "Über": 2153,
    "Verwaltungs@@": 2154,
    "ften": 2155,
    "od": 2156,
    "Klasse": 2157,
    "Hoh@@": 2158,
    "1942": 2159,
    "Ben@@": 2160,
    "62": 2161,
    "let@@": 2162,
    "Fa@@": 2163,
    "Ag@@": 2164,
    "arbeitet": 2165,
    "schei@@": 2166,
    "IV": 2167,
    "gegenüber": 2168,
    "setzte": 2169,
    "amerikanischen": 2170,
    "Bei@@": 2171,
    "asi@@": 2172,
    "stern": 2173,
    "71": 2174,
    "que": 2175,
    "1948": 2176,
    "bestand": 2177,
    "drei@@": 2178,
    "ahn@@": 2179,
    "zei@@": 2180,
    "Indi@@": 2181,
    "1941": 2182,
    "Hof@@": 2183,
    "pl@@": 2184,
    "kurz": 2185,
    "1954": 2186,
    "elt@@": 2187,
    "nahme": 2188,
    "70@@": 2189,
    "tlich": 2190,
    "bereich": 2191,
    "verein": 2192,
    "wo@@": 2193,
    "ckt": 2194,
    "folgte": 2195,
    "Comm@@": 2196,
    "bt": 2197,
    "ball": 2198,
    "Bon@@": 2199,
    "star@@": 2200,
    "histor@@": 2201,
    "72": 2202,
    "halt": 2203,
    "ance": 2204,
    "schrieb": 2205,
    "Kr@@": 2206,
    "Mark@@": 2207,
    "Mus@@": 2208,
    "Ste@@": 2209,
    "fil@@": 2210,
    "tn@@": 2211,
    "spieler": 2212,
    "1943": 2213,
    "Jean": 2214,
    "win@@": 2215,
    "ann": 2216,
    "Arten": 2217,
    "lige": 2218,
    "Sach@@": 2219,
    "Originals": 2220,
    "wür@@": 2221,
    "eigen@@": 2222,
    "Katalog": 2223,
    "lässt": 2224,
    "60@@": 2225,
    "Gast@@": 2226,
    "vier@@": 2227,
    "Mi@@": 2228,
    "ück@@": 2229,
    "wahl": 2230,
    "ank@@": 2231,
    "1918": 2232,
    "ologe": 2233,
    "gehen": 2234,
    "kel@@": 2235,
    "kauf@@": 2236,
    "System": 2237,
    "Mu@@": 2238,
    "ata": 2239,
    "Kla@@": 2240,
    "Graf": 2241,
    "ober@@": 2242,
    "San": 2243,
    "Akademie": 2244,
    "Roman": 2245,
    "uss": 2246,
    "berg@@": 2247,
    "besonders": 2248,
    "Heimat@@": 2249,
    "Präsident": 2250,
    "Spieler": 2251,
    "Kaiser": 2252,
    "mm": 2253,
    "prä@@": 2254,
    "rig@@": 2255,
    "anische": 2256,
    "Medi@@": 2257,
    "Fran@@": 2258,
    "Brü@@": 2259,
    "Tran@@": 2260,
    "fs@@": 2261,
    "West": 2262,
    "selben": 2263,
    "TV": 2264,
    "ology": 2265,
    "Kurz@@": 2266,
    "Jan@@": 2267,
    "Bir@@": 2268,
    "gern": 2269,
    "ters": 2270,
    "James": 2271,
    "Na@@": 2272,
    "ose": 2273,
    "res": 2274,
    "Kom@@": 2275,
    "größ@@": 2276,
    "Prin@@": 2277,
    "ł@@": 2278,
    "por@@": 2279,
    "way": 2280,
    "flü@@": 2281,
    "Off@@": 2282,
    "Alb@@": 2283,
    "staat@@": 2284,
    "Comp@@": 2285,
    "Le": 2286,
    "ffen": 2287,
    "öh@@": 2288,
    "ement": 2289,
    "nehmen": 2290,
    "Fernsehserie": 2291,
    "ical": 2292,
    "mittel@@": 2293,
    "Ir@@": 2294,
    "Mag@@": 2295,
    "stat@@": 2296,
    "Kreuz@@": 2297,
    "bew@@": 2298,
    "1936": 2299,
    "ty": 2300,
    "Zeitschrift": 2301,
    "atur": 2302,
    "Movie": 2303,
    "Com@@": 2304,
    "darunter": 2305,
    "gleichen": 2306,
    "sowohl": 2307,
    "fahren": 2308,
    "verschiedene": 2309,
    "gers": 2310,
    "Max": 2311,
    "Seiten": 2312,
    "genen": 2313,
    "Tel@@": 2314,
    "Zürich": 2315,
    "73": 2316,
    "des@@": 2317,
    "möglich": 2318,
    "Offizielle": 2319,
    "zahlreiche": 2320,
    "85": 2321,
    "1934": 2322,
    "gelegt": 2323,
    "Hal@@": 2324,
    "Pap@@": 2325,
    "cken@@": 2326,
    "Josef": 2327,
    "General": 2328,
    "punkt": 2329,
    "haf@@": 2330,
    "61": 2331,
    "icht@@": 2332,
    "letzte": 2333,
    "Fra@@": 2334,
    "Wein@@": 2335,
    "fahrt": 2336,
    "Voll@@": 2337,
    "sc@@": 2338,
    "verband": 2339,
    "ham": 2340,
    "Tag": 2341,
    "gleich": 2342,
    "1947": 2343,
    "Wol@@": 2344,
    "sport@@": 2345,
    "na@@": 2346,
    "1930": 2347,
    "nten": 2348,
    "Sprache": 2349,
    "amerikanische": 2350,
    "lieb@@": 2351,
    "500": 2352,
    "63": 2353,
    "ong": 2354,
    "wagen": 2355,
    "ände": 2356,
    "Ges@@": 2357,
    "aden": 2358,
    "Sitz": 2359,
    "einander": 2360,
    "ris@@": 2361,
    "77": 2362,
    "ya": 2363,
    "74": 2364,
    "beispielsweise": 2365,
    "mor@@": 2366,
    "City": 2367,
    "sport": 2368,
    "wär@@": 2369,
    "Sommer": 2370,
    "ola": 2371,
    "pa@@": 2372,
    "danach": 2373,
    "Cal@@": 2374,
    "Eintrag": 2375,
    "Pra@@": 2376,
    "Digitalisat": 2377,
    "*": 2378,
    "Neue": 2379,
    "mei@@": 2380,
    "1937": 2381,
    "geboren": 2382,
    "do@@": 2383,
    "66": 2384,
    "teilung": 2385,
    "ungs": 2386,
    "rö@@": 2387,
    "§": 2388,
    "eth@@": 2389,
    "Ca@@": 2390,
    "bin@@": 2391,
    "gemeinsam": 2392,
    "gegen@@": 2393,
    "1951": 2394,
    "Dom@@": 2395,
    "tsch@@": 2396,
    "Werner": 2397,
    "Erd@@": 2398,
    "akti@@": 2399,
    "Geb@@": 2400,
    "Mutter": 2401,
    "old": 2402,
    "Maler": 2403,
    "spiele": 2404,
    "zer@@": 2405,
    "teilweise": 2406,
    "derte": 2407,
    "68": 2408,
    "Gem@@": 2409,
    "ien@@": 2410,
    "67": 2411,
    "best@@": 2412,
    "George": 2413,
    "versch@@": 2414,
    "oll": 2415,
    "79": 2416,
    "Militär@@": 2417,
    "ane": 2418,
    "Hannover": 2419,
    "Mei@@": 2420,
    "gemein@@": 2421,
    "tliche": 2422,
    "kein": 2423,
    "macht": 2424,
    "ds": 2425,
    "gehören": 2426,
    "schaft@@": 2427,
    "ium": 2428,
    "1935": 2429,
    "verk@@": 2430,
    "ons@@": 2431,
    "Rech@@": 2432,
    "88": 2433,
    "Not@@": 2434,
    "Flü@@": 2435,
    "Mitglieder": 2436,
    "zusammen@@": 2437,
    "Val@@": 2438,
    "1920": 2439,
    "Fe@@": 2440,
    "Rudolf": 2441,
    "MB": 2442,
    ");": 2443,
    "gründete": 2444,
    "bl@@": 2445,
    "86": 2446,
    "Ob@@": 2447,
    "welt@@": 2448,
    "standen": 2449,
    "Ser@@": 2450,
    "mut@@": 2451,
    "Theater": 2452,
    "nt": 2453,
    "meisten": 2454,
    "leb@@": 2455,
    "1928": 2456,
    "Weg": 2457,
    "ktor": 2458,
    "Republik": 2459,
    "Tour@@": 2460,
    "Psych@@": 2461,
    "Fot@@": 2462,
    "rie": 2463,
    "stand@@": 2464,
    "Gei@@": 2465,
    "ät@@": 2466,
    "anc@@": 2467,
    "1914": 2468,
    "Hessen": 2469,
    "Andreas": 2470,
    "Op@@": 2471,
    "werke": 2472,
    "per": 2473,
    "Web@@": 2474,
    "Kinder@@": 2475,
    "keit": 2476,
    "hielt": 2477,
    "Wirtschafts@@": 2478,
    "Die@@": 2479,
    "atur@@": 2480,
    "ograf@@": 2481,
    "get@@": 2482,
    "lam@@": 2483,
    "och": 2484,
    "sieben": 2485,
    "}}": 2486,
    "dienst": 2487,
    "nte": 2488,
    "ordnung": 2489,
    "lig": 2490,
    "ald": 2491,
    "reise": 2492,
    "kleine": 2493,
    "Tal@@": 2494,
    "satz": 2495,
    "gesetz@@": 2496,
    "Wald@@": 2497,
    "Stre@@": 2498,
    "fra@@": 2499,
    "anischen": 2500,
    "nahmen": 2501,
    "Ang@@": 2502,
    "Don@@": 2503,
    "Ren@@": 2504,
    "plan@@": 2505,
    "feh@@": 2506,
    "Il@@": 2507,
    "Hy@@": 2508,
    "Pil@@": 2509,
    "Landes": 2510,
    "Holz@@": 2511,
    "vol@@": 2512,
    "chten": 2513,
    "Alter": 2514,
    "arten": 2515,
    "On@@": 2516,
    "Wieder@@": 2517,
    "Fla@@": 2518,
    "no": 2519,
    "daher": 2520,
    "Zwischen": 2521,
    "arch@@": 2522,
    "Dresden": 2523,
    "wach@@": 2524,
    "komp@@": 2525,
    "84": 2526,
    "cks": 2527,
    "ihnen": 2528,
    "ße": 2529,
    "atz@@": 2530,
    "Park": 2531,
    "Armee": 2532,
    "ka@@": 2533,
    "za": 2534,
    "England": 2535,
    "ahl": 2536,
    "igkeit": 2537,
    "1919": 2538,
    "etwas": 2539,
    "lauf": 2540,
    "ehen": 2541,
    "kti@@": 2542,
    "Burg@@": 2543,
    "inn": 2544,
    "ction": 2545,
    "Feld@@": 2546,
    "erz@@": 2547,
    "dungen": 2548,
    "anti@@": 2549,
    "eigene": 2550,
    "folge": 2551,
    "Wo@@": 2552,
    "Wasser": 2553,
    "Sau@@": 2554,
    "Gold@@": 2555,
    "bek@@": 2556,
    "1929": 2557,
    "Sel@@": 2558,
    "Ham@@": 2559,
    "alt": 2560,
    "Res@@": 2561,
    "up@@": 2562,
    "annt": 2563,
    "uth": 2564,
    "United": 2565,
    "Ach@@": 2566,
    "Selbst@@": 2567,
    "Vereinigten": 2568,
    "kamen": 2569,
    "Italien": 2570,
    "machte": 2571,
    "Rhein@@": 2572,
    "ologische": 2573,
    "Liga": 2574,
    "einigen": 2575,
    "Bahnhof": 2576,
    "zudem": 2577,
    "cs": 2578,
    "Rö@@": 2579,
    "dan@@": 2580,
    "see": 2581,
    "Por@@": 2582,
    "No@@": 2583,
    "gebracht": 2584,
    "Rh@@": 2585,
    "stellungen": 2586,
    "ähn@@": 2587,
    "zuvor": 2588,
    "Geh@@": 2589,
    "wir@@": 2590,
    "aren": 2591,
    "österreichischer": 2592,
    "rach@@": 2593,
    "spielt": 2594,
    "bezirk": 2595,
    "League": 2596,
    "ha": 2597,
    "weisen": 2598,
    "langen": 2599,
    "Bezeichnung": 2600,
    "Vo@@": 2601,
    "zeu@@": 2602,
    "Spiele": 2603,
    "befinden": 2604,
    "halb": 2605,
    "1932": 2606,
    "sis": 2607,
    "dr@@": 2608,
    "Studi@@": 2609,
    "esen": 2610,
    "Geschäfts@@": 2611,
    "hier@@": 2612,
    "kleinen": 2613,
    "Gal@@": 2614,
    "Strecke": 2615,
    "Char@@": 2616,
    "vis@@": 2617,
    "fläche": 2618,
    "tigte": 2619,
    "ko": 2620,
    "69": 2621,
    "Anti@@": 2622,
    "äuß@@": 2623,
    "inen": 2624,
    "hän@@": 2625,
    "hö@@": 2626,
    "Feu@@": 2627,
    "tem": 2628,
    "schwar@@": 2629,
    "ick": 2630,
    "ographie": 2631,
    "kre@@": 2632,
    "Sozial@@": 2633,
    "mehr@@": 2634,
    "Man": 2635,
    "preis": 2636,
    "Schwer@@": 2637,
    "Jur@@": 2638,
    "л@@": 2639,
    "besuchte": 2640,
    "Vol@@": 2641,
    "folgende": 2642,
    "Sei@@": 2643,
    "verlag": 2644,
    "Kloster": 2645,
    "urm": 2646,
    "dat@@": 2647,
    "geführt": 2648,
    "Den": 2649,
    "Linie": 2650,
    "genutzt": 2651,
    "Ak@@": 2652,
    "Komm@@": 2653,
    "Sar@@": 2654,
    "Wie": 2655,
    "hinaus": 2656,
    "pol@@": 2657,
    "Reich": 2658,
    "Müller": 2659,
    "lungs@@": 2660,
    "Charles": 2661,
    "1900": 2662,
    "bedeut@@": 2663,
    "Drei@@": 2664,
    "go": 2665,
    "alte": 2666,
    "Grund": 2667,
    "iel": 2668,
    "ander@@": 2669,
    "Kultur": 2670,
    "Ersten": 2671,
    "Stand@@": 2672,
    "Bruder": 2673,
    "verl@@": 2674,
    "Fel@@": 2675,
    "ney": 2676,
    "werk@@": 2677,
    "ox@@": 2678,
    "т@@": 2679,
    "Hier": 2680,
    "China": 2681,
    "Bild": 2682,
    "reichen": 2683,
    "Regierungs@@": 2684,
    "Klaus": 2685,
    "90@@": 2686,
    "č@@": 2687,
    "fü@@": 2688,
    "ssi@@": 2689,
    "1925": 2690,
    "83": 2691,
    "Gut@@": 2692,
    "Schön@@": 2693,
    "prof@@": 2694,
    "alter": 2695,
    "Autor": 2696,
    "ob": 2697,
    "Poli@@": 2698,
    "ste@@": 2699,
    "frie@@": 2700,
    "liga": 2701,
    "Q@@": 2702,
    "gebäude": 2703,
    "oten": 2704,
    "Rein@@": 2705,
    "Schiff@@": 2706,
    "vielen": 2707,
    "á": 2708,
    "häufig": 2709,
    "Drit@@": 2710,
    "Deutscher": 2711,
    "yc@@": 2712,
    "erv@@": 2713,
    "tei": 2714,
    "uh@@": 2715,
    "angen": 2716,
    "Dra@@": 2717,
    "nie": 2718,
    "×": 2719,
    "Wiener": 2720,
    "Pl@@": 2721,
    "schluss": 2722,
    "Fall": 2723,
    "legen": 2724,
    "geschlossen": 2725,
    "asse": 2726,
    "Sil@@": 2727,
    "Bas@@": 2728,
    "…": 2729,
    "stri@@": 2730,
    "Vier@@": 2731,
    "minister": 2732,
    "87": 2733,
    "direkt": 2734,
    "Rich@@": 2735,
    "gelang": 2736,
    "sien": 2737,
    "ā@@": 2738,
    "Karriere": 2739,
    "lo": 2740,
    "Künst@@": 2741,
    "ga": 2742,
    "Et@@": 2743,
    "Blo@@": 2744,
    "Betrieb": 2745,
    "anne": 2746,
    "Vertrag": 2747,
    "Künstler": 2748,
    "ns": 2749,
    "sei@@": 2750,
    "\\@@": 2751,
    "Award": 2752,
    "Fer@@": 2753,
    "mann@@": 2754,
    "angeb@@": 2755,
    "Suche": 2756,
    "verein@@": 2757,
    "89": 2758,
    "Amts@@": 2759,
    "meister@@": 2760,
    "Stelle": 2761,
    "Os@@": 2762,
    "kat@@": 2763,
    "sto@@": 2764,
    "sion@@": 2765,
    "rom@@": 2766,
    "grenz@@": 2767,
    "rän@@": 2768,
    "jahr": 2769,
    "aff@@": 2770,
    "sozi@@": 2771,
    "tigkeit": 2772,
    "nehm@@": 2773,
    "Nationalbibliothek": 2774,
    "ok": 2775,
    "Del@@": 2776,
    "Homepage": 2777,
    "Winter@@": 2778,
    "SV": 2779,
    "gol@@": 2780,
    "spezi@@": 2781,
    "uch": 2782,
    "eau": 2783,
    "französischer": 2784,
    "82": 2785,
    "lit@@": 2786,
    "Kü@@": 2787,
    "dens": 2788,
    "81": 2789,
    "Sand@@": 2790,
    "De": 2791,
    "gän@@": 2792,
    "ktionen": 2793,
    "digung": 2794,
    "li": 2795,
    "erster": 2796,
    "fun@@": 2797,
    "Version": 2798,
    "Gegen@@": 2799,
    "beide": 2800,
    "erer": 2801,
    "1927": 2802,
    "entstanden": 2803,
    "É@@": 2804,
    "Lö@@": 2805,
    "Stat@@": 2806,
    "sdorf": 2807,
    "erreicht": 2808,
    "aufgenommen": 2809,
    "ville": 2810,
    "endet": 2811,
    "dor@@": 2812,
    "01": 2813,
    "ode": 2814,
    "Bay@@": 2815,
    "mu@@": 2816,
    "schul@@": 2817,
    "Bus@@": 2818,
    "Euro": 2819,
    "Cro@@": 2820,
    "zwar": 2821,
    "ologischen": 2822,
    "Pan@@": 2823,
    "Ep@@": 2824,
    "chte": 2825,
    "Kreis@@": 2826,
    "ces": 2827,
    "mes": 2828,
    "Mos@@": 2829,
    "dire@@": 2830,
    "istischen": 2831,
    "?@@": 2832,
    "nor@@": 2833,
    "Fun@@": 2834,
    "viel@@": 2835,
    "städ@@": 2836,
    "teile": 2837,
    "evangeli@@": 2838,
    "Sy@@": 2839,
    "pro": 2840,
    "Cap@@": 2841,
    "Düsseldorf": 2842,
    "own": 2843,
    "Stiftung": 2844,
    "Raum": 2845,
    "deutlich": 2846,
    "abili@@": 2847,
    "Sub@@": 2848,
    "doi": 2849,
    "dy": 2850,
    "Stra@@": 2851,
    "ären": 2852,
    "lauf@@": 2853,
    "Informationen": 2854,
    "stammt": 2855,
    "kn@@": 2856,
    "hinter": 2857,
    "App@@": 2858,
    "1931": 2859,
    "Danach": 2860,
    "Hon@@": 2861,
    "sia": 2862,
    "Komponist": 2863,
    "Nähe": 2864,
    "nieder@@": 2865,
    "Handbuch": 2866,
    "nachdem": 2867,
    "ichten": 2868,
    "End@@": 2869,
    "politischen": 2870,
    "95": 2871,
    "Hom@@": 2872,
    "jährigen": 2873,
    "1924": 2874,
    "chter": 2875,
    "organis@@": 2876,
    "kla@@": 2877,
    "archiv": 2878,
    "1910": 2879,
    "tigung": 2880,
    "ursprünglich": 2881,
    "Division": 2882,
    "zogen": 2883,
    "gericht": 2884,
    "Nation@@": 2885,
    "Mur@@": 2886,
    "zt": 2887,
    "05": 2888,
    "our": 2889,
    "Heinz": 2890,
    "Bot@@": 2891,
    "museum": 2892,
    ".-": 2893,
    "nimmt": 2894,
    "fäl@@": 2895,
    "Schauspielerin": 2896,
    "somit": 2897,
    "hren": 2898,
    "Frank": 2899,
    "grund@@": 2900,
    "tig@@": 2901,
    "assi@@": 2902,
    "Sonder@@": 2903,
    "text": 2904,
    "ama": 2905,
    "empf@@": 2906,
    "Studium": 2907,
    "gene": 2908,
    "genden": 2909,
    "Kenn@@": 2910,
    "Männer": 2911,
    "col@@": 2912,
    "Glo@@": 2913,
    "rom": 2914,
    "gaben": 2915,
    "Württemberg": 2916,
    "zeichen": 2917,
    "mar": 2918,
    "ekt@@": 2919,
    "acher": 2920,
    "Ga@@": 2921,
    "Ath@@": 2922,
    "Ziel": 2923,
    "tragen": 2924,
    "min": 2925,
    "nah@@": 2926,
    "erwähnt": 2927,
    "nord@@": 2928,
    "ital": 2929,
    "lief": 2930,
    "ille": 2931,
    "benannt": 2932,
    "ini": 2933,
    "internationalen": 2934,
    "linie": 2935,
    "ganz": 2936,
    "1926": 2937,
    "See": 2938,
    "Evangeli@@": 2939,
    "veröffentlichte": 2940,
    "sionen": 2941,
    "bs": 2942,
    "mm@@": 2943,
    "SPD": 2944,
    "bur@@": 2945,
    "Hä@@": 2946,
    "с@@": 2947,
    "Sim@@": 2948,
    "Wind@@": 2949,
    "zep@@": 2950,
    "größte": 2951,
    "Kra@@": 2952,
    "Karte": 2953,
    "ny": 2954,
    "Innen@@": 2955,
    "jahr@@": 2956,
    "lebte": 2957,
    "arbeit": 2958,
    "07": 2959,
    "för@@": 2960,
    "Volk@@": 2961,
    "ichte": 2962,
    "dre@@": 2963,
    "‚": 2964,
    "fen@@": 2965,
    "weniger": 2966,
    "folgt": 2967,
    "treten": 2968,
    "«": 2969,
    "kunde": 2970,
    "trä@@": 2971,
    "schriften": 2972,
    "tei@@": 2973,
    "diente": 2974,
    "ligen": 2975,
    "dafür": 2976,
    "vert@@": 2977,
    "ppe": 2978,
    "verkehr": 2979,
    "enthält": 2980,
    "Af@@": 2981,
    "04": 2982,
    "leist@@": 2983,
    "rad": 2984,
    "op": 2985,
    "außerdem": 2986,
    "fest": 2987,
    "kehrte": 2988,
    "Bunde@@": 2989,
    "zig": 2990,
    "Mari@@": 2991,
    "Lig@@": 2992,
    "französische": 2993,
    "zo@@": 2994,
    "oti@@": 2995,
    "Wel@@": 2996,
    "Ann@@": 2997,
    "99": 2998,
    "deut@@": 2999,
    "mehreren": 3000,
    "Tage": 3001,
    "stit@@": 3002,
    "iken": 3003,
    "Mess@@": 3004,
    "ven@@": 3005,
    "leh@@": 3006,
    "Jes@@": 3007,
    "ve@@": 3008,
    "ennung": 3009,
    "02": 3010,
    "reich": 3011,
    "Lang@@": 3012,
    "ther@@": 3013,
    "1921": 3014,
    "Bereits": 3015,
    "Finanz@@": 3016,
    "ins@@": 3017,
    "ade@@": 3018,
    "ehemalige": 3019,
    "emp@@": 3020,
    "ont@@": 3021,
    "Hilfe": 3022,
    "gabe": 3023,
    "endorf": 3024,
    "größten": 3025,
    "Hör@@": 3026,
    "]).": 3027,
    "heit@@": 3028,
    "lok@@": 3029,
    "Motor@@": 3030,
    "wil@@": 3031,
    "Sozi@@": 3032,
    "96": 3033,
    "Stamm@@": 3034,
    "Ly@@": 3035,
    "Teile": 3036,
    "lex@@": 3037,
    "Spielen": 3038,
    "Krank@@": 3039,
    "hel@@": 3040,
    "1912": 3041,
    "Lim@@": 3042,
    "Berg": 3043,
    "digt": 3044,
    "cti@@": 3045,
    "Polen": 3046,
    "statt@@": 3047,
    "heiten": 3048,
    "merk@@": 3049,
    "machen": 3050,
    "schwer@@": 3051,
    "Les@@": 3052,
    "Bahn": 3053,
    "legte": 3054,
    "verkehr@@": 3055,
    "ella": 3056,
    "fach@@": 3057,
    "Weitere": 3058,
    "bare": 3059,
    "Nachbar@@": 3060,
    "Fal@@": 3061,
    "gewesen": 3062,
    "AR@@": 3063,
    "umen": 3064,
    "daten": 3065,
    "Sin@@": 3066,
    "Russ@@": 3067,
    "len@@": 3068,
    "Sta@@": 3069,
    "tere": 3070,
    "0er": 3071,
    "Herzog": 3072,
    "Ti@@": 3073,
    "südlich": 3074,
    "sprech@@": 3075,
    "absolvierte": 3076,
    "Y": 3077,
    "Albert": 3078,
    "schutz@@": 3079,
    "cm": 3080,
    "ce@@": 3081,
    "esse": 3082,
    "ford": 3083,
    "Erfolg": 3084,
    "Zentrum": 3085,
    "1923": 3086,
    "Hum@@": 3087,
    "use": 3088,
    "Sonn@@": 3089,
    "dau@@": 3090,
    "ison": 3091,
    "Ban@@": 3092,
    "Fol@@": 3093,
    "Bild@@": 3094,
    "wa": 3095,
    "fei@@": 3096,
    "niederländ@@": 3097,
    "Japan": 3098,
    "Journal": 3099,
    "Kli@@": 3100,
    "Nachfolger": 3101,
    "Ev@@": 3102,
    "jähr@@": 3103,
    "1922": 3104,
    "Inf@@": 3105,
    "bruch": 3106,
    "Verbindung": 3107,
    "gro@@": 3108,
    "Schwar@@": 3109,
    "kür@@": 3110,
    "tin@@": 3111,
    "Mark": 3112,
    "fol@@": 3113,
    "Heft": 3114,
    "nete": 3115,
    "ula": 3116,
    "anischer": 3117,
    "tischen": 3118,
    "Dienst@@": 3119,
    "dient": 3120,
    "Fritz": 3121,
    "Union": 3122,
    "Ihre": 3123,
    "eur@@": 3124,
    "Webseite": 3125,
    "Gründung": 3126,
    "Tour": 3127,
    "betrieb": 3128,
    "Rom": 3129,
    "ret@@": 3130,
    "izi@@": 3131,
    "^{": 3132,
    "fa@@": 3133,
    "hoch@@": 3134,
    "ment@@": 3135,
    "usi@@": 3136,
    "ote": 3137,
    "schutz": 3138,
    "ark@@": 3139,
    "ied@@": 3140,
    "ona": 3141,
    "Mis@@": 3142,
    "Bat@@": 3143,
    "arti@@": 3144,
    "River": 3145,
    "ou": 3146,
    "reiche": 3147,
    "Kun@@": 3148,
    "dar": 3149,
    "ütz@@": 3150,
    "AS@@": 3151,
    "History": 3152,
    "tät": 3153,
    "eben": 3154,
    "rechts": 3155,
    "sberg": 3156,
    "ill": 3157,
    "Thr@@": 3158,
    "geleg@@": 3159,
    "Forschungs@@": 3160,
    "Far@@": 3161,
    "ç@@": 3162,
    "mir": 3163,
    "Olympischen": 3164,
    "gegeben": 3165,
    "schau@@": 3166,
    "Lage": 3167,
    "Trans@@": 3168,
    "verheiratet": 3169,
    "ernannt": 3170,
    "Arbeit@@": 3171,
    "welches": 3172,
    "itt@@": 3173,
    "Wass@@": 3174,
    "q@@": 3175,
    "enbach": 3176,
    "Produktion": 3177,
    "oben": 3178,
    "Nov@@": 3179,
    "AT@@": 3180,
    "08": 3181,
    "US@@": 3182,
    "Westfalen": 3183,
    "kreis": 3184,
    "orin": 3185,
    "ihres": 3186,
    "König@@": 3187,
    "‘": 3188,
    "gende": 3189,
    "entwickelte": 3190,
    "Louis": 3191,
    "Press@@": 3192,
    "unn@@": 3193,
    "Kanton": 3194,
    "1913": 3195,
    "ome": 3196,
    "Höh@@": 3197,
    "basi@@": 3198,
    "ats": 3199,
    "Vom": 3200,
    "Mad@@": 3201,
    "Christoph": 3202,
    "!@@": 3203,
    "Truppen": 3204,
    "ada": 3205,
    "98": 3206,
    "cy": 3207,
    "Publi@@": 3208,
    "will": 3209,
    "schiff@@": 3210,
    "Lor@@": 3211,
    "zeichnet": 3212,
    "Sam@@": 3213,
    "Anna": 3214,
    "Lab@@": 3215,
    "annte": 3216,
    "forschung": 3217,
    "aben": 3218,
    "einmal": 3219,
    "fik@@": 3220,
    "Bonn": 3221,
    "Weiter@@": 3222,
    "erne": 3223,
    "Wir@@": 3224,
    "Letzte": 3225,
    "Begriff": 3226,
    "edi@@": 3227,
    "otte": 3228,
    "Art@@": 3229,
    "Ander@@": 3230,
    "Si@@": 3231,
    "%@@": 3232,
    "wesen": 3233,
    "rist@@": 3234,
    "ash@@": 3235,
    "sa": 3236,
    "Brand@@": 3237,
    "lands": 3238,
    "Sieg": 3239,
    "q": 3240,
    "Länge": 3241,
    "nördlich": 3242,
    "elli@@": 3243,
    "with": 3244,
    "09": 3245,
    "92": 3246,
    "Lat@@": 3247,
    "Wahl": 3248,
    "baren": 3249,
    "Haf@@": 3250,
    "Ulrich": 3251,
    "ri": 3252,
    "Überprüfung": 3253,
    "Records": 3254,
    "Wik@@": 3255,
    "IS@@": 3256,
    "wissenschaften": 3257,
    "under@@": 3258,
    "Schla@@": 3259,
    "Arbeiten": 3260,
    "Syn@@": 3261,
    "politische": 3262,
    "91": 3263,
    "ide": 3264,
    "ih@@": 3265,
    "ain": 3266,
    "lexikon": 3267,
    "Ausbildung": 3268,
    "Schil@@": 3269,
    "Gerhard": 3270,
    "ammer": 3271,
    "ute": 3272,
    "nahe": 3273,
    "san@@": 3274,
    "93": 3275,
    "CD": 3276,
    "Zw@@": 3277,
    "Dieses": 3278,
    "entwickelt": 3279,
    "dritten": 3280,
    "ehr": 3281,
    "park": 3282,
    "zentrum": 3283,
    "stände": 3284,
    "Besitz": 3285,
    "Camp@@": 3286,
    "oss": 3287,
    "schla@@": 3288,
    "tierte": 3289,
    "liste": 3290,
    "mün@@": 3291,
    "Hir@@": 3292,
    "sten@@": 3293,
    "sper@@": 3294,
    "Turn@@": 3295,
    "Schlacht": 3296,
    "bro@@": 3297,
    "Typ@@": 3298,
    "Gran@@": 3299,
    "Gold": 3300,
    "Frie@@": 3301,
    "Bern@@": 3302,
    "Herrschaft": 3303,
    "Eng@@": 3304,
    "ics": 3305,
    "bildet": 3306,
    "allgem@@": 3307,
    "Einwohnern": 3308,
    "ag": 3309,
    "Eli@@": 3310,
    "va": 3311,
    "erzielte": 3312,
    "from": 3313,
    "eff@@": 3314,
    "Mont@@": 3315,
    "Literatur@@": 3316,
    "anschließend": 3317,
    "medi@@": 3318,
    "acht@@": 3319,
    "uter": 3320,
    "Hann@@": 3321,
    "ele": 3322,
    "German@@": 3323,
    "umfasst": 3324,
    "Projekt": 3325,
    "lte": 3326,
    "gebildet": 3327,
    "ativen": 3328,
    "itionen": 3329,
    "tik": 3330,
    "britischer": 3331,
    "Europ@@": 3332,
    "och@@": 3333,
    "Mas@@": 3334,
    "mach@@": 3335,
    "Halb@@": 3336,
    "lö@@": 3337,
    "200@@": 3338,
    "gi@@": 3339,
    "wohl": 3340,
    "Dam@@": 3341,
    "hohen": 3342,
    "Hinter@@": 3343,
    "fung": 3344,
    "zahl": 3345,
    "1911": 3346,
    "Alfred": 3347,
    "Rang": 3348,
    "we": 3349,
    "für@@": 3350,
    "Vor": 3351,
    "ätz@@": 3352,
    "Hälfte": 3353,
    "müssen": 3354,
    "ico": 3355,
    "bild": 3356,
    "wenig": 3357,
    "eher": 3358,
    "pe": 3359,
    "Nord": 3360,
    "führten": 3361,
    "Co": 3362,
    "Weltmeisterschaft": 3363,
    "test@@": 3364,
    "Gener@@": 3365,
    "iner": 3366,
    "Sat@@": 3367,
    "pla@@": 3368,
    "03": 3369,
    "Zudem": 3370,
    "06": 3371,
    "är": 3372,
    "Hen@@": 3373,
    "typ@@": 3374,
    "rich": 3375,
    "Mun@@": 3376,
    "spro@@": 3377,
    "rel@@": 3378,
    "Außen@@": 3379,
    "ral": 3380,
    "kultur@@": 3381,
    "Brau@@": 3382,
    "here": 3383,
    "97": 3384,
    "Gleich@@": 3385,
    "Königs@@": 3386,
    "bes": 3387,
    "Damit": 3388,
    "ands": 3389,
    "cc@@": 3390,
    "Anzahl": 3391,
    "schau": 3392,
    "à": 3393,
    "Music": 3394,
    "fahrer": 3395,
    "Fischer": 3396,
    "Prof@@": 3397,
    "Beim": 3398,
    "Denk@@": 3399,
    "Publik@@": 3400,
    "Renn@@": 3401,
    "Folgen": 3402,
    "wieder@@": 3403,
    "zeug": 3404,
    "Sig@@": 3405,
    "britischen": 3406,
    "300": 3407,
    "Eich@@": 3408,
    "Eigen@@": 3409,
    "Gru@@": 3410,
    "Society": 3411,
    "Wahr@@": 3412,
    "spor@@": 3413,
    "94": 3414,
    "Bremen": 3415,
    "1907": 3416,
    "wert": 3417,
    "Quellen": 3418,
    "herr@@": 3419,
    "Cup": 3420,
    "Post@@": 3421,
    "Pu@@": 3422,
    "Part@@": 3423,
    "str@@": 3424,
    "Fort@@": 3425,
    "Göttingen": 3426,
    "amt@@": 3427,
    "heiratete": 3428,
    "Leitung": 3429,
    "Jürgen": 3430,
    "Bürgermeister": 3431,
    "Ther@@": 3432,
    "sogar": 3433,
    "frühen": 3434,
    "icht": 3435,
    "Arn@@": 3436,
    "ball@@": 3437,
    "lers": 3438,
    "Anton": 3439,
    "Mart@@": 3440,
    "befand": 3441,
    "Cat@@": 3442,
    "Familienname": 3443,
    "Heidelberg": 3444,
    "Halle": 3445,
    "flu@@": 3446,
    "Firma": 3447,
    "wissenschaft": 3448,
    "Grenze": 3449,
    "1905": 3450,
    "ständige": 3451,
    "]@@": 3452,
    "blatt": 3453,
    "Leiter": 3454,
    "Staffel": 3455,
    "bürger@@": 3456,
    "lebt": 3457,
    "produz@@": 3458,
    "lichkeiten": 3459,
    "Joachim": 3460,
    "europ@@": 3461,
    "adi@@": 3462,
    "Physi@@": 3463,
    "Form@@": 3464,
    "ora": 3465,
    "Finale": 3466,
    "Ri@@": 3467,
    "к@@": 3468,
    "würde": 3469,
    "Kein": 3470,
    "Tab@@": 3471,
    "französisch": 3472,
    "Pr@@": 3473,
    "Rau@@": 3474,
    "ebenso": 3475,
    "ritt": 3476,
    "ache": 3477,
    "1908": 3478,
    "fanden": 3479,
    "röm@@": 3480,
    "gefähr@@": 3481,
    "setzung": 3482,
    "schlag": 3483,
    "ø@@": 3484,
    "angs@@": 3485,
    "nutz@@": 3486,
    "Hart@@": 3487,
    "ez": 3488,
    "rum": 3489,
    "Markt@@": 3490,
    "dert": 3491,
    "win": 3492,
    "wich@@": 3493,
    "Grab@@": 3494,
    "ys@@": 3495,
    "neten": 3496,
    "eten": 3497,
    "Hier@@": 3498,
    "brachte": 3499,
    "spar@@": 3500,
    "Adolf": 3501,
    "Radi@@": 3502,
    "upp@@": 3503,
    "gemeinschaft": 3504,
    "lang@@": 3505,
    "Hof": 3506,
    "iere": 3507,
    "“@@": 3508,
    "Rennen": 3509,
    "gefunden": 3510,
    "poln@@": 3511,
    "Pau@@": 3512,
    "enstein": 3513,
    "besitzt": 3514,
    "Privat@@": 3515,
    "ris": 3516,
    "Mol@@": 3517,
    "reihe": 3518,
    "une": 3519,
    "Ihr": 3520,
    "Spiegel": 3521,
    "85@@": 3522,
    "Brandenburg": 3523,
    "Hochschule": 3524,
    "alität": 3525,
    "tiger": 3526,
    "Gö@@": 3527,
    "tum": 3528,
    "zy@@": 3529,
    "kul@@": 3530,
    "agen": 3531,
    "Beiträge": 3532,
    "einzige": 3533,
    "weist": 3534,
    "fran@@": 3535,
    "viel": 3536,
    "druck": 3537,
    "Schwei@@": 3538,
    "istische": 3539,
    "Wes@@": 3540,
    "Vie@@": 3541,
    "Gattung": 3542,
    "Sprach@@": 3543,
    "Ich": 3544,
    "mittel": 3545,
    "Str@@": 3546,
    "ziehen": 3547,
    "etz": 3548,
    "damaligen": 3549,
    "Google": 3550,
    "Person@@": 3551,
    "yn": 3552,
    "Daniel": 3553,
    "erungs@@": 3554,
    "such@@": 3555,
    "denkmäler": 3556,
    "verwaltung": 3557,
    "minist@@": 3558,
    "verzeichnis": 3559,
    "ide@@": 3560,
    "ves": 3561,
    "diger": 3562,
    "schied": 3563,
    "nis@@": 3564,
    "Münster": 3565,
    "ral@@": 3566,
    "Mainz": 3567,
    "reis@@": 3568,
    "osen": 3569,
    "Frank@@": 3570,
    "uß@@": 3571,
    "eute": 3572,
    "Zeich@@": 3573,
    "Zahl": 3574,
    "film@@": 3575,
    "Alle": 3576,
    "stellten": 3577,
    "leiter": 3578,
    "atz": 3579,
    "Coun@@": 3580,
    "länd@@": 3581,
    "peri@@": 3582,
    "km²": 3583,
    "Mac@@": 3584,
    "Wi@@": 3585,
    "entlichen": 3586,
    "go@@": 3587,
    "leitung": 3588,
    "arr@@": 3589,
    "ey@@": 3590,
    "port@@": 3591,
    "Vorsitzender": 3592,
    "Gemein@@": 3593,
    "Stil": 3594,
    "rieb": 3595,
    "ziert": 3596,
    "bekann@@": 3597,
    "liter@@": 3598,
    "fort@@": 3599,
    "gewiesen": 3600,
    "Des@@": 3601,
    "läuf@@": 3602,
    "gem": 3603,
    "mitt@@": 3604,
    "wie@@": 3605,
    "Kir@@": 3606,
    "bisher": 3607,
    "riff": 3608,
    "Model@@": 3609,
    "abrufbar": 3610,
    "tlichen": 3611,
    "line": 3612,
    "publi@@": 3613,
    "Itali@@": 3614,
    "Schwe@@": 3615,
    "elekt@@": 3616,
    "Zent@@": 3617,
    "1904": 3618,
    "Det@@": 3619,
    "stoff@@": 3620,
    "ani": 3621,
    "1906": 3622,
    "Jun@@": 3623,
    "Text": 3624,
    "Spr@@": 3625,
    "1903": 3626,
    "bildung": 3627,
    "Vil@@": 3628,
    "Miss@@": 3629,
    "76@@": 3630,
    "Jan": 3631,
    "anlage": 3632,
    "amer@@": 3633,
    "Biographie": 3634,
    "wechsel@@": 3635,
    "1909": 3636,
    "sident": 3637,
    "Mich@@": 3638,
    "Eisenbahn@@": 3639,
    "vo@@": 3640,
    "ita": 3641,
    "Zwei": 3642,
    "Kais@@": 3643,
    "ht@@": 3644,
    "kenn@@": 3645,
    "auss@@": 3646,
    "Stadtteil": 3647,
    "Kop@@": 3648,
    "Stad@@": 3649,
    "Kant@@": 3650,
    "öffentlichen": 3651,
    "1917": 3652,
    "ungss@@": 3653,
    "Ergebnisse": 3654,
    "Böh@@": 3655,
    "beträgt": 3656,
    "Elekt@@": 3657,
    "Moder@@": 3658,
    "sive": 3659,
    "Hauptartikel": 3660,
    "Tit@@": 3661,
    "ling@@": 3662,
    "ari": 3663,
    "Ehe": 3664,
    "Brit@@": 3665,
    "Daten": 3666,
    "stamm@@": 3667,
    "Club": 3668,
    "Sym@@": 3669,
    "zuletzt": 3670,
    "steller": 3671,
    "Mehr@@": 3672,
    "Auss@@": 3673,
    "â@@": 3674,
    "Fernseh@@": 3675,
    "ond@@": 3676,
    "erseits": 3677,
    "fiel": 3678,
    "dium": 3679,
    "nam@@": 3680,
    "Politik": 3681,
    "kämpf@@": 3682,
    "Instru@@": 3683,
    "Dro@@": 3684,
    "türk@@": 3685,
    "anten": 3686,
    "ō": 3687,
    "Rü@@": 3688,
    "Gesetz@@": 3689,
    "Runde": 3690,
    "Wehr@@": 3691,
    "Jazz": 3692,
    "mp@@": 3693,
    "bilden": 3694,
    "wan@@": 3695,
    "riert": 3696,
    "Chor@@": 3697,
    "emann": 3698,
    "zent@@": 3699,
    "klein@@": 3700,
    "400": 3701,
    "runde": 3702,
    "späteren": 3703,
    "sk": 3704,
    "Mem@@": 3705,
    "Dat@@": 3706,
    ".),": 3707,
    "Kamer@@": 3708,
    "Schmidt": 3709,
    "stag": 3710,
    "anderer": 3711,
    "hor@@": 3712,
    "Mass@@": 3713,
    "Tar@@": 3714,
    "ank": 3715,
    "College": 3716,
    "hl": 3717,
    "Regel": 3718,
    "»": 3719,
    "Kategorie": 3720,
    "Stell@@": 3721,
    "sprach@@": 3722,
    "Eh@@": 3723,
    "ship": 3724,
    "bra@@": 3725,
    "yst@@": 3726,
    "ahnen": 3727,
    "russisch": 3728,
    "brei@@": 3729,
    "rieben": 3730,
    "Jahres@@": 3731,
    "umm@@": 3732,
    "Bun@@": 3733,
    "ju@@": 3734,
    "ower": 3735,
    "Juli@@": 3736,
    "Regional@@": 3737,
    "Pun@@": 3738,
    "Erst": 3739,
    "Sor@@": 3740,
    "gert": 3741,
    "lief@@": 3742,
    "ite": 3743,
    "Zuge": 3744,
    "Prot@@": 3745,
    "techn@@": 3746,
    "School": 3747,
    "östlich": 3748,
    "ala": 3749,
    "ume": 3750,
    "ehemaliger": 3751,
    "ren": 3752,
    "Strei@@": 3753,
    "uel": 3754,
    "setzt": 3755,
    "verbunden": 3756,
    "stimm@@": 3757,
    "Sied@@": 3758,
    "Fläche": 3759,
    "Liebe": 3760,
    "Uhr": 3761,
    "onn@@": 3762,
    "wel@@": 3763,
    "verwen@@": 3764,
    "Bezirk": 3765,
    "ō@@": 3766,
    "Abschnitt": 3767,
    "ersetzt": 3768,
    "richtung": 3769,
    "Pfalz": 3770,
    "dene": 3771,
    "Russland": 3772,
    "che@@": 3773,
    "ph": 3774,
    "Stan@@": 3775,
    "ř@@": 3776,
    "ISSN": 3777,
    "EU": 3778,
    "Royal": 3779,
    "öpf@@": 3780,
    "Freiburg": 3781,
    "ays": 3782,
    "jap@@": 3783,
    "Philipp": 3784,
    "Science": 3785,
    "Bri@@": 3786,
    "ish": 3787,
    "Rä@@": 3788,
    "roph@@": 3789,
    "System@@": 3790,
    "name": 3791,
    "Deutsch": 3792,
    "engl": 3793,
    "Ni@@": 3794,
    "hand@@": 3795,
    "ive": 3796,
    "aktiv": 3797,
    "priv@@": 3798,
    "Rund@@": 3799,
    "tern@@": 3800,
    "ex": 3801,
    "ding": 3802,
    "cial": 3803,
    "akt@@": 3804,
    "entschei@@": 3805,
    "Studien": 3806,
    "digen": 3807,
    "Heute": 3808,
    "Theat@@": 3809,
    "weiter@@": 3810,
    "tische": 3811,
    "Kil@@": 3812,
    "Dre@@": 3813,
    "Funktion": 3814,
    "historischen": 3815,
    "ath": 3816,
    "Doppel@@": 3817,
    "Musiker": 3818,
    "entfernt": 3819,
    "kap@@": 3820,
    "früher": 3821,
    "erfol@@": 3822,
    "bevor": 3823,
    "Sä@@": 3824,
    "eter": 3825,
    "Recht": 3826,
    "frei": 3827,
    "zip@@": 3828,
    "ua": 3829,
    "Angaben": 3830,
    "ausgezeichnet": 3831,
    "ando": 3832,
    "CDU": 3833,
    "cker@@": 3834,
    "westlich": 3835,
    "Statistik": 3836,
    "weiterhin": 3837,
    "Gustav": 3838,
    "ionen": 3839,
    "rück@@": 3840,
    "dienst@@": 3841,
    "mischen": 3842,
    "Bernhard": 3843,
    "osition": 3844,
    "onie": 3845,
    "Tru@@": 3846,
    "Marc@@": 3847,
    "Feh@@": 3848,
    "plat@@": 3849,
    "Marie": 3850,
    "reisen": 3851,
    "riff@@": 3852,
    "Krie@@": 3853,
    "westlichen": 3854,
    "österreichischen": 3855,
    "Ran@@": 3856,
    "Washington": 3857,
    "ision": 3858,
    "besten": 3859,
    "sign@@": 3860,
    "Aufgrund": 3861,
    "utt@@": 3862,
    "gesetz": 3863,
    "mus@@": 3864,
    "Fr@@": 3865,
    "FA": 3866,
    "Star@@": 3867,
    "Schiff": 3868,
    "setz@@": 3869,
    "Minist@@": 3870,
    "States": 3871,
    "nungen": 3872,
    "spä@@": 3873,
    "tran@@": 3874,
    "kol@@": 3875,
    "mus": 3876,
    "eröffnet": 3877,
    "Fürst@@": 3878,
    "aup@@": 3879,
    "Meisterschaft": 3880,
    "Bevölkerungs@@": 3881,
    "Rheinland": 3882,
    "Rie@@": 3883,
    "een": 3884,
    "frü@@": 3885,
    "poli@@": 3886,
    "ac": 3887,
    "hohe": 3888,
    "ée": 3889,
    "markt": 3890,
    "lediglich": 3891,
    "Krit@@": 3892,
    "Kapelle": 3893,
    "Vers@@": 3894,
    "kom@@": 3895,
    "Kurt": 3896,
    "tu@@": 3897,
    "omi@@": 3898,
    "35@@": 3899,
    "Air@@": 3900,
    "Vertei@@": 3901,
    "weis@@": 3902,
    "eil@@": 3903,
    "enheit": 3904,
    "nit@@": 3905,
    "SS": 3906,
    "oni@@": 3907,
    "erhöh@@": 3908,
    "Den@@": 3909,
    "geschrieben": 3910,
    "Statist@@": 3911,
    "Tau@@": 3912,
    "Anschließend": 3913,
    "Sing@@": 3914,
    "Gla@@": 3915,
    "hy@@": 3916,
    "Nav@@": 3917,
    "Später": 3918,
    "sollen": 3919,
    "Dist@@": 3920,
    "öff@@": 3921,
    "Hau@@": 3922,
    "wahr@@": 3923,
    "Fron@@": 3924,
    "Milli@@": 3925,
    "hervor@@": 3926,
    "sz@@": 3927,
    "Cur@@": 3928,
    "stuf@@": 3929,
    "reibung": 3930,
    "keits@@": 3931,
    "Henry": 3932,
    "í": 3933,
    "wuchs": 3934,
    "ssen@@": 3935,
    "Mot@@": 3936,
    "europäischen": 3937,
    "Spanien": 3938,
    "Körper@@": 3939,
    "My@@": 3940,
    "zählt": 3941,
    "linge": 3942,
    "Step@@": 3943,
    "Grenz@@": 3944,
    "wand": 3945,
    "Cre@@": 3946,
    "1915": 3947,
    "Herzog@@": 3948,
    "ran": 3949,
    "Archiv": 3950,
    "brau@@": 3951,
    "Mein@@": 3952,
    "State": 3953,
    "ner@@": 3954,
    "leitete": 3955,
    "aktion": 3956,
    "dän@@": 3957,
    "serv@@": 3958,
    "gar": 3959,
    "Pi@@": 3960,
    "ón": 3961,
    "wehr@@": 3962,
    "Bundesrepublik": 3963,
    "band": 3964,
    "pers@@": 3965,
    "Pin@@": 3966,
    "wollte": 3967,
    "fluss@@": 3968,
    "nitz": 3969,
    "etzen": 3970,
    "leich@@": 3971,
    "Test@@": 3972,
    "SC": 3973,
    "Rec@@": 3974,
    "Tu@@": 3975,
    "Bul@@": 3976,
    "off": 3977,
    "net@@": 3978,
    "Clau@@": 3979,
    "Musi@@": 3980,
    "ü": 3981,
    "geln": 3982,
    "ktion@@": 3983,
    "entum": 3984,
    "stätte": 3985,
    "Mitarbeiter": 3986,
    "Schüler": 3987,
    "Seg@@": 3988,
    "uten": 3989,
    "entsp@@": 3990,
    "Dieter": 3991,
    "ränk@@": 3992,
    "150": 3993,
    "DB": 3994,
    "markiert": 3995,
    "Darstellung": 3996,
    "Bilder": 3997,
    "pen@@": 3998,
    "Ehren@@": 3999,
    "ser@@": 4000,
    "Heim@@": 4001,
    "latt": 4002,
    "Département": 4003,
    "Grä@@": 4004,
    "1902": 4005,
    "Abteilung": 4006,
    "konstru@@": 4007,
    "Wall@@": 4008,
    "Arm@@": 4009,
    "etzung": 4010,
    "mie@@": 4011,
    "aut": 4012,
    "vertei@@": 4013,
    "Beschreibung": 4014,
    "ois": 4015,
    "Vert@@": 4016,
    "orie": 4017,
    "Salz@@": 4018,
    "Gymnasium": 4019,
    "sollten": 4020,
    "Soldaten": 4021,
    "#": 4022,
    "Meister@@": 4023,
    "Schutz@@": 4024,
    "ique": 4025,
    "Ess@@": 4026,
    "erreichen": 4027,
    "Island": 4028,
    "sh": 4029,
    "entwick@@": 4030,
    "ace": 4031,
    "hr": 4032,
    "Ferdinand": 4033,
    "Hü@@": 4034,
    "bald": 4035,
    "ministerium": 4036,
    "lass@@": 4037,
    "assen": 4038,
    "dur@@": 4039,
    "leit@@": 4040,
    "zz@@": 4041,
    "erbaut": 4042,
    "Toter": 4043,
    "Oxford": 4044,
    "Rel@@": 4045,
    "Neb@@": 4046,
    "Gruppen": 4047,
    "geschütz@@": 4048,
    "qualifiz@@": 4049,
    "Basis": 4050,
    "sub@@": 4051,
    "Wh@@": 4052,
    "links": 4053,
    "steh@@": 4054,
    "Johann@@": 4055,
    "trägt": 4056,
    "Films": 4057,
    "zahlreichen": 4058,
    "Bes@@": 4059,
    "einzelnen": 4060,
    "Haup@@": 4061,
    "militär@@": 4062,
    "att@@": 4063,
    "ungst@@": 4064,
    "Punkte": 4065,
    "var@@": 4066,
    "fig@@": 4067,
    "wertung": 4068,
    "ellen@@": 4069,
    "Verkehrs@@": 4070,
    "Fußball": 4071,
    "region@@": 4072,
    "keinen": 4073,
    "а": 4074,
    "~": 4075,
    "liegenden": 4076,
    "lau": 4077,
    "alisi@@": 4078,
    "ition": 4079,
    "eil": 4080,
    "got@@": 4081,
    "aux": 4082,
    "34@@": 4083,
    "ator@@": 4084,
    "Ins@@": 4085,
    "strei@@": 4086,
    "Fahrzeu@@": 4087,
    "Personendatensatz": 4088,
    "beteiligt": 4089,
    "Ram@@": 4090,
    "Fluss": 4091,
    "bauten": 4092,
    "umb@@": 4093,
    "Ass@@": 4094,
    "1916": 4095,
    "Minuten": 4096,
    "Einführung": 4097,
    "aktu@@": 4098,
    "eien": 4099,
    "bung": 4100,
    "Lied": 4101,
    "Zentral@@": 4102,
    "oper@@": 4103,
    "erheb@@": 4104,
    "wirtschaft": 4105,
    "Bundesliga": 4106,
    "schütz@@": 4107,
    "kün@@": 4108,
    "bess@@": 4109,
    "Boden@@": 4110,
    "brü@@": 4111,
    "produ@@": 4112,
    "1901": 4113,
    "Dienst": 4114,
    "bringen": 4115,
    "Thema": 4116,
    "Friedhof": 4117,
    "alisten": 4118,
    "Mär@@": 4119,
    "Flu@@": 4120,
    "ahr": 4121,
    "ungar@@": 4122,
    "heraus": 4123,
    "North": 4124,
    "Oper@@": 4125,
    "Bach@@": 4126,
    "darf": 4127,
    "zeuge": 4128,
    "ografie": 4129,
    "Auftrag": 4130,
    "Königreich": 4131,
    "reib@@": 4132,
    "Nummer": 4133,
    "let": 4134,
    "amm": 4135,
    "Tier@@": 4136,
    "tor@@": 4137,
    "ischem": 4138,
    "Gegensatz": 4139,
    "Zo@@": 4140,
    "Bö@@": 4141,
    "ais": 4142,
    "ät": 4143,
    "denn": 4144,
    "verz@@": 4145,
    "rechte": 4146,
    "Anf@@": 4147,
    "Zeitpunkt": 4148,
    "Brig@@": 4149,
    "dner": 4150,
    "Herren": 4151,
    "Vertreter": 4152,
    "kg": 4153,
    "Sto@@": 4154,
    "tur@@": 4155,
    "Leh@@": 4156,
    "fal@@": 4157,
    "int@@": 4158,
    "78@@": 4159,
    "gau": 4160,
    "ole": 4161,
    "sprä@@": 4162,
    "schle@@": 4163,
    "zeichnungen": 4164,
    "Vis@@": 4165,
    "Jugend": 4166,
    "folgten": 4167,
    "gh@@": 4168,
    "ov": 4169,
    "wahlen": 4170,
    "Organisation": 4171,
    "Hö@@": 4172,
    "Himm@@": 4173,
    "pass@@": 4174,
    "Rock": 4175,
    "Dun@@": 4176,
    "GB": 4177,
    "prin@@": 4178,
    "11@@": 4179,
    "lten": 4180,
    "pri@@": 4181,
    "gesehen": 4182,
    "FI@@": 4183,
    "mannschaft": 4184,
    "Spitz@@": 4185,
    "formation": 4186,
    "gliedert": 4187,
    "Webarchiven": 4188,
    "Sab@@": 4189,
    "alismus": 4190,
    "etten": 4191,
    "neun": 4192,
    "Verfügung": 4193,
    "scht": 4194,
    "ight": 4195,
    "Trau@@": 4196,
    "schnitt": 4197,
    "euer": 4198,
    "zeigen": 4199,
    "bietet": 4200,
    "gesamte": 4201,
    "Stru@@": 4202,
    "laut": 4203,
    "setzen": 4204,
    "Helmut": 4205,
    "schaf@@": 4206,
    "Top@@": 4207,
    "erfolg@@": 4208,
    "gemacht": 4209,
    "tau@@": 4210,
    "wood": 4211,
    "vollständig": 4212,
    "ition@@": 4213,
    "endes": 4214,
    "wirk@@": 4215,
    "Regisseur": 4216,
    "Denkmal@@": 4217,
    "Ker@@": 4218,
    "Pierre": 4219,
    "Vorlage": 4220,
    "ringen": 4221,
    "italienischer": 4222,
    "Trainer": 4223,
    "Umgebung": 4224,
    "formen": 4225,
    "Metern": 4226,
    "Wen@@": 4227,
    "House": 4228,
    "Av@@": 4229,
    "Ven@@": 4230,
    "hard": 4231,
    "Markt": 4232,
    "orn": 4233,
    "dun@@": 4234,
    "auff@@": 4235,
    "Brun@@": 4236,
    "\",": 4237,
    "katholischen": 4238,
    "agt": 4239,
    "hauptsächlich": 4240,
    "Allgemeine": 4241,
    "fiz@@": 4242,
    "Eb@@": 4243,
    "ild": 4244,
    "Namens@@": 4245,
    "verlor": 4246,
    "Wissenschaften": 4247,
    "1898": 4248,
    "Philosophie": 4249,
    "в@@": 4250,
    "Unterstützung": 4251,
    "atik": 4252,
    "Klin@@": 4253,
    "Elisabeth": 4254,
    "nächsten": 4255,
    "ration": 4256,
    "Rhein": 4257,
    "Bayerischen": 4258,
    "ix": 4259,
    "Ausstellung": 4260,
    "moder@@": 4261,
    "wenige": 4262,
    "Tä@@": 4263,
    "erungen": 4264,
    "stie@@": 4265,
    "South": 4266,
    "besie@@": 4267,
    "heißt": 4268,
    "ew@@": 4269,
    "ierungen": 4270,
    "druck@@": 4271,
    "Bü@@": 4272,
    "Herbert": 4273,
    "eins": 4274,
    "Festival": 4275,
    "Internet@@": 4276,
    "höh@@": 4277,
    "dia": 4278,
    "Juden": 4279,
    "ack": 4280,
    "bu@@": 4281,
    "essi@@": 4282,
    "Anlage": 4283,
    "arbeitung": 4284,
    "fern@@": 4285,
    "tradition@@": 4286,
    "Kern@@": 4287,
    "Papst": 4288,
    "ollen": 4289,
    "vermutlich": 4290,
    "regierung": 4291,
    "lub": 4292,
    "essen": 4293,
    "sig@@": 4294,
    "akt": 4295,
    "Kommun@@": 4296,
    "mund": 4297,
    "hält": 4298,
    "ws": 4299,
    "gewicht": 4300,
    "Position": 4301,
    "wissenschaftler": 4302,
    "isiert": 4303,
    "Edition": 4304,
    "omat@@": 4305,
    "Abschluss": 4306,
    "1899": 4307,
    "einfach@@": 4308,
    "Uni@@": 4309,
    "dadurch": 4310,
    "ela": 4311,
    "Dollar": 4312,
    "Wissenschaft@@": 4313,
    "keiten": 4314,
    "ohn": 4315,
    "ES@@": 4316,
    "Ziel@@": 4317,
    "arbei@@": 4318,
    "Bildung": 4319,
    "burg@@": 4320,
    "beein@@": 4321,
    "mo": 4322,
    "zäh@@": 4323,
    "schiff": 4324,
    "out": 4325,
    "Lehrer": 4326,
    "erfolgreich": 4327,
    "Stefan": 4328,
    "wort": 4329,
    "Neben@@": 4330,
    "reiben": 4331,
    "iff@@": 4332,
    "ura": 4333,
    "Beh@@": 4334,
    "omen": 4335,
    "Chr@@": 4336,
    "Nürnberg": 4337,
    "Pen@@": 4338,
    "wirkte": 4339,
    "iesen": 4340,
    "mindestens": 4341,
    "leicht": 4342,
    "inten@@": 4343,
    "jeder": 4344,
    "1890": 4345,
    "haltung": 4346,
    "ards": 4347,
    "Samm@@": 4348,
    "Alp@@": 4349,
    "liefert": 4350,
    "ska": 4351,
    "Städte": 4352,
    "kin@@": 4353,
    "jährlich": 4354,
    "Dreh@@": 4355,
    "Stück": 4356,
    "yth@@": 4357,
    "riebe": 4358,
    "Direktor": 4359,
    "ñ@@": 4360,
    "ological": 4361,
    "Eltern": 4362,
    "sur": 4363,
    "Schutz": 4364,
    "grei@@": 4365,
    "zahl@@": 4366,
    "int": 4367,
    "darüber": 4368,
    "stet": 4369,
    "lehr@@": 4370,
    "Verwendung": 4371,
    "geschicht@@": 4372,
    "Tsch@@": 4373,
    "masch@@": 4374,
    "gehörten": 4375,
    "Straß@@": 4376,
    "Brücke": 4377,
    "ausgabe": 4378,
    "Zug@@": 4379,
    "Cla@@": 4380,
    "Ten@@": 4381,
    "sicht@@": 4382,
    "OR@@": 4383,
    "haupt@@": 4384,
    "lern": 4385,
    "ika": 4386,
    "ott": 4387,
    "stru@@": 4388,
    "ück": 4389,
    "Zusammenarbeit": 4390,
    "Kampf": 4391,
    "kommun@@": 4392,
    "Stock@@": 4393,
    "fort": 4394,
    "exu@@": 4395,
    "rieb@@": 4396,
    "zerstört": 4397,
    "eck": 4398,
    "owski": 4399,
    "Gerichts@@": 4400,
    "richt": 4401,
    "Raum@@": 4402,
    "ständigen": 4403,
    "As@@": 4404,
    "Mul@@": 4405,
    "heits@@": 4406,
    "beck": 4407,
    "Ali@@": 4408,
    "ämpf@@": 4409,
    "elles": 4410,
    "kirchen": 4411,
    "sson": 4412,
    "ct": 4413,
    "ister": 4414,
    "endete": 4415,
    "All": 4416,
    "Weiß@@": 4417,
    "iegel": 4418,
    "exp@@": 4419,
    "ont": 4420,
    "ution": 4421,
    "Pass@@": 4422,
    "studi@@": 4423,
    "ativ": 4424,
    "gleichzeitig": 4425,
    "dam@@": 4426,
    "Interview": 4427,
    "Charl@@": 4428,
    "Springer": 4429,
    "Fu@@": 4430,
    "ken@@": 4431,
    "ritten": 4432,
    "gerung": 4433,
    "enhaus": 4434,
    "Lad@@": 4435,
    "Song": 4436,
    "nern": 4437,
    "fla@@": 4438,
    "betrug": 4439,
    "östlichen": 4440,
    "д@@": 4441,
    "lebten": 4442,
    "ão": 4443,
    "PS": 4444,
    "Lib@@": 4445,
    "Schä@@": 4446,
    "alist@@": 4447,
    "sätze": 4448,
    "its": 4449,
    "berech@@": 4450,
    "igt": 4451,
    "Rat@@": 4452,
    "Hauptstadt": 4453,
    "Völ@@": 4454,
    "Lü@@": 4455,
    "Vorgän@@": 4456,
    "dex": 4457,
    "Los": 4458,
    "VI": 4459,
    "sta": 4460,
    "Grand": 4461,
    "Ländern": 4462,
    "Theodor": 4463,
    "belegte": 4464,
    "sam": 4465,
    "persön@@": 4466,
    "länger@@": 4467,
    "terin": 4468,
    "Wach@@": 4469,
    "statist@@": 4470,
    "1871": 4471,
    "heraus@@": 4472,
    "radi@@": 4473,
    "Herz@@": 4474,
    "Besch@@": 4475,
    "ös@@": 4476,
    "zieht": 4477,
    "zeugen": 4478,
    "zeiten": 4479,
    "Heimat": 4480,
    "koh@@": 4481,
    "Hamburger": 4482,
    "Cast@@": 4483,
    "Single": 4484,
    "Wappen": 4485,
    "IN@@": 4486,
    "Log@@": 4487,
    "gend": 4488,
    "Bom@@": 4489,
    "Fi@@": 4490,
    "tnisse": 4491,
    "Verfahren": 4492,
    "Gesetz": 4493,
    "Pfer@@": 4494,
    "erschienen": 4495,
    "Nie@@": 4496,
    "tnis": 4497,
    "Silber@@": 4498,
    "Schloss@@": 4499,
    "Geg@@": 4500,
    "erfolgt": 4501,
    "Netz@@": 4502,
    "uk": 4503,
    "Erich": 4504,
    "New@@": 4505,
    "1895": 4506,
    "Radio": 4507,
    "frac": 4508,
    "musik": 4509,
    "dru@@": 4510,
    "formi@@": 4511,
    "Super@@": 4512,
    "Vic@@": 4513,
    "bezir@@": 4514,
    "Großen": 4515,
    "änden": 4516,
    "Orte": 4517,
    "ruf": 4518,
    "Sänger": 4519,
    "ú@@": 4520,
    "trag": 4521,
    "ker@@": 4522,
    "Viel@@": 4523,
    "Fisch@@": 4524,
    "unterstütz@@": 4525,
    "rechts@@": 4526,
    "Che@@": 4527,
    "hi": 4528,
    "tor": 4529,
    "glie@@": 4530,
    "gangen": 4531,
    "lis": 4532,
    "tenberg": 4533,
    "Stern@@": 4534,
    "pun@@": 4535,
    "1896": 4536,
    "nisse": 4537,
    "Einfluss": 4538,
    "Basel": 4539,
    "Staat": 4540,
    "wir": 4541,
    "rechen": 4542,
    "Stunden": 4543,
    "öß@@": 4544,
    "knapp": 4545,
    "uns": 4546,
    "zel@@": 4547,
    "Wur@@": 4548,
    "gens": 4549,
    "Information": 4550,
    "stens": 4551,
    "Landesamt": 4552,
    "over": 4553,
    "gerich@@": 4554,
    "Pfarr@@": 4555,
    "3D": 4556,
    "ennen": 4557,
    "ennt": 4558,
    "ets": 4559,
    "Für@@": 4560,
    "schwed@@": 4561,
    "Leon@@": 4562,
    "Eg@@": 4563,
    "Sz@@": 4564,
    "Times": 4565,
    "denden": 4566,
    "Fried@@": 4567,
    "html": 4568,
    "weg@@": 4569,
    "Zie@@": 4570,
    "Bis@@": 4571,
    "Zuf@@": 4572,
    "Alter@@": 4573,
    "fu@@": 4574,
    "Biograph@@": 4575,
    "großer": 4576,
    "Cra@@": 4577,
    "wehr": 4578,
    "mussten": 4579,
    "Zusammenhang": 4580,
    "sogenannten": 4581,
    "Gebäu@@": 4582,
    "namen": 4583,
    "fir@@": 4584,
    "verkauft": 4585,
    "ystem@@": 4586,
    "Winter": 4587,
    "Miner@@": 4588,
    "male": 4589,
    "indem": 4590,
    "etzt": 4591,
    "tag@@": 4592,
    "Dach@@": 4593,
    "lieg@@": 4594,
    "urg@@": 4595,
    "freien": 4596,
    "zeug@@": 4597,
    "klasse": 4598,
    "gent": 4599,
    "trag@@": 4600,
    "Turm": 4601,
    "alo@@": 4602,
    "verläuft": 4603,
    "omp@@": 4604,
    "Richter": 4605,
    "Der@@": 4606,
    "Bibliothek": 4607,
    "Arch@@": 4608,
    "Gie@@": 4609,
    "platz@@": 4610,
    "Ori@@": 4611,
    "Star": 4612,
    "äss@@": 4613,
    "verfahren": 4614,
    "Hand": 4615,
    "kaum": 4616,
    "grenzt": 4617,
    "Urs@@": 4618,
    "legung": 4619,
    "ο@@": 4620,
    "schl@@": 4621,
    "bay@@": 4622,
    "Bud@@": 4623,
    "itte": 4624,
    "eur": 4625,
    "Australi@@": 4626,
    "Ost": 4627,
    "Wenn": 4628,
    "1897": 4629,
    "Sw@@": 4630,
    "Oh@@": 4631,
    "wid@@": 4632,
    "Quali@@": 4633,
    "wander@@": 4634,
    "enne": 4635,
    "lass": 4636,
    "Open": 4637,
    "gesamten": 4638,
    "Rin@@": 4639,
    "bin": 4640,
    "ssel": 4641,
    "zeitung": 4642,
    "besondere": 4643,
    "Wat@@": 4644,
    "hil@@": 4645,
    "olo@@": 4646,
    "sech@@": 4647,
    "Provin@@": 4648,
    "Dire@@": 4649,
    "Spielzeit": 4650,
    "lager": 4651,
    "utnant": 4652,
    "Flor@@": 4653,
    "testen": 4654,
    "Merk@@": 4655,
    "Wider@@": 4656,
    "übernommen": 4657,
    "Schweden": 4658,
    "Demokrat@@": 4659,
    "fern": 4660,
    "Dorf@@": 4661,
    "anstalt": 4662,
    "igung": 4663,
    "Lar@@": 4664,
    "up": 4665,
    "groß@@": 4666,
    "russischen": 4667,
    "Port@@": 4668,
    "Forschung": 4669,
    "les@@": 4670,
    "bekannten": 4671,
    "Fluss@@": 4672,
    "tschech@@": 4673,
    "No": 4674,
    "Pie@@": 4675,
    "schnit@@": 4676,
    "Quelle": 4677,
    "Französ@@": 4678,
    "ER@@": 4679,
    "männ@@": 4680,
    "sky": 4681,
    "Autob@@": 4682,
    "unternehmen": 4683,
    "Deb@@": 4684,
    "wiederum": 4685,
    "Herbst": 4686,
    "Eck@@": 4687,
    "Vgl": 4688,
    "cor@@": 4689,
    "gener@@": 4690,
    "Gat@@": 4691,
    "tha": 4692,
    "anlagen": 4693,
    "ief@@": 4694,
    "emb@@": 4695,
    "agn@@": 4696,
    "regelmäßig": 4697,
    "cia": 4698,
    "reis": 4699,
    "mb@@": 4700,
    "eiten": 4701,
    "Ja@@": 4702,
    "Zwisch@@": 4703,
    "daraufhin": 4704,
    "bestehen": 4705,
    "Organis@@": 4706,
    "träge": 4707,
    ",@@": 4708,
    "Wald": 4709,
    "Früh@@": 4710,
    "fs": 4711,
    "elten": 4712,
    "Cam@@": 4713,
    "Dissertation": 4714,
    "sprochen": 4715,
    "Stei@@": 4716,
    "alog@@": 4717,
    "ý": 4718,
    "eus": 4719,
    "othe@@": 4720,
    "1848": 4721,
    "tex@@": 4722,
    "Nordrhein": 4723,
    "kir@@": 4724,
    "zte": 4725,
    "ota": 4726,
    "Hall@@": 4727,
    "Air": 4728,
    "iv": 4729,
    "defekt": 4730,
    "Jung@@": 4731,
    "uns@@": 4732,
    "AN@@": 4733,
    "Dazu": 4734,
    "Ungarn": 4735,
    "dig": 4736,
    "fall@@": 4737,
    "emat@@": 4738,
    "Leu@@": 4739,
    "Tan@@": 4740,
    "Prü@@": 4741,
    "trainer": 4742,
    "enzen": 4743,
    "}\\": 4744,
    "überwiegend": 4745,
    "Gir@@": 4746,
    "ausschließlich": 4747,
    "anda": 4748,
    "Sitz@@": 4749,
    "Preußen": 4750,
    "ress": 4751,
    "Anschluss": 4752,
    "zin@@": 4753,
    "kan": 4754,
    "Wolf@@": 4755,
    "Kaiser@@": 4756,
    "Verwaltung": 4757,
    "tal": 4758,
    "psych@@": 4759,
    "Bank": 4760,
    "Frankfurter": 4761,
    "Bab@@": 4762,
    "ows": 4763,
    "Ern@@": 4764,
    "Mann@@": 4765,
    "ous": 4766,
    "tie@@": 4767,
    "Kos@@": 4768,
    "bus": 4769,
    "Tätigkeit": 4770,
    "heutige": 4771,
    "Kro@@": 4772,
    "sters": 4773,
    "Einige": 4774,
    "indi@@": 4775,
    "Titel@@": 4776,
    "ni@@": 4777,
    "thei@@": 4778,
    "Tore": 4779,
    "leitet": 4780,
    "Braunschweig": 4781,
    "verloren": 4782,
    "aly@@": 4783,
    "zuge@@": 4784,
    "derungen": 4785,
    "rise": 4786,
    "eits": 4787,
    "Wie@@": 4788,
    "Archä@@": 4789,
    "ruppe": 4790,
    "Siedlung": 4791,
    "Train@@": 4792,
    "stimmung": 4793,
    "mö@@": 4794,
    "eichen": 4795,
    "zus@@": 4796,
    "illa": 4797,
    "verliehen": 4798,
    "Magn@@": 4799,
    "ı@@": 4800,
    "Bezirks@@": 4801,
    "Kind": 4802,
    "Schu@@": 4803,
    "=@@": 4804,
    "Ball@@": 4805,
    "buch@@": 4806,
    "iten": 4807,
    "Deutschlands": 4808,
    "kreuz": 4809,
    "neuer": 4810,
    "Österreich@@": 4811,
    "UN@@": 4812,
    "Bericht": 4813,
    "medaille": 4814,
    "Darmstadt": 4815,
    "ünst@@": 4816,
    "welcher": 4817,
    "1000": 4818,
    "Geor@@": 4819,
    "aner": 4820,
    "Proz@@": 4821,
    "Fir@@": 4822,
    "litz": 4823,
    "lech@@": 4824,
    "Gau@@": 4825,
    "heimer": 4826,
    "nes": 4827,
    "Fund@@": 4828,
    "Ergebnis": 4829,
    "system@@": 4830,
    "haus@@": 4831,
    "gerin": 4832,
    "1885": 4833,
    "Peters@@": 4834,
    "Nutz@@": 4835,
    "omie": 4836,
    "WM": 4837,
    "Wort": 4838,
    "errich@@": 4839,
    "natür@@": 4840,
    "El": 4841,
    "Just@@": 4842,
    "ept@@": 4843,
    "ahl@@": 4844,
    "wissenschaft@@": 4845,
    "Hall": 4846,
    "Ide@@": 4847,
    "südlichen": 4848,
    "vin@@": 4849,
    "Schlag@@": 4850,
    "gebie@@": 4851,
    "Lou@@": 4852,
    "ossi@@": 4853,
    "teils": 4854,
    "klassi@@": 4855,
    "gebiete": 4856,
    "Süd": 4857,
    "gangs@@": 4858,
    "Sm@@": 4859,
    "1893": 4860,
    "dens@@": 4861,
    "Kraft@@": 4862,
    "schen@@": 4863,
    "row": 4864,
    "defin@@": 4865,
    "Opfer": 4866,
    "Kritik": 4867,
    "divers@@": 4868,
    "änd@@": 4869,
    "Schleswig": 4870,
    "Station": 4871,
    "beginnt": 4872,
    "ti": 4873,
    "Bern": 4874,
    "dell": 4875,
    "dür@@": 4876,
    "Heiligen": 4877,
    "trug": 4878,
    "Handels@@": 4879,
    "bibliothek": 4880,
    "ron": 4881,
    "sprung": 4882,
    "ros": 4883,
    "ions": 4884,
    "Nacht": 4885,
    "Kas@@": 4886,
    "Straßen@@": 4887,
    "rolle": 4888,
    "historische": 4889,
    "Ortschaft": 4890,
    "una": 4891,
    "Vergleich": 4892,
    "Wander@@": 4893,
    "Erzbischof": 4894,
    "Wör@@": 4895,
    "Stu@@": 4896,
    "Wiesbaden": 4897,
    "weite": 4898,
    "Historiker": 4899,
    "ammlung": 4900,
    "Red@@": 4901,
    "kali@@": 4902,
    "Galerie": 4903,
    "gingen": 4904,
    "bewegung": 4905,
    "Fil@@": 4906,
    "licht": 4907,
    "Ret@@": 4908,
    "Cas@@": 4909,
    "Les": 4910,
    "Aktiv@@": 4911,
    "Sp": 4912,
    "har@@": 4913,
    "kal@@": 4914,
    "olle": 4915,
    "Kommission": 4916,
    "delt": 4917,
    "mühle": 4918,
    "lossen": 4919,
    "Git@@": 4920,
    "stung": 4921,
    "car@@": 4922,
    "gemeinden": 4923,
    "entwicklung": 4924,
    "aussch@@": 4925,
    "verän@@": 4926,
    "Sum@@": 4927,
    "Organ@@": 4928,
    "stanz": 4929,
    "Sur@@": 4930,
    "Objekte": 4931,
    "ania": 4932,
    "utz": 4933,
    "Monate": 4934,
    "Cambridge": 4935,
    "zung": 4936,
    "Association": 4937,
    "Kompon@@": 4938,
    "rad@@": 4939,
    "Programm@@": 4940,
    "farb@@": 4941,
    "Hein@@": 4942,
    "Führ@@": 4943,
    "sitz@@": 4944,
    "port": 4945,
    "ye": 4946,
    "Eff@@": 4947,
    "omet@@": 4948,
    "entlang": 4949,
    "Kno@@": 4950,
    "able": 4951,
    "Programm": 4952,
    "stück": 4953,
    "bericht": 4954,
    "ange": 4955,
    "Chemi@@": 4956,
    "klär@@": 4957,
    "aub@@": 4958,
    "Simon": 4959,
    "Gil@@": 4960,
    "Internationalen": 4961,
    "beendete": 4962,
    "Ü@@": 4963,
    "Architekt": 4964,
    "alog": 4965,
    "indungen": 4966,
    "Panz@@": 4967,
    "Kirchen": 4968,
    "1888": 4969,
    "stal@@": 4970,
    "DN@@": 4971,
    "1894": 4972,
    "Pfarrkirche": 4973,
    "1892": 4974,
    "dungs@@": 4975,
    "dit@@": 4976,
    "British": 4977,
    "Sport": 4978,
    "Druck@@": 4979,
    "Leit@@": 4980,
    "Jurist": 4981,
    "Vereins": 4982,
    "Europäischen": 4983,
    "22@@": 4984,
    "eis@@": 4985,
    "Bewegung": 4986,
    "Großbritannien": 4987,
    "verließ": 4988,
    "entdeckt": 4989,
    "Obje@@": 4990,
    "Chicago": 4991,
    "irche": 4992,
    "Bol@@": 4993,
    "Ke@@": 4994,
    "uche": 4995,
    "1870": 4996,
    "besteh@@": 4997,
    "Tor": 4998,
    "lei": 4999,
    "eiche": 5000,
    "Schei@@": 5001,
    "Silber": 5002,
    "wahrscheinlich": 5003,
    "Manfred": 5004,
    "Modell": 5005,
    "Sommer@@": 5006,
    "Temp@@": 5007,
    "Bank@@": 5008,
    "Besatz@@": 5009,
    "Konfli@@": 5010,
    "aw@@": 5011,
    "Mannschaften": 5012,
    "Eur@@": 5013,
    "Rock@@": 5014,
    "welt": 5015,
    "zwölf": 5016,
    "Ritter@@": 5017,
    "deshalb": 5018,
    "britische": 5019,
    "stands@@": 5020,
    "Hess@@": 5021,
    "Fac@@": 5022,
    "jün@@": 5023,
    "Live": 5024,
    "Än@@": 5025,
    "sach@@": 5026,
    "schein@@": 5027,
    "annten": 5028,
    "angen@@": 5029,
    "Company": 5030,
    "ucht": 5031,
    "IA@@": 5032,
    "selten": 5033,
    "agement": 5034,
    "ungspro@@": 5035,
    "elte": 5036,
    "Vir@@": 5037,
    "Schriften": 5038,
    "galt": 5039,
    "fuhr": 5040,
    "comp@@": 5041,
    "barkeit": 5042,
    "pflan@@": 5043,
    "1970er": 5044,
    "ktions@@": 5045,
    "Domin@@": 5046,
    "Life": 5047,
    "ufen": 5048,
    "ère": 5049,
    "gestal@@": 5050,
    "Cu@@": 5051,
    "ô@@": 5052,
    "betrieben": 5053,
    "nichts": 5054,
    "stammen": 5055,
    "rang": 5056,
    "erwarb": 5057,
    "gewöhn@@": 5058,
    "natur@@": 5059,
    "vertre@@": 5060,
    "Wolf": 5061,
    "Weise": 5062,
    "indust@@": 5063,
    "Tim@@": 5064,
    "Ange@@": 5065,
    "Schau@@": 5066,
    "to@@": 5067,
    "Frage": 5068,
    "Dav@@": 5069,
    "ave": 5070,
    "handlungen": 5071,
    "Med@@": 5072,
    "rang@@": 5073,
    "Familien": 5074,
    "weltweit": 5075,
    "etter@@": 5076,
    "ong@@": 5077,
    "zusätzlich": 5078,
    "Dram@@": 5079,
    "Grafen": 5080,
    "Jahr@@": 5081,
    "Gü@@": 5082,
    "Verlags@@": 5083,
    "Center": 5084,
    "1867": 5085,
    "versammlung": 5086,
    "CA@@": 5087,
    "kost@@": 5088,
    "Englisch": 5089,
    "durchgeführt": 5090,
    "Var@@": 5091,
    "könig@@": 5092,
    "Stimmen": 5093,
    "ystem": 5094,
    "schwer": 5095,
    "ine@@": 5096,
    "Pos@@": 5097,
    "pen": 5098,
    "rand": 5099,
    "Katholi@@": 5100,
    "Institute": 5101,
    "Kam@@": 5102,
    "taus@@": 5103,
    "Grundlage": 5104,
    "Fün@@": 5105,
    "rischen": 5106,
    "DE@@": 5107,
    "rib@@": 5108,
    "genannten": 5109,
    "Erz@@": 5110,
    "Tübingen": 5111,
    "handlung": 5112,
    "46@@": 5113,
    "Matthias": 5114,
    "Doch": 5115,
    "Bä@@": 5116,
    "Moskau": 5117,
    "weiterer": 5118,
    "eres": 5119,
    "Güter@@": 5120,
    "han": 5121,
    "Steu@@": 5122,
    "ube": 5123,
    "Übersetzung": 5124,
    "ston": 5125,
    "ily": 5126,
    "Holl@@": 5127,
    "Erb@@": 5128,
    "Q": 5129,
    "pt@@": 5130,
    "Post": 5131,
    "Darüber": 5132,
    "wissenschaftlichen": 5133,
    "Weg@@": 5134,
    "gehalten": 5135,
    "ero": 5136,
    "2019": 5137,
    "mess@@": 5138,
    "verfass@@": 5139,
    "Kopf": 5140,
    "ule": 5141,
    "sam@@": 5142,
    "römisch": 5143,
    "56@@": 5144,
    "Freund@@": 5145,
    "englischen": 5146,
    "bst@@": 5147,
    "Gab@@": 5148,
    "lassung": 5149,
    "Top": 5150,
    "abri@@": 5151,
    "iges": 5152,
    "Forsch@@": 5153,
    "Konrad": 5154,
    "owa": 5155,
    "strecke": 5156,
    "Jakob": 5157,
    "iell": 5158,
    "gnis": 5159,
    "Bibli@@": 5160,
    "vorhanden": 5161,
    "rale": 5162,
    "Polizei@@": 5163,
    "Boden": 5164,
    "jährige": 5165,
    "wasser": 5166,
    "Hit@@": 5167,
    "Julius": 5168,
    "anden": 5169,
    "Glei@@": 5170,
    "italienischen": 5171,
    "wand@@": 5172,
    "pra@@": 5173,
    "Regier@@": 5174,
    "SP@@": 5175,
    "flug@@": 5176,
    "ror@@": 5177,
    "1889": 5178,
    "87@@": 5179,
    "erischen": 5180,
    "Journalist": 5181,
    "darin": 5182,
    "abe": 5183,
    "itäten": 5184,
    "berufen": 5185,
    "zeich@@": 5186,
    "fäh@@": 5187,
    "Video": 5188,
    "Obwohl": 5189,
    "seien": 5190,
    "Seit@@": 5191,
    "Betriebs@@": 5192,
    "Eduard": 5193,
    "erstes": 5194,
    "Wochen": 5195,
    "emit@@": 5196,
    "kop@@": 5197,
    "Kandi@@": 5198,
    "Tenn@@": 5199,
    "äuf@@": 5200,
    "ots": 5201,
    "You": 5202,
    "Dies@@": 5203,
    "Smith": 5204,
    "vent@@": 5205,
    "jeweiligen": 5206,
    "ffer": 5207,
    "uk@@": 5208,
    "alistischen": 5209,
    "1980er": 5210,
    "stes": 5211,
    "Industrie@@": 5212,
    "garten": 5213,
    "alyse": 5214,
    "DR": 5215,
    "illon": 5216,
    "Nationalmannschaft": 5217,
    "1880": 5218,
    "schaff@@": 5219,
    "Baum@@": 5220,
    "Weltmeisterschaften": 5221,
    "tik@@": 5222,
    "stau@@": 5223,
    "mäch@@": 5224,
    "\".": 5225,
    "ake": 5226,
    "blick": 5227,
    "Assist@@": 5228,
    "relativ": 5229,
    "Roh@@": 5230,
    "römischen": 5231,
    "\"@@": 5232,
    "Rem@@": 5233,
    "Orgel": 5234,
    "Daneben": 5235,
    "Math@@": 5236,
    "vorzu@@": 5237,
    "Tot@@": 5238,
    "sieht": 5239,
    "Handel@@": 5240,
    "sah": 5241,
    "stär@@": 5242,
    "unbe@@": 5243,
    "jetzt": 5244,
    "Insgesamt": 5245,
    "Preuß@@": 5246,
    "Att@@": 5247,
    "Liber@@": 5248,
    "Zwe@@": 5249,
    "schwei@@": 5250,
    "Zusamm@@": 5251,
    "1891": 5252,
    "Führung": 5253,
    "schließen": 5254,
    "Medien": 5255,
    "chester": 5256,
    "Stud@@": 5257,
    "Große": 5258,
    "ünd@@": 5259,
    "dat": 5260,
    "geber": 5261,
    "vern@@": 5262,
    "Wirtschaft": 5263,
    "Lande@@": 5264,
    "riffe": 5265,
    "cre@@": 5266,
    "ello": 5267,
    "ährt": 5268,
    "denk@@": 5269,
    "...": 5270,
    "ms@@": 5271,
    "Möglichkeit": 5272,
    "wärts": 5273,
    "ütte": 5274,
    "Reb@@": 5275,
    "wit@@": 5276,
    "kam@@": 5277,
    "technik": 5278,
    "schnell": 5279,
    "gebau@@": 5280,
    "Empf@@": 5281,
    "Kru@@": 5282,
    "deck@@": 5283,
    "dritte": 5284,
    "besonder@@": 5285,
    "rol": 5286,
    "sph@@": 5287,
    "116@@": 5288,
    "ado": 5289,
    "öch@@": 5290,
    "kun@@": 5291,
    "elli": 5292,
    "Wissenschaft": 5293,
    "rechten": 5294,
    "bekannte": 5295,
    "gehend": 5296,
    "stoff": 5297,
    "stad@@": 5298,
    "Get@@": 5299,
    "zur@@": 5300,
    "ark": 5301,
    "Restau@@": 5302,
    "Vik@@": 5303,
    "Größe": 5304,
    "hoch": 5305,
    "afri@@": 5306,
    "Stein": 5307,
    "anzu@@": 5308,
    "Technik": 5309,
    "Bach": 5310,
    "ky": 5311,
    "nungs@@": 5312,
    "Inseln": 5313,
    "Arthur": 5314,
    "Nur": 5315,
    "tion@@": 5316,
    "zü@@": 5317,
    "nördlichen": 5318,
    "Feder@@": 5319,
    "{@@": 5320,
    "án": 5321,
    "Villa": 5322,
    "dienste": 5323,
    "veranstal@@": 5324,
    "Motor": 5325,
    "österreich": 5326,
    "1960er": 5327,
    "immen": 5328,
    "Din@@": 5329,
    "isierung": 5330,
    "Ast@@": 5331,
    "Kohl@@": 5332,
    "ossen": 5333,
    "Kassel": 5334,
    "Olymp@@": 5335,
    "weitgehend": 5336,
    "Best": 5337,
    "Relig@@": 5338,
    "näch@@": 5339,
    "Typ": 5340,
    "Atlan@@": 5341,
    "See@@": 5342,
    "rus": 5343,
    "australi@@": 5344,
    "bildete": 5345,
    "verbess@@": 5346,
    "autor": 5347,
    "ental": 5348,
    "Schne@@": 5349,
    "field": 5350,
    "ysi@@": 5351,
    "Allerdings": 5352,
    "fül@@": 5353,
    "Kron@@": 5354,
    "Salzburg": 5355,
    "Mitglie@@": 5356,
    "rücken": 5357,
    "uth@@": 5358,
    "Revolution": 5359,
    "oss@@": 5360,
    "'@@": 5361,
    "lam": 5362,
    "Bundesstaat": 5363,
    "rip@@": 5364,
    "raten": 5365,
    "Förder@@": 5366,
    "posit@@": 5367,
    "vergleich@@": 5368,
    "geleitet": 5369,
    "vir@@": 5370,
    "Roman@@": 5371,
    "Kanada": 5372,
    "Gegenwart": 5373,
    "Tiere": 5374,
    "Ris@@": 5375,
    "gerade": 5376,
    "geren": 5377,
    "Erde": 5378,
    "rische": 5379,
    "Krieges": 5380,
    "finanz@@": 5381,
    "Gri@@": 5382,
    "Lok@@": 5383,
    "Beck": 5384,
    "Statistisches": 5385,
    "dent": 5386,
    "verwal@@": 5387,
    "kehr@@": 5388,
    "satz@@": 5389,
    "Kie@@": 5390,
    "vgl": 5391,
    "oden": 5392,
    "Blü@@": 5393,
    "umfass@@": 5394,
    "startete": 5395,
    "pp": 5396,
    "sions@@": 5397,
    "ds@@": 5398,
    "itel": 5399,
    "größere": 5400,
    "enthalten": 5401,
    "ond": 5402,
    "Holstein": 5403,
    "tier@@": 5404,
    "sä@@": 5405,
    "Würzburg": 5406,
    "Nat@@": 5407,
    "ž@@": 5408,
    "bekam": 5409,
    "Institut@@": 5410,
    "orte": 5411,
    "weiht": 5412,
    "Tür@@": 5413,
    "ema": 5414,
    "Depart@@": 5415,
    "Margar@@": 5416,
    "Black": 5417,
    "katholische": 5418,
    "mittelalter@@": 5419,
    "unten": 5420,
    "geschä@@": 5421,
    "Got@@": 5422,
    "Tal": 5423,
    "Volkszählung": 5424,
    "tigten": 5425,
    "Opp@@": 5426,
    "zeichnung": 5427,
    "betrieb@@": 5428,
    "Aufstieg": 5429,
    "tru@@": 5430,
    "spruch": 5431,
    "+@@": 5432,
    "Lam@@": 5433,
    "illi@@": 5434,
    "August@@": 5435,
    "France": 5436,
    "geworden": 5437,
    "Landschafts@@": 5438,
    "Books": 5439,
    "mitglied": 5440,
    "ku@@": 5441,
    "vertreten": 5442,
    "verfü@@": 5443,
    "Alten@@": 5444,
    "Tom@@": 5445,
    "auszu@@": 5446,
    "ria": 5447,
    "MS": 5448,
    "eits@@": 5449,
    "Koh@@": 5450,
    "mont": 5451,
    "Farb@@": 5452,
    "Patri@@": 5453,
    "alien": 5454,
    "RA@@": 5455,
    "belieb@@": 5456,
    "Natur": 5457,
    "latein@@": 5458,
    "hergestellt": 5459,
    "eitung": 5460,
    "Zusammen@@": 5461,
    "zugleich": 5462,
    "Astron@@": 5463,
    "wäre": 5464,
    "Materi@@": 5465,
    "Pot@@": 5466,
    "Chor": 5467,
    "Australien": 5468,
    "inzwischen": 5469,
    "Gott": 5470,
    "preuß@@": 5471,
    "Bek@@": 5472,
    "Phili@@": 5473,
    "Hab@@": 5474,
    "Wirk@@": 5475,
    "Premi@@": 5476,
    "Anteil": 5477,
    "Verband": 5478,
    "ktive": 5479,
    "Liv@@": 5480,
    "jungen": 5481,
    "Cent@@": 5482,
    "grenze": 5483,
    "kunden": 5484,
    "igkeiten": 5485,
    "Nordosten": 5486,
    "chem@@": 5487,
    "Wilhel@@": 5488,
    "bers": 5489,
    "ständi@@": 5490,
    "entspricht": 5491,
    "1990er": 5492,
    "IS": 5493,
    "sogenannte": 5494,
    "Wert": 5495,
    "iers": 5496,
    "Essen": 5497,
    "1875": 5498,
    "Edward": 5499,
    "Fle@@": 5500,
    "Basket@@": 5501,
    "Tex@@": 5502,
    "fün@@": 5503,
    "Rod@@": 5504,
    "bedeutet": 5505,
    "84@@": 5506,
    "demokrat@@": 5507,
    "Ki@@": 5508,
    "früheren": 5509,
    "Verein@@": 5510,
    "gelegenen": 5511,
    "halle": 5512,
    "beruf@@": 5513,
    "Hun@@": 5514,
    "Rit@@": 5515,
    "Pian@@": 5516,
    "teilen": 5517,
    "größeren": 5518,
    "mensch@@": 5519,
    "spoli@@": 5520,
    "gewinnen": 5521,
    "ruch@@": 5522,
    "wer": 5523,
    "Engli@@": 5524,
    "olin@@": 5525,
    "Kali@@": 5526,
    "Ele@@": 5527,
    "Straf@@": 5528,
    "vers": 5529,
    "ils": 5530,
    "eter@@": 5531,
    "weiß": 5532,
    "Cour@@": 5533,
    "öst@@": 5534,
    "Meyer": 5535,
    "Bücher": 5536,
    "erwar@@": 5537,
    "häuser": 5538,
    "aven": 5539,
    "verstär@@": 5540,
    "polit@@": 5541,
    "läufer": 5542,
    "stor@@": 5543,
    "istik": 5544,
    "Gebir@@": 5545,
    "ged@@": 5546,
    "hardt": 5547,
    "Ah@@": 5548,
    "Mön@@": 5549,
    "beschrieben": 5550,
    "Berufs@@": 5551,
    "Popul@@": 5552,
    "räger": 5553,
    "SG": 5554,
    "Historisches": 5555,
    "bern": 5556,
    "oth@@": 5557,
    "Sus@@": 5558,
    "äst@@": 5559,
    "geg@@": 5560,
    "Drei": 5561,
    "begrün@@": 5562,
    "120": 5563,
    "wäh@@": 5564,
    "Kraft": 5565,
    "Horst": 5566,
    "cur@@": 5567,
    "dagegen": 5568,
    "bauen": 5569,
    "Ze@@": 5570,
    "sucht": 5571,
    "nischen": 5572,
    "NS": 5573,
    "Kri@@": 5574,
    "Champ@@": 5575,
    "Regim@@": 5576,
    "wider@@": 5577,
    "Weltkriegs": 5578,
    "neues": 5579,
    "kanischen": 5580,
    "spielerin": 5581,
    "kurz@@": 5582,
    "1850": 5583,
    "Parlament@@": 5584,
    "Love": 5585,
    "fass@@": 5586,
    "Prop@@": 5587,
    "SE@@": 5588,
    "gere": 5589,
    "Laufe": 5590,
    "Stor@@": 5591,
    "änge": 5592,
    "zit@@": 5593,
    "ante": 5594,
    "Datei": 5595,
    "09@@": 5596,
    "gleichnamigen": 5597,
    "gek@@": 5598,
    "luss": 5599,
    "zählen": 5600,
    "Est@@": 5601,
    "Regel@@": 5602,
    "Jon@@": 5603,
    "Kampf@@": 5604,
    "heim@@": 5605,
    "Mitt@@": 5606,
    "Familien@@": 5607,
    "pat@@": 5608,
    "Lake": 5609,
    "Profil": 5610,
    "rest@@": 5611,
    "erien": 5612,
    "wissenschaftliche": 5613,
    "Beide": 5614,
    "gruppen": 5615,
    "außerhalb": 5616,
    "utsch@@": 5617,
    "produziert": 5618,
    "Mand@@": 5619,
    "lan": 5620,
    "у@@": 5621,
    "halten@@": 5622,
    "alles": 5623,
    "ums@@": 5624,
    "jun@@": 5625,
    "Südwesten": 5626,
    "musi@@": 5627,
    "1887": 5628,
    "tiv@@": 5629,
    "Polizei": 5630,
    "Don": 5631,
    "Eu@@": 5632,
    "mark": 5633,
    "sodass": 5634,
    "Gelände": 5635,
    "erf@@": 5636,
    "unkt": 5637,
    "liger": 5638,
    "verfügt": 5639,
    "eingestellt": 5640,
    "las": 5641,
    "CH@@": 5642,
    "blo@@": 5643,
    "beobach@@": 5644,
    "Angeles": 5645,
    "Wür@@": 5646,
    "archiviert": 5647,
    "Mittelalter": 5648,
    "mau@@": 5649,
    "Herausgeber": 5650,
    "gerech@@": 5651,
    "wichtige": 5652,
    "mis@@": 5653,
    "Vorder@@": 5654,
    "gelassen": 5655,
    "ić": 5656,
    "gliche": 5657,
    "hu@@": 5658,
    "Rat": 5659,
    "zeh@@": 5660,
    "halte": 5661,
    "grund": 5662,
    "dargestellt": 5663,
    "mot@@": 5664,
    "gut@@": 5665,
    "eng": 5666,
    "Wild@@": 5667,
    "Are@@": 5668,
    "geist@@": 5669,
    "ession@@": 5670,
    "verhäl@@": 5671,
    "Max@@": 5672,
    "110": 5673,
    "ía": 5674,
    "Länder@@": 5675,
    "Glas@@": 5676,
    "witz": 5677,
    "pe@@": 5678,
    "Kauf@@": 5679,
    "Verlauf": 5680,
    "1886": 5681,
    "derten": 5682,
    "mente": 5683,
    "anisch": 5684,
    "Dol@@": 5685,
    "1860": 5686,
    "anerk@@": 5687,
    "Schauspiel@@": 5688,
    "orien": 5689,
    "Sign@@": 5690,
    "mäßig": 5691,
    "Ritter": 5692,
    "ähnlich": 5693,
    "Red": 5694,
    "maß@@": 5695,
    "könnte": 5696,
    "era": 5697,
    "gehö@@": 5698,
    "hör@@": 5699,
    "Druck": 5700,
    "möglich@@": 5701,
    "familie": 5702,
    "ax@@": 5703,
    "pal@@": 5704,
    "ony": 5705,
    "nied@@": 5706,
    "lerin": 5707,
    "Erfahr@@": 5708,
    "geschlagen": 5709,
    "Lich@@": 5710,
    "Territ@@": 5711,
    "ierungs@@": 5712,
    "dienen": 5713,
    "23@@": 5714,
    "kampf": 5715,
    "Barbara": 5716,
    "geprägt": 5717,
    "Ö": 5718,
    "Platz@@": 5719,
    "ausgetragen": 5720,
    "Pfarrer": 5721,
    "News": 5722,
    "Inv@@": 5723,
    "steu@@": 5724,
    "dige": 5725,
    "Häuser": 5726,
    "bein@@": 5727,
    "Santa": 5728,
    "ement@@": 5729,
    "lings@@": 5730,
    "anf@@": 5731,
    "Wartung": 5732,
    "sbach": 5733,
    "м@@": 5734,
    "Illu@@": 5735,
    "ausen": 5736,
    "gang@@": 5737,
    "höchsten": 5738,
    "Nicht": 5739,
    "Div@@": 5740,
    "run@@": 5741,
    "1879": 5742,
    "amerika": 5743,
    "los@@": 5744,
    "blätter": 5745,
    "Sinne": 5746,
    "Teilen": 5747,
    "cu@@": 5748,
    "Mach@@": 5749,
    "dende": 5750,
    "ause": 5751,
    "Schwarz@@": 5752,
    "eingeführt": 5753,
    "Kloster@@": 5754,
    "Serv@@": 5755,
    "Sti@@": 5756,
    "trans@@": 5757,
    "vertrag": 5758,
    "201@@": 5759,
    "alisierung": 5760,
    "musikali@@": 5761,
    "achten": 5762,
    "1884": 5763,
    "Straßenb@@": 5764,
    "kontr@@": 5765,
    "verbreitet": 5766,
    "1882": 5767,
    "eck@@": 5768,
    "alis@@": 5769,
    "theit": 5770,
    "Sü@@": 5771,
    "Theater@@": 5772,
    "wäl@@": 5773,
    "voll": 5774,
    "gegründeten": 5775,
    "hätte": 5776,
    "kräfte": 5777,
    "ierter": 5778,
    "internationale": 5779,
    "ligen@@": 5780,
    "tim@@": 5781,
    "Schulen": 5782,
    "Raj@@": 5783,
    "Bände": 5784,
    "entierte": 5785,
    "entsprechend": 5786,
    "ahr@@": 5787,
    "stattung": 5788,
    "ander": 5789,
    "Wagen": 5790,
    "Günter": 5791,
    "künstler@@": 5792,
    "Mé@@": 5793,
    "å@@": 5794,
    "Nordwesten": 5795,
    "englischer": 5796,
    "oren@@": 5797,
    "ständig": 5798,
    "Kab@@": 5799,
    "Jazz@@": 5800,
    "onien": 5801,
    "Theorie": 5802,
    "Rud@@": 5803,
    "erklärt": 5804,
    "jüdischen": 5805,
    "‘@@": 5806,
    "iet": 5807,
    "Lev@@": 5808,
    "chines@@": 5809,
    "wahl@@": 5810,
    "Wis@@": 5811,
    "Nah@@": 5812,
    "Erzäh@@": 5813,
    "Landwirtschaft": 5814,
    "top@@": 5815,
    "Är@@": 5816,
    "kro@@": 5817,
    "Band@@": 5818,
    "Nicol@@": 5819,
    "stellungs@@": 5820,
    "fel": 5821,
    "Schrift@@": 5822,
    "Autoren": 5823,
    "entiert": 5824,
    "Gall@@": 5825,
    "edition": 5826,
    "Sowjetunion": 5827,
    "entliche": 5828,
    "politik": 5829,
    "Unabhäng@@": 5830,
    "Schwester": 5831,
    "SR": 5832,
    "Norm@@": 5833,
    "stür@@": 5834,
    "Geschichts@@": 5835,
    "Zeiten": 5836,
    "gespielt": 5837,
    "Afri@@": 5838,
    "Wies@@": 5839,
    "benö@@": 5840,
    "Untersuchungen": 5841,
    "bul@@": 5842,
    "250": 5843,
    "krank@@": 5844,
    "itali@@": 5845,
    "ID": 5846,
    "engag@@": 5847,
    "bleibt": 5848,
    "ji": 5849,
    "Archiv@@": 5850,
    "45@@": 5851,
    "schrei@@": 5852,
    "teren": 5853,
    "Fam@@": 5854,
    "aufgeführt": 5855,
    "ted": 5856,
    "Zit@@": 5857,
    "Fri@@": 5858,
    "Veröffentlichung": 5859,
    "schließt": 5860,
    "Theologe": 5861,
    "Fuß@@": 5862,
    "Ehefrau": 5863,
    "arab@@": 5864,
    "Tei@@": 5865,
    "Mädchen": 5866,
    "Mah@@": 5867,
    "genau": 5868,
    "Des": 5869,
    "wachs@@": 5870,
    "Frü@@": 5871,
    "ücke": 5872,
    "weib@@": 5873,
    "sichts@@": 5874,
    "vie@@": 5875,
    "leger": 5876,
    "deutsch@@": 5877,
    "sprache": 5878,
    "Engel@@": 5879,
    "recht@@": 5880,
    "möglichen": 5881,
    "samm@@": 5882,
    "klärung": 5883,
    "right": 5884,
    "Südosten": 5885,
    "Juni@@": 5886,
    "Group": 5887,
    "Universitäts@@": 5888,
    "trotz": 5889,
    "österreichische": 5890,
    "Kommunik@@": 5891,
    "Seiten@@": 5892,
    "Gott@@": 5893,
    "European": 5894,
    "eite": 5895,
    "schön@@": 5896,
    "lern@@": 5897,
    "dorfer": 5898,
    "ensus": 5899,
    "lü@@": 5900,
    "ě@@": 5901,
    "Alli@@": 5902,
    "ymp@@": 5903,
    "ssel@@": 5904,
    "unterstützt": 5905,
    "Amerikan@@": 5906,
    "Schach@@": 5907,
    "junge": 5908,
    "asste": 5909,
    "Journ@@": 5910,
    "Geheim@@": 5911,
    "integ@@": 5912,
    "Gesell@@": 5913,
    "Präsidenten": 5914,
    "elf": 5915,
    "Macht": 5916,
    "Proje@@": 5917,
    "latz": 5918,
    "Prag": 5919,
    "α@@": 5920,
    "Ful@@": 5921,
    "förmi@@": 5922,
    "Sav@@": 5923,
    "Punkt": 5924,
    "umfang@@": 5925,
    "1874": 5926,
    "afrika": 5927,
    "Sul@@": 5928,
    "ermann": 5929,
    "handel@@": 5930,
    "Aqu@@": 5931,
    "1866": 5932,
    "Plän@@": 5933,
    "gre@@": 5934,
    "Gor@@": 5935,
    "Commun@@": 5936,
    "1868": 5937,
    "low": 5938,
    "Nachrichten": 5939,
    "mag@@": 5940,
    "punkte": 5941,
    "linger": 5942,
    "odi@@": 5943,
    "Länder": 5944,
    "orf": 5945,
    "rik": 5946,
    "Fahrzeuge": 5947,
    "erneu@@": 5948,
    "Aufgaben": 5949,
    "schluss@@": 5950,
    "tö@@": 5951,
    "Tages@@": 5952,
    "linien": 5953,
    "müh@@": 5954,
    "of@@": 5955,
    "Tö@@": 5956,
    "reform": 5957,
    "King": 5958,
    "portugies@@": 5959,
    "Ve@@": 5960,
    "gan": 5961,
    "affe": 5962,
    "án@@": 5963,
    "High@@": 5964,
    "Blan@@": 5965,
    "Fakultät": 5966,
    "spricht": 5967,
    "wirtschaft@@": 5968,
    "groß": 5969,
    "Architekten": 5970,
    "dies@@": 5971,
    "1881": 5972,
    "einzu@@": 5973,
    "Bezir@@": 5974,
    "Mid@@": 5975,
    "geschloss@@": 5976,
    "1815": 5977,
    "Football": 5978,
    "Zeu@@": 5979,
    "gerufen": 5980,
    "Mob@@": 5981,
    "Aff@@": 5982,
    "obwohl": 5983,
    "ii": 5984,
    "1883": 5985,
    "Deutsch@@": 5986,
    "wasser@@": 5987,
    "Dokum@@": 5988,
    "Jud@@": 5989,
    "ümer": 5990,
    "Dichter": 5991,
    "preußischen": 5992,
    "BA": 5993,
    "1876": 5994,
    "Dig@@": 5995,
    "Straßen": 5996,
    "Vit@@": 5997,
    "Nam@@": 5998,
    "com@@": 5999,
    "800": 6000,
    "schlü@@": 6001,
    "lob@@": 6002,
    "Š@@": 6003,
    "Teams": 6004,
    "fällt": 6005,
    "..@@": 6006,
    "Parti@@": 6007,
    "Regiment": 6008,
    "eo": 6009,
    "mehrfach": 6010,
    "Qualifikation": 6011,
    "hä@@": 6012,
    "norweg@@": 6013,
    "Chemie": 6014,
    "Kreuz": 6015,
    "Jahrzeh@@": 6016,
    "Bahnstrecke": 6017,
    "Bildhauer": 6018,
    "klin@@": 6019,
    "Anth@@": 6020,
    "wichtigsten": 6021,
    "ligung": 6022,
    "offiziell": 6023,
    "Moh@@": 6024,
    "proje@@": 6025,
    "Fili@@": 6026,
    "Adam": 6027,
    "Bos@@": 6028,
    "Architektur": 6029,
    "züge": 6030,
    "Alexand@@": 6031,
    "ago": 6032,
    "117@@": 6033,
    "stags@@": 6034,
    "Hugo": 6035,
    "τ@@": 6036,
    "CO@@": 6037,
    "Niederlage": 6038,
    "wen": 6039,
    "Schle@@": 6040,
    "solche": 6041,
    "Emp@@": 6042,
    "Chem@@": 6043,
    "ci": 6044,
    "mittels": 6045,
    "/@@": 6046,
    "Kindern": 6047,
    "asen": 6048,
    "ias": 6049,
    "oni": 6050,
    "Dem": 6051,
    "fli@@": 6052,
    "sel": 6053,
    "arm@@": 6054,
    "Landtag": 6055,
    "Anhalt": 6056,
    "deckt": 6057,
    "Viele": 6058,
    "schrift@@": 6059,
    "Arzt": 6060,
    "edia": 6061,
    "Tom": 6062,
    "Benedi@@": 6063,
    "fallen": 6064,
    "Nap@@": 6065,
    "Anton@@": 6066,
    "Refer@@": 6067,
    "Denn@@": 6068,
    "leu@@": 6069,
    "krie@@": 6070,
    "schlä@@": 6071,
    "beste": 6072,
    "ikan@@": 6073,
    "Ye@@": 6074,
    "Fernsehen": 6075,
    "ime": 6076,
    "sied@@": 6077,
    "IT@@": 6078,
    "ike": 6079,
    "legt": 6080,
    "Günther": 6081,
    "Wun@@": 6082,
    "älteste": 6083,
    "Leistung": 6084,
    "reicher": 6085,
    "stab@@": 6086,
    "Frauen@@": 6087,
    "jen@@": 6088,
    "halts@@": 6089,
    "Fass@@": 6090,
    "Invest@@": 6091,
    "Medizin": 6092,
    "Jap@@": 6093,
    "ario": 6094,
    "erscheint": 6095,
    "ga@@": 6096,
    "jur@@": 6097,
    "gewäh@@": 6098,
    "Nik@@": 6099,
    "apie": 6100,
    "ernen": 6101,
    "Aufgabe": 6102,
    "bestimmt": 6103,
    "glichen": 6104,
    "Weltkrieges": 6105,
    "allein": 6106,
    "Verlu@@": 6107,
    "Aufbau": 6108,
    "és": 6109,
    ")}": 6110,
    "lex": 6111,
    "Academy": 6112,
    "fließt": 6113,
    "itu@@": 6114,
    "wirtschaftlichen": 6115,
    "zess@@": 6116,
    "direktor": 6117,
    "But@@": 6118,
    "gerin@@": 6119,
    "gend@@": 6120,
    "alin@@": 6121,
    "Partei@@": 6122,
    "Bernd": 6123,
    "Kapit@@": 6124,
    "cul@@": 6125,
    "via": 6126,
    "Sankt": 6127,
    "pres@@": 6128,
    "iden": 6129,
    "ativ@@": 6130,
    "durchschnit@@": 6131,
    "ständen": 6132,
    "Aust@@": 6133,
    "1877": 6134,
    "Č@@": 6135,
    "Reise": 6136,
    "Zer@@": 6137,
    "Dru@@": 6138,
    "Noch": 6139,
    "Angeb@@": 6140,
    "Len@@": 6141,
    "pdf": 6142,
    "Söhne": 6143,
    "Schül@@": 6144,
    "mathrm": 6145,
    "alisiert": 6146,
    "Sprachen": 6147,
    "nominiert": 6148,
    "Imm@@": 6149,
    "Frühjahr": 6150,
    "öder@@": 6151,
    "Pir@@": 6152,
    "part@@": 6153,
    "1878": 6154,
    "zusätz@@": 6155,
    "Vaters": 6156,
    "krieg": 6157,
    "Was": 6158,
    "Licht@@": 6159,
    "Städ@@": 6160,
    "Internationale": 6161,
    "entlich": 6162,
    "hingegen": 6163,
    "Umwelt@@": 6164,
    "tation": 6165,
    "plan": 6166,
    "wies": 6167,
    "unterschied@@": 6168,
    "Profess@@": 6169,
    "veröffentlich@@": 6170,
    "gesp@@": 6171,
    "betre@@": 6172,
    "ink@@": 6173,
    "emm@@": 6174,
    "afel": 6175,
    "Mexiko": 6176,
    "Philosoph@@": 6177,
    "album": 6178,
    "Geschä@@": 6179,
    "Sports": 6180,
    "Oper": 6181,
    "Krä@@": 6182,
    "Konstru@@": 6183,
    "Wirt@@": 6184,
    "Geld": 6185,
    "Lebens": 6186,
    "Olympi@@": 6187,
    "Schon": 6188,
    "lia": 6189,
    "antwor@@": 6190,
    "hervor": 6191,
    "Hochschul@@": 6192,
    "Freund": 6193,
    "Vol": 6194,
    "din@@": 6195,
    "finale": 6196,
    "länder": 6197,
    "“).": 6198,
    "Schiffe": 6199,
    "vat@@": 6200,
    "lose": 6201,
    "Standard": 6202,
    "verd@@": 6203,
    "maxim@@": 6204,
    "./": 6205,
    "aufzu@@": 6206,
    "Letz@@": 6207,
    "Ry@@": 6208,
    "Projekt@@": 6209,
    "test": 6210,
    "Gedenk@@": 6211,
    "erweitert": 6212,
    "Mecklenburg": 6213,
    "verlassen": 6214,
    "aufgelöst": 6215,
    "wenigen": 6216,
    "digte": 6217,
    "falls": 6218,
    "Hotel": 6219,
    "Mühl@@": 6220,
    "Roten": 6221,
    "isse": 6222,
    "kund@@": 6223,
    "spr@@": 6224,
    "stärk@@": 6225,
    "ritte": 6226,
    "kreu@@": 6227,
    "enten@@": 6228,
    "schafter": 6229,
    "Theologie": 6230,
    "Biografie": 6231,
    "versucht": 6232,
    "Denkmal": 6233,
    "Maschin@@": 6234,
    "Aufnahme": 6235,
    "Bürger": 6236,
    "krä@@": 6237,
    "umbenannt": 6238,
    "bre@@": 6239,
    "funktion@@": 6240,
    "Pic@@": 6241,
    "Rückkehr": 6242,
    "Fein@@": 6243,
    "höchste": 6244,
    "wig": 6245,
    "herr": 6246,
    "Tok@@": 6247,
    "Indien": 6248,
    "wirtschaftliche": 6249,
    "ächlich": 6250,
    "racht": 6251,
    "Türkei": 6252,
    "Brei@@": 6253,
    "1872": 6254,
    "Hi@@": 6255,
    "Arts": 6256,
    "ord": 6257,
    "ches": 6258,
    "Fü@@": 6259,
    "ergän@@": 6260,
    "Charts": 6261,
    "Zerstör@@": 6262,
    "OS": 6263,
    "ologen": 6264,
    "Zy@@": 6265,
    "berei@@": 6266,
    "hofen": 6267,
    "Lauf@@": 6268,
    "berühm@@": 6269,
    "feu@@": 6270,
    "Unternehmer": 6271,
    "Hub@@": 6272,
    "1873": 6273,
    "Flughafen": 6274,
    "Stol@@": 6275,
    "Py@@": 6276,
    "Magazin": 6277,
    "Felix": 6278,
    "verantwortlich": 6279,
    "Ebene": 6280,
    "Israel": 6281,
    "Besuch@@": 6282,
    "zel": 6283,
    "els@@": 6284,
    "Ortes": 6285,
    "Küh@@": 6286,
    "werde": 6287,
    "Sängerin": 6288,
    "vorsitz@@": 6289,
    "ail@@": 6290,
    "fehl@@": 6291,
    "Exempl@@": 6292,
    "Vog@@": 6293,
    "fünf@@": 6294,
    "eigentlich": 6295,
    "Themen": 6296,
    "600": 6297,
    "füh@@": 6298,
    "namens": 6299,
    "mü@@": 6300,
    "aker": 6301,
    "Punkten": 6302,
    "hinter@@": 6303,
    "PMID": 6304,
    "rh@@": 6305,
    "Wettbewerb": 6306,
    "Kardin@@": 6307,
    "ates": 6308,
    "stif@@": 6309,
    "Alber@@": 6310,
    "Ott@@": 6311,
    "Saison@@": 6312,
    "eres@@": 6313,
    "syn@@": 6314,
    "Persön@@": 6315,
    "tis": 6316,
    "renn@@": 6317,
    "pflich@@": 6318,
    "Text@@": 6319,
    "entin": 6320,
    "aj@@": 6321,
    "hof@@": 6322,
    "José": 6323,
    "rupp@@": 6324,
    "redu@@": 6325,
    "Beitrag": 6326,
    "Ind@@": 6327,
    "iens": 6328,
    "grad": 6329,
    "Ortstei@@": 6330,
    "ams": 6331,
    "Tradition": 6332,
    "Cli@@": 6333,
    "denkmale": 6334,
    "gramm@@": 6335,
    "ppen": 6336,
    "kleiner": 6337,
    "Gut": 6338,
    "Jer@@": 6339,
    "selbst@@": 6340,
    "änderungen": 6341,
    "Einheit": 6342,
    "Temper@@": 6343,
    "Eri@@": 6344,
    "Greg@@": 6345,
    "Poly@@": 6346,
    "kön@@": 6347,
    "flächen": 6348,
    "bahn@@": 6349,
    "Prie@@": 6350,
    "denkmal@@": 6351,
    "nation@@": 6352,
    "Wegen": 6353,
    "riss": 6354,
    "Todes@@": 6355,
    "annen": 6356,
    "siden@@": 6357,
    "Zeh@@": 6358,
    "Spann@@": 6359,
    "akter@@": 6360,
    "sthe@@": 6361,
    "Pop@@": 6362,
    "War": 6363,
    "mi": 6364,
    "Mili@@": 6365,
    "Ara@@": 6366,
    "wechsel": 6367,
    "Start": 6368,
    "fried": 6369,
    "Graz": 6370,
    "ques": 6371,
    "forsch@@": 6372,
    "lässi@@": 6373,
    "Kob@@": 6374,
    "pfel": 6375,
    "Filme": 6376,
    "Albrecht": 6377,
    "station": 6378,
    "Frem@@": 6379,
    "Aachen": 6380,
    "Lieder": 6381,
    "ton@@": 6382,
    "cup": 6383,
    "Dur@@": 6384,
    "weis": 6385,
    "Kommunal@@": 6386,
    "ahlen": 6387,
    "rol@@": 6388,
    "ücksich@@": 6389,
    "Ens@@": 6390,
    "Kle@@": 6391,
    "Frau@@": 6392,
    "met": 6393,
    "Krist@@": 6394,
    "mut": 6395,
    "bü@@": 6396,
    "NS@@": 6397,
    "gelten": 6398,
    "kas": 6399,
    "usern": 6400,
    "1861": 6401,
    "awa": 6402,
    "stehenden": 6403,
    "Research": 6404,
    "Back@@": 6405,
    "stedt": 6406,
    "Nic@@": 6407,
    "struktur": 6408,
    "ferenz": 6409,
    "Sprech@@": 6410,
    "Kiel": 6411,
    "Tief@@": 6412,
    "NR@@": 6413,
    "Beruf@@": 6414,
    "ebenda": 6415,
    "Rab@@": 6416,
    "Kö@@": 6417,
    "Schneider": 6418,
    "exist@@": 6419,
    "Teilnahme": 6420,
    "abteilung": 6421,
    "linken": 6422,
    "dh@@": 6423,
    "Eisen@@": 6424,
    "Herr": 6425,
    "Integ@@": 6426,
    "zie@@": 6427,
    "ery": 6428,
    "uchen": 6429,
    "änger": 6430,
    "Nu@@": 6431,
    "teilungen": 6432,
    "High": 6433,
    "Kurz": 6434,
    "math@@": 6435,
    "Sak@@": 6436,
    "itze": 6437,
    "achen": 6438,
    "räume": 6439,
    "egen": 6440,
    "modernen": 6441,
    "sburg": 6442,
    "Erste": 6443,
    "ith@@": 6444,
    "auen": 6445,
    "drit@@": 6446,
    "Bronze": 6447,
    "flä@@": 6448,
    "Fei@@": 6449,
    "Tie@@": 6450,
    "Kell@@": 6451,
    "CS@@": 6452,
    "abzu@@": 6453,
    "rauch": 6454,
    "hte": 6455,
    "bestimmten": 6456,
    "Aussch@@": 6457,
    "Sich@@": 6458,
    "zuerst": 6459,
    "Kanz@@": 6460,
    "47@@": 6461,
    "cus": 6462,
    "Marine": 6463,
    "Mig@@": 6464,
    "Lieb@@": 6465,
    "Trin@@": 6466,
    "Büch@@": 6467,
    "Wagner": 6468,
    "Service": 6469,
    "zeigte": 6470,
    "Box@@": 6471,
    "außer@@": 6472,
    "Mittel": 6473,
    "hand": 6474,
    "Lokomoti@@": 6475,
    "Kub@@": 6476,
    "domin@@": 6477,
    "hunder@@": 6478,
    "organ@@": 6479,
    "Schließ@@": 6480,
    "Maximili@@": 6481,
    "Probleme": 6482,
    "ament@@": 6483,
    "Gottfried": 6484,
    "Lud@@": 6485,
    "ding@@": 6486,
    "1869": 6487,
    "ë@@": 6488,
    "Erweiter@@": 6489,
    "erinnen": 6490,
    "Comput@@": 6491,
    "Mod@@": 6492,
    "Wirkung": 6493,
    "wart": 6494,
    "ín": 6495,
    "sili@@": 6496,
    "[…]": 6497,
    "äd@@": 6498,
    "gungs@@": 6499,
    "sitz": 6500,
    "stätten": 6501,
    "oberen": 6502,
    "Bad@@": 6503,
    "Energie@@": 6504,
    "Veranstal@@": 6505,
    "ip": 6506,
    "sächsischen": 6507,
    "stellvertreten@@": 6508,
    "Archiviert": 6509,
    "rien": 6510,
    "Akti@@": 6511,
    "Ral@@": 6512,
    "Dou@@": 6513,
    "Angel@@": 6514,
    "Woh@@": 6515,
    "rot": 6516,
    "Niedersachsen": 6517,
    "Bauern@@": 6518,
    "Sieger": 6519,
    "brücke": 6520,
    "Georg@@": 6521,
    "Gründen": 6522,
    "sprü@@": 6523,
    "Aufl": 6524,
    "ι@@": 6525,
    "ständ@@": 6526,
    "1864": 6527,
    "Presse": 6528,
    "deh@@": 6529,
    "äb@@": 6530,
    "portal": 6531,
    "Texte": 6532,
    "Zahl@@": 6533,
    "ole@@": 6534,
    "hen@@": 6535,
    "alls": 6536,
    "Adels@@": 6537,
    "Jena": 6538,
    "atoren": 6539,
    "Auswahl": 6540,
    "aceae": 6541,
    "Regensburg": 6542,
    "Instituts": 6543,
    "NH@@": 6544,
    "Feuer@@": 6545,
    "dahin": 6546,
    "graben": 6547,
    "Praxis": 6548,
    "istin": 6549,
    "digkeit": 6550,
    "Span@@": 6551,
    "stän@@": 6552,
    "Kämpf@@": 6553,
    "erd@@": 6554,
    "Amat@@": 6555,
    "vierten": 6556,
    "Saar@@": 6557,
    "ов@@": 6558,
    "Ok@@": 6559,
    "hang": 6560,
    "sichtlich": 6561,
    "Teu@@": 6562,
    "ieder@@": 6563,
    "Rob@@": 6564,
    "mäß@@": 6565,
    "gelan@@": 6566,
    "mark@@": 6567,
    "istan": 6568,
    "Brie@@": 6569,
    "häuf@@": 6570,
    "Leich@@": 6571,
    "Augsburg": 6572,
    "enbuch": 6573,
    "klar": 6574,
    "amin": 6575,
    "1865": 6576,
    "lecht": 6577,
    "dest@@": 6578,
    "reicht": 6579,
    "Zentimeter": 6580,
    "kturen": 6581,
    "Gebiete": 6582,
    "ogs": 6583,
    "Zeichen": 6584,
    "Will@@": 6585,
    "ausstellung": 6586,
    ".).": 6587,
    "comm@@": 6588,
    "bun@@": 6589,
    "Standort": 6590,
    "https": 6591,
    "Antonio": 6592,
    "Kurfür@@": 6593,
    "Distri@@": 6594,
    "Höhen@@": 6595,
    "Monum@@": 6596,
    "rot@@": 6597,
    "jede": 6598,
    "Behör@@": 6599,
    "eister@@": 6600,
    "Jag@@": 6601,
    "tive": 6602,
    "Tabelle": 6603,
    "Grei@@": 6604,
    "europa": 6605,
    "tats@@": 6606,
    "freie": 6607,
    "sidenten": 6608,
    "Metal": 6609,
    "Hochschullehrer": 6610,
    "ho": 6611,
    "Königs": 6612,
    "üm@@": 6613,
    "Denkmalpflege": 6614,
    "Nationalsozialismus": 6615,
    "Landtags@@": 6616,
    "erhielten": 6617,
    "weiteres": 6618,
    "ganze": 6619,
    "stil": 6620,
    "gezogen": 6621,
    "versuchte": 6622,
    "bor@@": 6623,
    "rennen": 6624,
    "lernte": 6625,
    "Turnier": 6626,
    "Has@@": 6627,
    "ba": 6628,
    "zentrale": 6629,
    "én@@": 6630,
    "tin": 6631,
    "zahlen": 6632,
    "Kombin@@": 6633,
    "Ries@@": 6634,
    "Ortschaften": 6635,
    "ap": 6636,
    "VP": 6637,
    "Gesprä@@": 6638,
    "sil@@": 6639,
    "Teilnehmer": 6640,
    "1950er": 6641,
    "Pas@@": 6642,
    "Soph@@": 6643,
    "Interesse": 6644,
    "Bildungs@@": 6645,
    "Parteien": 6646,
    "inne": 6647,
    "Dänemark": 6648,
    "tert": 6649,
    "denti@@": 6650,
    "ekt": 6651,
    "bleiben": 6652,
    "chron@@": 6653,
    "alist": 6654,
    "Weimar": 6655,
    "nationalen": 6656,
    "by@@": 6657,
    "Meer": 6658,
    "roman@@": 6659,
    "ländischen": 6660,
    "zeugt": 6661,
    "teilte": 6662,
    "Univers@@": 6663,
    "Beziehungen": 6664,
    "beschäftigt": 6665,
    "bewer@@": 6666,
    "well": 6667,
    "tle": 6668,
    "Rev@@": 6669,
    "alli@@": 6670,
    "lehre": 6671,
    "Brüder": 6672,
    "erfül@@": 6673,
    "aw": 6674,
    "neg@@": 6675,
    "fic@@": 6676,
    "offiziellen": 6677,
    "ova": 6678,
    "Übersetzungen": 6679,
    "andi@@": 6680,
    "spanisch": 6681,
    "Arnold": 6682,
    "wick@@": 6683,
    "Bart@@": 6684,
    "ission": 6685,
    "Myth@@": 6686,
    "Jack@@": 6687,
    "One": 6688,
    "fr@@": 6689,
    "uchs": 6690,
    "spann@@": 6691,
    "ehe": 6692,
    "hom@@": 6693,
    "haber": 6694,
    "anders": 6695,
    "My": 6696,
    "Lot@@": 6697,
    "Dic@@": 6698,
    "vel@@": 6699,
    "Cru@@": 6700,
    "wirtschafts@@": 6701,
    "zugs@@": 6702,
    "kompon@@": 6703,
    "ließen": 6704,
    "medizin@@": 6705,
    "Priv@@": 6706,
    "ssystem": 6707,
    "folgen": 6708,
    "Bistum": 6709,
    "1862": 6710,
    "kurze": 6711,
    ">": 6712,
    "Dietrich": 6713,
    "Rolf": 6714,
    "ödie": 6715,
    "gelöst": 6716,
    "erhalten@@": 6717,
    "wettbewer@@": 6718,
    "bestimm@@": 6719,
    "Abs": 6720,
    "bank": 6721,
    "Dau@@": 6722,
    "Sech@@": 6723,
    "alis": 6724,
    "angeboten": 6725,
    "Epis@@": 6726,
    "vereins": 6727,
    "Jak@@": 6728,
    "ith": 6729,
    "Ot@@": 6730,
    "geograph@@": 6731,
    "Industrie": 6732,
    "Königin": 6733,
    "ao": 6734,
    "frage": 6735,
    "Finn@@": 6736,
    "Tschech@@": 6737,
    "Lis@@": 6738,
    "Män@@": 6739,
    "Geograph@@": 6740,
    "Fotos": 6741,
    "zeichnete": 6742,
    "Apost@@": 6743,
    "Portal": 6744,
    "Eisenbahn": 6745,
    "Westf@@": 6746,
    "Hockey": 6747,
    "urs": 6748,
    "Rand@@": 6749,
    "Parlament": 6750,
    "genie@@": 6751,
    "eingerichtet": 6752,
    "etter": 6753,
    "klass@@": 6754,
    "Vereinigung": 6755,
    "Phot@@": 6756,
    "hebung": 6757,
    "kirch@@": 6758,
    "Jä@@": 6759,
    "belegt": 6760,
    "Lübeck": 6761,
    "Jos@@": 6762,
    "Adel@@": 6763,
    "lieben": 6764,
    "Kalifornien": 6765,
    "Bran@@": 6766,
    "erhält": 6767,
    "1863": 6768,
    "uf": 6769,
    "ardo": 6770,
    "länge": 6771,
    "Gemeinder@@": 6772,
    "verbandes": 6773,
    "volution@@": 6774,
    "traf": 6775,
    "Herkunft": 6776,
    "Garten@@": 6777,
    "wur@@": 6778,
    "ires": 6779,
    "DE": 6780,
    "eta": 6781,
    "Gewer@@": 6782,
    "laub@@": 6783,
    "schätz@@": 6784,
    "präsenz": 6785,
    "Grafschaft": 6786,
    "bestimmte": 6787,
    "instit@@": 6788,
    "ae@@": 6789,
    "ux": 6790,
    "ausch": 6791,
    "gerichtet": 6792,
    "120@@": 6793,
    "Sebastian": 6794,
    "erlan@@": 6795,
    "mol@@": 6796,
    "theater": 6797,
    "finanzi@@": 6798,
    "loss@@": 6799,
    "griechischen": 6800,
    "Betei@@": 6801,
    "Ron@@": 6802,
    "ements": 6803,
    "Fen@@": 6804,
    "Nutzung": 6805,
    "Zukunft": 6806,
    "Weiteren": 6807,
    "gerä@@": 6808,
    "Verk@@": 6809,
    "spielten": 6810,
    "appe": 6811,
    "America": 6812,
    "Bod@@": 6813,
    "г@@": 6814,
    "Chron@@": 6815,
    "gyp@@": 6816,
    "Formel": 6817,
    "ior": 6818,
    "Mir@@": 6819,
    "Laut": 6820,
    "Jahrbuch": 6821,
    "erbau@@": 6822,
    "ktor@@": 6823,
    "n8@@": 6824,
    "zug@@": 6825,
    "Orden": 6826,
    "emin@@": 6827,
    "Einzel": 6828,
    "Karlsruhe": 6829,
    "ς": 6830,
    "andt": 6831,
    "haft": 6832,
    "üssel@@": 6833,
    "pf": 6834,
    "Krimin@@": 6835,
    "ogra@@": 6836,
    "unmittelbar": 6837,
    "Chronik": 6838,
    "denkmal": 6839,
    "außer": 6840,
    "erforder@@": 6841,
    "tri@@": 6842,
    "anwalt": 6843,
    "breit": 6844,
    "zip": 6845,
    "Show": 6846,
    "Bund": 6847,
    "Stur@@": 6848,
    "Belgien": 6849,
    "gehörigen": 6850,
    "felder": 6851,
    "IM@@": 6852,
    "Amsterdam": 6853,
    "yle": 6854,
    "Geist@@": 6855,
    "110@@": 6856,
    "BM@@": 6857,
    "verlegt": 6858,
    "anien": 6859,
    "Orgel@@": 6860,
    "erkennen": 6861,
    "neb@@": 6862,
    "rates": 6863,
    "Adre@@": 6864,
    "belg@@": 6865,
    "Begrün@@": 6866,
    "konz@@": 6867,
    "physi@@": 6868,
    "erns": 6869,
    "Viz@@": 6870,
    "Steuer@@": 6871,
    "Ken@@": 6872,
    "Holz": 6873,
    "Groß": 6874,
    "Krei@@": 6875,
    "angegeben": 6876,
    "Lee": 6877,
    "Formen": 6878,
    "üch@@": 6879,
    "Körper": 6880,
    "titel": 6881,
    "gefer@@": 6882,
    "ost": 6883,
    "Folge@@": 6884,
    "zusamm@@": 6885,
    "kes": 6886,
    "Liz@@": 6887,
    "FA@@": 6888,
    "mitteln": 6889,
    "popul@@": 6890,
    "unt": 6891,
    "ehemals": 6892,
    "Eth@@": 6893,
    "baute": 6894,
    "halt@@": 6895,
    "Abitur": 6896,
    "cer": 6897,
    "stammte": 6898,
    "114@@": 6899,
    "Landschaft": 6900,
    "Super": 6901,
    "unterschiedlichen": 6902,
    "kanad@@": 6903,
    "Sant@@": 6904,
    "char@@": 6905,
    "offizielle": 6906,
    "ū@@": 6907,
    "hum@@": 6908,
    "IC@@": 6909,
    "bour@@": 6910,
    "onne": 6911,
    "Luc@@": 6912,
    "sches": 6913,
    "Duncker": 6914,
    "terte": 6915,
    "Brasilien": 6916,
    "rig": 6917,
    "Wiederauf@@": 6918,
    "Kölner": 6919,
    "sheim": 6920,
    "Champion@@": 6921,
    "Entwick@@": 6922,
    "Fernsehfilm": 6923,
    "ctor": 6924,
    "Vel@@": 6925,
    "Pflan@@": 6926,
    "Micha@@": 6927,
    "äli@@": 6928,
    "besaß": 6929,
    "gewor@@": 6930,
    "05@@": 6931,
    "ohl": 6932,
    "Sprin@@": 6933,
    "mathb@@": 6934,
    "Management": 6935,
    "Awards": 6936,
    "gute": 6937,
    "Bew@@": 6938,
    "⋅": 6939,
    "manns": 6940,
    "mein@@": 6941,
    "dokum@@": 6942,
    "bli@@": 6943,
    "gezeigt": 6944,
    "DA@@": 6945,
    "BC": 6946,
    "Geografikum": 6947,
    "bungen": 6948,
    "dae": 6949,
    "Kosten": 6950,
    "wodurch": 6951,
    "ef": 6952,
    "п@@": 6953,
    "Auflösung": 6954,
    "system": 6955,
    "Dampf@@": 6956,
    "Viertel@@": 6957,
    "Vorsitz@@": 6958,
    "Play@@": 6959,
    "Minister": 6960,
    "Fenster": 6961,
    "Hey@@": 6962,
    "bestritt": 6963,
    "völlig": 6964,
    "appen": 6965,
    "Fau@@": 6966,
    "Versuch": 6967,
    "blieben": 6968,
    "ends": 6969,
    "Eishockeyspieler": 6970,
    "Leb@@": 6971,
    "nie@@": 6972,
    "Ari@@": 6973,
    "sal@@": 6974,
    "Klavier": 6975,
    "Blut@@": 6976,
    "Brenn@@": 6977,
    "cdot": 6978,
    "Fur@@": 6979,
    "stets": 6980,
    "betei@@": 6981,
    "ban@@": 6982,
    "Beobach@@": 6983,
    "Rainer": 6984,
    "Auff@@": 6985,
    "⚭": 6986,
    "derzeit": 6987,
    "erische": 6988,
    "Rober@@": 6989,
    "Bür@@": 6990,
    "wiederhol@@": 6991,
    "anzen": 6992,
    "Neur@@": 6993,
    "far@@": 6994,
    "Kapitel": 6995,
    "Comi@@": 6996,
    "East": 6997,
    "polnischen": 6998,
    "Wand@@": 6999,
    "Register": 7000,
    "früh@@": 7001,
    "ession": 7002,
    "meisterschaft": 7003,
    "lätze": 7004,
    "ligisten": 7005,
    "post@@": 7006,
    "Past@@": 7007,
    "Infanterie": 7008,
    "PD": 7009,
    "Dien@@": 7010,
    "Szene": 7011,
    "Boot": 7012,
    "don": 7013,
    "prakt@@": 7014,
    "1840": 7015,
    "hn@@": 7016,
    "Deutsches": 7017,
    "Geburts@@": 7018,
    "iz": 7019,
    "gelegene": 7020,
    "125": 7021,
    "Trieb@@": 7022,
    "Metho@@": 7023,
    "Dich@@": 7024,
    "Wir": 7025,
    "Wett@@": 7026,
    "Blu@@": 7027,
    "IT": 7028,
    "Bayer@@": 7029,
    "volle": 7030,
    "deln": 7031,
    "06@@": 7032,
    "Emil": 7033,
    "bildungs@@": 7034,
    "Klassi@@": 7035,
    "Graf@@": 7036,
    "ips": 7037,
    "Texas": 7038,
    "Hoff@@": 7039,
    "unterschie@@": 7040,
    "Fragen": 7041,
    "Fro@@": 7042,
    "Streit@@": 7043,
    "hilfe": 7044,
    "Und": 7045,
    "Songs": 7046,
    "Nahr@@": 7047,
    "tain@@": 7048,
    "Arbeiter@@": 7049,
    "rats@@": 7050,
    "beschäf@@": 7051,
    "völk@@": 7052,
    "fo@@": 7053,
    "Dub@@": 7054,
    "extre@@": 7055,
    "blau@@": 7056,
    "senk@@": 7057,
    "Förderung": 7058,
    "werken": 7059,
    "Biographisches": 7060,
    "Flä@@": 7061,
    "1849": 7062,
    "ington": 7063,
    "gerte": 7064,
    "Tunn@@": 7065,
    "sprechen": 7066,
    "Tode": 7067,
    "holz": 7068,
    "ras": 7069,
    "Republi@@": 7070,
    "130": 7071,
    "75@@": 7072,
    "Portugal": 7073,
    "RE@@": 7074,
    "ensis": 7075,
    "angelegt": 7076,
    "seit@@": 7077,
    "geschaffen": 7078,
    "Bisch@@": 7079,
    "tieren": 7080,
    "Stern": 7081,
    "oper": 7082,
    "religiö@@": 7083,
    "Produktions@@": 7084,
    "Anwendung": 7085,
    "herzog@@": 7086,
    "Mensch": 7087,
    "verbrei@@": 7088,
    "First": 7089,
    "Jahrgang": 7090,
    "Disc@@": 7091,
    "Synchron@@": 7092,
    "Orchester": 7093,
    "Botan@@": 7094,
    "leistung": 7095,
    "Schmi@@": 7096,
    "Marburg": 7097,
    "entweder": 7098,
    "gebil@@": 7099,
    "Francisco": 7100,
    "Mög@@": 7101,
    "Energie": 7102,
    "arte": 7103,
    "ierenden": 7104,
    "lowak@@": 7105,
    "VII": 7106,
    "dal@@": 7107,
    "fr": 7108,
    "bahnhof": 7109,
    "Gebiets@@": 7110,
    "übertragen": 7111,
    "Mary": 7112,
    "Jahrhunder@@": 7113,
    "ergeb@@": 7114,
    "Magdeburg": 7115,
    "Trotz": 7116,
    "Ster@@": 7117,
    "rierte": 7118,
    "bauer": 7119,
    "Franc@@": 7120,
    "gewonnen": 7121,
    "Schie@@": 7122,
    "verschw@@": 7123,
    "sym@@": 7124,
    "regel@@": 7125,
    "toria": 7126,
    "kunst": 7127,
    "Lehre": 7128,
    "Beste": 7129,
    "Stahl@@": 7130,
    "Blick": 7131,
    "international": 7132,
    "aria": 7133,
    "Neustadt": 7134,
    "ücken": 7135,
    "staaten": 7136,
    "Hell@@": 7137,
    "entschieden": 7138,
    "Gestal@@": 7139,
    "Klein": 7140,
    "Situation": 7141,
    "Partn@@": 7142,
    "versich@@": 7143,
    "itzer": 7144,
    "rach": 7145,
    "Mö@@": 7146,
    "ato": 7147,
    "Leopold": 7148,
    "hoff": 7149,
    "dopp@@": 7150,
    "Dim@@": 7151,
    "Metro@@": 7152,
    "stoffe": 7153,
    "Review": 7154,
    "Tag@@": 7155,
    "Vergangenheit": 7156,
    "115@@": 7157,
    "errichtete": 7158,
    "lach": 7159,
    "Veröffentlichungen": 7160,
    "Röm@@": 7161,
    "fung@@": 7162,
    "alph@@": 7163,
    "arischen": 7164,
    "Gun@@": 7165,
    "Material": 7166,
    "Leistungen": 7167,
    "Zug": 7168,
    "besitzen": 7169,
    "brun@@": 7170,
    "own@@": 7171,
    "Gewäss@@": 7172,
    "kopf": 7173,
    "Ax@@": 7174,
    "lowakei": 7175,
    "Umwelt": 7176,
    "blem@@": 7177,
    "wirkt": 7178,
    "Beam@@": 7179,
    "Medizin@@": 7180,
    "Big": 7181,
    "ilen": 7182,
    "…@@": 7183,
    "Philipp@@": 7184,
    "etts": 7185,
    "oline": 7186,
    "kriegs@@": 7187,
    "az": 7188,
    "Best@@": 7189,
    "Öffentlichkeit": 7190,
    "christ@@": 7191,
    "ehmi@@": 7192,
    "terer": 7193,
    "Auß@@": 7194,
    "mili@@": 7195,
    "Humblot": 7196,
    "1800": 7197,
    "russischer": 7198,
    "hab@@": 7199,
    "Weber": 7200,
    "Leichtathlet@@": 7201,
    "Rechte": 7202,
    "geb": 7203,
    "alem": 7204,
    "standes": 7205,
    "hrop@@": 7206,
    "Roth@@": 7207,
    "Stimm@@": 7208,
    "fein@@": 7209,
    "onia": 7210,
    "Untersuchung": 7211,
    "gestaltet": 7212,
    "Main@@": 7213,
    "emble": 7214,
    "Schlu@@": 7215,
    "organisation": 7216,
    "za@@": 7217,
    "erter": 7218,
    "Spitze": 7219,
    "vari@@": 7220,
    "yt@@": 7221,
    "folgung": 7222,
    "Drehbuch@@": 7223,
    "ila": 7224,
    "richter": 7225,
    "richtete": 7226,
    "ebene": 7227,
    "grü@@": 7228,
    "Nich@@": 7229,
    "ckel": 7230,
    "Seel@@": 7231,
    "Famili@@": 7232,
    "Oli@@": 7233,
    "akte": 7234,
    "It": 7235,
    "zut@@": 7236,
    "witsch": 7237,
    "tiges": 7238,
    "mauer": 7239,
    "Markus": 7240,
    "ec": 7241,
    "Anne": 7242,
    "Zweit@@": 7243,
    "Gericht": 7244,
    "tenden": 7245,
    "eister": 7246,
    "losen": 7247,
    "lichem": 7248,
    "kern": 7249,
    "furt": 7250,
    "aufen": 7251,
    "geschoss": 7252,
    "Prozess": 7253,
    "ré@@": 7254,
    "May@@": 7255,
    "orum": 7256,
    "Ordnung": 7257,
    "Mio": 7258,
    "Ala@@": 7259,
    "venti@@": 7260,
    "Geburtstag": 7261,
    "Rig@@": 7262,
    "Altern@@": 7263,
    "Bischo@@": 7264,
    "verur@@": 7265,
    "nier": 7266,
    "anie": 7267,
    "Eugen": 7268,
    "fach": 7269,
    "1859": 7270,
    "Verhältnis": 7271,
    "Autor@@": 7272,
    "dent@@": 7273,
    "Pon@@": 7274,
    "Atlas": 7275,
    "geplan@@": 7276,
    "ρ@@": 7277,
    "bereit@@": 7278,
    "Hill": 7279,
    "mali@@": 7280,
    "TA": 7281,
    "Bester": 7282,
    "Auft@@": 7283,
    "”": 7284,
    "Auseinander@@": 7285,
    "Vin@@": 7286,
    "Street": 7287,
    "aka": 7288,
    "Media": 7289,
    "Bruno": 7290,
    "Meg@@": 7291,
    "Daten@@": 7292,
    "rief": 7293,
    "Bewohner": 7294,
    "maler": 7295,
    "Künste": 7296,
    "Lauf": 7297,
    "wollen": 7298,
    "Niederlande": 7299,
    "SA": 7300,
    "fron@@": 7301,
    "Boston": 7302,
    "schaffen": 7303,
    "OSM": 7304,
    "Durchmesser": 7305,
    "Fut@@": 7306,
    "arre": 7307,
    "abger@@": 7308,
    "Town@@": 7309,
    "Rum@@": 7310,
    "Kä@@": 7311,
    "Vall@@": 7312,
    "Abgeord@@": 7313,
    "jedes": 7314,
    "Thüringen": 7315,
    "Buchsuche": 7316,
    "ric": 7317,
    "Penn@@": 7318,
    "auses": 7319,
    "zieh@@": 7320,
    "tain": 7321,
    "zweimal": 7322,
    "aufgestellt": 7323,
    "omb@@": 7324,
    "93@@": 7325,
    "Kath@@": 7326,
    "Jones": 7327,
    "Brown": 7328,
    "Ky@@": 7329,
    "Werken": 7330,
    "Harry": 7331,
    "Erschein@@": 7332,
    "gegründete": 7333,
    "eburg": 7334,
    "Fürst": 7335,
    "Kammer@@": 7336,
    "Wettbewer@@": 7337,
    "übersetzt": 7338,
    "strah@@": 7339,
    "kreis@@": 7340,
    "Nikol@@": 7341,
    "benutzt": 7342,
    "osa": 7343,
    "99@@": 7344,
    "Stoff@@": 7345,
    "starken": 7346,
    "Thor@@": 7347,
    "iss": 7348,
    "Friedrich@@": 7349,
    "Volk": 7350,
    "indung": 7351,
    "wesentlich": 7352,
    "ami": 7353,
    "Bli@@": 7354,
    "öffentliche": 7355,
    "nei@@": 7356,
    "ersdorf": 7357,
    "daran": 7358,
    "einschließlich": 7359,
    "Historic": 7360,
    "älteren": 7361,
    "archit@@": 7362,
    "Offiz@@": 7363,
    "Herstellung": 7364,
    "Fru@@": 7365,
    "olleg@@": 7366,
    "sinn@@": 7367,
    "Eig@@": 7368,
    "unterhalb": 7369,
    "Forst@@": 7370,
    "pft": 7371,
    "Offizier": 7372,
    "atische": 7373,
    "Entscheidung": 7374,
    "Mik@@": 7375,
    "südöstlich": 7376,
    "verkaufte": 7377,
    "werks": 7378,
    "enthal": 7379,
    "erklär@@": 7380,
    "jedem": 7381,
    "atorium": 7382,
    "pul@@": 7383,
    "zunehmend": 7384,
    "akademie": 7385,
    "1856": 7386,
    "Moun@@": 7387,
    "kin": 7388,
    "Bezug": 7389,
    "Tagen": 7390,
    "erium": 7391,
    "traten": 7392,
    "werte": 7393,
    "herrsch@@": 7394,
    "Einheiten": 7395,
    "eme@@": 7396,
    "japanischen": 7397,
    "Gewerk@@": 7398,
    "atten": 7399,
    "ima": 7400,
    "bilder": 7401,
    "enbank": 7402,
    "Party": 7403,
    "dakteur": 7404,
    "Anhän@@": 7405,
    "LA@@": 7406,
    "arbeiter": 7407,
    "α": 7408,
    "Asi@@": 7409,
    "Ty@@": 7410,
    "Rail@@": 7411,
    "Klosters": 7412,
    "zone": 7413,
    "eum": 7414,
    "della": 7415,
    "würden": 7416,
    "Fabri@@": 7417,
    "Abgeordneter": 7418,
    "Besitz@@": 7419,
    "ines": 7420,
    "enter": 7421,
    "Jacques": 7422,
    "malen": 7423,
    "vertrat": 7424,
    "chinesischen": 7425,
    "oli": 7426,
    "Zei@@": 7427,
    "nehmer": 7428,
    "Me": 7429,
    "boli@@": 7430,
    "Linz": 7431,
    "Menschen@@": 7432,
    "ensch@@": 7433,
    "ry@@": 7434,
    "Bass@@": 7435,
    "Figuren": 7436,
    "Jar@@": 7437,
    "orium": 7438,
    "Hektar": 7439,
    "lic@@": 7440,
    "hauses": 7441,
    "Gefän@@": 7442,
    "Pflanzen": 7443,
    "gehei@@": 7444,
    "Synonyme": 7445,
    "ologisch": 7446,
    "leihung": 7447,
    "GE@@": 7448,
    "Figur": 7449,
    "essor": 7450,
    "Nar@@": 7451,
    "ual": 7452,
    "On": 7453,
    "Besonder@@": 7454,
    "^@@": 7455,
    "Tol@@": 7456,
    "atischen": 7457,
    "begriff": 7458,
    "Baron": 7459,
    "White": 7460,
    "Hav@@": 7461,
    "Time": 7462,
    "gerichts@@": 7463,
    "Wer": 7464,
    "Design": 7465,
    "ader": 7466,
    "ial": 7467,
    "Besuch": 7468,
    "Elemente": 7469,
    "Alte": 7470,
    "Stellung": 7471,
    "ukrain@@": 7472,
    "Kabin@@": 7473,
    "lon": 7474,
    "agte": 7475,
    "Daher": 7476,
    "südwestlich": 7477,
    "enheiten": 7478,
    "ork": 7479,
    "orig@@": 7480,
    "Nass@@": 7481,
    "brasili@@": 7482,
    "Cop@@": 7483,
    "pfer": 7484,
    "sum@@": 7485,
    "Dadurch": 7486,
    "Österreichischen": 7487,
    "Gründungs@@": 7488,
    "Ero@@": 7489,
    "eton": 7490,
    "ori": 7491,
    "liegende": 7492,
    "Luft": 7493,
    "}{": 7494,
    "ions@@": 7495,
    "selten@@": 7496,
    "getragen": 7497,
    "Hersteller": 7498,
    "lös@@": 7499,
    "rix": 7500,
    "wör@@": 7501,
    "Neubau": 7502,
    "Widerstand": 7503,
    "Mannheim": 7504,
    "180": 7505,
    "abrik": 7506,
    "Strom@@": 7507,
    "1858": 7508,
    "künf@@": 7509,
    "ring": 7510,
    "Verfassungs@@": 7511,
    "}}}": 7512,
    "kraft": 7513,
    "zerstör@@": 7514,
    "ridge": 7515,
    "dad": 7516,
    "richtungen": 7517,
    "Antar@@": 7518,
    "Kommand@@": 7519,
    "Stadion": 7520,
    "Hauses": 7521,
    "Mannschafts@@": 7522,
    "liber@@": 7523,
    "1852": 7524,
    "bs@@": 7525,
    "Roll@@": 7526,
    "verfasste": 7527,
    "Ech@@": 7528,
    "schott@@": 7529,
    "Bem@@": 7530,
    "Alten": 7531,
    "ament": 7532,
    "1500": 7533,
    "Misch@@": 7534,
    "seh@@": 7535,
    "Maß@@": 7536,
    "ethe": 7537,
    "fälle": 7538,
    "tage": 7539,
    "kord": 7540,
    "bücher": 7541,
    "echn@@": 7542,
    "zugeordnet": 7543,
    "selb@@": 7544,
    "denken": 7545,
    "enhagen": 7546,
    "italienisch": 7547,
    "lege": 7548,
    "besser": 7549,
    "How@@": 7550,
    "Recht@@": 7551,
    "ältesten": 7552,
    "Gon@@": 7553,
    "englische": 7554,
    "fiziert": 7555,
    "dlichen": 7556,
    "rid@@": 7557,
    "anen": 7558,
    "mög@@": 7559,
    "Medien@@": 7560,
    "ê@@": 7561,
    "Mikro@@": 7562,
    "mittelt": 7563,
    "forscher": 7564,
    "Küste": 7565,
    "ated": 7566,
    "unteren": 7567,
    "nennt": 7568,
    "Seh@@": 7569,
    "nationale": 7570,
    "debü@@": 7571,
    "Quadrat@@": 7572,
    "verwand@@": 7573,
    "iw@@": 7574,
    "heb@@": 7575,
    "Classi@@": 7576,
    "bayerischen": 7577,
    "gress": 7578,
    "zweiter": 7579,
    "gesell@@": 7580,
    "Städten": 7581,
    "Automob@@": 7582,
    "Lind@@": 7583,
    "Oblast": 7584,
    "line@@": 7585,
    "й": 7586,
    "egel@@": 7587,
    "Öl@@": 7588,
    "gewer@@": 7589,
    "Orch@@": 7590,
    "plätze": 7591,
    "nahezu": 7592,
    "Braun@@": 7593,
    "holm": 7594,
    "Stif@@": 7595,
    "Schriftstellerin": 7596,
    "verw@@": 7597,
    "Angriff": 7598,
    "1854": 7599,
    "ladi@@": 7600,
    "ängen": 7601,
    "ballspieler": 7602,
    "Flora": 7603,
    "Franz@@": 7604,
    "Geld@@": 7605,
    "1830": 7606,
    "ud": 7607,
    "Sendung": 7608,
    "François": 7609,
    "olo": 7610,
    "Ukraine": 7611,
    "si": 7612,
    "bezeichnete": 7613,
    "dé@@": 7614,
    "weiler": 7615,
    "Tasch@@": 7616,
    "Michel": 7617,
    "rats": 7618,
    "Stro@@": 7619,
    "aufgebaut": 7620,
    "weiten": 7621,
    "Neuen": 7622,
    "verstor@@": 7623,
    "digungs@@": 7624,
    "Al": 7625,
    "Licht": 7626,
    "SA@@": 7627,
    "tigkeiten": 7628,
    "Williams": 7629,
    "Jack": 7630,
    "änder": 7631,
    "и": 7632,
    "Bekann@@": 7633,
    "Plan": 7634,
    "glei@@": 7635,
    "1857": 7636,
    "Status": 7637,
    "ń@@": 7638,
    "abgeord@@": 7639,
    "iegel@@": 7640,
    "dingt": 7641,
    "BA@@": 7642,
    "Betrieb@@": 7643,
    "Versor@@": 7644,
    "Schwarz": 7645,
    "glas": 7646,
    "Eigent@@": 7647,
    "hü@@": 7648,
    "Alben": 7649,
    "flo@@": 7650,
    "geeig@@": 7651,
    "temp@@": 7652,
    "elektron@@": 7653,
    "italienische": 7654,
    "verlänger@@": 7655,
    "Freiheit": 7656,
    "erstreckt": 7657,
    "Dör@@": 7658,
    "Kast@@": 7659,
    "begonnen": 7660,
    "Dir@@": 7661,
    "Rak@@": 7662,
    "ealog@@": 7663,
    "abel": 7664,
    "aktiv@@": 7665,
    "MA@@": 7666,
    "licherweise": 7667,
    "001": 7668,
    "russische": 7669,
    "og": 7670,
    "Münchner": 7671,
    "Encyclopedia": 7672,
    "Verfassung": 7673,
    "ī@@": 7674,
    "technischen": 7675,
    "Interpre@@": 7676,
    "hofs": 7677,
    "Pel@@": 7678,
    "andelt": 7679,
    "Preis@@": 7680,
    "law@@": 7681,
    "André": 7682,
    "Friedens@@": 7683,
    "oks": 7684,
    "quali@@": 7685,
    "mittlerweile": 7686,
    "Stimme": 7687,
    "späten": 7688,
    "drü@@": 7689,
    "schulen": 7690,
    "Colle@@": 7691,
    "ögel": 7692,
    "erzi@@": 7693,
    "Software": 7694,
    "yp": 7695,
    "Hop@@": 7696,
    "mär@@": 7697,
    "83@@": 7698,
    "Hot@@": 7699,
    "trags@@": 7700,
    "ough": 7701,
    "NSDAP": 7702,
    "zeichnen": 7703,
    "Mül@@": 7704,
    "handelte": 7705,
    "Handel": 7706,
    "dler": 7707,
    "frem@@": 7708,
    "höhe": 7709,
    "Dopp@@": 7710,
    "Wahlkreis": 7711,
    "ozi@@": 7712,
    "beweg@@": 7713,
    "enheim": 7714,
    "ati": 7715,
    "Stephan": 7716,
    "Scott": 7717,
    "aturen": 7718,
    "Ped@@": 7719,
    "kehrt": 7720,
    "besetzt": 7721,
    "glück@@": 7722,
    "befest@@": 7723,
    "raut": 7724,
    "Sn@@": 7725,
    "Aufnahmen": 7726,
    "heiligen": 7727,
    "echnik": 7728,
    "Jörg": 7729,
    "ktiv": 7730,
    "Männ@@": 7731,
    "orial": 7732,
    "nordöstlich": 7733,
    "nordwestlich": 7734,
    "sau@@": 7735,
    "ruppen": 7736,
    "entsprech@@": 7737,
    "Oscar": 7738,
    "Wan@@": 7739,
    "beauftra@@": 7740,
    "magaz@@": 7741,
    "Kel@@": 7742,
    "tic": 7743,
    "verschie@@": 7744,
    "amtes": 7745,
    "liefer@@": 7746,
    "Opern@@": 7747,
    "Besetzung": 7748,
    "Cin@@": 7749,
    "spanischen": 7750,
    "Gedichte": 7751,
    "kraft@@": 7752,
    "Konzept": 7753,
    "Gas@@": 7754,
    "Fig@@": 7755,
    "feld@@": 7756,
    "verschiedener": 7757,
    "zin": 7758,
    "Pul@@": 7759,
    "Sächs@@": 7760,
    "etabli@@": 7761,
    "Züge": 7762,
    "Diskus@@": 7763,
    "Int@@": 7764,
    "dliche": 7765,
    "burgischen": 7766,
    "iser": 7767,
    "Aar@@": 7768,
    "Van": 7769,
    "Innsbruck": 7770,
    "ees": 7771,
    "Zusammen": 7772,
    "Weihnach@@": 7773,
    "Dal@@": 7774,
    "Series": 7775,
    "ism": 7776,
    "gesellschaft@@": 7777,
    "rid": 7778,
    "XX@@": 7779,
    "lien": 7780,
    "Quell@@": 7781,
    "Debüt": 7782,
    "Gründer": 7783,
    "Md@@": 7784,
    "löste": 7785,
    "uther@@": 7786,
    "Koch": 7787,
    "Geschichten": 7788,
    "Norwegen": 7789,
    "illen": 7790,
    "Katast@@": 7791,
    "Bibliothe@@": 7792,
    "bieten": 7793,
    "kü@@": 7794,
    "Franzis@@": 7795,
    "ktur": 7796,
    "stur@@": 7797,
    "Fuß": 7798,
    "gal@@": 7799,
    "Kontakt": 7800,
    "Bay": 7801,
    "Religion": 7802,
    "enge": 7803,
    "enes": 7804,
    "vater": 7805,
    "dati@@": 7806,
    "Glau@@": 7807,
    "DVD": 7808,
    "Experim@@": 7809,
    "verstarb": 7810,
    "·": 7811,
    "isierte": 7812,
    "verändert": 7813,
    "zählte": 7814,
    "Pokal@@": 7815,
    "Entschei@@": 7816,
    "Chef": 7817,
    "Kleine": 7818,
    "Reinhard": 7819,
    "Ursprün@@": 7820,
    "ock": 7821,
    "kretär": 7822,
    "Magaz@@": 7823,
    "Barb@@": 7824,
    "Nikolaus": 7825,
    "enfeld": 7826,
    "By@@": 7827,
    "EP": 7828,
    ".;": 7829,
    "ursprünglichen": 7830,
    "DS": 7831,
    "geschie@@": 7832,
    "orth": 7833,
    "Trag@@": 7834,
    "einfach": 7835,
    "tinu@@": 7836,
    "Zimm@@": 7837,
    "gä@@": 7838,
    "erinnert": 7839,
    "itäts@@": 7840,
    "Harald": 7841,
    "Kamp@@": 7842,
    "Cir@@": 7843,
    "wass@@": 7844,
    "horn": 7845,
    "dreht": 7846,
    "ST@@": 7847,
    "101": 7848,
    "Architekt@@": 7849,
    "Rand": 7850,
    "Samuel": 7851,
    "küste": 7852,
    "day": 7853,
    "Rap@@": 7854,
    "ep": 7855,
    "Entfern@@": 7856,
    "ban": 7857,
    "Start@@": 7858,
    "Zustand": 7859,
    "any": 7860,
    "zuständig": 7861,
    "Cri@@": 7862,
    "74@@": 7863,
    "ley@@": 7864,
    "nich@@": 7865,
    "produktion": 7866,
    "Jacob": 7867,
    "Spezi@@": 7868,
    "lieb": 7869,
    "Volume": 7870,
    "Tats@@": 7871,
    "Vertre@@": 7872,
    "Verkehr": 7873,
    "Oster@@": 7874,
    "gemeinsamen": 7875,
    "fasst": 7876,
    "Verwal@@": 7877,
    "gänge": 7878,
    "Eberhard": 7879,
    "Höch@@": 7880,
    "1855": 7881,
    "—": 7882,
    "anna": 7883,
    "Clu@@": 7884,
    "Flei@@": 7885,
    "Original@@": 7886,
    "fuss@@": 7887,
    "m³": 7888,
    "pot@@": 7889,
    "Wahlen": 7890,
    "Klei@@": 7891,
    "Aber": 7892,
    "wirken": 7893,
    "Mitgliedern": 7894,
    "herausgegeben": 7895,
    "Einsatz@@": 7896,
    "seitdem": 7897,
    "philosoph@@": 7898,
    "Conc@@": 7899,
    "gefasst": 7900,
    "tens": 7901,
    "rigkeit": 7902,
    "kennen": 7903,
    "kr@@": 7904,
    "wuch@@": 7905,
    "teste": 7906,
    "Erzieh@@": 7907,
    "wert@@": 7908,
    "schnei@@": 7909,
    "entschied": 7910,
    "get": 7911,
    "Leo": 7912,
    "Gegner": 7913,
    "Hay@@": 7914,
    "Erkenn@@": 7915,
    "erklärte": 7916,
    "Hoffmann": 7917,
    "Elektro@@": 7918,
    "113@@": 7919,
    "mich": 7920,
    "konserv@@": 7921,
    "struktur@@": 7922,
    "Gör@@": 7923,
    "bet": 7924,
    "Arti@@": 7925,
    "verurteilt": 7926,
    "zeitig": 7927,
    "rumän@@": 7928,
    "abhäng@@": 7929,
    "Laufbahn": 7930,
    "Prinz": 7931,
    "Waff@@": 7932,
    "stücke": 7933,
    "beam@@": 7934,
    "kri@@": 7935,
    "Arab@@": 7936,
    "Hintergrund": 7937,
    "volution": 7938,
    "dlich": 7939,
    "lal@@": 7940,
    "Kongress": 7941,
    "versehen": 7942,
    "Schö@@": 7943,
    "ó": 7944,
    "Denkmalliste": 7945,
    "ba@@": 7946,
    "Digit@@": 7947,
    "verp@@": 7948,
    "journ@@": 7949,
    "rt": 7950,
    "benen": 7951,
    "Premier@@": 7952,
    "etzte": 7953,
    "sowjet@@": 7954,
    "vorwiegend": 7955,
    "arzt": 7956,
    "Sicherheits@@": 7957,
    "aue": 7958,
    "ock@@": 7959,
    "Konkurr@@": 7960,
    "ands@@": 7961,
    "übrigen": 7962,
    "überra@@": 7963,
    "ganzen": 7964,
    "Generation": 7965,
    "Schreib@@": 7966,
    "ni": 7967,
    "beziehungsweise": 7968,
    "Beziehung": 7969,
    "kleinere": 7970,
    "Dec@@": 7971,
    "Idee": 7972,
    "Gedi@@": 7973,
    "tags": 7974,
    "Schm@@": 7975,
    "ez@@": 7976,
    "Personen@@": 7977,
    "mündet": 7978,
    "ν@@": 7979,
    "Medaille": 7980,
    "spätere": 7981,
    "einheit": 7982,
    "vorhand@@": 7983,
    "Tak@@": 7984,
    "steigen": 7985,
    "abgeschlossen": 7986,
    "straßen": 7987,
    "bie@@": 7988,
    "künst@@": 7989,
    "kus": 7990,
    "arbeit@@": 7991,
    "ausgestattet": 7992,
    "schafft": 7993,
    "geplant": 7994,
    "Donau": 7995,
    "alia": 7996,
    "Pflanzen@@": 7997,
    "sätzen": 7998,
    "Lager@@": 7999,
    "Einrichtung": 8000,
    "rer": 8001,
    "ning": 8002,
    "gehör@@": 8003,
    "gge": 8004,
    "mod@@": 8005,
    "emper@@": 8006,
    "Jüd@@": 8007,
    "Lem@@": 8008,
    "Vereins@@": 8009,
    "Erfin@@": 8010,
    "shire": 8011,
    "dra@@": 8012,
    "Ausland": 8013,
    "Gouverneur": 8014,
    "hammer": 8015,
    "Becker": 8016,
    "pommern": 8017,
    "zwe@@": 8018,
    "1846": 8019,
    "ulation": 8020,
    "fle@@": 8021,
    "Wort@@": 8022,
    "rachten": 8023,
    "tragung": 8024,
    "sprach": 8025,
    "Entstehung": 8026,
    "unterschiedliche": 8027,
    "DF": 8028,
    "Amt@@": 8029,
    "news": 8030,
    "beschä@@": 8031,
    "sätz@@": 8032,
    "Reference": 8033,
    "silber@@": 8034,
    "DF@@": 8035,
    "orden": 8036,
    "Ré@@": 8037,
    "udi@@": 8038,
    "ipen@@": 8039,
    "Joh@@": 8040,
    "Gottes@@": 8041,
    "langs@@": 8042,
    "treffen": 8043,
    "Boch@@": 8044,
    "ossen@@": 8045,
    "staat": 8046,
    "KG": 8047,
    "Industri@@": 8048,
    "Dokumentation": 8049,
    "Sicherheit": 8050,
    "Studies": 8051,
    "03@@": 8052,
    "Halbfinale": 8053,
    "Län@@": 8054,
    "Herz": 8055,
    "kurzen": 8056,
    "entstand@@": 8057,
    "Cy@@": 8058,
    "ringt": 8059,
    "graf": 8060,
    "hat@@": 8061,
    "Cer@@": 8062,
    "Rub@@": 8063,
    "Trier": 8064,
    "kunft": 8065,
    "Dortmund": 8066,
    "parti@@": 8067,
    "Drehbuch": 8068,
    "kanadischer": 8069,
    "Feld": 8070,
    "Waffen": 8071,
    "lätzen": 8072,
    "Höl@@": 8073,
    "],": 8074,
    "Stev@@": 8075,
    "Tonnen": 8076,
    "hoh@@": 8077,
    "Abt": 8078,
    "Verzeichnis": 8079,
    "Satz": 8080,
    "Erfolge": 8081,
    "großes": 8082,
    "CO": 8083,
    "steiger": 8084,
    "angew@@": 8085,
    "weder": 8086,
    "Ereignisse": 8087,
    "Studenten": 8088,
    "Erzb@@": 8089,
    "1806": 8090,
    "Fab@@": 8091,
    "starke": 8092,
    "Konstant@@": 8093,
    "Bulgar@@": 8094,
    "Tat@@": 8095,
    "Princ@@": 8096,
    "æ@@": 8097,
    "Rio": 8098,
    "osop@@": 8099,
    "öße": 8100,
    "betra@@": 8101,
    "Patrick": 8102,
    "Episode": 8103,
    "Bühn@@": 8104,
    "Differ@@": 8105,
    "Schott@@": 8106,
    "bibli@@": 8107,
    "delte": 8108,
    "scha": 8109,
    "urkundlich": 8110,
    "Roger": 8111,
    "Universitäten": 8112,
    "Henn@@": 8113,
    "Augen@@": 8114,
    "Chin@@": 8115,
    "Entwurf": 8116,
    "Lew@@": 8117,
    "Hafen": 8118,
    "rauch@@": 8119,
    "Kreises": 8120,
    "gor@@": 8121,
    "Giovanni": 8122,
    "epp@@": 8123,
    "Aur@@": 8124,
    "ador": 8125,
    "stuhl": 8126,
    "inson": 8127,
    "ld@@": 8128,
    "Vorschau": 8129,
    "baus": 8130,
    "hoher": 8131,
    "mä@@": 8132,
    "Woche": 8133,
    "mitglieder": 8134,
    "einzigen": 8135,
    "beschreibt": 8136,
    "erhoben": 8137,
    "Politikerin": 8138,
    "112@@": 8139,
    "Sicht": 8140,
    "Errichtung": 8141,
    "Sper@@": 8142,
    "Anwen@@": 8143,
    "Breite": 8144,
    "las@@": 8145,
    "hinzu": 8146,
    "version": 8147,
    "Initiative": 8148,
    "Auszeichnung": 8149,
    "Juan": 8150,
    "Them@@": 8151,
    "Enter@@": 8152,
    "Mission": 8153,
    "Rostock": 8154,
    "Andre@@": 8155,
    "fi@@": 8156,
    "politisch": 8157,
    "Schrift": 8158,
    "umfasste": 8159,
    "eintrag": 8160,
    "Afrika": 8161,
    "mögen": 8162,
    "geborene": 8163,
    "landes@@": 8164,
    "Fassung": 8165,
    "jo": 8166,
    "Code": 8167,
    "lehrer": 8168,
    "Mutter@@": 8169,
    "Argentin@@": 8170,
    "reiber": 8171,
    "Bör@@": 8172,
    "ér@@": 8173,
    "karte": 8174,
    "Bam@@": 8175,
    "Entwicklungs@@": 8176,
    "Potsdam": 8177,
    "rums": 8178,
    "Heil@@": 8179,
    "kts": 8180,
    "suchen": 8181,
    "rigen": 8182,
    "vorher": 8183,
    "Alex@@": 8184,
    "Kör@@": 8185,
    "Europe": 8186,
    "Pfei@@": 8187,
    "Millimeter": 8188,
    "Dür@@": 8189,
    "iness": 8190,
    "ense": 8191,
    "gekommen": 8192,
    "nummer": 8193,
    "1845": 8194,
    "beschrän@@": 8195,
    "nörd@@": 8196,
    "schar@@": 8197,
    "erweiterte": 8198,
    "04@@": 8199,
    "Reise@@": 8200,
    "ufer": 8201,
    "Laur@@": 8202,
    "schweren": 8203,
    "ios": 8204,
    "Verla@@": 8205,
    "1851": 8206,
    "eicht": 8207,
    "))": 8208,
    "tes@@": 8209,
    "3333@@": 8210,
    "LE@@": 8211,
    "Nau@@": 8212,
    "Gesund@@": 8213,
    "Bio@@": 8214,
    "Arbeiter": 8215,
    "Brand": 8216,
    "Real@@": 8217,
    "oda": 8218,
    "Route": 8219,
    "Freder@@": 8220,
    "hätten": 8221,
    "Vide@@": 8222,
    "Garten": 8223,
    "aya": 8224,
    "Zahlen": 8225,
    "möglicherweise": 8226,
    "ason": 8227,
    "bek": 8228,
    "Bron@@": 8229,
    "Brief": 8230,
    "esi@@": 8231,
    "val@@": 8232,
    "Reiches": 8233,
    "Bayerische": 8234,
    "Stich@@": 8235,
    "ogen": 8236,
    "Freunde": 8237,
    "Christop@@": 8238,
    "ßt": 8239,
    "Studio": 8240,
    "lav": 8241,
    ":@@": 8242,
    "kov@@": 8243,
    "stift": 8244,
    "zierte": 8245,
    "Label": 8246,
    "sächs@@": 8247,
    "Grenzen": 8248,
    "alistische": 8249,
    "die@@": 8250,
    "brach": 8251,
    "dis": 8252,
    "adel@@": 8253,
    "gleiche": 8254,
    "Now@@": 8255,
    "sozialen": 8256,
    "promoviert": 8257,
    "west": 8258,
    "issi@@": 8259,
    "sy@@": 8260,
    "Rathaus": 8261,
    "verpflichtet": 8262,
    "dortigen": 8263,
    "erinn@@": 8264,
    "enhausen": 8265,
    "ès": 8266,
    "betrachtet": 8267,
    "terbuch": 8268,
    "erlau@@": 8269,
    "Tam@@": 8270,
    "Vogel@@": 8271,
    "stütz@@": 8272,
    "Pro": 8273,
    "IX": 8274,
    "Central": 8275,
    "ehrt": 8276,
    "Fort": 8277,
    "gehoben": 8278,
    "entsteht": 8279,
    "tus": 8280,
    "ulen": 8281,
    "zugän@@": 8282,
    "Bin@@": 8283,
    "aku@@": 8284,
    "Priester": 8285,
    "cil": 8286,
    "bislang": 8287,
    "Schlei@@": 8288,
    "Stau@@": 8289,
    "Wü@@": 8290,
    "reten": 8291,
    "Problem": 8292,
    "Karl@@": 8293,
    "emi@@": 8294,
    "Pion@@": 8295,
    "train@@": 8296,
    "Rumänien": 8297,
    "owitsch": 8298,
    "schaffte": 8299,
    "Europameisterschaft": 8300,
    "erien@@": 8301,
    "iana": 8302,
    "cle": 8303,
    "begannen": 8304,
    "ware": 8305,
    "schlug": 8306,
    "Jul@@": 8307,
    "harmon@@": 8308,
    "BBC": 8309,
    "ktiven": 8310,
    "rier@@": 8311,
    "Hur@@": 8312,
    "Som@@": 8313,
    "etc": 8314,
    "Chef@@": 8315,
    "Erster": 8316,
    "Cha@@": 8317,
    "barer": 8318,
    "iele": 8319,
    "Dipl@@": 8320,
    "einiger": 8321,
    "stehende": 8322,
    "bewoh@@": 8323,
    "erwor@@": 8324,
    "Mathematik": 8325,
    "Abend@@": 8326,
    "Skulpt@@": 8327,
    "Staf@@": 8328,
    "schwier@@": 8329,
    "Studie": 8330,
    "log@@": 8331,
    "Eber@@": 8332,
    "Aspe@@": 8333,
    "geschwindigkeit": 8334,
    "Names": 8335,
    "Renaiss@@": 8336,
    "massi@@": 8337,
    "fahrts@@": 8338,
    "700": 8339,
    "icip@@": 8340,
    "Ägypten": 8341,
    "zentr@@": 8342,
    "Mak@@": 8343,
    "kunst@@": 8344,
    "Schwerpunkt": 8345,
    "ish@@": 8346,
    "schuf": 8347,
    "Zunächst": 8348,
    "Tir@@": 8349,
    "ktiv@@": 8350,
    "Young": 8351,
    "Neck@@": 8352,
    "offizi@@": 8353,
    "Ring@@": 8354,
    "onischen": 8355,
    "ynam@@": 8356,
    "eingesch@@": 8357,
    "Oliver": 8358,
    "aki": 8359,
    "zurückzu@@": 8360,
    "Gleichzeitig": 8361,
    "Museums": 8362,
    "Information@@": 8363,
    "verg@@": 8364,
    "Tageb@@": 8365,
    "umin@@": 8366,
    "vention": 8367,
    "Bit@@": 8368,
    "Gemälde": 8369,
    "weich@@": 8370,
    "verbrachte": 8371,
    "gebirge": 8372,
    "Verhäl@@": 8373,
    "forderungen": 8374,
    "Übersicht": 8375,
    "lat": 8376,
    "behörde": 8377,
    "Datenb@@": 8378,
    "Sho@@": 8379,
    "ów": 8380,
    "Region@@": 8381,
    "1853": 8382,
    "Frieden": 8383,
    "Joe": 8384,
    "Zau@@": 8385,
    "sicher": 8386,
    "inform@@": 8387,
    "rhein@@": 8388,
    "eth": 8389,
    "Besitzer": 8390,
    "Scho@@": 8391,
    "Gruppen@@": 8392,
    "Ufer": 8393,
    "apel": 8394,
    "gestaltung": 8395,
    "unterscheiden": 8396,
    "Gruyter": 8397,
    "vide@@": 8398,
    "Präsident@@": 8399,
    "bedeutend@@": 8400,
    "Thür@@": 8401,
    "Studien@@": 8402,
    "FDP": 8403,
    "mil@@": 8404,
    "Zeitraum": 8405,
    "Fant@@": 8406,
    "1847": 8407,
    "Kooper@@": 8408,
    "Grab": 8409,
    "Schick@@": 8410,
    "schließ@@": 8411,
    "agne": 8412,
    "ministeriums": 8413,
    "org@@": 8414,
    "regul@@": 8415,
    "alysi@@": 8416,
    "tent@@": 8417,
    "atte": 8418,
    "vereinigung": 8419,
    "derer": 8420,
    "gehörige": 8421,
    "Variante": 8422,
    "öss@@": 8423,
    "einer@@": 8424,
    "„@@": 8425,
    "eröffnete": 8426,
    "Diri@@": 8427,
    "reibt": 8428,
    "hung": 8429,
    "lad@@": 8430,
    "user": 8431,
    "ses": 8432,
    "Earl": 8433,
    "Heilbron@@": 8434,
    "ummer": 8435,
    "Hyp@@": 8436,
    "Uwe": 8437,
    "baum": 8438,
    "pfen": 8439,
    "kil@@": 8440,
    "material": 8441,
    "Linien": 8442,
    "wege": 8443,
    "Pfarrei": 8444,
    "oto": 8445,
    "griechisch": 8446,
    "ket@@": 8447,
    "folgen@@": 8448,
    "Wohl@@": 8449,
    "arische": 8450,
    "artige": 8451,
    "Verwand@@": 8452,
    "Guide": 8453,
    "bergs": 8454,
    "Alt": 8455,
    "zes": 8456,
    "wirkung": 8457,
    "Physik": 8458,
    "Mike": 8459,
    "Mes@@": 8460,
    "räum@@": 8461,
    "Junioren": 8462,
    "ava": 8463,
    "chter@@": 8464,
    "Zugang": 8465,
    "Pak@@": 8466,
    "ktes": 8467,
    "Neues": 8468,
    "Symp@@": 8469,
    "ßig@@": 8470,
    "Gerä@@": 8471,
    "einzelne": 8472,
    "95@@": 8473,
    "zif@@": 8474,
    "eingeschränkte": 8475,
    "Operation": 8476,
    "parallel": 8477,
    "ubilä@@": 8478,
    "Ausnahme": 8479,
    "Porträt": 8480,
    "riere": 8481,
    "Dynast@@": 8482,
    "Führer": 8483,
    "NE@@": 8484,
    "säm@@": 8485,
    "Somm@@": 8486,
    "oslaw@@": 8487,
    "ändert": 8488,
    "Anat@@": 8489,
    "Verordnung": 8490,
    "Kul@@": 8491,
    "vin": 8492,
    "Bie@@": 8493,
    "info": 8494,
    "[@@": 8495,
    "Augen": 8496,
    "laufen": 8497,
    "Regionen": 8498,
    "kow": 8499,
    "ager": 8500,
    "Bill": 8501,
    "Lein@@": 8502,
    "iat@@": 8503,
    "It@@": 8504,
    "Arrondissement": 8505,
    "bol": 8506,
    "anges@@": 8507,
    "160": 8508,
    "gül@@": 8509,
    "fähigkeit": 8510,
    "Pseud@@": 8511,
    "Unternehmens@@": 8512,
    "siv": 8513,
    "Arz@@": 8514,
    "oge": 8515,
    "Wupp@@": 8516,
    "Gegen": 8517,
    "Wege": 8518,
    "Geistlicher": 8519,
    "Amtszeit": 8520,
    "Zahn@@": 8521,
    "mehrerer": 8522,
    "Systems": 8523,
    "ungefähr": 8524,
    "Gär@@": 8525,
    "anlässlich": 8526,
    "marsch@@": 8527,
    "1818": 8528,
    "zah@@": 8529,
    "befin@@": 8530,
    "Gitarr@@": 8531,
    "Mund@@": 8532,
    "kapelle": 8533,
    "Versich@@": 8534,
    "bir@@": 8535,
    "ا@@": 8536,
    "Boh@@": 8537,
    "Speich@@": 8538,
    "hören": 8539,
    "herren": 8540,
    "119@@": 8541,
    "ye@@": 8542,
    "Farbe": 8543,
    "schä@@": 8544,
    "Church": 8545,
    "Lut@@": 8546,
    "Hex@@": 8547,
    "new": 8548,
    "Heu@@": 8549,
    "б@@": 8550,
    "pa": 8551,
    "Struktur": 8552,
    "besitz": 8553,
    "Naturschutzgebiet": 8554,
    "Halbinsel": 8555,
    "bst": 8556,
    "Arg@@": 8557,
    "Brem@@": 8558,
    "406": 8559,
    "bür@@": 8560,
    "Ebenfalls": 8561,
    "Griechenland": 8562,
    "Beau@@": 8563,
    "Problem@@": 8564,
    "grä@@": 8565,
    "landes": 8566,
    "Chi@@": 8567,
    "20er": 8568,
    "book": 8569,
    "Luxem@@": 8570,
    "Diöz@@": 8571,
    "itions": 8572,
    "Fällen": 8573,
    "ags": 8574,
    "guten": 8575,
    "105": 8576,
    "strahlung": 8577,
    "ă@@": 8578,
    "woll@@": 8579,
    "over@@": 8580,
    "wechselt": 8581,
    "under": 8582,
    "katholischer": 8583,
    "Mehrheit": 8584,
    "Meisterschaften": 8585,
    "Lord": 8586,
    "ä": 8587,
    "Blue": 8588,
    "oner": 8589,
    "bot": 8590,
    "rige": 8591,
    "Virginia": 8592,
    "Hitler": 8593,
    "gent@@": 8594,
    "Pokal": 8595,
    "Park@@": 8596,
    "Fernsehs@@": 8597,
    "versorgung": 8598,
    "Whit@@": 8599,
    "rollen": 8600,
    "luther@@": 8601,
    "deter": 8602,
    "Chris": 8603,
    "ión": 8604,
    "moderne": 8605,
    "jeden": 8606,
    "seitig": 8607,
    "Übersetz@@": 8608,
    "univers@@": 8609,
    "einst@@": 8610,
    "Mühle": 8611,
    "Flucht": 8612,
    "Loh@@": 8613,
    "ielt": 8614,
    "ständnis": 8615,
    "führenden": 8616,
    "Francis": 8617,
    "verkauf@@": 8618,
    "präs@@": 8619,
    "klassischen": 8620,
    "motor": 8621,
    "music": 8622,
    "eu": 8623,
    "ogen@@": 8624,
    "ursprün@@": 8625,
    "Rah@@": 8626,
    "Semin@@": 8627,
    "bestätigt": 8628,
    "Eröffnung": 8629,
    "deutschland": 8630,
    "Kaufmann": 8631,
    "Gottes": 8632,
    "Paul@@": 8633,
    "athan": 8634,
    "Hans@@": 8635,
    "berichtet": 8636,
    "Rus@@": 8637,
    "förmig": 8638,
    "griffen": 8639,
    "ray": 8640,
    "Western": 8641,
    "IA": 8642,
    "inner": 8643,
    "programm": 8644,
    "Bell@@": 8645,
    "Siegfried": 8646,
    "Enzyklopädie": 8647,
    "Schall@@": 8648,
    "griech@@": 8649,
    "rank@@": 8650,
    "kli@@": 8651,
    "benannte": 8652,
    "altar": 8653,
    "Venedig": 8654,
    "ziplin@@": 8655,
    "weiß@@": 8656,
    "VIII": 8657,
    "Unternehmens": 8658,
    "dien": 8659,
    "Kontrolle": 8660,
    "Cle@@": 8661,
    "Bundesamt": 8662,
    "Ethn@@": 8663,
    "vo": 8664,
    "ury": 8665,
    "NG@@": 8666,
    "versor@@": 8667,
    "Pow@@": 8668,
    "North@@": 8669,
    "Bauer": 8670,
    "cio": 8671,
    "Gebur@@": 8672,
    "bit@@": 8673,
    "Klu@@": 8674,
    "het@@": 8675,
    "Beweg@@": 8676,
    "unabhäng@@": 8677,
    "konzent@@": 8678,
    "Jerus@@": 8679,
    "Hg": 8680,
    "ival": 8681,
    "Vf@@": 8682,
    "etti": 8683,
    "ering": 8684,
    "ld": 8685,
    "Rav@@": 8686,
    "erfolgreich@@": 8687,
    "archä@@": 8688,
    "vorgesehen": 8689,
    "aster": 8690,
    "Sender": 8691,
    "Kär@@": 8692,
    "sing": 8693,
    "vergeben": 8694,
    "richten": 8695,
    "Jagd@@": 8696,
    "DIN": 8697,
    "gebenen": 8698,
    "ull": 8699,
    "olli@@": 8700,
    "SO@@": 8701,
    "Johnson": 8702,
    "idae": 8703,
    "Wiktionary": 8704,
    "inus": 8705,
    "Fertig@@": 8706,
    "nieder": 8707,
    "Gemeinschaft": 8708,
    "Auto": 8709,
    "sicherh@@": 8710,
    "1803": 8711,
    "Roland": 8712,
    "famili@@": 8713,
    "passi@@": 8714,
    "Barcelona": 8715,
    "ckte": 8716,
    "aft": 8717,
    "kultur": 8718,
    "iki": 8719,
    "Survey": 8720,
    "Komment@@": 8721,
    "iko": 8722,
    "rate": 8723,
    "Sieg@@": 8724,
    "Of": 8725,
    "94@@": 8726,
    "С@@": 8727,
    "Fell@@": 8728,
    "Lager": 8729,
    "schwedischen": 8730,
    "fac@@": 8731,
    "1843": 8732,
    "Dorfes": 8733,
    "Synag@@": 8734,
    "ali": 8735,
    "Wortherkunft": 8736,
    "öffentlich": 8737,
    "wähnung": 8738,
    "Dokumentar@@": 8739,
    "Vinc@@": 8740,
    "Libr@@": 8741,
    "ichts@@": 8742,
    "deckung": 8743,
    "verli@@": 8744,
    "einzel@@": 8745,
    "07@@": 8746,
    "Direkt@@": 8747,
    "Clar@@": 8748,
    "umst@@": 8749,
    "96@@": 8750,
    "atus": 8751,
    "dien@@": 8752,
    "loh@@": 8753,
    "schü@@": 8754,
    "sist@@": 8755,
    "ş@@": 8756,
    "Ähn@@": 8757,
    "Fas@@": 8758,
    "Schum@@": 8759,
    "Nominierung": 8760,
    "arch": 8761,
    "Flücht@@": 8762,
    "bewahr@@": 8763,
    "trifft": 8764,
    "ordnet": 8765,
    "dach": 8766,
    "Langen@@": 8767,
    "eman": 8768,
    "halb@@": 8769,
    "Mathematiker": 8770,
    "respon@@": 8771,
    "wegs": 8772,
    "cz@@": 8773,
    "major": 8774,
    "olph": 8775,
    "Prix": 8776,
    "Moritz": 8777,
    "sser": 8778,
    "140": 8779,
    "existiert": 8780,
    "put@@": 8781,
    "spanischer": 8782,
    "dierte": 8783,
    "Woiwod@@": 8784,
    "ito": 8785,
    "Wilson": 8786,
    "hart": 8787,
    "dach@@": 8788,
    "genannte": 8789,
    "Bour@@": 8790,
    "Leistungs@@": 8791,
    "eigenes": 8792,
    "entu@@": 8793,
    "Gymnasi@@": 8794,
    "gemeinsame": 8795,
    "erzählt": 8796,
    "bedingungen": 8797,
    "verhaf@@": 8798,
    "Oberliga": 8799,
    "zent": 8800,
    "Esp@@": 8801,
    "komplett": 8802,
    "1844": 8803,
    "Num@@": 8804,
    "Daraufhin": 8805,
    "Pit@@": 8806,
    "Bedeutungserklärungen": 8807,
    "Alf@@": 8808,
    "Soli@@": 8809,
    "Krankenhaus": 8810,
    "hieß": 8811,
    "Rundfunk": 8812,
    "nannte": 8813,
    "sieger": 8814,
    "Vereine": 8815,
    "ield": 8816,
    "Aka@@": 8817,
    "Europäische": 8818,
    "onym": 8819,
    "decken": 8820,
    "kow@@": 8821,
    "Strateg@@": 8822,
    "getötet": 8823,
    "Strah@@": 8824,
    "freier": 8825,
    "Datum": 8826,
    "licht@@": 8827,
    "Schar@@": 8828,
    "güter": 8829,
    "undet": 8830,
    "Monaten": 8831,
    "Verbrei@@": 8832,
    "Verbreitung": 8833,
    "führungen": 8834,
    "pos@@": 8835,
    "Europameister@@": 8836,
    "aga": 8837,
    "betro@@": 8838,
    "ermöglicht": 8839,
    "kammer": 8840,
    "kosten": 8841,
    "Gesang": 8842,
    "Blüten@@": 8843,
    "fordert": 8844,
    "Königreichs": 8845,
    "getrennt": 8846,
    "AC": 8847,
    "lied": 8848,
    "NN": 8849,
    "sprin@@": 8850,
    "jüdische": 8851,
    "zählung": 8852,
    "schreiben": 8853,
    "Publishing": 8854,
    "Sir": 8855,
    "Bühne": 8856,
    "Rol@@": 8857,
    "mittleren": 8858,
    "regelmäß@@": 8859,
    "Rot": 8860,
    "Zusätz@@": 8861,
    "Badmin@@": 8862,
    "Handlung": 8863,
    "Dörfer": 8864,
    "té": 8865,
    "yl": 8866,
    "zweit@@": 8867,
    "Perspe@@": 8868,
    "Phase": 8869,
    "entstehen": 8870,
    "Neu": 8871,
    "Mailand": 8872,
    "Andrew": 8873,
    "sträger": 8874,
    "old@@": 8875,
    "Abgeordneten": 8876,
    "Bestandteil": 8877,
    "miss@@": 8878,
    "rachen": 8879,
    "rice": 8880,
    "miteinander": 8881,
    "Book": 8882,
    "Mathemati@@": 8883,
    "undenen": 8884,
    "Europas": 8885,
    "hess@@": 8886,
    "ausbildung": 8887,
    "Metall@@": 8888,
    "urn": 8889,
    "ädagoge": 8890,
    "gramm": 8891,
    "Detail@@": 8892,
    "aufnahmen": 8893,
    "ument@@": 8894,
    "cts": 8895,
    "etten@@": 8896,
    "Freiwil@@": 8897,
    "Informations@@": 8898,
    "Anim@@": 8899,
    "Zus@@": 8900,
    "KZ": 8901,
    "Dann": 8902,
    "1842": 8903,
    "Force": 8904,
    "Breslau": 8905,
    "gelegentlich": 8906,
    "viertel": 8907,
    "technische": 8908,
    "ings@@": 8909,
    "Green": 8910,
    "ierende": 8911,
    "musiker": 8912,
    "RO@@": 8913,
    "я": 8914,
    "iro": 8915,
    "zo": 8916,
    "Maßnahmen": 8917,
    "tner": 8918,
    "Politik@@": 8919,
    "ps@@": 8920,
    "olz": 8921,
    "ск@@": 8922,
    "Kopf@@": 8923,
    "Bill@@": 8924,
    "entlassen": 8925,
    "Historische": 8926,
    "Nob@@": 8927,
    "Benn@@": 8928,
    "Alph@@": 8929,
    "Astero@@": 8930,
    "Elect@@": 8931,
    "mas": 8932,
    "wirt@@": 8933,
    "bury": 8934,
    "Cit@@": 8935,
    "zeiger": 8936,
    "Produzent": 8937,
    "richtet": 8938,
    "mond": 8939,
    "BS": 8940,
    "affen": 8941,
    "Columbia": 8942,
    "Eva": 8943,
    "kra@@": 8944,
    "Taylor": 8945,
    "unabhängig": 8946,
    "befördert": 8947,
    "Diplomat": 8948,
    "ansässi@@": 8949,
    "Forum": 8950,
    "Vereinigte": 8951,
    "Riv@@": 8952,
    "anschließ@@": 8953,
    "Marx": 8954,
    "Gedan@@": 8955,
    "Ski@@": 8956,
    "Steve": 8957,
    "frist@@": 8958,
    "opf": 8959,
    "Verdienst@@": 8960,
    "arden": 8961,
    "UK": 8962,
    "schu@@": 8963,
    "nische": 8964,
    "Maschinen": 8965,
    "ultur@@": 8966,
    "1837": 8967,
    "ke@@": 8968,
    "geblich": 8969,
    "tschaft": 8970,
    "ielten": 8971,
    "hts": 8972,
    "Wech@@": 8973,
    "Ausdruck": 8974,
    "California": 8975,
    "Ministerpräsident": 8976,
    "Schütz@@": 8977,
    "vermut@@": 8978,
    "CD@@": 8979,
    "Games": 8980,
    "ötz@@": 8981,
    "Benj@@": 8982,
    "entur": 8983,
    "ergibt": 8984,
    "dürfen": 8985,
    ",\\": 8986,
    "Is": 8987,
    "ru": 8988,
    "gewinn@@": 8989,
    "Wy@@": 8990,
    "Eric": 8991,
    "Pok@@": 8992,
    "schreibt": 8993,
    "itän": 8994,
    "präsentiert": 8995,
    "macher": 8996,
    "ökon@@": 8997,
    "Las@@": 8998,
    "Funktionen": 8999,
    "Madrid": 9000,
    "Ludwigs@@": 9001,
    "ermor@@": 9002,
    "ßer": 9003,
    "platte": 9004,
    "adt": 9005,
    "archive": 9006,
    "erziel@@": 9007,
    "yr": 9008,
    "Katharina": 9009,
    "Abent@@": 9010,
    "bö@@": 9011,
    "zylin@@": 9012,
    "Sciences": 9013,
    "Erinner@@": 9014,
    "tags@@": 9015,
    "Vul@@": 9016,
    "Anlagen": 9017,
    "111": 9018,
    "riffen": 9019,
    "Aufent@@": 9020,
    "cons@@": 9021,
    "abet@@": 9022,
    "unterricht": 9023,
    "sg": 9024,
    "ript": 9025,
    "Play": 9026,
    "promovierte": 9027,
    "fragen": 9028,
    "Gegend": 9029,
    "Kost@@": 9030,
    "kW": 9031,
    "Halte@@": 9032,
    "Bap@@": 9033,
    "board": 9034,
    "Ih@@": 9035,
    "gress@@": 9036,
    "äf@@": 9037,
    "angesehen": 9038,
    "Bauern": 9039,
    "Malerei": 9040,
    "zufolge": 9041,
    "Rezen@@": 9042,
    "ickt": 9043,
    "Mill@@": 9044,
    "Filmen": 9045,
    "lar": 9046,
    "“),": 9047,
    "Tatort": 9048,
    "Einrichtungen": 9049,
    "ox": 9050,
    "Freiherr": 9051,
    "»@@": 9052,
    "1813": 9053,
    "zeitgenöss@@": 9054,
    "Patienten": 9055,
    "fielen": 9056,
    "Wär@@": 9057,
    "beth": 9058,
    "Lun@@": 9059,
    "ally": 9060,
    "1814": 9061,
    "Behandlung": 9062,
    "Bata@@": 9063,
    "John@@": 9064,
    "Wechsel": 9065,
    "manchmal": 9066,
    "Brief@@": 9067,
    "andte": 9068,
    "charakter@@": 9069,
    "enbür@@": 9070,
    "Klavier@@": 9071,
    "riel": 9072,
    "zeitweise": 9073,
    "zunehmen": 9074,
    "sequ@@": 9075,
    "isra@@": 9076,
    "Major": 9077,
    "scheint": 9078,
    "sofort": 9079,
    "ular": 9080,
    "Spor@@": 9081,
    "besitzer": 9082,
    "Bronzeme@@": 9083,
    "sowjetischen": 9084,
    "kamp": 9085,
    "Victor": 9086,
    "teb@@": 9087,
    "äische": 9088,
    "1835": 9089,
    "Landkreises": 9090,
    "Neuseel@@": 9091,
    "istisch": 9092,
    "Nacional": 9093,
    "Pav@@": 9094,
    "arth": 9095,
    "siert": 9096,
    "Kön@@": 9097,
    "Farben": 9098,
    "fabrik": 9099,
    "seln": 9100,
    "wurf": 9101,
    "Großteil": 9102,
    "verbindet": 9103,
    "κ@@": 9104,
    "gesich@@": 9105,
    "obje@@": 9106,
    "christlichen": 9107,
    "Budap@@": 9108,
    "national@@": 9109,
    "onds": 9110,
    "verfügbar": 9111,
    "Charakter": 9112,
    "gerü@@": 9113,
    "rey": 9114,
    "pädagog@@": 9115,
    "deutschsprachigen": 9116,
    "bild@@": 9117,
    "differ@@": 9118,
    "Netz": 9119,
    "könne": 9120,
    "fang": 9121,
    "schel": 9122,
    "erkennung": 9123,
    "theoret@@": 9124,
    "orph@@": 9125,
    "Blätter": 9126,
    "isp@@": 9127,
    "desheim": 9128,
    "Gam@@": 9129,
    "riebenen": 9130,
    "Spekt@@": 9131,
    "erreich@@": 9132,
    "Repräsentantenhaus": 9133,
    "Gewalt": 9134,
    "aufführung": 9135,
    "spar": 9136,
    "rit": 9137,
    "vest@@": 9138,
    "sylv@@": 9139,
    "Om@@": 9140,
    "Ingenieur": 9141,
    "region": 9142,
    "drück@@": 9143,
    "jüng@@": 9144,
    "fassung": 9145,
    "gesetzten": 9146,
    "thod@@": 9147,
    "Gestaltung": 9148,
    "ares": 9149,
    "Vier": 9150,
    "Schrö@@": 9151,
    "Cel@@": 9152,
    "dün@@": 9153,
    "echt": 9154,
    "Austria": 9155,
    "Marc": 9156,
    "Gebieten": 9157,
    "insel": 9158,
    "Schaff@@": 9159,
    "gasse": 9160,
    "lebens@@": 9161,
    "aktuellen": 9162,
    "stör@@": 9163,
    "aktiven": 9164,
    "gru@@": 9165,
    "endgültig": 9166,
    "nationalsozi@@": 9167,
    "Individu@@": 9168,
    "Rose": 9169,
    "Zur@@": 9170,
    "Netw@@": 9171,
    "existieren": 9172,
    "bringt": 9173,
    "kommission": 9174,
    "Mut@@": 9175,
    "Vorstand": 9176,
    "1839": 9177,
    "velop@@": 9178,
    "versetzt": 9179,
    "assung": 9180,
    "ε@@": 9181,
    "Minder@@": 9182,
    "erreichten": 9183,
    "Festung": 9184,
    "gewal@@": 9185,
    "notwendig": 9186,
    "Verletz@@": 9187,
    "Jord@@": 9188,
    "Story": 9189,
    "dichte": 9190,
    "Squ@@": 9191,
    "Pac@@": 9192,
    "früh": 9193,
    "esc@@": 9194,
    "beit@@": 9195,
    "ograf": 9196,
    "Mie@@": 9197,
    "erober@@": 9198,
    "={\\": 9199,
    "ctions": 9200,
    "kas@@": 9201,
    "Blatt@@": 9202,
    "1816": 9203,
    "con": 9204,
    "Äm@@": 9205,
    "strahlt": 9206,
    "Spezial@@": 9207,
    "Aktu@@": 9208,
    "schef": 9209,
    "AM@@": 9210,
    "amerikan@@": 9211,
    "Day": 9212,
    "Österreichs": 9213,
    "wirkungen": 9214,
    "andeur": 9215,
    "bas@@": 9216,
    "Militär": 9217,
    "sw@@": 9218,
    "Stör@@": 9219,
    "breite": 9220,
    "Namens": 9221,
    "Herausge@@": 9222,
    "1832": 9223,
    "Glet@@": 9224,
    "warf": 9225,
    "körper@@": 9226,
    "zentralen": 9227,
    "Kader": 9228,
    "Oldenburg": 9229,
    "damalige": 9230,
    "tende": 9231,
    "iller@@": 9232,
    "zeichneten": 9233,
    "Andrea": 9234,
    "Denkmalschutz": 9235,
    "Rac@@": 9236,
    "verhindern": 9237,
    "spi@@": 9238,
    "Jänner": 9239,
    "Jacob@@": 9240,
    "sti@@": 9241,
    "Carolina": 9242,
    "Micro@@": 9243,
    "burgh": 9244,
    "108": 9245,
    "fin": 9246,
    "*@@": 9247,
    "behaup@@": 9248,
    "schafts": 9249,
    "überhaupt": 9250,
    "höheren": 9251,
    "Gul@@": 9252,
    "erkenn@@": 9253,
    "hochschule": 9254,
    "Project": 9255,
    "atic": 9256,
    "Promo@@": 9257,
    "Dres@@": 9258,
    "Florida": 9259,
    "IC": 9260,
    "Passag@@": 9261,
    "unterschei@@": 9262,
    "Bielefeld": 9263,
    "initi@@": 9264,
    "turm": 9265,
    "instru@@": 9266,
    "tro": 9267,
    "Donald": 9268,
    "Methode": 9269,
    "glau@@": 9270,
    "cour@@": 9271,
    "gebieten": 9272,
    "preußen": 9273,
    "gels": 9274,
    "außen": 9275,
    "bischof": 9276,
    "Tanz@@": 9277,
    "Verkehr@@": 9278,
    "Fiction": 9279,
    "Kirchengemeinde": 9280,
    "lowen@@": 9281,
    "mete": 9282,
    "Weibchen": 9283,
    "spitze": 9284,
    "Cultur@@": 9285,
    "tsch": 9286,
    "enhof": 9287,
    "Manager": 9288,
    "Ear@@": 9289,
    "Luf@@": 9290,
    "bundes@@": 9291,
    "λ@@": 9292,
    "unmittel@@": 9293,
    "Wapp@@": 9294,
    "kaiser@@": 9295,
    "chi": 9296,
    "Gemeindegebiet": 9297,
    "1841": 9298,
    "weit@@": 9299,
    "gov": 9300,
    "ures": 9301,
    "historiker": 9302,
    "Reserv@@": 9303,
    "Kind@@": 9304,
    "züglich": 9305,
    "gebrochen": 9306,
    "achsen": 9307,
    "Konzentr@@": 9308,
    "Wood@@": 9309,
    "ief": 9310,
    "mis": 9311,
    "Blatt": 9312,
    "Fäh@@": 9313,
    "Masch@@": 9314,
    "entsprechenden": 9315,
    "Oran@@": 9316,
    "Lösung": 9317,
    "zustellen": 9318,
    "stiegen": 9319,
    "bach@@": 9320,
    "Reh@@": 9321,
    "Verhalten": 9322,
    "tter": 9323,
    "Besonders": 9324,
    "erschien@@": 9325,
    "eler": 9326,
    "anfangs": 9327,
    "langer": 9328,
    "Kont@@": 9329,
    "Ring": 9330,
    "graf@@": 9331,
    "Yor@@": 9332,
    "1836": 9333,
    "lein": 9334,
    "Marath@@": 9335,
    "diert": 9336,
    "EM": 9337,
    "Einwohnerzahl": 9338,
    "Tschechien": 9339,
    "List@@": 9340,
    "Beispiele": 9341,
    "herrschaft": 9342,
    "non": 9343,
    "Ing@@": 9344,
    "Automobil@@": 9345,
    "zell@@": 9346,
    "Volker": 9347,
    "dischen": 9348,
    "fertiggestellt": 9349,
    "steine": 9350,
    "Castle": 9351,
    "bisherigen": 9352,
    "täts@@": 9353,
    "teck@@": 9354,
    "bal@@": 9355,
    "ausgeführt": 9356,
    "körper": 9357,
    "Erfol@@": 9358,
    "Eigenschaften": 9359,
    "Pho@@": 9360,
    "CN": 9361,
    "Pur@@": 9362,
    "Law@@": 9363,
    "mt": 9364,
    "dram@@": 9365,
    "1930er": 9366,
    "Vorbild": 9367,
    "Glaub@@": 9368,
    "kandi@@": 9369,
    "alters": 9370,
    "jahren": 9371,
    "Great": 9372,
    "Women": 9373,
    "Gaz@@": 9374,
    "cture": 9375,
    "angenommen": 9376,
    "Nationalsozi@@": 9377,
    "Saarb@@": 9378,
    "Geschlech@@": 9379,
    "Zuschauer": 9380,
    "109": 9381,
    "Dynam@@": 9382,
    "Mount": 9383,
    "Row@@": 9384,
    "minde@@": 9385,
    "lier": 9386,
    "fot@@": 9387,
    "Erfurt": 9388,
    "Grie@@": 9389,
    "schlossen": 9390,
    "ometer": 9391,
    "Minn@@": 9392,
    "Einen": 9393,
    "ometern": 9394,
    "Kriegsende": 9395,
    "Rede": 9396,
    "Kart@@": 9397,
    "ensburg": 9398,
    "AT": 9399,
    "Kupf@@": 9400,
    "Gesundheits@@": 9401,
    "Corpor@@": 9402,
    "AS": 9403,
    "ertal": 9404,
    "Paderborn": 9405,
    "ziner": 9406,
    "Wich@@": 9407,
    "strateg@@": 9408,
    "Zivil@@": 9409,
    "Adam@@": 9410,
    "Blues": 9411,
    "ę@@": 9412,
    "Henri": 9413,
    "ğ@@": 9414,
    "Bernard": 9415,
    "Weiß": 9416,
    "Carlos": 9417,
    "onale": 9418,
    "Allgemeinen": 9419,
    "Gur@@": 9420,
    "ames": 9421,
    "enbil@@": 9422,
    "Heb@@": 9423,
    "deckte": 9424,
    "ßer@@": 9425,
    "station@@": 9426,
    "ermark": 9427,
    "Lang": 9428,
    "Origin@@": 9429,
    "UE@@": 9430,
    "daraus": 9431,
    "Alpen": 9432,
    "Mom@@": 9433,
    "Doc@@": 9434,
    "Freien": 9435,
    "Konserv@@": 9436,
    "Kanal": 9437,
    "benachbarten": 9438,
    "Beschäf@@": 9439,
    "Tun@@": 9440,
    "Ever@@": 9441,
    "örd@@": 9442,
    "Report": 9443,
    "aufnahme": 9444,
    "Wissen@@": 9445,
    "tour@@": 9446,
    "о": 9447,
    "Damen": 9448,
    "Ident@@": 9449,
    "Master": 9450,
    "92@@": 9451,
    "oire": 9452,
    "nö@@": 9453,
    "Tempel": 9454,
    "mexikan@@": 9455,
    "Anmerk@@": 9456,
    "Mario": 9457,
    "HC": 9458,
    "studium": 9459,
    "Ruhest@@": 9460,
    "lebenden": 9461,
    "scheid": 9462,
    "Krone": 9463,
    "CH": 9464,
    "berich@@": 9465,
    "last@@": 9466,
    "oberhalb": 9467,
    "1838": 9468,
    "Centre": 9469,
    "Mechan@@": 9470,
    "sal": 9471,
    "ür": 9472,
    "umgebaut": 9473,
    "gres@@": 9474,
    "spitz@@": 9475,
    "Davis": 9476,
    "Schrif@@": 9477,
    "Osnabrück": 9478,
    "bezogen": 9479,
    "maßnahmen": 9480,
    "Laus@@": 9481,
    "Veranstaltungen": 9482,
    "yo": 9483,
    "stalli@@": 9484,
    "98@@": 9485,
    "Kav@@": 9486,
    "nd": 9487,
    "Amerika": 9488,
    "Global": 9489,
    "Justiz@@": 9490,
    "bestehenden": 9491,
    "weißen": 9492,
    "schläge": 9493,
    "meyer": 9494,
    "Bedingungen": 9495,
    "Leipziger": 9496,
    "Creek": 9497,
    "Siegen": 9498,
    "ʿ@@": 9499,
    "Schmit@@": 9500,
    "inner@@": 9501,
    "höch@@": 9502,
    "Naturschutz@@": 9503,
    "hre": 9504,
    "dener": 9505,
    "Inform@@": 9506,
    "entfern@@": 9507,
    "neter": 9508,
    "DI@@": 9509,
    "в": 9510,
    "Müh@@": 9511,
    "Bist@@": 9512,
    "Museu@@": 9513,
    "solv@@": 9514,
    "Mex@@": 9515,
    "born": 9516,
    "verf@@": 9517,
    "prü@@": 9518,
    "ordin@@": 9519,
    "е": 9520,
    "š": 9521,
    "gebung": 9522,
    "Vat@@": 9523,
    "з@@": 9524,
    "Thom@@": 9525,
    "enth@@": 9526,
    "alz": 9527,
    "internation@@": 9528,
    "ı": 9529,
    "Leop@@": 9530,
    "Ort@@": 9531,
    "194@@": 9532,
    "ș@@": 9533,
    "andes": 9534,
    "Flori@@": 9535,
    "rache": 9536,
    "vidu@@": 9537,
    "daille": 9538,
    "Türk@@": 9539,
    "low@@": 9540,
    "mittl@@": 9541,
    "isseur": 9542,
    "’@@": 9543,
    "Fäl@@": 9544,
    "Ox@@": 9545,
    "Internation@@": 9546,
    "läuft": 9547,
    "atholi@@": 9548,
    "Nachfol@@": 9549,
    "Niederlan@@": 9550,
    "ć": 9551,
    "archiv@@": 9552,
    "Lös@@": 9553,
    "Augu@@": 9554,
    "republik": 9555,
    "Audi@@": 9556,
    "frau": 9557,
    "echan@@": 9558,
    "Hug@@": 9559,
    "geord@@": 9560,
    "Yo@@": 9561,
    "ziger": 9562,
    "า@@": 9563,
    "chtet": 9564,
    "ädagog@@": 9565,
    "Nomin@@": 9566,
    "materi@@": 9567,
    "view": 9568,
    "üter": 9569,
    "ь@@": 9570,
    "6666@@": 9571,
    "Parlam@@": 9572,
    "Energ@@": 9573,
    "Edu@@": 9574,
    "ī": 9575,
    "⁡": 9576,
    "&@@": 9577,
    "stät@@": 9578,
    "Olden@@": 9579,
    "ords": 9580,
    "<": 9581,
    "einander@@": 9582,
    "Erei@@": 9583,
    "OS@@": 9584,
    "–@@": 9585,
    "komplet@@": 9586,
    "tär@@": 9587,
    "onder@@": 9588,
    "herausge@@": 9589,
    "xis": 9590,
    "omoti@@": 9591,
    "olf": 9592,
    "Rath@@": 9593,
    "Qualifik@@": 9594,
    "egt": 9595,
    "Schü@@": 9596,
    "bestä@@": 9597,
    "ommern": 9598,
    "Ingenie@@": 9599,
    "erweise": 9600,
    "Gött@@": 9601,
    "Ei@@": 9602,
    "Lex@@": 9603,
    "erweiter@@": 9604,
    "ines@@": 9605,
    "Sowjet@@": 9606,
    "wichtig@@": 9607,
    "Pier@@": 9608,
    "ą@@": 9609,
    "adem@@": 9610,
    "not@@": 9611,
    "meter": 9612,
    "Beit@@": 9613,
    "m²": 9614,
    "stellerin": 9615,
    "tionary": 9616,
    "kau": 9617,
    "Grupp@@": 9618,
    "Rundfun@@": 9619,
    "gei@@": 9620,
    "ś@@": 9621,
    "∞": 9622,
    "Matth@@": 9623,
    "Universit@@": 9624,
    "wn": 9625,
    "Soc@@": 9626,
    "ruch": 9627,
    "Á@@": 9628,
    "Politi@@": 9629,
    "­": 9630,
    "•": 9631,
    "haupt": 9632,
    "verhin@@": 9633,
    "dels@@": 9634,
    "fur@@": 9635,
    "lösung": 9636,
    "iff": 9637,
    "rhein": 9638,
    "fließ@@": 9639,
    "ammer@@": 9640,
    "perim@@": 9641,
    "σ@@": 9642,
    "aum": 9643,
    "ymnasi@@": 9644,
    "gl": 9645,
    "gentin@@": 9646,
    "Sci@@": 9647,
    "Zun@@": 9648,
    "verpflich@@": 9649,
    "gemä@@": 9650,
    "ū": 9651,
    "Öff@@": 9652,
    "notwen@@": 9653,
    "Konzep@@": 9654,
    "ward": 9655,
    "ilie": 9656,
    "Verfass@@": 9657,
    "Sow@@": 9658,
    "angs": 9659,
    "eim@@": 9660,
    "dah@@": 9661,
    "Emi@@": 9662,
    "∈": 9663,
    "enfel@@": 9664,
    "gebir@@": 9665,
    "dust@@": 9666,
    "ttem@@": 9667,
    "absolv@@": 9668,
    "ächst": 9669,
    "gebor@@": 9670,
    "Ž@@": 9671,
    "ktur@@": 9672,
    "hafen": 9673,
    "ikum": 9674,
    "dition@@": 9675,
    "erhäl@@": 9676,
    "ð@@": 9677,
    "DV@@": 9678,
    "Initi@@": 9679,
    "jüd@@": 9680,
    "Ord@@": 9681,
    "istor@@": 9682,
    "ardt": 9683,
    "Allgem@@": 9684,
    "ND": 9685,
    "gelei@@": 9686,
    "Mov@@": 9687,
    "ution@@": 9688,
    "DP": 9689,
    "Arb@@": 9690,
    "zei": 9691,
    "Wag@@": 9692,
    "Gebie@@": 9693,
    "Diet@@": 9694,
    "Zü@@": 9695,
    "zunehm@@": 9696,
    "К@@": 9697,
    "schwe@@": 9698,
    "oret@@": 9699,
    "Kass@@": 9700,
    "reichs": 9701,
    "fluss": 9702,
    "alter@@": 9703,
    "cel@@": 9704,
    "ouver@@": 9705,
    "häl@@": 9706,
    "Büh@@": 9707,
    "urg": 9708,
    "ony@@": 9709,
    "geprä@@": 9710,
    "$": 9711,
    "ited": 9712,
    "μ@@": 9713,
    "Arme@@": 9714,
    "tär": 9715,
    "Pfar@@": 9716,
    "mäler": 9717,
    "ermöglich@@": 9718,
    "Varian@@": 9719,
    "Porträ@@": 9720,
    "А@@": 9721,
    "П@@": 9722,
    "gnisse": 9723,
    "bis@@": 9724,
    "ö": 9725,
    "agem@@": 9726,
    "อ@@": 9727,
    "bezieh@@": 9728,
    "Lov@@": 9729,
    "Berlin@@": 9730,
    "Disk@@": 9731,
    "erfor@@": 9732,
    "Gouver@@": 9733,
    "Kreu@@": 9734,
    "ч@@": 9735,
    "eröff@@": 9736,
    "anten@@": 9737,
    "Einwohnerz@@": 9738,
    "windigkeit": 9739,
    "aupt@@": 9740,
    "В@@": 9741,
    "Portug@@": 9742,
    "1111@@": 9743,
    "emente": 9744,
    "hock@@": 9745,
    "artikel": 9746,
    "Weih@@": 9747,
    "stattet": 9748,
    "î@@": 9749,
    "4444@@": 9750,
    "Stutt@@": 9751,
    "Wern@@": 9752,
    "beteili@@": 9753,
    "Pers@@": 9754,
    "stock": 9755,
    "Diplom@@": 9756,
    "Humb@@": 9757,
    "neur": 9758,
    "2222@@": 9759,
    "Autom@@": 9760,
    "Dän@@": 9761,
    "utzt": 9762,
    "Fak@@": 9763,
    "riech@@": 9764,
    "ы@@": 9765,
    "Frit@@": 9766,
    "gh": 9767,
    "Ungar@@": 9768,
    "ý@@": 9769,
    "Isra@@": 9770,
    "Schnei@@": 9771,
    "stant@@": 9772,
    "last": 9773,
    "sweise": 9774,
    "Ruh@@": 9775,
    "Nürn@@": 9776,
    "|@@": 9777,
    "Lond@@": 9778,
    "deutschsprach@@": 9779,
    "ل@@": 9780,
    "Eishock@@": 9781,
    "Liter@@": 9782,
    "österreich@@": 9783,
    "ν": 9784,
    "ög@@": 9785,
    "bron@@": 9786,
    "rs@@": 9787,
    "gelö@@": 9788,
    "﻿": 9789,
    "rug": 9790,
    "mitglie@@": 9791,
    "ördert": 9792,
    "М@@": 9793,
    "bz@@": 9794,
    "Württem@@": 9795,
    "η@@": 9796,
    "”@@": 9797,
    "і@@": 9798,
    "latt@@": 9799,
    "Willi@@": 9800,
    "russ@@": 9801,
    "Kateg@@": 9802,
    "Lux@@": 9803,
    "8888@@": 9804,
    "män@@": 9805,
    "beginn@@": 9806,
    "Rog@@": 9807,
    "häng@@": 9808,
    "Stef@@": 9809,
    "187@@": 9810,
    "Instit@@": 9811,
    "adrat@@": 9812,
    "Bildh@@": 9813,
    "Jac@@": 9814,
    "Untersuch@@": 9815,
    "Koordin@@": 9816,
    "π@@": 9817,
    "Ziv@@": 9818,
    "union": 9819,
    "5555@@": 9820,
    "Deut@@": 9821,
    "schlu@@": 9822,
    "188@@": 9823,
    "Infanter@@": 9824,
    "site": 9825,
    "Eishockey@@": 9826,
    "Spä@@": 9827,
    "186@@": 9828,
    "seel@@": 9829,
    "č": 9830,
    "fo": 9831,
    "zun@@": 9832,
    "ember": 9833,
    "Progr@@": 9834,
    "osten": 9835,
    "neh@@": 9836,
    "185@@": 9837,
    "◄": 9838,
    "´": 9839,
    "engli@@": 9840,
    "Weltmeister@@": 9841,
    "İ@@": 9842,
    "För@@": 9843,
    "lop@@": 9844,
    "dam": 9845,
    "Andr@@": 9846,
    "ร@@": 9847,
    "katholi@@": 9848,
    "walt": 9849,
    "behör@@": 9850,
    "Theod@@": 9851,
    "räge": 9852,
    "erstre@@": 9853,
    "phil@@": 9854,
    "urop@@": 9855,
    "Düssel@@": 9856,
    "iti@@": 9857,
    "ί@@": 9858,
    "ließ@@": 9859,
    "erschein@@": 9860,
    "7777@@": 9861,
    "getr@@": 9862,
    "ˈ@@": 9863,
    "sign": 9864,
    "ч": 9865,
    "н": 9866,
    "189@@": 9867,
    "Unternehm@@": 9868,
    "kurr@@": 9869,
    "endgül@@": 9870,
    "ogle": 9871,
    "►": 9872,
    "ц@@": 9873,
    "Dé@@": 9874,
    "omin@@": 9875,
    "Kün@@": 9876,
    "issen@@": 9877,
    "Okt@@": 9878,
    "kreises": 9879,
    "dition": 9880,
    "dion": 9881,
    "ż@@": 9882,
    "Belg@@": 9883,
    "pflege": 9884,
    "nat@@": 9885,
    "Feli@@": 9886,
    "app": 9887,
    "kör@@": 9888,
    "Sän@@": 9889,
    "umf@@": 9890,
    "mov@@": 9891,
    "Unterstütz@@": 9892,
    "Р@@": 9893,
    "à@@": 9894,
    "üd@@": 9895,
    "PM@@": 9896,
    "Akt@@": 9897,
    "messer": 9898,
    "ruck": 9899,
    "Ägyp@@": 9900,
    "Kontr@@": 9901,
    "bisher@@": 9902,
    "Öffent@@": 9903,
    "verbin@@": 9904,
    "Ps@@": 9905,
    "Leichtath@@": 9906,
    "prüfung": 9907,
    "wohner": 9908,
    "Köl@@": 9909,
    "präsent@@": 9910,
    "Dah@@": 9911,
    "ț@@": 9912,
    "eich": 9913,
    "Klo@@": 9914,
    "edt": 9915,
    "ean": 9916,
    "rag": 9917,
    "เ@@": 9918,
    "Augs@@": 9919,
    "Encyclop@@": 9920,
    "ymn@@": 9921,
    "vey": 9922,
    "brit@@": 9923,
    "190@@": 9924,
    "ï@@": 9925,
    "itsch": 9926,
    "Eisenb@@": 9927,
    "uhl": 9928,
    "Sicherh@@": 9929,
    "Dokument@@": 9930,
    "rei": 9931,
    "aufhin": 9932,
    "besitz@@": 9933,
    "AK@@": 9934,
    "Б@@": 9935,
    "gleichnam@@": 9936,
    "immt": 9937,
    "Vereinig@@": 9938,
    "automat@@": 9939,
    "Ergeb@@": 9940,
    "italis@@": 9941,
    "empl@@": 9942,
    "fertig@@": 9943,
    "Hig@@": 9944,
    "Repräsent@@": 9945,
    "Josep@@": 9946,
    "Ç@@": 9947,
    "blei@@": 9948,
    "nommen": 9949,
    "Braunschwei@@": 9950,
    "ό@@": 9951,
    "lot": 9952,
    "okrat@@": 9953,
    "Charak@@": 9954,
    "allel": 9955,
    "ikon": 9956,
    "schri@@": 9957,
    "zburg": 9958,
    "199@@": 9959,
    "hie@@": 9960,
    "Ł@@": 9961,
    "geordnet": 9962,
    "х@@": 9963,
    "Pati@@": 9964,
    "einzi@@": 9965,
    "gin@@": 9966,
    "ande@@": 9967,
    "enfalls": 9968,
    "ά@@": 9969,
    "บ@@": 9970,
    "γ@@": 9971,
    "wech@@": 9972,
    "eingeschrän@@": 9973,
    "Associ@@": 9974,
    "Н@@": 9975,
    "wards": 9976,
    "ürger@@": 9977,
    "я@@": 9978,
    "й@@": 9979,
    "nomin@@": 9980,
    "Leicht@@": 9981,
    "urkund@@": 9982,
    "Ukra@@": 9983,
    "ampf": 9984,
    "öhn@@": 9985,
    "ences": 9986,
    "Soft@@": 9987,
    "ง@@": 9988,
    "uni@@": 9989,
    "υ@@": 9990,
    "fam@@": 9991,
    "kteur": 9992,
    "198@@": 9993,
    "ienen": 9994,
    "Heidel@@": 9995,
    "car": 9996,
    "Roy@@": 9997,
    "zir@@": 9998,
    "osoph@@": 9999,
    "Rumän@@": 10000,
    "herz@@": 10001,
    "õ@@": 10002,
    "Eröff@@": 10003,
    "Gün@@": 10004,
    "vertreten@@": 10005,
    "193@@": 10006,
    "heut@@": 10007,
    "fekt": 10008,
    "Mäd@@": 10009,
    "ำ@@": 10010,
    "Ministerprä@@": 10011,
    "ė": 10012,
    "Zenti@@": 10013,
    "ā": 10014,
    "link": 10015,
    "beleg@@": 10016,
    "Europam@@": 10017,
    "sterreich": 10018,
    "atist@@": 10019,
    "ober": 10020,
    "gemeins@@": 10021,
    "δ@@": 10022,
    "antwort@@": 10023,
    "Minister@@": 10024,
    "ehemali@@": 10025,
    "Gerh@@": 10026,
    "ckl@@": 10027,
    "ə@@": 10028,
    "Assi@@": 10029,
    "197@@": 10030,
    "β": 10031,
    "sachsen": 10032,
    "besa@@": 10033,
    "blem": 10034,
    "И@@": 10035,
    "gil@@": 10036,
    "enda": 10037,
    "ж@@": 10038,
    "lär@@": 10039,
    "م@@": 10040,
    "Bestand@@": 10041,
    "ë": 10042,
    "Å@@": 10043,
    "heirat@@": 10044,
    "ultur": 10045,
    "kehr": 10046,
    "Schles@@": 10047,
    "т": 10048,
    "ril": 10049,
    "195@@": 10050,
    "verheirat@@": 10051,
    "Départ@@": 10052,
    "น@@": 10053,
    "Präsi@@": 10054,
    "itä@@": 10055,
    "Leist@@": 10056,
    "の@@": 10057,
    "€": 10058,
    "ш@@": 10059,
    "184@@": 10060,
    "ů@@": 10061,
    "Münch@@": 10062,
    "р": 10063,
    "Г@@": 10064,
    "utn@@": 10065,
    "onnen": 10066,
    "196@@": 10067,
    "π": 10068,
    "Glob@@": 10069,
    "beauf@@": 10070,
    "älde": 10071,
    "Т@@": 10072,
    "Ś@@": 10073,
    "Bronz@@": 10074,
    "jewei@@": 10075,
    "О@@": 10076,
    "∂": 10077,
    "zwöl@@": 10078,
    "erwähn@@": 10079,
    "Smit@@": 10080,
    "baden": 10081,
    "Ehe@@": 10082,
    "äfts@@": 10083,
    "ituation": 10084,
    "Biel@@": 10085,
    "genöss@@": 10086,
    "Д@@": 10087,
    "å": 10088,
    "lässlich": 10089,
    "Kathar@@": 10090,
    "schauer": 10091,
    "Offizi@@": 10092,
    "thur": 10093,
    "Darm@@": 10094,
    "schieden": 10095,
    "abli@@": 10096,
    "ş": 10097,
    "Bedeut@@": 10098,
    "rück": 10099,
    "iety": 10100,
    "Ō@@": 10101,
    "verantwort@@": 10102,
    "demie": 10103,
    "ă": 10104,
    "λ": 10105,
    "heren": 10106,
    "Enzy@@": 10107,
    "cyc@@": 10108,
    "Franç@@": 10109,
    "Bres@@": 10110,
    "denten": 10111,
    "ė@@": 10112,
    "aka@@": 10113,
    "beträ@@": 10114,
    "französ@@": 10115,
    "Columb@@": 10116,
    "benachbar@@": 10117,
    "к": 10118,
    "ล@@": 10119,
    "unft": 10120,
    "ω@@": 10121,
    "µ@@": 10122,
    "wendung": 10123,
    "Sebast@@": 10124,
    "Brasili@@": 10125,
    "cyclop@@": 10126,
    "ò": 10127,
    "«@@": 10128,
    "ي@@": 10129,
    "ú": 10130,
    "่": 10131,
    "sogen@@": 10132,
    "ر@@": 10133,
    "Foot@@": 10134,
    "ě": 10135,
    "enname": 10136,
    "Magde@@": 10137,
    "ь": 10138,
    "eriums": 10139,
    "Jür@@": 10140,
    "offiz@@": 10141,
    "öz@@": 10142,
    "192@@": 10143,
    ";@@": 10144,
    "ibt": 10145,
    "Orig@@": 10146,
    "rifft": 10147,
    "klop@@": 10148,
    "Entsteh@@": 10149,
    "relig@@": 10150,
    "affel": 10151,
    "Mic@@": 10152,
    "ł": 10153,
    "ckey": 10154,
    "ē@@": 10155,
    "religi@@": 10156,
    "Geburt@@": 10157,
    "½": 10158,
    "lerweile": 10159,
    "Ş@@": 10160,
    "Archite@@": 10161,
    "ก@@": 10162,
    "furter": 10163,
    "Ferns@@": 10164,
    "è": 10165,
    "[…@@": 10166,
    "∑": 10167,
    "mbH": 10168,
    "Л@@": 10169,
    "sych@@": 10170,
    "ω": 10171,
    "spielsweise": 10172,
    "Söh@@": 10173,
    "oci@@": 10174,
    "ihr@@": 10175,
    "י@@": 10176,
    "σ": 10177,
    "rün@@": 10178,
    "Doll@@": 10179,
    "rachte": 10180,
    "jet@@": 10181,
    "μ": 10182,
    "ädie": 10183,
    "ungsweise": 10184,
    "Indust@@": 10185,
    "Seb@@": 10186,
    "ourn@@": 10187,
    "verfüg@@": 10188,
    "Κ@@": 10189,
    "anni": 10190,
    "έ@@": 10191,
    "gebro@@": 10192,
    "ulpt@@": 10193,
    "Dez@@": 10194,
    "sod@@": 10195,
    "etw@@": 10196,
    "Ú@@": 10197,
    "chn@@": 10198,
    "°@@": 10199,
    "و@@": 10200,
    "ń": 10201,
    "ы": 10202,
    "Synony@@": 10203,
    "ő@@": 10204,
    "ب@@": 10205,
    "ague": 10206,
    "LC@@": 10207,
    "Einwoh@@": 10208,
    "ace@@": 10209,
    "ubli@@": 10210,
    "Amer@@": 10211,
    "⊙": 10212,
    "ruf@@": 10213,
    "Zusammenh@@": 10214,
    "ühm@@": 10215,
    "uar": 10216,
    "emati@@": 10217,
    "öffent@@": 10218,
    "ห@@": 10219,
    "völ@@": 10220,
    "œ@@": 10221,
    "Mail@@": 10222,
    "itur": 10223,
    "ร": 10224,
    "§@@": 10225,
    "ː@@": 10226,
    "ć@@": 10227,
    "igs@@": 10228,
[...]
