{
    "<s>": 0,
    "<pad>": 1,
    "</s>": 2,
    "<unk>": 3,
    ".": 4,
    ",": 5,
    "the": 6,
    "of": 7,
    "and": 8,
    "-": 9,
    "in": 10,
    "(": 11,
    "a": 12,
    "to": 13,
    "\"": 14,
    "The": 15,
    ")": 16,
    "on": 17,
    "was": 18,
    ":": 19,
    "'": 20,
    "is": 21,
    "s": 22,
    "as": 23,
    "for": 24,
    "\".": 25,
    "by": 26,
    ").": 27,
    "Retrieved": 28,
    "at": 29,
    "with": 30,
    "–": 31,
    "from": 32,
    "an": 33,
    "that": 34,
    "/": 35,
    "S@@": 36,
    "1": 37,
    "his": 38,
    "In": 39,
    "or": 40,
    "he": 41,
    "T@@": 42,
    "L@@": 43,
    "i": 44,
    "t@@": 45,
    ";": 46,
    "2": 47,
    "o": 48,
    "M@@": 49,
    "it": 50,
    "C@@": 51,
    "P@@": 52,
    "B@@": 53,
    "),": 54,
    "es": 55,
    "D@@": 56,
    "A": 57,
    "F@@": 58,
    "are": 59,
    "H@@": 60,
    "G@@": 61,
    "d@@": 62,
    "ing": 63,
    "s@@": 64,
    "were": 65,
    "er": 66,
    "t": 67,
    "p": 68,
    "K@@": 69,
    "R@@": 70,
    "b@@": 71,
    "in@@": 72,
    "N@@": 73,
    "p@@": 74,
    "which": 75,
    "e": 76,
    "n@@": 77,
    "k@@": 78,
    "3": 79,
    "ed": 80,
    "be": 81,
    "ers": 82,
    "f@@": 83,
    "y@@": 84,
    "y": 85,
    "m@@": 86,
    "c@@": 87,
    "A@@": 88,
    "g@@": 89,
    "W@@": 90,
    "re@@": 91,
    "al": 92,
    "e@@": 93,
    "He": 94,
    "er@@": 95,
    "E@@": 96,
    "10": 97,
    "en": 98,
    "one": 99,
    "4": 100,
    "also": 101,
    "h@@": 102,
    "has": 103,
    "l@@": 104,
    "had": 105,
    "its": 106,
    "i@@": 107,
    "en@@": 108,
    "5": 109,
    "w@@": 110,
    "an@@": 111,
    "first": 112,
    "us": 113,
    "al@@": 114,
    "New": 115,
    "6": 116,
    "It": 117,
    "2016": 118,
    "com": 119,
    "2012": 120,
    "2015": 121,
    "ar@@": 122,
    "2017": 123,
    "V@@": 124,
    "2014": 125,
    "ation": 126,
    "2011": 127,
    "their": 128,
    "de": 129,
    "2013": 130,
    "u@@": 131,
    "st@@": 132,
    "not": 133,
    "2018": 134,
    "who": 135,
    "z@@": 136,
    "or@@": 137,
    "o@@": 138,
    "J@@": 139,
    "un@@": 140,
    "Archived": 141,
    "S": 142,
    "7": 143,
    "O@@": 144,
    "&": 145,
    "j@@": 146,
    "v@@": 147,
    "but": 148,
    "r@@": 149,
    "2010": 150,
    "n": 151,
    "8": 152,
    "original": 153,
    "her": 154,
    "el@@": 155,
    "k": 156,
    "u": 157,
    "m": 158,
    "0": 159,
    "el": 160,
    "at@@": 161,
    "I": 162,
    "this": 163,
    "have": 164,
    "as@@": 165,
    "9": 166,
    "12": 167,
    "May": 168,
    "11": 169,
    "ad@@": 170,
    "d": 171,
    "January": 172,
    "two": 173,
    "ate": 174,
    "it@@": 175,
    "ch@@": 176,
    "am@@": 177,
    "October": 178,
    "ri@@": 179,
    "July": 180,
    "June": 181,
    "I@@": 182,
    "March": 183,
    "on@@": 184,
    "a@@": 185,
    "September": 186,
    "ar": 187,
    "2@@": 188,
    "August": 189,
    "2009": 190,
    "December": 191,
    "ro@@": 192,
    "ia": 193,
    "ag@@": 194,
    "April": 195,
    "November": 196,
    "es@@": 197,
    "been": 198,
    "3@@": 199,
    "University": 200,
    "time": 201,
    "2008": 202,
    "all": 203,
    "E": 204,
    "th@@": 205,
    "after": 206,
    "ts": 207,
    "et": 208,
    "U@@": 209,
    "St@@": 210,
    "18@@": 211,
    "ated": 212,
    "is@@": 213,
    "ISBN": 214,
    "20": 215,
    "Y@@": 216,
    "C": 217,
    "February": 218,
    "American": 219,
    "ac@@": 220,
    "age": 221,
    "4@@": 222,
    "ent": 223,
    "15": 224,
    "National": 225,
    "into": 226,
    "they": 227,
    "2007": 228,
    "le": 229,
    "man": 230,
    "other": 231,
    "ic@@": 232,
    "United": 233,
    "ti@@": 234,
    "M": 235,
    "di@@": 236,
    "D": 237,
    "Ch@@": 238,
    "up": 239,
    "over": 240,
    "ol@@": 241,
    "18": 242,
    "]": 243,
    "l": 244,
    "17@@": 245,
    "li@@": 246,
    "ly": 247,
    "ine": 248,
    "16": 249,
    "son": 250,
    "[": 251,
    "ic": 252,
    "g": 253,
    "ab@@": 254,
    "more": 255,
    "5@@": 256,
    "14": 257,
    "17": 258,
    "Z@@": 259,
    "13": 260,
    "30": 261,
    "out": 262,
    "sh@@": 263,
    "em@@": 264,
    "et@@": 265,
    "B": 266,
    "\",": 267,
    "This": 268,
    "19": 269,
    "25": 270,
    "21": 271,
    "ul@@": 272,
    "con@@": 273,
    "new": 274,
    "Sh@@": 275,
    "24": 276,
    "6@@": 277,
    "z": 278,
    "om@@": 279,
    "she": 280,
    "ed@@": 281,
    "In@@": 282,
    "%": 283,
    "Al@@": 284,
    "World": 285,
    "N": 286,
    "ted": 287,
    "when": 288,
    "22": 289,
    "R": 290,
    "os@@": 291,
    "ations": 292,
    "le@@": 293,
    "On": 294,
    "sp@@": 295,
    "23": 296,
    "°": 297,
    "ton": 298,
    "il@@": 299,
    "ap@@": 300,
    "id@@": 301,
    "T": 302,
    "op@@": 303,
    "York": 304,
    "2006": 305,
    "years": 306,
    "h": 307,
    "Mar@@": 308,
    "dis@@": 309,
    "c": 310,
    "28": 311,
    "born": 312,
    "als": 313,
    "U": 314,
    "J": 315,
    "able": 316,
    "can": 317,
    "ex@@": 318,
    "where": 319,
    "lo@@": 320,
    "26": 321,
    "John": 322,
    "only": 323,
    "27": 324,
    "L": 325,
    "would": 326,
    ".\"": 327,
    "8@@": 328,
    "year": 329,
    "us@@": 330,
    "P": 331,
    "during": 332,
    "b": 333,
    "x": 334,
    "um": 335,
    "used": 336,
    "=": 337,
    "W": 338,
    "States": 339,
    "ant": 340,
    "ra@@": 341,
    "about": 342,
    "7@@": 343,
    "ec@@": 344,
    "him": 345,
    "29": 346,
    "between": 347,
    "ur@@": 348,
    "ch": 349,
    "av@@": 350,
    "well": 351,
    "x@@": 352,
    "im@@": 353,
    "um@@": 354,
    "F": 355,
    "ie": 356,
    "9@@": 357,
    "16@@": 358,
    "ter": 359,
    "most": 360,
    "three": 361,
    "):": 362,
    "qu@@": 363,
    "oc@@": 364,
    "th": 365,
    "ian": 366,
    "known": 367,
    "made": 368,
    "hi@@": 369,
    "Re@@": 370,
    "ting": 371,
    "then": 372,
    "Press": 373,
    "Car@@": 374,
    "ings": 375,
    "no": 376,
    "pro@@": 377,
    "ot@@": 378,
    "re": 379,
    "under": 380,
    "part": 381,
    "est": 382,
    "later": 383,
    "www": 384,
    "such": 385,
    "than": 386,
    "ha@@": 387,
    "der": 388,
    "Con@@": 389,
    "é@@": 390,
    "land": 391,
    "15@@": 392,
    "r": 393,
    "O": 394,
    "ks": 395,
    "season": 396,
    "ent@@": 397,
    "per@@": 398,
    "being": 399,
    "end": 400,
    "v": 401,
    "os": 402,
    "se@@": 403,
    "film": 404,
    "://": 405,
    "School": 406,
    "am": 407,
    "pp": 408,
    "Le@@": 409,
    "000": 410,
    "0@@": 411,
    "2005": 412,
    "ak@@": 413,
    "ut@@": 414,
    "f": 415,
    "ig@@": 416,
    "team": 417,
    "ph@@": 418,
    "through": 419,
    "became": 420,
    "there": 421,
    "some": 422,
    "G": 423,
    "ra": 424,
    "ter@@": 425,
    "tion": 426,
    "01": 427,
    "od@@": 428,
    "ing@@": 429,
    "including": 430,
    ".,": 431,
    "31": 432,
    "ep@@": 433,
    "State": 434,
    "be@@": 435,
    "si@@": 436,
    "H": 437,
    "end@@": 438,
    "London": 439,
    "id": 440,
    "est@@": 441,
    "Ar@@": 442,
    "pl@@": 443,
    "She": 444,
    "South": 445,
    "An@@": 446,
    "2004": 447,
    "work": 448,
    "ou@@": 449,
    "ist": 450,
    "﻿": 451,
    "second": 452,
    "co@@": 453,
    "’": 454,
    "ous": 455,
    "County": 456,
    "king": 457,
    "City": 458,
    "ley": 459,
    "se": 460,
    "ob@@": 461,
    "ates": 462,
    "inter@@": 463,
    "against": 464,
    "ang@@": 465,
    "1@@": 466,
    "10@@": 467,
    "many": 468,
    "ans": 469,
    "them": 470,
    "ating": 471,
    "ally": 472,
    ".;": 473,
    "eg@@": 474,
    "pre@@": 475,
    "name": 476,
    "PDF": 477,
    "ty": 478,
    "family": 479,
    "Mc@@": 480,
    "tions": 481,
    "before": 482,
    "album": 483,
    "—": 484,
    "ies": 485,
    "les": 486,
    "After": 487,
    "ir@@": 488,
    "ry": 489,
    "use": 490,
    "ey": 491,
    "su@@": 492,
    "07": 493,
    "06": 494,
    "ve": 495,
    "played": 496,
    "British": 497,
    "History": 498,
    "people": 499,
    "while": 500,
    "ors": 501,
    "14@@": 502,
    "ance": 503,
    "og@@": 504,
    "series": 505,
    "ard": 506,
    "Th@@": 507,
    "ass@@": 508,
    "way": 509,
    "ev@@": 510,
    "ana": 511,
    "both": 512,
    "As": 513,
    "mar@@": 514,
    "War": 515,
    "Times": 516,
    "K": 517,
    "co": 518,
    "05": 519,
    "03": 520,
    "04": 521,
    "ds": 522,
    "ence": 523,
    "line": 524,
    "state": 525,
    "man@@": 526,
    "13@@": 527,
    "may": 528,
    "until": 529,
    "sc@@": 530,
    "and@@": 531,
    "number": 532,
    "ment": 533,
    "ology": 534,
    "will": 535,
    "ary": 536,
    "Pro@@": 537,
    "school": 538,
    "02": 539,
    "par@@": 540,
    "09": 541,
    "so": 542,
    "2003": 543,
    "ov@@": 544,
    "ad": 545,
    "ay": 546,
    "released": 547,
    "2000": 548,
    "News": 549,
    "ne@@": 550,
    "ical": 551,
    "ke": 552,
    "Par@@": 553,
    "08": 554,
    "now": 555,
    "area": 556,
    "ens": 557,
    "de@@": 558,
    "International": 559,
    "50": 560,
    "ip@@": 561,
    "ity": 562,
    "North": 563,
    "ons": 564,
    "doi": 565,
    "called": 566,
    "http": 567,
    "Mon@@": 568,
    "ay@@": 569,
    "four": 570,
    "Un@@": 571,
    "back": 572,
    "au@@": 573,
    "min@@": 574,
    "won": 575,
    "Sp@@": 576,
    "Be@@": 577,
    "X@@": 578,
    "il": 579,
    "2002": 580,
    "ru@@": 581,
    "League": 582,
    "for@@": 583,
    "game": 584,
    "day": 585,
    "ell": 586,
    "Sch@@": 587,
    "city": 588,
    "field": 589,
    "rec@@": 590,
    "ah@@": 591,
    "based": 592,
    "ati@@": 593,
    "St": 594,
    "ement": 595,
    "German": 596,
    "former": 597,
    "$": 598,
    "978": 599,
    "2001": 600,
    "Har@@": 601,
    "mon@@": 602,
    "set": 603,
    "00@@": 604,
    "ang": 605,
    "early": 606,
    "off": 607,
    "sub@@": 608,
    "{\\": 609,
    "French": 610,
    "any": 611,
    "ure": 612,
    "{": 613,
    "sk@@": 614,
    "same": 615,
    "cl@@": 616,
    "ina": 617,
    "English": 618,
    "found": 619,
    "te": 620,
    "Com@@": 621,
    "His": 622,
    "Bar@@": 623,
    "several": 624,
    "For": 625,
    "En@@": 626,
    "led": 627,
    "all@@": 628,
    "40": 629,
    "ant@@": 630,
    "up@@": 631,
    "ale": 632,
    "They": 633,
    "place": 634,
    "eb@@": 635,
    "since": 636,
    "Ne@@": 637,
    "group": 638,
    "ge": 639,
    "No": 640,
    "la": 641,
    "ow@@": 642,
    "Gu@@": 643,
    "ell@@": 644,
    "these": 645,
    "Per@@": 646,
    "Am@@": 647,
    "located": 648,
    "music": 649,
    "ran@@": 650,
    "II": 651,
    "st": 652,
    "ative": 653,
    "V": 654,
    "Qu@@": 655,
    "Ad@@": 656,
    "az@@": 657,
    "ins": 658,
    "following": 659,
    "tr@@": 660,
    "Man@@": 661,
    "ub@@": 662,
    "int@@": 663,
    "like": 664,
    "′": 665,
    "Me@@": 666,
    "All": 667,
    "ne": 668,
    "ver@@": 669,
    "At": 670,
    "TV": 671,
    "bi@@": 672,
    "David": 673,
    "car@@": 674,
    "org": 675,
    "high": 676,
    "ib@@": 677,
    "ite": 678,
    "List": 679,
    "Di@@": 680,
    "X": 681,
    "own": 682,
    "each": 683,
    "Co@@": 684,
    "named": 685,
    "20@@": 686,
    "For@@": 687,
    "per": 688,
    "There": 689,
    "old": 690,
    "w": 691,
    "Se@@": 692,
    "res@@": 693,
    "Ac@@": 694,
    "West": 695,
    "ai": 696,
    "Col@@": 697,
    "side": 698,
    "life": 699,
    "do": 700,
    "town": 701,
    "ker": 702,
    "College": 703,
    "ents": 704,
    "ding": 705,
    "iz@@": 706,
    "member": 707,
    "aw@@": 708,
    "public": 709,
    "\\": 710,
    "ren@@": 711,
    "form": 712,
    "ber@@": 713,
    "ma": 714,
    "Sc@@": 715,
    "no@@": 716,
    "ir": 717,
    "our": 718,
    "began": 719,
    "England": 720,
    "Park": 721,
    "held": 722,
    "century": 723,
    "US": 724,
    "world": 725,
    "House": 726,
    "population": 727,
    "ast@@": 728,
    "El@@": 729,
    "tri@@": 730,
    "1999": 731,
    "bu@@": 732,
    "James": 733,
    "100": 734,
    "Ro@@": 735,
    "built": 736,
    "|": 737,
    "po@@": 738,
    "att@@": 739,
    "Ex@@": 740,
    "William": 741,
    "title": 742,
    "District": 743,
    "government": 744,
    "te@@": 745,
    "home": 746,
    "ler": 747,
    "ug@@": 748,
    "song": 749,
    "tic@@": 750,
    "Cor@@": 751,
    "dec@@": 752,
    "ner": 753,
    "company": 754,
    "ill@@": 755,
    "over@@": 756,
    "men": 757,
    "published": 758,
    "col@@": 759,
    "ery": 760,
    "station": 761,
    "took": 762,
    "ade": 763,
    "rac@@": 764,
    "ik@@": 765,
    "India": 766,
    "ach@@": 767,
    "he@@": 768,
    "ff@@": 769,
    "system": 770,
    "needed": 771,
    "band": 772,
    "Journal": 773,
    "did": 774,
    "Mo@@": 775,
    "1998": 776,
    "ess@@": 777,
    "long": 778,
    "ah": 779,
    "species": 780,
    "oo@@": 781,
    "left": 782,
    "ok@@": 783,
    "play": 784,
    "ism": 785,
    "single": 786,
    "website": 787,
    "ise": 788,
    "ear@@": 789,
    "Ab@@": 790,
    "died": 791,
    "art": 792,
    "De@@": 793,
    "comp@@": 794,
    ")\".": 795,
    "could": 796,
    "ica": 797,
    "around": 798,
    "_@@": 799,
    "ion": 800,
    "ship": 801,
    "io": 802,
    "ric@@": 803,
    "very": 804,
    "ets": 805,
    "house": 806,
    "ice": 807,
    "Australia": 808,
    "One": 809,
    "down": 810,
    "player": 811,
    "ore": 812,
    "ath@@": 813,
    "However": 814,
    "Association": 815,
    "ics": 816,
    "ford": 817,
    "Cl@@": 818,
    "ya": 819,
    "General": 820,
    "ess": 821,
    "history": 822,
    "la@@": 823,
    "Her@@": 824,
    "ong": 825,
    "fe@@": 826,
    "ator": 827,
    "fl@@": 828,
    "America": 829,
    "els": 830,
    "Mor@@": 831,
    "ro": 832,
    "acc@@": 833,
    "lin@@": 834,
    "ber": 835,
    "uc@@": 836,
    "served": 837,
    "Music": 838,
    "book": 839,
    "gu@@": 840,
    "link": 841,
    "local": 842,
    "ud@@": 843,
    "Ma@@": 844,
    "if@@": 845,
    "pe@@": 846,
    "received": 847,
    "Ed@@": 848,
    "á@@": 849,
    "com@@": 850,
    "George": 851,
    "out@@": 852,
    "и@@": 853,
    ")@@": 854,
    "Society": 855,
    "me": 856,
    "ew@@": 857,
    "Bur@@": 858,
    "1997": 859,
    "to@@": 860,
    "ain": 861,
    "show": 862,
    "Robert": 863,
    "win": 864,
    "building": 865,
    "Official": 866,
    "+": 867,
    "tra@@": 868,
    "because": 869,
    "along": 870,
    "Bo@@": 871,
    "if": 872,
    "five": 873,
    "due": 874,
    "Department": 875,
    "bl@@": 876,
    "ps": 877,
    "Or@@": 878,
    "members": 879,
    "und@@": 880,
    "ats": 881,
    "village": 882,
    "within": 883,
    "sw@@": 884,
    "ft": 885,
    "final": 886,
    "fin@@": 887,
    "under@@": 888,
    "ist@@": 889,
    "Australian": 890,
    "der@@": 891,
    "1996": 892,
    "Cup": 893,
    "ely": 894,
    "sion": 895,
    "ka": 896,
    "sol@@": 897,
    "comm@@": 898,
    "large": 899,
    "River": 900,
    "af@@": 901,
    "include": 902,
    "ves": 903,
    "ants": 904,
    "last": 905,
    "ue": 906,
    "12@@": 907,
    "″": 908,
    "33": 909,
    "small": 910,
    "water": 911,
    "said": 912,
    "ys": 913,
    "bo@@": 914,
    "head": 915,
    "vi@@": 916,
    ".[": 917,
    "19@@": 918,
    "cor@@": 919,
    "ster": 920,
    "ak": 921,
    "During": 922,
    "Company": 923,
    "dep@@": 924,
    "go": 925,
    "ger": 926,
    "Pl@@": 927,
    "Canada": 928,
    "Ber@@": 929,
    "00": 930,
    "California": 931,
    "club": 932,
    "tor": 933,
    "national": 934,
    "third": 935,
    "rem@@": 936,
    "He@@": 937,
    "ake": 938,
    "о@@": 939,
    "Michael": 940,
    "1995": 941,
    "High": 942,
    "pri@@": 943,
    "Church": 944,
    "Japanese": 945,
    "ded": 946,
    "ns": 947,
    "East": 948,
    "Jo@@": 949,
    "den": 950,
    "children": 951,
    "First": 952,
    "ot": 953,
    "tive": 954,
    "Nor@@": 955,
    "Mal@@": 956,
    "ret@@": 957,
    "order": 958,
    "Br@@": 959,
    "less": 960,
    "Q@@": 961,
    "45": 962,
    "ked": 963,
    "football": 964,
    "site": 965,
    "main": 966,
    "From": 967,
    "still": 968,
    "via": 969,
    "San": 970,
    "right": 971,
    "death": 972,
    "ling": 973,
    "tic": 974,
    "ta": 975,
    "Min@@": 976,
    "ind@@": 977,
    "ham": 978,
    "what": 979,
    "35": 980,
    "Ph@@": 981,
    "father": 982,
    "25@@": 983,
    "An": 984,
    "Royal": 985,
    "Paul": 986,
    "#": 987,
    "ara": 988,
    "é": 989,
    "When": 990,
    "war": 991,
    "included": 992,
    "those": 993,
    "ory": 994,
    "million": 995,
    "km": 996,
    "King": 997,
    "emb@@": 998,
    "ized": 999,
    "Council": 1000,
    "que": 1001,
    "ers@@": 1002,
    "tim@@": 1003,
    "air": 1004,
    "...": 1005,
    "chi@@": 1006,
    "Thomas": 1007,
    "near": 1008,
    "ur": 1009,
    "Washington": 1010,
    "ments": 1011,
    "Inter@@": 1012,
    "1994": 1013,
    "na": 1014,
    "ying": 1015,
    "late": 1016,
    "27@@": 1017,
    "BBC": 1018,
    "ens@@": 1019,
    "eng@@": 1020,
    "another": 1021,
    "ol": 1022,
    "service": 1023,
    "France": 1024,
    "top": 1025,
    "European": 1026,
    "major": 1027,
    "President": 1028,
    "version": 1029,
    "works": 1030,
    "best": 1031,
    "list": 1032,
    "ann@@": 1033,
    "mo@@": 1034,
    "enti@@": 1035,
    "Hol@@": 1036,
    "ological": 1037,
    "ines": 1038,
    "record": 1039,
    "32": 1040,
    "using": 1041,
    "me@@": 1042,
    "}": 1043,
    "ish": 1044,
    "ered": 1045,
    "non": 1046,
    "ire": 1047,
    "inc@@": 1048,
    "38": 1049,
    "citation": 1050,
    "Spanish": 1051,
    "iv@@": 1052,
    "Ver@@": 1053,
    "Pre@@": 1054,
    "ther@@": 1055,
    "ish@@": 1056,
    "Center": 1057,
    "atic": 1058,
    "career": 1059,
    "Award": 1060,
    "often": 1061,
    "Street": 1062,
    "ust@@": 1063,
    "UK": 1064,
    "net": 1065,
    "Russian": 1066,
    "pres@@": 1067,
    "yn@@": 1068,
    "anc@@": 1069,
    "Machine": 1070,
    "sch@@": 1071,
    "j": 1072,
    "different": 1073,
    "1992": 1074,
    "Ge@@": 1075,
    "Y": 1076,
    "north": 1077,
    "Army": 1078,
    "spec@@": 1079,
    "do@@": 1080,
    "_": 1081,
    "law": 1082,
    "tical": 1083,
    "portal": 1084,
    "Mil@@": 1085,
    "We@@": 1086,
    "ino": 1087,
    "ier": 1088,
    "Institute": 1089,
    "ties": 1090,
    "ial": 1091,
    "Shi@@": 1092,
    "women": 1093,
    "Air": 1094,
    "district": 1095,
    "Museum": 1096,
    "ages": 1097,
    "we@@": 1098,
    "1993": 1099,
    "art@@": 1100,
    "60": 1101,
    "With": 1102,
    "26@@": 1103,
    "80": 1104,
    "44": 1105,
    "ick": 1106,
    "1990": 1107,
    "ard@@": 1108,
    "gen@@": 1109,
    "Charles": 1110,
    "country": 1111,
    "ms": 1112,
    "election": 1113,
    "Bl@@": 1114,
    "185@@": 1115,
    "ten": 1116,
    "ending": 1117,
    "ses": 1118,
    "times": 1119,
    "sec@@": 1120,
    "ble": 1121,
    "“": 1122,
    "ata": 1123,
    "games": 1124,
    "?": 1125,
    "Su@@": 1126,
    "Football": 1127,
    "just": 1128,
    "е@@": 1129,
    "moved": 1130,
    "Bi@@": 1131,
    "Po@@": 1132,
    "war@@": 1133,
    "aj@@": 1134,
    "Cal@@": 1135,
    "PMID": 1136,
    "Sal@@": 1137,
    "ville": 1138,
    "ended": 1139,
    "Union": 1140,
    "ever": 1141,
    "the@@": 1142,
    "un": 1143,
    "again": 1144,
    "south": 1145,
    "1991": 1146,
    "To": 1147,
    "Group": 1148,
    "а@@": 1149,
    "make": 1150,
    "my": 1151,
    "Service": 1152,
    "ect": 1153,
    "Division": 1154,
    "39": 1155,
    "went": 1156,
    "power": 1157,
    "even": 1158,
    "Chi@@": 1159,
    "met@@": 1160,
    "low": 1161,
    "36": 1162,
    "amb@@": 1163,
    "red": 1164,
    "37": 1165,
    "fi@@": 1166,
    "established": 1167,
    "role": 1168,
    "ches": 1169,
    "hy@@": 1170,
    "34": 1171,
    "given": 1172,
    "ong@@": 1173,
    "much": 1174,
    "help": 1175,
    "ae": 1176,
    "position": 1177,
    "res": 1178,
    "def@@": 1179,
    "ain@@": 1180,
    "da": 1181,
    "Mac@@": 1182,
    "ness": 1183,
    "}@@": 1184,
    "sur@@": 1185,
    "ase": 1186,
    "air@@": 1187,
    "Best": 1188,
    "ality": 1189,
    "Indian": 1190,
    "Art": 1191,
    "41": 1192,
    "42": 1193,
    "La": 1194,
    "official": 1195,
    "Bro@@": 1196,
    "Fl@@": 1197,
    "gra@@": 1198,
    "rel@@": 1199,
    "Peter": 1200,
    "ning": 1201,
    "By": 1202,
    "28@@": 1203,
    "48": 1204,
    "ee": 1205,
    "Wayback": 1206,
    "community": 1207,
    "Tri@@": 1208,
    "yp@@": 1209,
    "six": 1210,
    "Tra@@": 1211,
    "Central": 1212,
    "Dis@@": 1213,
    "written": 1214,
    "Gen@@": 1215,
    "Media": 1216,
    "China": 1217,
    "Pr@@": 1218,
    "formed": 1219,
    "mer": 1220,
    "Pal@@": 1221,
    "Res@@": 1222,
    "considered": 1223,
    "ick@@": 1224,
    "support": 1225,
    "point": 1226,
    "1989": 1227,
    "Bel@@": 1228,
    "ash@@": 1229,
    "sing": 1230,
    "our@@": 1231,
    "bar@@": 1232,
    "ability": 1233,
    "among": 1234,
    "take": 1235,
    "ash": 1236,
    ",\"": 1237,
    "au": 1238,
    "Richard": 1239,
    "mer@@": 1240,
    "Japan": 1241,
    "married": 1242,
    "ö@@": 1243,
    "came": 1244,
    "Party": 1245,
    "ü@@": 1246,
    "ali@@": 1247,
    "produced": 1248,
    "we": 1249,
    "Republic": 1250,
    "Chinese": 1251,
    "started": 1252,
    "ano": 1253,
    "90": 1254,
    "vis@@": 1255,
    "Hall": 1256,
    "era": 1257,
    "development": 1258,
    "43": 1259,
    "ce": 1260,
    "displaystyle": 1261,
    "become": 1262,
    "Census": 1263,
    "rated": 1264,
    "ements": 1265,
    "47": 1266,
    "Is@@": 1267,
    "release": 1268,
    "т@@": 1269,
    "next": 1270,
    "period": 1271,
    "wor@@": 1272,
    "aff@@": 1273,
    "lies": 1274,
    "ron@@": 1275,
    "Reg@@": 1276,
    "eds": 1277,
    "Wor@@": 1278,
    "general": 1279,
    "production": 1280,
    "Canadian": 1281,
    "present": 1282,
    "mat@@": 1283,
    "students": 1284,
    "ists": 1285,
    "west": 1286,
    "story": 1287,
    "mis@@": 1288,
    "ani": 1289,
    "ane": 1290,
    "ned": 1291,
    "amp@@": 1292,
    "sm@@": 1293,
    "These": 1294,
    "46": 1295,
    "Sha@@": 1296,
    "Wil@@": 1297,
    "see": 1298,
    "bre@@": 1299,
    "shi@@": 1300,
    "om": 1301,
    "ov": 1302,
    "Review": 1303,
    "Ag@@": 1304,
    "ture": 1305,
    "ari@@": 1306,
    "ars": 1307,
    "round": 1308,
    "You": 1309,
    "ration": 1310,
    "ide": 1311,
    "Li@@": 1312,
    "Smith": 1313,
    "level": 1314,
    "Office": 1315,
    "Club": 1316,
    "49": 1317,
    "various": 1318,
    "elected": 1319,
    "har@@": 1320,
    "having": 1321,
    "Em@@": 1322,
    "1988": 1323,
    "ung": 1324,
    "Cri@@": 1325,
    "Germany": 1326,
    "emp@@": 1327,
    "Information": 1328,
    "Im@@": 1329,
    "Bal@@": 1330,
    "za": 1331,
    "political": 1332,
    "des@@": 1333,
    "tur@@": 1334,
    "ney": 1335,
    "uk@@": 1336,
    "Life": 1337,
    "pol@@": 1338,
    "í@@": 1339,
    "race": 1340,
    "em": 1341,
    "Science": 1342,
    "hor@@": 1343,
    "created": 1344,
    "class": 1345,
    "half": 1346,
    "38@@": 1347,
    "total": 1348,
    "29@@": 1349,
    "ering": 1350,
    "cont@@": 1351,
    "ental": 1352,
    "run": 1353,
    "her@@": 1354,
    "full": 1355,
    "inf@@": 1356,
    "announced": 1357,
    "live": 1358,
    "65": 1359,
    "ular": 1360,
    "days": 1361,
    "51": 1362,
    "Kar@@": 1363,
    "Historic": 1364,
    "uk": 1365,
    "Bri@@": 1366,
    "mi": 1367,
    "Te@@": 1368,
    "Women": 1369,
    "east": 1370,
    "without": 1371,
    "alist": 1372,
    "tran@@": 1373,
    "Film": 1374,
    "ion@@": 1375,
    "berg": 1376,
    "yl@@": 1377,
    "enc@@": 1378,
    "Italian": 1379,
    "Road": 1380,
    "television": 1381,
    "joined": 1382,
    "short": 1383,
    "church": 1384,
    "let": 1385,
    "Rec@@": 1386,
    "ography": 1387,
    "wood": 1388,
    "ual": 1389,
    "cre@@": 1390,
    "enn@@": 1391,
    "worked": 1392,
    "ock": 1393,
    "ha": 1394,
    "Can@@": 1395,
    "uses": 1396,
    "page": 1397,
    "ath": 1398,
    "ently": 1399,
    "Great": 1400,
    "ena": 1401,
    ".@@": 1402,
    "ach": 1403,
    "vo@@": 1404,
    "act": 1405,
    "ences": 1406,
    "New@@": 1407,
    "dem@@": 1408,
    "however": 1409,
    "Lu@@": 1410,
    "37@@": 1411,
    "Sw@@": 1412,
    "Ger@@": 1413,
    "Library": 1414,
    "pat@@": 1415,
    "Register": 1416,
    "case": 1417,
    "road": 1418,
    "Post": 1419,
    "1987": 1420,
    "Ap@@": 1421,
    "ek": 1422,
    "military": 1423,
    "Henry": 1424,
    "AR@@": 1425,
    "Star": 1426,
    "Bu@@": 1427,
    "land@@": 1428,
    "ä@@": 1429,
    "information": 1430,
    "1st": 1431,
    "Sk@@": 1432,
    "Research": 1433,
    "few": 1434,
    "founded": 1435,
    "ill": 1436,
    "light": 1437,
    "loc@@": 1438,
    "rep@@": 1439,
    "Go@@": 1440,
    "Wal@@": 1441,
    "Gl@@": 1442,
    "continued": 1443,
    "Gi@@": 1444,
    "FC": 1445,
    "ented": 1446,
    "app@@": 1447,
    "wrote": 1448,
    "Sol@@": 1449,
    "ere": 1450,
    "ge@@": 1451,
    "Awards": 1452,
    "Pe@@": 1453,
    "bor@@": 1454,
    "Bre@@": 1455,
    "Championship": 1456,
    "des": 1457,
    "!": 1458,
    "ished": 1459,
    "Government": 1460,
    "Los": 1461,
    "1986": 1462,
    "coun@@": 1463,
    "ea@@": 1464,
    "points": 1465,
    "you": 1466,
    "Chicago": 1467,
    "La@@": 1468,
    "52": 1469,
    "described": 1470,
    "mag@@": 1471,
    "Western": 1472,
    "inv@@": 1473,
    "Europe": 1474,
    "Academy": 1475,
    "video": 1476,
    "Court": 1477,
    "returned": 1478,
    "region": 1479,
    "get": 1480,
    "Gro@@": 1481,
    "elec@@": 1482,
    "Ros@@": 1483,
    "Top": 1484,
    "ich@@": 1485,
    "tional": 1486,
    "tro@@": 1487,
    "Gra@@": 1488,
    "36@@": 1489,
    "olog@@": 1490,
    "international": 1491,
    "lead": 1492,
    "Pol@@": 1493,
    "Mat@@": 1494,
    "ten@@": 1495,
    "tors": 1496,
    "match": 1497,
    "program": 1498,
    "ities": 1499,
    "Records": 1500,
    "burg": 1501,
    "services": 1502,
    "ene": 1503,
    "White": 1504,
    "news": 1505,
    "making": 1506,
    "ly@@": 1507,
    "1985": 1508,
    "opened": 1509,
    "Met@@": 1510,
    "appeared": 1511,
    "Island": 1512,
    "away": 1513,
    "together": 1514,
    "Black": 1515,
    "op": 1516,
    "date": 1517,
    "form@@": 1518,
    "language": 1519,
    "ank@@": 1520,
    "Sports": 1521,
    "ern@@": 1522,
    "ful": 1523,
    "Ser@@": 1524,
    "party": 1525,
    "ym@@": 1526,
    "53": 1527,
    "ser@@": 1528,
    "47@@": 1529,
    "uri@@": 1530,
    "Daily": 1531,
    "ac": 1532,
    "(@@": 1533,
    "Oxford": 1534,
    "ella": 1535,
    "body": 1536,
    "Texas": 1537,
    "sed": 1538,
    "Char@@": 1539,
    "acy": 1540,
    "According": 1541,
    "lost": 1542,
    "Ter@@": 1543,
    "wife": 1544,
    "Red": 1545,
    "2nd": 1546,
    "ised": 1547,
    "ams": 1548,
    "recorded": 1549,
    "Mer@@": 1550,
    "exp@@": 1551,
    "gr@@": 1552,
    "can@@": 1553,
    "Pet@@": 1554,
    "1984": 1555,
    "ext@@": 1556,
    "business": 1557,
    "fer@@": 1558,
    "ground": 1559,
    "director": 1560,
    "Ke@@": 1561,
    "ala": 1562,
    "every": 1563,
    "AT@@": 1564,
    "Des@@": 1565,
    "working": 1566,
    "ational": 1567,
    "control": 1568,
    "ys@@": 1569,
    "My@@": 1570,
    "research": 1571,
    "professional": 1572,
    "reg@@": 1573,
    "ó@@": 1574,
    "dead": 1575,
    "ston": 1576,
    "term": 1577,
    "Sa@@": 1578,
    "Act": 1579,
    "ama": 1580,
    "Cha@@": 1581,
    "tics": 1582,
    "ose": 1583,
    "African": 1584,
    "ca": 1585,
    "1983": 1586,
    "55": 1587,
    "ass": 1588,
    "det@@": 1589,
    "mp@@": 1590,
    "III": 1591,
    "Val@@": 1592,
    "ators": 1593,
    "bri@@": 1594,
    "hol@@": 1595,
    "ships": 1596,
    "Education": 1597,
    "Sim@@": 1598,
    "Pi@@": 1599,
    "available": 1600,
    "tor@@": 1601,
    "low@@": 1602,
    "Sy@@": 1603,
    "ight": 1604,
    "Ev@@": 1605,
    "Africa": 1606,
    "Hor@@": 1607,
    "Fre@@": 1608,
    "ast": 1609,
    "por@@": 1610,
    "event": 1611,
    "1980": 1612,
    "change": 1613,
    "related": 1614,
    "range": 1615,
    "ste@@": 1616,
    "ored": 1617,
    "Some": 1618,
    "CA@@": 1619,
    "Two": 1620,
    "ll": 1621,
    "56": 1622,
    "ich": 1623,
    "Sub@@": 1624,
    "port": 1625,
    "important": 1626,
    "System": 1627,
    "prot@@": 1628,
    "ington": 1629,
    "unc@@": 1630,
    "ays": 1631,
    "league": 1632,
    "ends": 1633,
    "appointed": 1634,
    "Ireland": 1635,
    "aries": 1636,
    "ack@@": 1637,
    "arm@@": 1638,
    "free": 1639,
    "ring": 1640,
    "ita": 1641,
    "signed": 1642,
    ");": 1643,
    "human": 1644,
    "how": 1645,
    "Gr@@": 1646,
    "developed": 1647,
    "\"@@": 1648,
    "character": 1649,
    "No@@": 1650,
    "Pri@@": 1651,
    "Lake": 1652,
    "1982": 1653,
    "ones": 1654,
    "iti@@": 1655,
    "Fin@@": 1656,
    "example": 1657,
    "common": 1658,
    "ail": 1659,
    "ack": 1660,
    "US@@": 1661,
    "ve@@": 1662,
    "oun@@": 1663,
    "copy": 1664,
    "put": 1665,
    "ency": 1666,
    "Cre@@": 1667,
    "active": 1668,
    "result": 1669,
    "amm@@": 1670,
    "ut": 1671,
    "others": 1672,
    "Martin": 1673,
    "office": 1674,
    "ett": 1675,
    "teams": 1676,
    "ace": 1677,
    "sky": 1678,
    "Paris": 1679,
    "Billboard": 1680,
    "design": 1681,
    "mother": 1682,
    "Day": 1683,
    "come": 1684,
    "further": 1685,
    "playing": 1686,
    "areas": 1687,
    "ef": 1688,
    "Books": 1689,
    "70": 1690,
    "thing": 1691,
    "ini": 1692,
    "IS@@": 1693,
    "Mi@@": 1694,
    "39@@": 1695,
    "200": 1696,
    "im": 1697,
    "Pat@@": 1698,
    "Year": 1699,
    "Tro@@": 1700,
    "https": 1701,
    "himself": 1702,
    "Angeles": 1703,
    "ez": 1704,
    "ola": 1705,
    "Law": 1706,
    "episode": 1707,
    "project": 1708,
    "track": 1709,
    "tw@@": 1710,
    "54": 1711,
    "similar": 1712,
    "Christian": 1713,
    "hon@@": 1714,
    "ways": 1715,
    "Book": 1716,
    "rate": 1717,
    "ine@@": 1718,
    "forms": 1719,
    "Bas@@": 1720,
    "cap@@": 1721,
    "Minister": 1722,
    "Man": 1723,
    "den@@": 1724,
    "taken": 1725,
    "debut": 1726,
    "Zealand": 1727,
    "Mus@@": 1728,
    "tru@@": 1729,
    "1979": 1730,
    "cul@@": 1731,
    "adi@@": 1732,
    "500": 1733,
    "Lo@@": 1734,
    "ame": 1735,
    "action": 1736,
    "58": 1737,
    "stage": 1738,
    "64": 1739,
    "social": 1740,
    "anti@@": 1741,
    "daughter": 1742,
    "off@@": 1743,
    "dia": 1744,
    "Mary": 1745,
    "popular": 1746,
    "although": 1747,
    "ek@@": 1748,
    "ories": 1749,
    "current": 1750,
    "While": 1751,
    "Gre@@": 1752,
    "miles": 1753,
    "ram@@": 1754,
    "Public": 1755,
    "1981": 1756,
    "Bra@@": 1757,
    "open": 1758,
    "Ben@@": 1759,
    "ute": 1760,
    "mod@@": 1761,
    "sl@@": 1762,
    "ear": 1763,
    "hel@@": 1764,
    "average": 1765,
    "Mad@@": 1766,
    "rit@@": 1767,
    "hand@@": 1768,
    "never": 1769,
    "fac@@": 1770,
    "ven@@": 1771,
    "Radio": 1772,
    "Dr": 1773,
    "view": 1774,
    "Report": 1775,
    "trans@@": 1776,
    "Of": 1777,
    "ran": 1778,
    "ids": 1779,
    "board": 1780,
    "Sur@@": 1781,
    "should": 1782,
    "War@@": 1783,
    "iting": 1784,
    "Gar@@": 1785,
    "Mark": 1786,
    "83": 1787,
    "Love": 1788,
    "car": 1789,
    "75": 1790,
    "rest@@": 1791,
    ".).": 1792,
    ".)": 1793,
    "ow": 1794,
    "addition": 1795,
    "events": 1796,
    "в@@": 1797,
    "rest": 1798,
    "Do@@": 1799,
    "living": 1800,
    "style": 1801,
    "49@@": 1802,
    "writer": 1803,
    "education": 1804,
    "Z": 1805,
    "с@@": 1806,
    "great": 1807,
    "row": 1808,
    "Ang@@": 1809,
    "inn@@": 1810,
    "Force": 1811,
    "Dar@@": 1812,
    "Grand": 1813,
    "Time": 1814,
    "ith@@": 1815,
    "67": 1816,
    "Ru@@": 1817,
    "fire": 1818,
    "85": 1819,
    "syn@@": 1820,
    "young": 1821,
    "char@@": 1822,
    "п@@": 1823,
    "don": 1824,
    "59": 1825,
    "und": 1826,
    "once": 1827,
    "article": 1828,
    "Ra@@": 1829,
    "does": 1830,
    "Committee": 1831,
    "post": 1832,
    "data": 1833,
    "ders": 1834,
    "though": 1835,
    "Kingdom": 1836,
    "ll@@": 1837,
    "val@@": 1838,
    "construction": 1839,
    "1978": 1840,
    "expl@@": 1841,
    "across": 1842,
    "ail@@": 1843,
    "IN@@": 1844,
    "section": 1845,
    "killed": 1846,
    "q@@": 1847,
    "ited": 1848,
    "ony": 1849,
    "Cro@@": 1850,
    "ff": 1851,
    "Festival": 1852,
    "tu@@": 1853,
    "sold": 1854,
    "Saint": 1855,
    "Publishing": 1856,
    "к@@": 1857,
    "Its": 1858,
    "Board": 1859,
    "currently": 1860,
    "Pres@@": 1861,
    "listed": 1862,
    "Hill": 1863,
    "seen": 1864,
    "Catholic": 1865,
    "coach": 1866,
    "Joseph": 1867,
    "Arts": 1868,
    "Irish": 1869,
    "fil@@": 1870,
    "Series": 1871,
    "Si@@": 1872,
    "modern": 1873,
    "ther": 1874,
    "Du@@": 1875,
    "Leg@@": 1876,
    "1976": 1877,
    "AN@@": 1878,
    "Del@@": 1879,
    "57": 1880,
    "includes": 1881,
    "Gal@@": 1882,
    "ap": 1883,
    "clo@@": 1884,
    "ically": 1885,
    "directed": 1886,
    "yer": 1887,
    "players": 1888,
    "study": 1889,
    "ond@@": 1890,
    "western": 1891,
    "Pan@@": 1892,
    "Iran": 1893,
    "ada": 1894,
    "gl@@": 1895,
    "ef@@": 1896,
    "1972": 1897,
    "ium": 1898,
    "ss@@": 1899,
    "Ju@@": 1900,
    "у@@": 1901,
    "1977": 1902,
    "1975": 1903,
    "good": 1904,
    "Cambridge": 1905,
    "must": 1906,
    "0s": 1907,
    "Coordinates": 1908,
    "del@@": 1909,
    "designed": 1910,
    "ances": 1911,
    "president": 1912,
    "ese": 1913,
    "type": 1914,
    "Pennsylvania": 1915,
    "performed": 1916,
    "vari@@": 1917,
    "1945": 1918,
    "ock@@": 1919,
    "originally": 1920,
    "bur@@": 1921,
    "cent@@": 1922,
    "Inc": 1923,
    "Games": 1924,
    "ye": 1925,
    "ech@@": 1926,
    "leg@@": 1927,
    "Roman": 1928,
    "ri": 1929,
    "ette": 1930,
    "eff@@": 1931,
    "Far@@": 1932,
    "ls": 1933,
    "1974": 1934,
    "sup@@": 1935,
    "1970": 1936,
    "ox@@": 1937,
    "hal@@": 1938,
    "Sir": 1939,
    "pos@@": 1940,
    "ou": 1941,
    "kn@@": 1942,
    "largest": 1943,
    "Commission": 1944,
    "ref@@": 1945,
    "dro@@": 1946,
    "sts": 1947,
    "Other": 1948,
    "ards": 1949,
    "Her": 1950,
    "lower": 1951,
    "ep": 1952,
    "books": 1953,
    "stone": 1954,
    "ce@@": 1955,
    "di": 1956,
    "ht@@": 1957,
    "dra@@": 1958,
    "gro@@": 1959,
    "Lee": 1960,
    "sent": 1961,
    "songs": 1962,
    "lines": 1963,
    "finished": 1964,
    "Second": 1965,
    "cur@@": 1966,
    "features": 1967,
    "Mexico": 1968,
    "white": 1969,
    "radio": 1970,
    "tal@@": 1971,
    "Brown": 1972,
    "required": 1973,
    "van": 1974,
    "Mag@@": 1975,
    "brother": 1976,
    "tre@@": 1977,
    "special": 1978,
    "Hy@@": 1979,
    "equ@@": 1980,
    "pe": 1981,
    "ai@@": 1982,
    "return": 1983,
    "Cas@@": 1984,
    "Tor@@": 1985,
    "My": 1986,
    "ax@@": 1987,
    "1971": 1988,
    "forces": 1989,
    "gener@@": 1990,
    "}}@@": 1991,
    "months": 1992,
    "Virginia": 1993,
    "и": 1994,
    "cop@@": 1995,
    "leading": 1996,
    "].": 1997,
    "gave": 1998,
    "1973": 1999,
    "Bor@@": 2000,
    "At@@": 2001,
    "ving": 2002,
    "ki": 2003,
    "89": 2004,
    "process": 2005,
    "usually": 2006,
    "Hel@@": 2007,
    "ith": 2008,
    "Big": 2009,
    "coll@@": 2010,
    "93": 2011,
    "Magazine": 2012,
    "schools": 2013,
    "self": 2014,
    "Guide": 2015,
    "Fi@@": 2016,
    "Vi@@": 2017,
    "Business": 2018,
    "Most": 2019,
    "ver": 2020,
    "30@@": 2021,
    "ously": 2022,
    "square": 2023,
    "Ni@@": 2024,
    "force": 2025,
    "Fil@@": 2026,
    "base": 2027,
    "Wales": 2028,
    "1968": 2029,
    "ij@@": 2030,
    "Greek": 2031,
    "Op@@": 2032,
    "owned": 2033,
    "saw": 2034,
    "Bill": 2035,
    "Navy": 2036,
    "Ham@@": 2037,
    "Ste@@": 2038,
    "hom@@": 2039,
    "ski": 2040,
    "seven": 2041,
    "ry@@": 2042,
    "Kn@@": 2043,
    "USA": 2044,
    "”": 2045,
    "aker": 2046,
    "followed": 2047,
    "Team": 2048,
    "central": 2049,
    "key": 2050,
    "Green": 2051,
    "rock": 2052,
    "Sil@@": 2053,
    "ched": 2054,
    "completed": 2055,
    "hi": 2056,
    "ense": 2057,
    "ā@@": 2058,
    "performance": 2059,
    "Since": 2060,
    "Tom@@": 2061,
    "court": 2062,
    "groups": 2063,
    "ective": 2064,
    "ury": 2065,
    "Co": 2066,
    "front": 2067,
    "ected": 2068,
    "aircraft": 2069,
    "str@@": 2070,
    "ero": 2071,
    "97@@": 2072,
    "Reference": 2073,
    "1969": 2074,
    "Ha@@": 2075,
    "99": 2076,
    "ball": 2077,
    "Bay": 2078,
    "space": 2079,
    "idae": 2080,
    "results": 2081,
    "room": 2082,
    "Edward": 2083,
    "Although": 2084,
    "ests": 2085,
    "sea": 2086,
    "Bul@@": 2087,
    "3rd": 2088,
    "reported": 2089,
    "aster": 2090,
    "ile": 2091,
    "review": 2092,
    "ust": 2093,
    "text": 2094,
    "Rom@@": 2095,
    "anda": 2096,
    "Rev@@": 2097,
    "Station": 2098,
    "oper@@": 2099,
    "ots": 2100,
    "upon": 2101,
    "86": 2102,
    "night": 2103,
    "ales": 2104,
    "training": 2105,
    "Ko@@": 2106,
    "featured": 2107,
    ",@@": 2108,
    "aut@@": 2109,
    "Congress": 2110,
    "ries": 2111,
    "Don@@": 2112,
    "Old": 2113,
    "ication": 2114,
    "Florida": 2115,
    "rin@@": 2116,
    "AS@@": 2117,
    "Q": 2118,
    "Dun@@": 2119,
    "Northern": 2120,
    "Sam@@": 2121,
    "88": 2122,
    "of@@": 2123,
    "week": 2124,
    "El": 2125,
    "Is": 2126,
    "д@@": 2127,
    "Al": 2128,
    "ides": 2129,
    "81": 2130,
    "Mu@@": 2131,
    "(\"": 2132,
    "author": 2133,
    "gar@@": 2134,
    "black": 2135,
    "attack": 2136,
    "igh@@": 2137,
    "novel": 2138,
    "lig@@": 2139,
    "Dutch": 2140,
    "throughout": 2141,
    "ved": 2142,
    "CS1": 2143,
    "tion@@": 2144,
    "maint": 2145,
    "retrieved": 2146,
    "61": 2147,
    "edition": 2148,
    "families": 2149,
    "awarded": 2150,
    "ea": 2151,
    "Er@@": 2152,
    "stri@@": 2153,
    "word": 2154,
    "oo": 2155,
    "н@@": 2156,
    "ster@@": 2157,
    "Mel@@": 2158,
    "Ly@@": 2159,
    "People": 2160,
    "aged": 2161,
    "Rel@@": 2162,
    "Fer@@": 2163,
    "mi@@": 2164,
    "refer": 2165,
    "person": 2166,
    "ters": 2167,
    "close": 2168,
    "q": 2169,
    "press": 2170,
    "CO@@": 2171,
    "fre@@": 2172,
    "р@@": 2173,
    "states": 2174,
    "wing": 2175,
    "Ram@@": 2176,
    "95": 2177,
    "eight": 2178,
    "Bureau": 2179,
    "above": 2180,
    "singer": 2181,
    "Jones": 2182,
    "possible": 2183,
    "successful": 2184,
    "57@@": 2185,
    "sil@@": 2186,
    "wide": 2187,
    "super@@": 2188,
    "mann": 2189,
    "1967": 2190,
    "remained": 2191,
    "bas@@": 2192,
    "lie": 2193,
    "ize": 2194,
    "either": 2195,
    "tiv@@": 2196,
    "66": 2197,
    "sti@@": 2198,
    "ci@@": 2199,
    "rights": 2200,
    "ric": 2201,
    "Louis": 2202,
    "San@@": 2203,
    "ond": 2204,
    "ious": 2205,
    "84": 2206,
    "gh@@": 2207,
    "my@@": 2208,
    "ert": 2209,
    "Tur@@": 2210,
    "ws": 2211,
    "ures": 2212,
    "model": 2213,
    "mm": 2214,
    "Historical": 2215,
    "ges": 2216,
    "added": 2217,
    "97": 2218,
    "pen@@": 2219,
    "sum@@": 2220,
    "Por@@": 2221,
    "62": 2222,
    "placed": 2223,
    "]@@": 2224,
    "ave": 2225,
    "countries": 2226,
    "bed": 2227,
    "ads": 2228,
    "competition": 2229,
    "winning": 2230,
    "Vol@@": 2231,
    "ward": 2232,
    "Vol": 2233,
    "sal@@": 2234,
    "du@@": 2235,
    "media": 2236,
    "online": 2237,
    "Comp@@": 2238,
    "involved": 2239,
    "police": 2240,
    "sid@@": 2241,
    "63": 2242,
    "ari": 2243,
    "ths": 2244,
    "bro@@": 2245,
    "eman": 2246,
    "shows": 2247,
    "private": 2248,
    "artist": 2249,
    "Game": 2250,
    "Dec@@": 2251,
    "eventually": 2252,
    "Town": 2253,
    "ald": 2254,
    "face": 2255,
    "cher": 2256,
    "od": 2257,
    "sy@@": 2258,
    "ord@@": 2259,
    "ions": 2260,
    "med": 2261,
    "least": 2262,
    "actor": 2263,
    "Tw@@": 2264,
    "politician": 2265,
    "alism": 2266,
    "We": 2267,
    "AC@@": 2268,
    "lin": 2269,
    "tures": 2270,
    "wh@@": 2271,
    "ni@@": 2272,
    "Foundation": 2273,
    "ul": 2274,
    "umb@@": 2275,
    "ects": 2276,
    "organ@@": 2277,
    "Luc@@": 2278,
    "ao": 2279,
    "Cur@@": 2280,
    "л@@": 2281,
    "market": 2282,
    "river": 2283,
    "ti": 2284,
    "−": 2285,
    "Network": 2286,
    "Young": 2287,
    "\")": 2288,
    "college": 2289,
    "Italy": 2290,
    "Ren@@": 2291,
    "parts": 2292,
    "bs": 2293,
    "sports": 2294,
    "91": 2295,
    "87@@": 2296,
    "If": 2297,
    "Boston": 2298,
    "м@@": 2299,
    "94": 2300,
    "science": 2301,
    "bury": 2302,
    "provided": 2303,
    "strong": 2304,
    "ke@@": 2305,
    "Order": 2306,
    "du": 2307,
    "replaced": 2308,
    "add@@": 2309,
    "Russia": 2310,
    "ius": 2311,
    "female": 2312,
    "oon": 2313,
    "Ul@@": 2314,
    "names": 2315,
    "'@@": 2316,
    "Cam@@": 2317,
    "Mont@@": 2318,
    "rich": 2319,
    "start": 2320,
    "sen": 2321,
    "ians": 2322,
    "1966": 2323,
    "ela": 2324,
    "BC": 2325,
    "Battle": 2326,
    "That": 2327,
    "Online": 2328,
    "Sou@@": 2329,
    "Scott": 2330,
    "va": 2331,
    "Volume": 2332,
    "bus": 2333,
    "Tal@@": 2334,
    "magazine": 2335,
    "size": 2336,
    "1964": 2337,
    "sign@@": 2338,
    "Tru@@": 2339,
    "akes": 2340,
    "Soviet": 2341,
    "leader": 2342,
    "cal@@": 2343,
    "permanent": 2344,
    "1965": 2345,
    "goal": 2346,
    "ains": 2347,
    "CD": 2348,
    "division": 2349,
    "Pen@@": 2350,
    "92": 2351,
    "vol@@": 2352,
    "Dev@@": 2353,
    "del": 2354,
    "è@@": 2355,
    "ensi@@": 2356,
    "fourth": 2357,
    "ok": 2358,
    "ites": 2359,
    "cast": 2360,
    "Centre": 2361,
    "ula": 2362,
    "Williams": 2363,
    "Bol@@": 2364,
    "Hal@@": 2365,
    "previous": 2366,
    "Pacific": 2367,
    "Southern": 2368,
    "ged": 2369,
    "ron": 2370,
    "Hon@@": 2371,
    "scored": 2372,
    "Mr": 2373,
    "guitar": 2374,
    "trac@@": 2375,
    "tar@@": 2376,
    "Sar@@": 2377,
    "ER@@": 2378,
    "lic@@": 2379,
    "star": 2380,
    "Men": 2381,
    "vir@@": 2382,
    "98": 2383,
    "bal@@": 2384,
    "82": 2385,
    "Jan@@": 2386,
    "Super@@": 2387,
    "Chart": 2388,
    "hit": 2389,
    "hand": 2390,
    "writing": 2391,
    "Hu@@": 2392,
    "Tom": 2393,
    "trav@@": 2394,
    "degree": 2395,
    "gs": 2396,
    "films": 2397,
    "Britain": 2398,
    "87": 2399,
    "center": 2400,
    "Tr@@": 2401,
    "а": 2402,
    "census": 2403,
    "met": 2404,
    "IMDb": 2405,
    "ura": 2406,
    "Frank": 2407,
    "mil@@": 2408,
    "mission": 2409,
    "Dor@@": 2410,
    "Federal": 2411,
    "2019": 2412,
    "40@@": 2413,
    "cu@@": 2414,
    "pp@@": 2415,
    "changed": 2416,
    "Parliament": 2417,
    "ja": 2418,
    "ours": 2419,
    "Ak@@": 2420,
    "Who": 2421,
    "yn": 2422,
    "gen": 2423,
    "68": 2424,
    "Jewish": 2425,
    "West@@": 2426,
    "introduced": 2427,
    "buildings": 2428,
    "Valley": 2429,
    "96": 2430,
    "whose": 2431,
    "All@@": 2432,
    "Mol@@": 2433,
    "Names": 2434,
    "mid": 2435,
    "ome": 2436,
    "1960": 2437,
    "Queen": 2438,
    "ho@@": 2439,
    "erson": 2440,
    "bit@@": 2441,
    "Olympics": 2442,
    "Polish": 2443,
    "Health": 2444,
    "Jr": 2445,
    "campaign": 2446,
    "Rock": 2447,
    "child": 2448,
    "Project": 2449,
    "Railway": 2450,
    "elev@@": 2451,
    "nor@@": 2452,
    "Home": 2453,
    "eral": 2454,
    "fication": 2455,
    "rather": 2456,
    "ples": 2457,
    "stein": 2458,
    "pi@@": 2459,
    "ا@@": 2460,
    "69": 2461,
    "top@@": 2462,
    "too": 2463,
    "Cy@@": 2464,
    "ern": 2465,
    "systems": 2466,
    "stated": 2467,
    "And": 2468,
    "provide": 2469,
    "lands": 2470,
    "ole": 2471,
    "Johnson": 2472,
    "bridge": 2473,
    "About": 2474,
    "Rh@@": 2475,
    "Mah@@": 2476,
    "opening": 2477,
    "ko": 2478,
    "ze": 2479,
    "behind": 2480,
    "ix": 2481,
    "disc@@": 2482,
    "Summer": 2483,
    "issue": 2484,
    "ett@@": 2485,
    "shire": 2486,
    "Fe@@": 2487,
    "legal": 2488,
    "Lord": 2489,
    "real": 2490,
    "Development": 2491,
    "success": 2492,
    "rey": 2493,
    "cy@@": 2494,
    "ror": 2495,
    "ization": 2496,
    "zz@@": 2497,
    "doc@@": 2498,
    "report": 2499,
    "Air@@": 2500,
    "ón": 2501,
    "bit": 2502,
    "Database": 2503,
    "fa@@": 2504,
    "11@@": 2505,
    "organization": 2506,
    "og": 2507,
    "Line": 2508,
    "reached": 2509,
    "Chris": 2510,
    "sex": 2511,
    "dri@@": 2512,
    "worth": 2513,
    "gre@@": 2514,
    "50@@": 2515,
    "son@@": 2516,
    "health": 2517,
    "atory": 2518,
    "friend": 2519,
    "Chief": 2520,
    "Carolina": 2521,
    "settlement": 2522,
    "source": 2523,
    "lied": 2524,
    "run@@": 2525,
    "defeated": 2526,
    "Studies": 2527,
    "cat@@": 2528,
    "woman": 2529,
    "units": 2530,
    "cover": 2531,
    "The@@": 2532,
    "weight": 2533,
    "sa@@": 2534,
    "arti@@": 2535,
    "structure": 2536,
    "Director": 2537,
    "tournament": 2538,
    "lab@@": 2539,
    "4th": 2540,
    "almost": 2541,
    "ison": 2542,
    "list@@": 2543,
    "ag": 2544,
    "decided": 2545,
    "course": 2546,
    "ort": 2547,
    "ody": 2548,
    "Me": 2549,
    "location": 2550,
    "vocals": 2551,
    "ination": 2552,
    "Michigan": 2553,
    "here": 2554,
    "complete": 2555,
    "sn@@": 2556,
    "Jersey": 2557,
    "tis@@": 2558,
    "Jack": 2559,
    "von": 2560,
    "De": 2561,
    "80@@": 2562,
    "Scotland": 2563,
    "post@@": 2564,
    "ential": 2565,
    "71": 2566,
    "Biography": 2567,
    "Alexander": 2568,
    "ight@@": 2569,
    "Championships": 2570,
    "ester": 2571,
    "cons@@": 2572,
    "ax": 2573,
    "lar@@": 2574,
    "ually": 2575,
    "74": 2576,
    "spir@@": 2577,
    "Cer@@": 2578,
    "contract": 2579,
    "ст@@": 2580,
    "lo": 2581,
    "ution": 2582,
    "1963": 2583,
    "?@@": 2584,
    "feet": 2585,
    "Civil": 2586,
    "1962": 2587,
    "As@@": 2588,
    "Est@@": 2589,
    "Cla@@": 2590,
    "Don": 2591,
    "я": 2592,
    "ights": 2593,
    "instead": 2594,
    "Bank": 2595,
    "ude": 2596,
    "die": 2597,
    "Mike": 2598,
    "Jean": 2599,
    "kins": 2600,
    "Ho@@": 2601,
    "Archive": 2602,
    "taking": 2603,
    "celeb@@": 2604,
    "Conference": 2605,
    "little": 2606,
    "brought": 2607,
    "claimed": 2608,
    "Sun": 2609,
    "Tim@@": 2610,
    "Empire": 2611,
    "regular": 2612,
    "Ash@@": 2613,
    "Dem@@": 2614,
    "oph@@": 2615,
    "200@@": 2616,
    "oes": 2617,
    "northern": 2618,
    "Andrew": 2619,
    "itch": 2620,
    "dy": 2621,
    "outside": 2622,
    "industry": 2623,
    "operation": 2624,
    "Little": 2625,
    "Sydney": 2626,
    "Fran@@": 2627,
    "Ann@@": 2628,
    "Mas@@": 2629,
    "sen@@": 2630,
    "Ca@@": 2631,
    "ested": 2632,
    "Blue": 2633,
    "ature": 2634,
    "ES@@": 2635,
    "thus": 2636,
    "future": 2637,
    "Dictionary": 2638,
    "73": 2639,
    "southern": 2640,
    "Olympic": 2641,
    "railway": 2642,
    "ately": 2643,
    "Le": 2644,
    "previously": 2645,
    "ening": 2646,
    "Whit@@": 2647,
    "Daniel": 2648,
    "ago": 2649,
    "lived": 2650,
    "phi@@": 2651,
    "Tran@@": 2652,
    "Province": 2653,
    "ania": 2654,
    "collection": 2655,
    "plays": 2656,
    "soon": 2657,
    "rad@@": 2658,
    "cer@@": 2659,
    "lock": 2660,
    "Francisco": 2661,
    "Vis@@": 2662,
    "plant": 2663,
    "are@@": 2664,
    "1939": 2665,
    "movement": 2666,
    "natural": 2667,
    "closed": 2668,
    "eth@@": 2669,
    "What": 2670,
    "eo": 2671,
    "78": 2672,
    "exc@@": 2673,
    "far": 2674,
    "Rem@@": 2675,
    "studio": 2676,
    "mor@@": 2677,
    "gov": 2678,
    "elled": 2679,
    "Bir@@": 2680,
    "island": 2681,
    "beginning": 2682,
    "runs": 2683,
    "elle": 2684,
    "Assembly": 2685,
    "love": 2686,
    "capital": 2687,
    "hum@@": 2688,
    "ues": 2689,
    "1961": 2690,
    "Sand@@": 2691,
    "lif@@": 2692,
    "anti": 2693,
    "network": 2694,
    "han": 2695,
    "ils": 2696,
    "Prince": 2697,
    "med@@": 2698,
    "go@@": 2699,
    "Coun@@": 2700,
    "Statistics": 2701,
    "Spain": 2702,
    "approximately": 2703,
    "ull": 2704,
    "Survey": 2705,
    "award": 2706,
    "plan@@": 2707,
    "below": 2708,
    "attended": 2709,
    "Special": 2710,
    "suff@@": 2711,
    "Corporation": 2712,
    "Family": 2713,
    "eu@@": 2714,
    "dic@@": 2715,
    "itation": 2716,
    "eth": 2717,
    "producer": 2718,
    "May@@": 2719,
    "bel@@": 2720,
    "Places": 2721,
    "especially": 2722,
    "Hun@@": 2723,
    "ops": 2724,
    "Encyclopedia": 2725,
    "77": 2726,
    "Tour": 2727,
    "1944": 2728,
    "elling": 2729,
    "sometimes": 2730,
    "traditional": 2731,
    "ree": 2732,
    "going": 2733,
    "UN@@": 2734,
    "ead": 2735,
    "ection": 2736,
    "ces": 2737,
    "Asia": 2738,
    "box": 2739,
    "-@@": 2740,
    "itself": 2741,
    "Heritage": 2742,
    "prec@@": 2743,
    "primary": 2744,
    "Jud@@": 2745,
    "interest": 2746,
    "Baseball": 2747,
    "72": 2748,
    "IT@@": 2749,
    ")\"": 2750,
    "any@@": 2751,
    "aches": 2752,
    "means": 2753,
    "independent": 2754,
    "viol@@": 2755,
    "compl@@": 2756,
    "whom": 2757,
    "ased": 2758,
    "html": 2759,
    "..": 2760,
    "Land@@": 2761,
    "ple": 2762,
    "running": 2763,
    "seat": 2764,
    "stat@@": 2765,
    "shot": 2766,
    "access": 2767,
    "ici@@": 2768,
    "tour": 2769,
    "ga": 2770,
    "Sup@@": 2771,
    "highest": 2772,
    "army": 2773,
    "cho@@": 2774,
    "Major": 2775,
    "lim@@": 2776,
    "istic": 2777,
    "Their": 2778,
    "Results": 2779,
    "God": 2780,
    "anim@@": 2781,
    "ili@@": 2782,
    "Spe@@": 2783,
    "Sport": 2784,
    "So@@": 2785,
    "allowed": 2786,
    "ora": 2787,
    "76": 2788,
    "today": 2789,
    "ult": 2790,
    "Three": 2791,
    "Joe": 2792,
    "inger": 2793,
    "ket@@": 2794,
    "usi@@": 2795,
    "'\".": 2796,
    "teen": 2797,
    "main@@": 2798,
    "length": 2799,
    "Bon@@": 2800,
    "summer": 2801,
    "ores": 2802,
    "domin@@": 2803,
    "county": 2804,
    "plan": 2805,
    "don@@": 2806,
    "takes": 2807,
    "Ohio": 2808,
    "IC@@": 2809,
    "Israel": 2810,
    "sa": 2811,
    "Comm@@": 2812,
    "ub": 2813,
    "cr@@": 2814,
    "standing": 2815,
    "money": 2816,
    "loss": 2817,
    "Today": 2818,
    "significant": 2819,
    "according": 2820,
    "wid@@": 2821,
    "Live": 2822,
    "hun@@": 2823,
    "Eastern": 2824,
    "appearance": 2825,
    "atives": 2826,
    "Many": 2827,
    "To@@": 2828,
    "Not@@": 2829,
    "Theatre": 2830,
    "IV": 2831,
    "tis": 2832,
    "ris": 2833,
    "ado": 2834,
    "Scottish": 2835,
    "past": 2836,
    "host": 2837,
    "Bat@@": 2838,
    "park": 2839,
    "find": 2840,
    "launched": 2841,
    "Sec@@": 2842,
    "Social": 2843,
    "Ty@@": 2844,
    "ty@@": 2845,
    "imp@@": 2846,
    "sem@@": 2847,
    "1959": 2848,
    "student": 2849,
    "Nic@@": 2850,
    "forced": 2851,
    "goals": 2852,
    "represented": 2853,
    "Toronto": 2854,
    "ISSN": 2855,
    "genus": 2856,
    "enz@@": 2857,
    "higher": 2858,
    "route": 2859,
    "aya": 2860,
    "Latin": 2861,
    "erg@@": 2862,
    "inal": 2863,
    "1940": 2864,
    "status": 2865,
    "gold": 2866,
    "coming": 2867,
    "Ministry": 2868,
    "ny": 2869,
    "better": 2870,
    "ji": 2871,
    "Lat@@": 2872,
    "fall": 2873,
    "sha@@": 2874,
    "Kh@@": 2875,
    "Pa@@": 2876,
    "changes": 2877,
    "Fac@@": 2878,
    "studies": 2879,
    "Juli@@": 2880,
    "Aut@@": 2881,
    "1950": 2882,
    "Lar@@": 2883,
    "tation": 2884,
    "1956": 2885,
    "ç@@": 2886,
    "But": 2887,
    "ough": 2888,
    "ching": 2889,
    "ool": 2890,
    "towards": 2891,
    "accessed": 2892,
    "ken": 2893,
    "Out@@": 2894,
    "actions": 2895,
    "issues": 2896,
    "conf@@": 2897,
    "port@@": 2898,
    "thre@@": 2899,
    "EN@@": 2900,
    "Taylor": 2901,
    "Columbia": 2902,
    "1958": 2903,
    "Accessed": 2904,
    "ells": 2905,
    "Joh@@": 2906,
    "pic@@": 2907,
    "Sum@@": 2908,
    "23@@": 2909,
    "ounds": 2910,
    "Rol@@": 2911,
    "entry": 2912,
    "Final": 2913,
    "Tre@@": 2914,
    "Mir@@": 2915,
    "wa@@": 2916,
    "Kal@@": 2917,
    "Stephen": 2918,
    "onia": 2919,
    "generally": 2920,
    "1941": 2921,
    "Secretary": 2922,
    "1942": 2923,
    "fun@@": 2924,
    "tracks": 2925,
    "unit": 2926,
    "Following": 2927,
    "peri@@": 2928,
    "web": 2929,
    "Steve": 2930,
    "Cap@@": 2931,
    "Governor": 2932,
    "contains": 2933,
    "gun": 2934,
    "operations": 2935,
    "tun@@": 2936,
    "standard": 2937,
    "ban@@": 2938,
    "yan": 2939,
    "Sel@@": 2940,
    "ases": 2941,
    "oul@@": 2942,
    "ex": 2943,
    "1948": 2944,
    "ign@@": 2945,
    "And@@": 2946,
    "sh": 2947,
    "mes": 2948,
    "noted": 2949,
    "deal": 2950,
    "',": 2951,
    "1957": 2952,
    "care": 2953,
    "Gran@@": 2954,
    "Lev@@": 2955,
    "flo@@": 2956,
    "movie": 2957,
    "ables": 2958,
    "gg@@": 2959,
    "management": 2960,
    "Shar@@": 2961,
    "Mur@@": 2962,
    "sou@@": 2963,
    "Kir@@": 2964,
    "Lor@@": 2965,
    "Dep@@": 2966,
    "Poland": 2967,
    "idea": 2968,
    "300": 2969,
    "Over@@": 2970,
    "material": 2971,
    "Jos@@": 2972,
    "associated": 2973,
    "matches": 2974,
    "property": 2975,
    "voc@@": 2976,
    "Wh@@": 2977,
    "practice": 2978,
    "Wilson": 2979,
    "move": 2980,
    "Mos@@": 2981,
    "Internet": 2982,
    "aps": 2983,
    "Victoria": 2984,
    "limited": 2985,
    "ous@@": 2986,
    "79": 2987,
    "itch@@": 2988,
    "1946": 2989,
    "companies": 2990,
    "fact": 2991,
    "Sea": 2992,
    "Red@@": 2993,
    "battle": 2994,
    "Ker@@": 2995,
    "Islamic": 2996,
    "Ltd": 2997,
    "Google": 2998,
    "culture": 2999,
    "ato": 3000,
    "batt@@": 3001,
    "aka": 3002,
    "manager": 3003,
    "certain": 3004,
    "90@@": 3005,
    "kin": 3006,
    "critic@@": 3007,
    "dev@@": 3008,
    "staff": 3009,
    "ades": 3010,
    "orial": 3011,
    "food": 3012,
    "Georgia": 3013,
    "Guardian": 3014,
    "By@@": 3015,
    "ners": 3016,
    "Earth": 3017,
    "Under": 3018,
    "tered": 3019,
    "rat@@": 3020,
    "ote": 3021,
    "ck": 3022,
    "Ran@@": 3023,
    "nam@@": 3024,
    "engine": 3025,
    "ae@@": 3026,
    "eer": 3027,
    "older": 3028,
    "Jim": 3029,
    "sey": 3030,
    "Human": 3031,
    "Fel@@": 3032,
    "Korean": 3033,
    "Show": 3034,
    "Middle": 3035,
    "Community": 3036,
    "Open": 3037,
    "footballer": 3038,
    "nation@@": 3039,
    "ophi@@": 3040,
    "tou@@": 3041,
    "Green@@": 3042,
    "dist@@": 3043,
    "chief": 3044,
    "produc@@": 3045,
    "Rod@@": 3046,
    "income": 3047,
    "spent": 3048,
    "individual": 3049,
    "ink": 3050,
    "Field": 3051,
    "ont@@": 3052,
    "ра@@": 3053,
    "regul@@": 3054,
    "ditions": 3055,
    "ress": 3056,
    "й": 3057,
    "integ@@": 3058,
    "ral": 3059,
    "ona": 3060,
    "give": 3061,
    "table": 3062,
    "Anim@@": 3063,
    "Up": 3064,
    "ols": 3065,
    "economic": 3066,
    "Asian": 3067,
    "1955": 3068,
    "RE@@": 3069,
    "ising": 3070,
    "cou@@": 3071,
    "Dou@@": 3072,
    "men@@": 3073,
    "Arthur": 3074,
    "oil": 3075,
    "Fa@@": 3076,
    "hold": 3077,
    "Berlin": 3078,
    "bel": 3079,
    "personal": 3080,
    "yed": 3081,
    "int": 3082,
    "log@@": 3083,
    "ador": 3084,
    "vic@@": 3085,
    "month": 3086,
    "eration": 3087,
    "Av@@": 3088,
    "annual": 3089,
    "cep@@": 3090,
    "ua": 3091,
    "mental": 3092,
    "trade": 3093,
    "earlier": 3094,
    "Dav@@": 3095,
    "discus@@": 3096,
    "Population": 3097,
    "jud@@": 3098,
    "tel@@": 3099,
    "Christ@@": 3100,
    "Global": 3101,
    "bil@@": 3102,
    "metres": 3103,
    "Play@@": 3104,
    "1947": 3105,
    "characters": 3106,
    "lot": 3107,
    "energy": 3108,
    "tle": 3109,
    "aded": 3110,
    "door": 3111,
    "br@@": 3112,
    "additional": 3113,
    "jo@@": 3114,
    "yard": 3115,
    "airs": 3116,
    "Jer@@": 3117,
    "fied": 3118,
    "!@@": 3119,
    "Oc@@": 3120,
    "mus@@": 3121,
    "Land": 3122,
    "ened": 3123,
    "terms": 3124,
    "character@@": 3125,
    "hood": 3126,
    "1952": 3127,
    "iss@@": 3128,
    "60@@": 3129,
    "aks": 3130,
    "1943": 3131,
    "appears": 3132,
    "real@@": 3133,
    "App@@": 3134,
    "artists": 3135,
    "cli@@": 3136,
    "How": 3137,
    "famous": 3138,
    "Win@@": 3139,
    "Page": 3140,
    "ined": 3141,
    "\"'": 3142,
    "Swedish": 3143,
    "Independent": 3144,
    "squ@@": 3145,
    "commercial": 3146,
    "commun@@": 3147,
    "1954": 3148,
    "Long": 3149,
    "ears": 3150,
    "les@@": 3151,
    "appro@@": 3152,
    "Gri@@": 3153,
    "prof@@": 3154,
    "municipality": 3155,
    "hard": 3156,
    "spe@@": 3157,
    "Night": 3158,
    "24@@": 3159,
    "got": 3160,
    "victory": 3161,
    "itor": 3162,
    "г@@": 3163,
    "din@@": 3164,
    "CA": 3165,
    "entation": 3166,
    "officer": 3167,
    "1953": 3168,
    "Korea": 3169,
    "gi@@": 3170,
    "Au@@": 3171,
    "already": 3172,
    "Technology": 3173,
    "á": 3174,
    "awa": 3175,
    "ope": 3176,
    "More": 3177,
    "Der@@": 3178,
    "5th": 3179,
    "OR@@": 3180,
    "Ban@@": 3181,
    "allow": 3182,
    "ł@@": 3183,
    "Airport": 3184,
    "š@@": 3185,
    "ld@@": 3186,
    "serving": 3187,
    "Ga@@": 3188,
    "Creek": 3189,
    "Justice": 3190,
    "passed": 3191,
    "asc@@": 3192,
    "operated": 3193,
    "eastern": 3194,
    "1949": 3195,
    "arch@@": 3196,
    "ral@@": 3197,
    "Black@@": 3198,
    "ision": 3199,
    "duc@@": 3200,
    "pur@@": 3201,
    "entered": 3202,
    "entire": 3203,
    "Star@@": 3204,
    "Senate": 3205,
    "cro@@": 3206,
    "ud": 3207,
    "Mid@@": 3208,
    "cases": 3209,
    "decision": 3210,
    "centre": 3211,
    "Country": 3212,
    "score": 3213,
    "ind": 3214,
    "Cross": 3215,
    "Vo@@": 3216,
    "onom@@": 3217,
    "theory": 3218,
    "Illinois": 3219,
    "retired": 3220,
    "Bob": 3221,
    "Es@@": 3222,
    "sign": 3223,
    "shar@@": 3224,
    "Donald": 3225,
    "feature": 3226,
    "uel": 3227,
    "pal@@": 3228,
    "1918": 3229,
    "essi@@": 3230,
    "thought": 3231,
    "onal": 3232,
    "eding": 3233,
    "Super": 3234,
    "musical": 3235,
    "roc@@": 3236,
    "Sher@@": 3237,
    "Part": 3238,
    "RA@@": 3239,
    "Lou@@": 3240,
    "aves": 3241,
    "portra@@": 3242,
    "Portuguese": 3243,
    "19th": 3244,
    "programs": 3245,
    "circ@@": 3246,
    "amed": 3247,
    "Jackson": 3248,
    "Later": 3249,
    "formation": 3250,
    "ky": 3251,
    "selected": 3252,
    "speed": 3253,
    "ills": 3254,
    "inj@@": 3255,
    "SE@@": 3256,
    "ound": 3257,
    "Lin@@": 3258,
    "Wol@@": 3259,
    "numerous": 3260,
    "Coast": 3261,
    "Cat@@": 3262,
    "Alb@@": 3263,
    "fav@@": 3264,
    "Power": 3265,
    "ove": 3266,
    "Ven@@": 3267,
    "evidence": 3268,
    "rup@@": 3269,
    "activ@@": 3270,
    "IA": 3271,
    "в": 3272,
    "vent@@": 3273,
    "religious": 3274,
    "Sav@@": 3275,
    "turn": 3276,
    "ications": 3277,
    "Sciences": 3278,
    "asy": 3279,
    "department": 3280,
    "ush": 3281,
    "mem@@": 3282,
    "Zh@@": 3283,
    "MA": 3284,
    "eur": 3285,
    "Div@@": 3286,
    "occas@@": 3287,
    "Tel@@": 3288,
    "ann": 3289,
    "Highway": 3290,
    "mid@@": 3291,
    "Andre@@": 3292,
    "head@@": 3293,
    "Military": 3294,
    "Indi@@": 3295,
    "part@@": 3296,
    "play@@": 3297,
    "^{": 3298,
    "Bran@@": 3299,
    "ab": 3300,
    "need": 3301,
    "Police": 3302,
    "ancy": 3303,
    "comes": 3304,
    "particular": 3305,
    "oke": 3306,
    "Profile": 3307,
    "‘": 3308,
    "Blo@@": 3309,
    "words": 3310,
    "complex": 3311,
    "shown": 3312,
    "aim@@": 3313,
    "caused": 3314,
    "grand@@": 3315,
    "yle": 3316,
    "hours": 3317,
    "dies": 3318,
    "ico": 3319,
    "Sun@@": 3320,
    "Med@@": 3321,
    "records": 3322,
    "Brian": 3323,
    "eck": 3324,
    "tin": 3325,
    "Herald": 3326,
    "bul@@": 3327,
    "ø@@": 3328,
    "aking": 3329,
    "sister": 3330,
    "Data": 3331,
    "opp@@": 3332,
    "mile": 3333,
    "assi@@": 3334,
    "activities": 3335,
    "FM": 3336,
    "wards": 3337,
    "ever@@": 3338,
    "Democratic": 3339,
    "Rock@@": 3340,
    "elections": 3341,
    "chi": 3342,
    "increased": 3343,
    "edly": 3344,
    "ello": 3345,
    "husband": 3346,
    "Stadium": 3347,
    "Ol@@": 3348,
    "create": 3349,
    "majority": 3350,
    "makes": 3351,
    "Ba@@": 3352,
    "ections": 3353,
    "oration": 3354,
    "stations": 3355,
    "Tar@@": 3356,
    "AA@@": 3357,
    "],": 3358,
    "Sem@@": 3359,
    "reli@@": 3360,
    "stor@@": 3361,
    "refer@@": 3362,
    "Elizabeth": 3363,
    "alities": 3364,
    "1951": 3365,
    "une": 3366,
    "rick": 3367,
    "Cop@@": 3368,
    "stand": 3369,
    "wall": 3370,
    "ure@@": 3371,
    "Sn@@": 3372,
    "ali": 3373,
    "remains": 3374,
    "becoming": 3375,
    "grad@@": 3376,
    "inner": 3377,
    "nine": 3378,
    "eau": 3379,
    "uck": 3380,
    "ession": 3381,
    "fight": 3382,
    "nar@@": 3383,
    "Norwegian": 3384,
    "Francis": 3385,
    "201@@": 3386,
    "ani@@": 3387,
    "houses": 3388,
    "eling": 3389,
    "/@@": 3390,
    "studied": 3391,
    "medical": 3392,
    "minutes": 3393,
    "Hom@@": 3394,
    "ph": 3395,
    "pan@@": 3396,
    "wn": 3397,
    "Free": 3398,
    "ST@@": 3399,
    "but@@": 3400,
    "rier": 3401,
    "mit": 3402,
    "Ku@@": 3403,
    "says": 3404,
    "Fort": 3405,
    "Stra@@": 3406,
    "Writ@@": 3407,
    "relationship": 3408,
    "gets": 3409,
    "Arch@@": 3410,
    "Philadelphia": 3411,
    "itz": 3412,
    "particip@@": 3413,
    "mostly": 3414,
    "Professor": 3415,
    "broad@@": 3416,
    "sons": 3417,
    "winner": 3418,
    "particularly": 3419,
    "Rob@@": 3420,
    "ading": 3421,
    "senior": 3422,
    "Route": 3423,
    "sel": 3424,
    "ray": 3425,
    "Van": 3426,
    "Ass@@": 3427,
    "mol@@": 3428,
    "editor": 3429,
    "specific": 3430,
    "always": 3431,
    "Hay@@": 3432,
    "1920": 3433,
    "ation@@": 3434,
    "gri@@": 3435,
    "Ret@@": 3436,
    "math@@": 3437,
    "university": 3438,
    "Corps": 3439,
    "lat@@": 3440,
    "Simon": 3441,
    "Another": 3442,
    "ank": 3443,
    "ailed": 3444,
    "conc@@": 3445,
    "ev": 3446,
    "stro@@": 3447,
    "Arm@@": 3448,
    "Dist@@": 3449,
    "vers@@": 3450,
    "Cra@@": 3451,
    "1936": 3452,
    "historical": 3453,
    "test": 3454,
    "Hong": 3455,
    "basketball": 3456,
    "rie": 3457,
    "Hur@@": 3458,
    "See": 3459,
    "Pakistan": 3460,
    "Riv@@": 3461,
    "DC": 3462,
    "Sab@@": 3463,
    "ort@@": 3464,
    "Af@@": 3465,
    "Gold": 3466,
    "supp@@": 3467,
    "dru@@": 3468,
    "\\@@": 3469,
    "Kri@@": 3470,
    "č@@": 3471,
    "master": 3472,
    "pun@@": 3473,
    "ов@@": 3474,
    "fol@@": 3475,
    "esh": 3476,
    "policy": 3477,
    "vs": 3478,
    "presented": 3479,
    "Hum@@": 3480,
    "ook@@": 3481,
    "zed": 3482,
    "rical": 3483,
    "parents": 3484,
    "train": 3485,
    "bank": 3486,
    "ging": 3487,
    "cles": 3488,
    "Mich@@": 3489,
    "nes": 3490,
    "continu@@": 3491,
    "Mul@@": 3492,
    "reference": 3493,
    "1914": 3494,
    "effect": 3495,
    "asp@@": 3496,
    "gam@@": 3497,
    "Stat@@": 3498,
    "ō@@": 3499,
    "serve": 3500,
    "Flor@@": 3501,
    "referred": 3502,
    "Trans@@": 3503,
    "Massachusetts": 3504,
    "eak": 3505,
    "Pur@@": 3506,
    "Prime": 3507,
    "turned": 3508,
    "ping": 3509,
    "bran@@": 3510,
    "recording": 3511,
    "soci@@": 3512,
    "longer": 3513,
    "20th": 3514,
    "supported": 3515,
    "ras@@": 3516,
    "technology": 3517,
    "FI@@": 3518,
    "gran@@": 3519,
    "cost": 3520,
    "ão": 3521,
    "Entertainment": 3522,
    "Kong": 3523,
    "Davis": 3524,
    "let@@": 3525,
    "=@@": 3526,
    "say": 3527,
    "Nov@@": 3528,
    "Rep@@": 3529,
    "AL@@": 3530,
    "ands": 3531,
    "asked": 3532,
    "Wat@@": 3533,
    "profile": 3534,
    "Dra@@": 3535,
    "Hi@@": 3536,
    "*": 3537,
    "Det@@": 3538,
    "long@@": 3539,
    "PA": 3540,
    "Hot": 3541,
    "meeting": 3542,
    "ira": 3543,
    "quality": 3544,
    "surface": 3545,
    "direct": 3546,
    "championship": 3547,
    "Story": 3548,
    "anna": 3549,
    "rian": 3550,
    "Lind@@": 3551,
    "Bos@@": 3552,
    "Record": 3553,
    "Ah@@": 3554,
    "NE@@": 3555,
    "tly": 3556,
    "Lewis": 3557,
    "Islands": 3558,
    "1938": 3559,
    "ush@@": 3560,
    "fish": 3561,
    "male": 3562,
    "bon": 3563,
    "ott": 3564,
    "Produc@@": 3565,
    "federal": 3566,
    "dated": 3567,
    "Federation": 3568,
    "Cent@@": 3569,
    "£": 3570,
    "rag@@": 3571,
    "letter": 3572,
    "ins@@": 3573,
    "ii": 3574,
    "concer@@": 3575,
    "attrac@@": 3576,
    "Direc@@": 3577,
    "bat@@": 3578,
    "Prize": 3579,
    "ham@@": 3580,
    "themselves": 3581,
    "emerg@@": 3582,
    "sel@@": 3583,
    "Marine": 3584,
    "Bishop": 3585,
    "Song": 3586,
    "mark": 3587,
    "issued": 3588,
    "ton@@": 3589,
    "direc@@": 3590,
    "oms": 3591,
    "raised": 3592,
    "kers": 3593,
    "lion": 3594,
    "aling": 3595,
    "ova": 3596,
    "contribu@@": 3597,
    "done": 3598,
    "Ti@@": 3599,
    "RO@@": 3600,
    "aired": 3601,
    "ans@@": 3602,
    "ca@@": 3603,
    "Ori@@": 3604,
    "ishes": 3605,
    "ket": 3606,
    "initially": 3607,
    "native": 3608,
    "Up@@": 3609,
    "provides": 3610,
    "wal@@": 3611,
    "likely": 3612,
    "value": 3613,
    "Spec@@": 3614,
    "400": 3615,
    "ices": 3616,
    "Santa": 3617,
    "subject": 3618,
    "mel@@": 3619,
    "thro@@": 3620,
    "eller": 3621,
    "Lab@@": 3622,
    "Raj@@": 3623,
    "regional": 3624,
    "composed": 3625,
    "analysis": 3626,
    "acks": 3627,
    "weeks": 3628,
    "Medi@@": 3629,
    "Hospital": 3630,
    "lob@@": 3631,
    "yl": 3632,
    "56@@": 3633,
    "ñ@@": 3634,
    "increase": 3635,
    "Medical": 3636,
    "Management": 3637,
    "akers": 3638,
    "bon@@": 3639,
    "sound": 3640,
    "Soci@@": 3641,
    "Mot@@": 3642,
    "1937": 3643,
    "ult@@": 3644,
    "Tu@@": 3645,
    "Mart@@": 3646,
    "financial": 3647,
    "mechan@@": 3648,
    "ologist": 3649,
    "positions": 3650,
    "Ari@@": 3651,
    "Township": 3652,
    "troops": 3653,
    "Modern": 3654,
    "society": 3655,
    "cent": 3656,
    "Ri@@": 3657,
    "Na@@": 3658,
    "1930": 3659,
    "ained": 3660,
    "info": 3661,
    "larger": 3662,
    "ō": 3663,
    "Duke": 3664,
    "beli@@": 3665,
    "Search": 3666,
    "Coll@@": 3667,
    "eve": 3668,
    "Corn@@": 3669,
    "leaving": 3670,
    "Hen@@": 3671,
    "yet": 3672,
    "Conn@@": 3673,
    "ogs": 3674,
    "ez@@": 3675,
    "AM@@": 3676,
    "ules": 3677,
    "fully": 3678,
    "seasons": 3679,
    "High@@": 3680,
    "stra@@": 3681,
    "Digital": 3682,
    "failed": 3683,
    "function": 3684,
    "multiple": 3685,
    "aging": 3686,
    "Math@@": 3687,
    "scription": 3688,
    "susp@@": 3689,
    "recent": 3690,
    "Area": 3691,
    "Ka@@": 3692,
    "Season": 3693,
    "Euro@@": 3694,
    "bass": 3695,
    "Den@@": 3696,
    "Space": 3697,
    "Bec@@": 3698,
    "Bridge": 3699,
    "variety": 3700,
    "Gazette": 3701,
    "experience": 3702,
    "Lam@@": 3703,
    "Pro": 3704,
    "Sm@@": 3705,
    "Pra@@": 3706,
    "actress": 3707,
    "Cr@@": 3708,
    "Sunday": 3709,
    "PMC": 3710,
    "ger@@": 3711,
    "ept@@": 3712,
    "ied": 3713,
    "IS": 3714,
    "historic": 3715,
    "Nar@@": 3716,
    "CH@@": 3717,
    "featuring": 3718,
    "chart": 3719,
    "break": 3720,
    "aga": 3721,
    "una": 3722,
    "vote": 3723,
    "з@@": 3724,
    "Fri@@": 3725,
    "ba": 3726,
    "overall": 3727,
    "ost": 3728,
    "marriage": 3729,
    "Lady": 3730,
    "double": 3731,
    "middle": 3732,
    "meaning": 3733,
    "cultural": 3734,
    "Ki@@": 3735,
    "Thi@@": 3736,
    "earned": 3737,
    "ingly": 3738,
    "Rid@@": 3739,
    "places": 3740,
    "grade": 3741,
    "civil": 3742,
    "rap@@": 3743,
    "Hollywood": 3744,
    "Fox": 3745,
    "broadcast": 3746,
    "founder": 3747,
    "stars": 3748,
    "Dre@@": 3749,
    "Lib@@": 3750,
    "Eth@@": 3751,
    "ren": 3752,
    "Over": 3753,
    "believed": 3754,
    "medi@@": 3755,
    "helped": 3756,
    "?\".": 3757,
    "Tit@@": 3758,
    "Video": 3759,
    "by@@": 3760,
    "enh@@": 3761,
    "86@@": 3762,
    "Also": 3763,
    "sport": 3764,
    "cities": 3765,
    "Jan": 3766,
    "ule": 3767,
    "ogue": 3768,
    "with@@": 3769,
    "channel": 3770,
    "imm@@": 3771,
    "Natural": 3772,
    "call": 3773,
    "kes": 3774,
    "Captain": 3775,
    "1935": 3776,
    "ably": 3777,
    "ée": 3778,
    "Haw@@": 3779,
    "plans": 3780,
    "itors": 3781,
    "foreign": 3782,
    "CS@@": 3783,
    "pul@@": 3784,
    "150": 3785,
    "view@@": 3786,
    "acqu@@": 3787,
    "Sti@@": 3788,
    "ía": 3789,
    "offered": 3790,
    "govern@@": 3791,
    "ode": 3792,
    "conv@@": 3793,
    "Miller": 3794,
    "oma": 3795,
    "cut": 3796,
    "constructed": 3797,
    "е": 3798,
    "ater": 3799,
    "1919": 3800,
    "individuals": 3801,
    "told": 3802,
    "Atlantic": 3803,
    "resp@@": 3804,
    "separate": 3805,
    "Tony": 3806,
    "ows": 3807,
    "newspaper": 3808,
    "ht": 3809,
    "problems": 3810,
    "Rus@@": 3811,
    "Week": 3812,
    "ila": 3813,
    "Your": 3814,
    "Ontario": 3815,
    "cal": 3816,
    "subsequently": 3817,
    "flu@@": 3818,
    "LA": 3819,
    "Despite": 3820,
    "Prot@@": 3821,
    "finally": 3822,
    "Az@@": 3823,
    "aug@@": 3824,
    "Wel@@": 3825,
    "1917": 3826,
    "carried": 3827,
    "acquired": 3828,
    "oods": 3829,
    "Four": 3830,
    "Ben": 3831,
    "so@@": 3832,
    "ori@@": 3833,
    "ABC": 3834,
    "ports": 3835,
    "Christi@@": 3836,
    "hard@@": 3837,
    "Republican": 3838,
    "SA": 3839,
    "eph@@": 3840,
    "medal": 3841,
    "titled": 3842,
    "â@@": 3843,
    "Pic@@": 3844,
    "cle@@": 3845,
    "Cour@@": 3846,
    "oring": 3847,
    "friends": 3848,
    "Out": 3849,
    "covered": 3850,
    "Golden": 3851,
    "Kur@@": 3852,
    "command": 3853,
    "fle@@": 3854,
    "might": 3855,
    "radi@@": 3856,
    "proc@@": 3857,
    "kilometres": 3858,
    "discovered": 3859,
    "competed": 3860,
    "org@@": 3861,
    "ady": 3862,
    "attempt": 3863,
    "remaining": 3864,
    "bet@@": 3865,
    "starting": 3866,
    "Affairs": 3867,
    "Nations": 3868,
    "Han@@": 3869,
    "products": 3870,
    "mainly": 3871,
    "eng": 3872,
    "Loc@@": 3873,
    "dings": 3874,
    "every@@": 3875,
    "pr@@": 3876,
    "89@@": 3877,
    "aki": 3878,
    "ey@@": 3879,
    "tual": 3880,
    "ional": 3881,
    "AC": 3882,
    "Brazil": 3883,
    "Patrick": 3884,
    "Species": 3885,
    "bar": 3886,
    "Maria": 3887,
    "hur@@": 3888,
    "ensis": 3889,
    "urban": 3890,
    "Fur@@": 3891,
    "Walter": 3892,
    "Gil@@": 3893,
    "85@@": 3894,
    "consists": 3895,
    "si": 3896,
    "su": 3897,
    "46@@": 3898,
    "Bea@@": 3899,
    "cross": 3900,
    "Pas@@": 3901,
    "charge": 3902,
    "sites": 3903,
    "initi@@": 3904,
    "acts": 3905,
    "appear": 3906,
    "iner": 3907,
    "ican": 3908,
    "lives": 3909,
    "1980s": 3910,
    "Early": 3911,
    "dor@@": 3912,
    "autom@@": 3913,
    "omet@@": 3914,
    "races": 3915,
    "content": 3916,
    "lor@@": 3917,
    "numbers": 3918,
    "stream": 3919,
    "Naval": 3920,
    "marine": 3921,
    "Pow@@": 3922,
    "eless": 3923,
    "union": 3924,
    "not@@": 3925,
    "Map": 3926,
    "nearly": 3927,
    "cle": 3928,
    "directly": 3929,
    "cause": 3930,
    "leave": 3931,
    "enough": 3932,
    "186@@": 3933,
    "Mount": 3934,
    "security": 3935,
    "response": 3936,
    "responsible": 3937,
    "dic": 3938,
    "AA": 3939,
    "nature": 3940,
    "eria": 3941,
    "dom": 3942,
    "bes": 3943,
    "Dol@@": 3944,
    "1900": 3945,
    "On@@": 3946,
    "nation": 3947,
    "eta": 3948,
    "proposed": 3949,
    "bra@@": 3950,
    "sequ@@": 3951,
    "YouTube": 3952,
    "É@@": 3953,
    "fur@@": 3954,
    "Alan": 3955,
    "Pun@@": 3956,
    "identi@@": 3957,
    "Rad@@": 3958,
    "1933": 3959,
    "ails": 3960,
    "deb@@": 3961,
    "prior": 3962,
    "б@@": 3963,
    "formerly": 3964,
    "oot": 3965,
    "Memorial": 3966,
    "Class": 3967,
    "Ken@@": 3968,
    "Harry": 3969,
    "Mis@@": 3970,
    "ria": 3971,
    "ashi@@": 3972,
    "ID@@": 3973,
    "professor": 3974,
    "ú@@": 3975,
    "conditions": 3976,
    "Dru@@": 3977,
    "Hil@@": 3978,
    "encies": 3979,
    "Fol@@": 3980,
    "pre": 3981,
    "ister": 3982,
    "eing": 3983,
    "Foreign": 3984,
    "Mari@@": 3985,
    "Nat@@": 3986,
    "amount": 3987,
    "ux": 3988,
    "1016": 3989,
    "Stone": 3990,
    "mot@@": 3991,
    "alleg@@": 3992,
    "Both": 3993,
    "phot@@": 3994,
    "Circ@@": 3995,
    "Ta@@": 3996,
    "whole": 3997,
    "influence": 3998,
    "Age": 3999,
    "Wood@@": 4000,
    "heavy": 4001,
    "astic": 4002,
    "Merc@@": 4003,
    "adv@@": 4004,
    "Bet@@": 4005,
    "sist@@": 4006,
    "ecting": 4007,
    "Avenue": 4008,
    "cell": 4009,
    "ο@@": 4010,
    "arts": 4011,
    "Mountain": 4012,
    "Indiana": 4013,
    "Gol@@": 4014,
    "Gallery": 4015,
    "vely": 4016,
    "revol@@": 4017,
    "fifth": 4018,
    "ped": 4019,
    "stories": 4020,
    "Supreme": 4021,
    "claim": 4022,
    "Ell@@": 4023,
    "1928": 4024,
    "tory": 4025,
    "despite": 4026,
    "tax@@": 4027,
    "civ@@": 4028,
    "wins": 4029,
    "surviv@@": 4030,
    "interview": 4031,
    "owner": 4032,
    "Rand@@": 4033,
    "sent@@": 4034,
    "Regiment": 4035,
    "onic": 4036,
    "pped": 4037,
    "ba@@": 4038,
    "Culture": 4039,
    "castle": 4040,
    "growth": 4041,
    "ographic": 4042,
    "1929": 4043,
    "án": 4044,
    "border": 4045,
    "wa": 4046,
    "Master": 4047,
    "OCLC": 4048,
    "gas": 4049,
    "becomes": 4050,
    "computer": 4051,
    "1934": 4052,
    "elements": 4053,
    "toral": 4054,
    "izing": 4055,
    "oot@@": 4056,
    "illa": 4057,
    "Movie": 4058,
    "stop": 4059,
    "fast": 4060,
    "consider@@": 4061,
    "Fal@@": 4062,
    "esp@@": 4063,
    "Services": 4064,
    "ik": 4065,
    "wanted": 4066,
    "omb@@": 4067,
    "ured": 4068,
    "Album": 4069,
    "latter": 4070,
    "ami": 4071,
    "Geographic": 4072,
    "divided": 4073,
    "1922": 4074,
    "Anthony": 4075,
    "1970s": 4076,
    "Clar@@": 4077,
    "Television": 4078,
    "ood": 4079,
    "Doc@@": 4080,
    "BA": 4081,
    "AS": 4082,
    "voice": 4083,
    "uck@@": 4084,
    "ple@@": 4085,
    "mo": 4086,
    "Rome": 4087,
    "Cont@@": 4088,
    "Kat@@": 4089,
    "1911": 4090,
    "ancient": 4091,
    "Bab@@": 4092,
    "CD@@": 4093,
    "Cru@@": 4094,
    "mul@@": 4095,
    "Channel": 4096,
    "lit@@": 4097,
    "Cast@@": 4098,
    "1932": 4099,
    "rules": 4100,
    "awards": 4101,
    "Bow@@": 4102,
    "Vill@@": 4103,
    "province": 4104,
    "AM": 4105,
    "dim@@": 4106,
    "activity": 4107,
    "ben@@": 4108,
    "benef@@": 4109,
    "Engineering": 4110,
    "contro@@": 4111,
    "mu@@": 4112,
    "revealed": 4113,
    "whether": 4114,
    "Eric": 4115,
    "candidate": 4116,
    "Website": 4117,
    "prac@@": 4118,
    "scene": 4119,
    "minor": 4120,
    "enter": 4121,
    "SR": 4122,
    "alists": 4123,
    "Minnesota": 4124,
    "ele": 4125,
    "publication": 4126,
    "pages": 4127,
    "Lyn@@": 4128,
    "esc@@": 4129,
    "dig@@": 4130,
    "Turkish": 4131,
    "vision": 4132,
    "Like": 4133,
    "eh@@": 4134,
    "Head": 4135,
    "boy": 4136,
    "alty": 4137,
    "agu@@": 4138,
    "Dur@@": 4139,
    "whe@@": 4140,
    "35@@": 4141,
    "exhi@@": 4142,
    "paper": 4143,
    "km2": 4144,
    "Kam@@": 4145,
    "odes": 4146,
    "ESPN": 4147,
    "ille": 4148,
    "cri@@": 4149,
    "}}": 4150,
    "ew": 4151,
    "Ky@@": 4152,
    "†": 4153,
    "nel": 4154,
    "Not": 4155,
    "levels": 4156,
    "build": 4157,
    "Ur@@": 4158,
    "organized": 4159,
    "person@@": 4160,
    "domain": 4161,
    "1912": 4162,
    "hip": 4163,
    "ook": 4164,
    "officially": 4165,
    "projects": 4166,
    "extended": 4167,
    "tha": 4168,
    "Beach": 4169,
    "Our": 4170,
    "promoted": 4171,
    "refl@@": 4172,
    "physical": 4173,
    "ingu@@": 4174,
    "Mem@@": 4175,
    "new@@": 4176,
    "Works": 4177,
    "uit": 4178,
    "effects": 4179,
    "Geological": 4180,
    "search": 4181,
    "orders": 4182,
    "join": 4183,
    "explo@@": 4184,
    "Century": 4185,
    "schol@@": 4186,
    "acting": 4187,
    "ma@@": 4188,
    "mar": 4189,
    "down@@": 4190,
    "bishop": 4191,
    "ument": 4192,
    "Cab@@": 4193,
    "oured": 4194,
    "1931": 4195,
    "Georg@@": 4196,
    "ь@@": 4197,
    "happ@@": 4198,
    "IM@@": 4199,
    "Dal@@": 4200,
    "Allen": 4201,
    "Melbourne": 4202,
    "label": 4203,
    "aw": 4204,
    "reach": 4205,
    "sted": 4206,
    "ily": 4207,
    "managed": 4208,
    "Ir@@": 4209,
    "--": 4210,
    "rates": 4211,
    "Gam@@": 4212,
    "treatment": 4213,
    "ube": 4214,
    "Sin@@": 4215,
    "Tak@@": 4216,
    "bert": 4217,
    "Adam": 4218,
    "rule": 4219,
    "Last": 4220,
    "1921": 4221,
    "appearances": 4222,
    "views": 4223,
    "Bou@@": 4224,
    "tom@@": 4225,
    "1927": 4226,
    "nearby": 4227,
    "Queensland": 4228,
    "pdf": 4229,
    "DVD": 4230,
    "back@@": 4231,
    "iled": 4232,
    "giving": 4233,
    "yards": 4234,
    "Before": 4235,
    "Web": 4236,
    "Eng@@": 4237,
    "1910": 4238,
    "Brun@@": 4239,
    "graduated": 4240,
    "produce": 4241,
    "Netherlands": 4242,
    "Lim@@": 4243,
    "Pap@@": 4244,
    "Bot@@": 4245,
    "Mod@@": 4246,
    "inary": 4247,
    "ible": 4248,
    "gate": 4249,
    "ior": 4250,
    "CC": 4251,
    "forward": 4252,
    "vol": 4253,
    "Now": 4254,
    "arly": 4255,
    "Tribune": 4256,
    "charts": 4257,
    "elect@@": 4258,
    "heart": 4259,
    "renamed": 4260,
    "bi": 4261,
    "ei": 4262,
    "Forest": 4263,
    "Camp@@": 4264,
    "ming": 4265,
    "aid": 4266,
    "abl@@": 4267,
    "executive": 4268,
    "defined": 4269,
    "Pot@@": 4270,
    "Will": 4271,
    "notes": 4272,
    "Arti@@": 4273,
    "sk": 4274,
    "arrived": 4275,
    "green": 4276,
    "draw": 4277,
    "Junior": 4278,
    "Premier": 4279,
    "Songs": 4280,
    "Howard": 4281,
    "Manchester": 4282,
    "Light": 4283,
    "PC": 4284,
    "Wisconsin": 4285,
    "sev@@": 4286,
    "mig@@": 4287,
    "demonstr@@": 4288,
    "Miss": 4289,
    "och@@": 4290,
    "popul@@": 4291,
    "episodes": 4292,
    "Oregon": 4293,
    "een": 4294,
    "eter@@": 4295,
    "atur@@": 4296,
    "edu": 4297,
    "coast": 4298,
    "Rich@@": 4299,
    "1923": 4300,
    "continue": 4301,
    "eline": 4302,
    "distance": 4303,
    "eled": 4304,
    "Kansas": 4305,
    "fy": 4306,
    "Liv@@": 4307,
    "978@@": 4308,
    "Medal": 4309,
    "mb@@": 4310,
    "residents": 4311,
    "code": 4312,
    "soldiers": 4313,
    "Cou@@": 4314,
    "Web@@": 4315,
    "primarily": 4316,
    "highly": 4317,
    "illust@@": 4318,
    "big": 4319,
    "Water": 4320,
    "library": 4321,
    "saying": 4322,
    "aria": 4323,
    "9780@@": 4324,
    "Ow@@": 4325,
    "authors": 4326,
    "Maryland": 4327,
    "ller": 4328,
    "Rugby": 4329,
    "ault": 4330,
    "Cel@@": 4331,
    "alg@@": 4332,
    "households": 4333,
    "”@@": 4334,
    "Port": 4335,
    ">": 4336,
    "tery": 4337,
    "Mau@@": 4338,
    "Ob@@": 4339,
    "NFL": 4340,
    "BS": 4341,
    "Law@@": 4342,
    "fir@@": 4343,
    "anded": 4344,
    "look": 4345,
    "Nik@@": 4346,
    "Os@@": 4347,
    "But@@": 4348,
    "basis": 4349,
    "Fame": 4350,
    "museum": 4351,
    "tes": 4352,
    "administrative": 4353,
    "Years": 4354,
    "Castle": 4355,
    "eal@@": 4356,
    "ingham": 4357,
    "α@@": 4358,
    "1925": 4359,
    "45@@": 4360,
    "FA": 4361,
    "ava": 4362,
    "vention": 4363,
    "Albert": 4364,
    "flight": 4365,
    "sit@@": 4366,
    "indic@@": 4367,
    "ires": 4368,
    "percent": 4369,
    "1960s": 4370,
    "Bah@@": 4371,
    "inside": 4372,
    "Commons": 4373,
    "ason": 4374,
    "histor@@": 4375,
    "borough": 4376,
    "mov@@": 4377,
    "pass": 4378,
    "ati": 4379,
    "1913": 4380,
    "fare": 4381,
    ":@@": 4382,
    "rig@@": 4383,
    "requ@@": 4384,
    "dian": 4385,
    "Building": 4386,
    "unknown": 4387,
    "Ay@@": 4388,
    "Wi@@": 4389,
    "assigned": 4390,
    "foot": 4391,
    "oom": 4392,
    "Douglas": 4393,
    "EP": 4394,
    "ER": 4395,
    "li": 4396,
    "sources": 4397,
    "Catal@@": 4398,
    "fig@@": 4399,
    "1990s": 4400,
    "graduate": 4401,
    "Agency": 4402,
    "drama": 4403,
    "lack": 4404,
    "Pu@@": 4405,
    "1924": 4406,
    "workers": 4407,
    "hospital": 4408,
    "Sen@@": 4409,
    "council": 4410,
    "arian": 4411,
    "Bern@@": 4412,
    "Kevin": 4413,
    "rid@@": 4414,
    "cars": 4415,
    "ел@@": 4416,
    "identified": 4417,
    "inst@@": 4418,
    "rice": 4419,
    "scale": 4420,
    "officers": 4421,
    "Children": 4422,
    "piece": 4423,
    "Philip": 4424,
    "Bh@@": 4425,
    "Hockey": 4426,
    "ota": 4427,
    "ega": 4428,
    "transferred": 4429,
    "dre@@": 4430,
    "Sl@@": 4431,
    "vel@@": 4432,
    "after@@": 4433,
    "ider": 4434,
    "Singles": 4435,
    "Domin@@": 4436,
    "Security": 4437,
    "1915": 4438,
    "Region": 4439,
    "Born": 4440,
    "PS": 4441,
    "aur@@": 4442,
    "leaves": 4443,
    "pra@@": 4444,
    "achi@@": 4445,
    "oto": 4446,
    "ane@@": 4447,
    "micro@@": 4448,
    "ulation": 4449,
    "1926": 4450,
    "hill": 4451,
    "Under@@": 4452,
    "females": 4453,
    "sit": 4454,
    "manufactur@@": 4455,
    "map": 4456,
    "Place": 4457,
    "dedicated": 4458,
    "Program": 4459,
    "Fire": 4460,
    "ˈ@@": 4461,
    "Gh@@": 4462,
    "bot@@": 4463,
    "Gordon": 4464,
    "Dri@@": 4465,
    "ito": 4466,
    "ool@@": 4467,
    "jo": 4468,
    "Inf@@": 4469,
    "leaders": 4470,
    "Anderson": 4471,
    "tives": 4472,
    "gn@@": 4473,
    "designated": 4474,
    "rating": 4475,
    "street": 4476,
    "know": 4477,
    "exper@@": 4478,
    "tig@@": 4479,
    "ises": 4480,
    "Dam@@": 4481,
    "dance": 4482,
    "rul@@": 4483,
    "ender": 4484,
    "Ep@@": 4485,
    "07@@": 4486,
    "1916": 4487,
    "crew": 4488,
    "ig": 4489,
    "product": 4490,
    "hear@@": 4491,
    "Administration": 4492,
    "Christopher": 4493,
    "piano": 4494,
    "eon": 4495,
    "pu@@": 4496,
    "ander": 4497,
    "true": 4498,
    "tain@@": 4499,
    "Sri": 4500,
    "à": 4501,
    "mont": 4502,
    "keep": 4503,
    "fron@@": 4504,
    "arg@@": 4505,
    "session": 4506,
    "ordered": 4507,
    "grew": 4508,
    "icial": 4509,
    "hydro@@": 4510,
    "digital": 4511,
    "investig@@": 4512,
    "arri@@": 4513,
    "Mic@@": 4514,
    "oted": 4515,
    "ark": 4516,
    "ss": 4517,
    "positive": 4518,
    "mal@@": 4519,
    "Sweden": 4520,
    "Missouri": 4521,
    "vid@@": 4522,
    "volume": 4523,
    "alls": 4524,
    "gol@@": 4525,
    "boat": 4526,
    "stre@@": 4527,
    "ori": 4528,
    "goes": 4529,
    "Brad@@": 4530,
    "Marc@@": 4531,
    "probably": 4532,
    "Deb@@": 4533,
    "median": 4534,
    "special@@": 4535,
    "pay": 4536,
    "Dave": 4537,
    "Dom@@": 4538,
    "Each": 4539,
    "except": 4540,
    "capacity": 4541,
    "thir@@": 4542,
    "tain": 4543,
    "Anne": 4544,
    "academic": 4545,
    "commonly": 4546,
    "Vic@@": 4547,
    "she@@": 4548,
    "intended": 4549,
    "parish": 4550,
    "incorporated": 4551,
    "metal": 4552,
    "certi@@": 4553,
    "termin@@": 4554,
    "teacher": 4555,
    "transm@@": 4556,
    "Sof@@": 4557,
    "Les@@": 4558,
    "tree": 4559,
    "arms": 4560,
    "erate": 4561,
    "Player": 4562,
    "tax": 4563,
    "invol@@": 4564,
    "Kim": 4565,
    "itt@@": 4566,
    "pping": 4567,
    "Py@@": 4568,
    "Death": 4569,
    "ost@@": 4570,
    "moving": 4571,
    "North@@": 4572,
    "Trust": 4573,
    "poet": 4574,
    "Wik@@": 4575,
    "firm": 4576,
    "Edition": 4577,
    "onian": 4578,
    "trial": 4579,
    "approach": 4580,
    "elli": 4581,
    "job": 4582,
    "Phot@@": 4583,
    "software": 4584,
    "inet": 4585,
    "gers": 4586,
    "ер@@": 4587,
    "Clark": 4588,
    "Archives": 4589,
    "Local": 4590,
    "Nature": 4591,
    "removed": 4592,
    "archi@@": 4593,
    "pop": 4594,
    "corpor@@": 4595,
    "har": 4596,
    "promis@@": 4597,
    "prise": 4598,
    "Trac@@": 4599,
    "Third": 4600,
    "ox": 4601,
    "Staff": 4602,
    "Ot@@": 4603,
    "details": 4604,
    "MS": 4605,
    "meet": 4606,
    "Dan": 4607,
    "prominent": 4608,
    "literature": 4609,
    "housing": 4610,
    "bass@@": 4611,
    "types": 4612,
    "notable": 4613,
    "Off@@": 4614,
    "composer": 4615,
    "destroyed": 4616,
    "val": 4617,
    "Mun@@": 4618,
    "baseball": 4619,
    "IG@@": 4620,
    "Const@@": 4621,
    "Good": 4622,
    "esting": 4623,
    "Election": 4624,
    "Commun@@": 4625,
    "repe@@": 4626,
    "whi@@": 4627,
    "follows": 4628,
    "Pers@@": 4629,
    "lying": 4630,
    "ership": 4631,
    "utes": 4632,
    "Gib@@": 4633,
    "potential": 4634,
    "MP": 4635,
    "Colorado": 4636,
    "method": 4637,
    "ector": 4638,
    "Moscow": 4639,
    "gives": 4640,
    "struc@@": 4641,
    "uro@@": 4642,
    "your": 4643,
    "minister": 4644,
    "dates": 4645,
    "quickly": 4646,
    "load": 4647,
    "Port@@": 4648,
    "eries": 4649,
    "tia": 4650,
    "Sam": 4651,
    "offers": 4652,
    "expected": 4653,
    "conducted": 4654,
    "lights": 4655,
    "format": 4656,
    "xing": 4657,
    "lay@@": 4658,
    "sis": 4659,
    "Dan@@": 4660,
    "Kath@@": 4661,
    "distribution": 4662,
    "smaller": 4663,
    "Point": 4664,
    "LE@@": 4665,
    "ems": 4666,
    "defeat": 4667,
    "250": 4668,
    "assistant": 4669,
    "Band": 4670,
    "Wall@@": 4671,
    "articles": 4672,
    "Ryan": 4673,
    "direction": 4674,
    "operating": 4675,
    "serves": 4676,
    "knowledge": 4677,
    "elim@@": 4678,
    "minal": 4679,
    "ader": 4680,
    "languages": 4681,
    "planned": 4682,
    "Sus@@": 4683,
    "ancing": 4684,
    "на@@": 4685,
    "problem": 4686,
    "suit": 4687,
    "aire": 4688,
    "alone": 4689,
    "vin": 4690,
    "etc": 4691,
    "tured": 4692,
    "TC": 4693,
    "electric": 4694,
    "finals": 4695,
    "aly@@": 4696,
    "Anti@@": 4697,
    "Wy@@": 4698,
    "Member": 4699,
    "try": 4700,
    "essed": 4701,
    "floor": 4702,
    "Gard@@": 4703,
    "ght": 4704,
    "Real": 4705,
    "plat@@": 4706,
    "eld": 4707,
    "develop@@": 4708,
    "ique": 4709,
    "store": 4710,
    "Charts": 4711,
    "figure": 4712,
    "initial": 4713,
    "Cham@@": 4714,
    "Tig@@": 4715,
    "rail@@": 4716,
    "Kil@@": 4717,
    "Liber@@": 4718,
    "account": 4719,
    "osp@@": 4720,
    "iro": 4721,
    "serv@@": 4722,
    "anger": 4723,
    "Main": 4724,
    "ech": 4725,
    "1908": 4726,
    "agreement": 4727,
    "youth": 4728,
    "cru@@": 4729,
    "merging": 4730,
    "ni": 4731,
    "Tan@@": 4732,
    "pressure": 4733,
    "bing": 4734,
    "solo": 4735,
    "blo@@": 4736,
    "stitution": 4737,
    "istics": 4738,
    "immediately": 4739,
    "participated": 4740,
    "folk": 4741,
    "enced": 4742,
    "administration": 4743,
    "begins": 4744,
    "recently": 4745,
    "Bay@@": 4746,
    "ean": 4747,
    "birth": 4748,
    "mass": 4749,
    "С@@": 4750,
    "poor": 4751,
    "essing": 4752,
    "singles": 4753,
    "sor@@": 4754,
    "nit@@": 4755,
    "She@@": 4756,
    "Express": 4757,
    "crow@@": 4758,
    "uring": 4759,
    "aching": 4760,
    "albums": 4761,
    "Design": 4762,
    "Bud@@": 4763,
    "Syn@@": 4764,
    "Bibcode": 4765,
    "actually": 4766,
    "tier": 4767,
    "Weekly": 4768,
    "AD": 4769,
    "claims": 4770,
    "uary": 4771,
    "sculp@@": 4772,
    "Bun@@": 4773,
    "mixed": 4774,
    "Interview": 4775,
    "Village": 4776,
    "Jun@@": 4777,
    "thy": 4778,
    "AP@@": 4779,
    "Christmas": 4780,
    "Roger": 4781,
    "constitu@@": 4782,
    "AL": 4783,
    "igh": 4784,
    "Ed": 4785,
    "focus": 4786,
    "compar@@": 4787,
    "Singapore": 4788,
    "conference": 4789,
    "AN": 4790,
    "Philippines": 4791,
    "fellow": 4792,
    "marked": 4793,
    "mans": 4794,
    "Tou@@": 4795,
    "psych@@": 4796,
    "champion": 4797,
    "captured": 4798,
    "oe": 4799,
    "gar": 4800,
    "Acc@@": 4801,
    "tice": 4802,
    "tains": 4803,
    "59@@": 4804,
    "plants": 4805,
    "Winter": 4806,
    "mos@@": 4807,
    "sive": 4808,
    "Son@@": 4809,
    "phys@@": 4810,
    "Nav@@": 4811,
    "pot@@": 4812,
    "mand@@": 4813,
    "paid": 4814,
    "aper": 4815,
    "Jam@@": 4816,
    "sets": 4817,
    "Walker": 4818,
    "ishing": 4819,
    "Tim": 4820,
    "eri": 4821,
    "Fair@@": 4822,
    "OS": 4823,
    "clubs": 4824,
    "Rab@@": 4825,
    "ı@@": 4826,
    "Chap@@": 4827,
    "image": 4828,
    "travel": 4829,
    "Die": 4830,
    "Be": 4831,
    "bloc@@": 4832,
    "reviews": 4833,
    "iss": 4834,
    "upper": 4835,
    "chor@@": 4836,
    "NS@@": 4837,
    "Mill@@": 4838,
    "pha": 4839,
    "Matt": 4840,
    "purchased": 4841,
    "concept": 4842,
    "color": 4843,
    "pa": 4844,
    "agreed": 4845,
    "fields": 4846,
    "6th": 4847,
    "disease": 4848,
    "facilities": 4849,
    "ide@@": 4850,
    "Revolution": 4851,
    "Histor@@": 4852,
    "educ@@": 4853,
    "spring": 4854,
    "atus": 4855,
    "mon": 4856,
    "overs": 4857,
    "Fu@@": 4858,
    "law@@": 4859,
    "purpose": 4860,
    "Note": 4861,
    "yc@@": 4862,
    "camp": 4863,
    "estate": 4864,
    "Fun@@": 4865,
    "wat@@": 4866,
    "recogn@@": 4867,
    "Gold@@": 4868,
    "..@@": 4869,
    "Emperor": 4870,
    "Persian": 4871,
    "ür@@": 4872,
    "ر@@": 4873,
    "appar@@": 4874,
    "adopted": 4875,
    "NY": 4876,
    "Moore": 4877,
    "allows": 4878,
    "mentioned": 4879,
    "Gor@@": 4880,
    "Arizona": 4881,
    "но@@": 4882,
    "nov@@": 4883,
    "Ec@@": 4884,
    "cross@@": 4885,
    "tica": 4886,
    "stron@@": 4887,
    "instru@@": 4888,
    "campus": 4889,
    "red@@": 4890,
    "festival": 4891,
    "titles": 4892,
    "ida": 4893,
    "Hamilton": 4894,
    "Wrestling": 4895,
    "atures": 4896,
    "attention": 4897,
    "Rap@@": 4898,
    "icient": 4899,
    "Bruce": 4900,
    "sions": 4901,
    "gin": 4902,
    "equipment": 4903,
    "ached": 4904,
    "cells": 4905,
    "Executive": 4906,
    "conserv@@": 4907,
    "efforts": 4908,
    "Bad@@": 4909,
    "declared": 4910,
    "ames": 4911,
    "Ray": 4912,
    "lia": 4913,
    "qualif@@": 4914,
    "protein": 4915,
    "portion": 4916,
    "influ@@": 4917,
    "models": 4918,
    "Thor@@": 4919,
    "Heav@@": 4920,
    "Alex": 4921,
    "Regional": 4922,
    "End": 4923,
    "Rights": 4924,
    "jan": 4925,
    "eva": 4926,
    "Houston": 4927,
    "iation": 4928,
    "ram": 4929,
    "God@@": 4930,
    "timate": 4931,
    "Czech": 4932,
    "mir@@": 4933,
    "Elect@@": 4934,
    "AD@@": 4935,
    "viewed": 4936,
    "typically": 4937,
    "rif@@": 4938,
    "Annual": 4939,
    "advis@@": 4940,
    "tural": 4941,
    "eness": 4942,
    "core": 4943,
    "cas@@": 4944,
    "τ@@": 4945,
    "dom@@": 4946,
    "SP@@": 4947,
    "8th": 4948,
    "credited": 4949,
    "Medicine": 4950,
    "itting": 4951,
    "interpre@@": 4952,
    "represent@@": 4953,
    "clear": 4954,
    "Disc@@": 4955,
    "things": 4956,
    "Industry": 4957,
    "IE@@": 4958,
    "Site": 4959,
    "los@@": 4960,
    "widely": 4961,
    "mountain": 4962,
    "offer": 4963,
    "territory": 4964,
    "Plat@@": 4965,
    "viv@@": 4966,
    "Political": 4967,
    "Exc@@": 4968,
    "sia": 4969,
    "outh": 4970,
    "prison": 4971,
    "Ford": 4972,
    "shop": 4973,
    "posed": 4974,
    "Jane": 4975,
    "observ@@": 4976,
    "Long@@": 4977,
    "bour@@": 4978,
    "Samuel": 4979,
    "recognized": 4980,
    "eded": 4981,
    "affili@@": 4982,
    "archive": 4983,
    "anne": 4984,
    "hour": 4985,
    "ни@@": 4986,
    "therefore": 4987,
    "kind": 4988,
    "ranked": 4989,
    "roll": 4990,
    "branch": 4991,
    "dol@@": 4992,
    "lake": 4993,
    "communities": 4994,
    "Harvard": 4995,
    "zh@@": 4996,
    "stock": 4997,
    "Nag@@": 4998,
    "girl": 4999,
    "dale": 5000,
    "plac@@": 5001,
    "mut@@": 5002,
    "ural": 5003,
    "aver@@": 5004,
    "thesis": 5005,
    "mouth": 5006,
    "nominated": 5007,
    "lan@@": 5008,
    "So": 5009,
    "starring": 5010,
    "alongside": 5011,
    "Gun@@": 5012,
    "×": 5013,
    "aders": 5014,
    "eck@@": 5015,
    "necessary": 5016,
    "Ian": 5017,
    "edy": 5018,
    "burn": 5019,
    ".:": 5020,
    "aving": 5021,
    "Sig@@": 5022,
    "1905": 5023,
    "share": 5024,
    "respon@@": 5025,
    "ematics": 5026,
    "laws": 5027,
    "Inv@@": 5028,
    "hosted": 5029,
    "far@@": 5030,
    "llery": 5031,
    "combined": 5032,
    "101": 5033,
    "techn@@": 5034,
    "ask@@": 5035,
    "frac": 5036,
    "rise": 5037,
    "estimated": 5038,
    "Only": 5039,
    "blue": 5040,
    "nav@@": 5041,
    "work@@": 5042,
    "database": 5043,
    "continues": 5044,
    "Cho@@": 5045,
    "IR@@": 5046,
    "Pil@@": 5047,
    "Telegraph": 5048,
    "Frederick": 5049,
    "sman": 5050,
    "Var@@": 5051,
    "Ear@@": 5052,
    "wel@@": 5053,
    "CBS": 5054,
    "critical": 5055,
    "incre@@": 5056,
    "density": 5057,
    "Diego": 5058,
    "respectively": 5059,
    "prop@@": 5060,
    "association": 5061,
    "ho": 5062,
    "Run@@": 5063,
    "attacks": 5064,
    "concent@@": 5065,
    "rural": 5066,
    "Ok@@": 5067,
    "losing": 5068,
    "Max": 5069,
    "mur@@": 5070,
    "Statistical": 5071,
    "az": 5072,
    "Swiss": 5073,
    "fell": 5074,
    "je": 5075,
    "uti@@": 5076,
    "Bru@@": 5077,
    "remain": 5078,
    "Source": 5079,
    "ск@@": 5080,
    "ume": 5081,
    "beat": 5082,
    "Evans": 5083,
    "parti@@": 5084,
    "til@@": 5085,
    "Kor@@": 5086,
    "Iv@@": 5087,
    "WW@@": 5088,
    "votes": 5089,
    "accepted": 5090,
    "Earl": 5091,
    "FIFA": 5092,
    "gradu@@": 5093,
    "Round": 5094,
    "Cav@@": 5095,
    "meas@@": 5096,
    "Men@@": 5097,
    "cast@@": 5098,
    "Collection": 5099,
    "Vietnam": 5100,
    "Ross": 5101,
    "reports": 5102,
    "Ale@@": 5103,
    "Cape": 5104,
    "tit@@": 5105,
    "silver": 5106,
    "Back": 5107,
    "sm": 5108,
    "Reb@@": 5109,
    "gained": 5110,
    "Kentucky": 5111,
    "IN": 5112,
    "Str@@": 5113,
    "accoun@@": 5114,
    "IT": 5115,
    "Som@@": 5116,
    "Down": 5117,
    "Je@@": 5118,
    "owns": 5119,
    "usion": 5120,
    "platform": 5121,
    "depic@@": 5122,
    "chester": 5123,
    "net@@": 5124,
    "gle": 5125,
    "ept": 5126,
    "tically": 5127,
    "roles": 5128,
    "Schools": 5129,
    "fru@@": 5130,
    "Between": 5131,
    "committee": 5132,
    "entary": 5133,
    "Rose": 5134,
    "Publications": 5135,
    "Xi@@": 5136,
    "Tennessee": 5137,
    "ception": 5138,
    "leadership": 5139,
    "Gary": 5140,
    "Jonathan": 5141,
    "1906": 5142,
    "Kon@@": 5143,
    "row@@": 5144,
    "Khan": 5145,
    "ority": 5146,
    "æ@@": 5147,
    "tile": 5148,
    "NA": 5149,
    "120": 5150,
    "Squadron": 5151,
    "Turkey": 5152,
    "var@@": 5153,
    "Morning": 5154,
    "comb@@": 5155,
    "high@@": 5156,
    "comedy": 5157,
    "los": 5158,
    "largely": 5159,
    "adver@@": 5160,
    "Detroit": 5161,
    "ining": 5162,
    "Mexican": 5163,
    "AP": 5164,
    "Kan@@": 5165,
    "ー@@": 5166,
    "photograph@@": 5167,
    "connected": 5168,
    "%)": 5169,
    "aining": 5170,
    "+@@": 5171,
    "Lawrence": 5172,
    "path@@": 5173,
    "growing": 5174,
    "alling": 5175,
    "encour@@": 5176,
    "semi": 5177,
    "forming": 5178,
    "Observ@@": 5179,
    "Vir@@": 5180,
    "difficult": 5181,
    "adap@@": 5182,
    "Among": 5183,
    "ees": 5184,
    "7th": 5185,
    "Bell": 5186,
    "sides": 5187,
    "onent": 5188,
    "sales": 5189,
    "blood": 5190,
    "Hear@@": 5191,
    "edge": 5192,
    "eful": 5193,
    "parties": 5194,
    "ayed": 5195,
    "ump": 5196,
    "Norway": 5197,
    "ru": 5198,
    "cannot": 5199,
    "gres@@": 5200,
    "Holy": 5201,
    "ML@@": 5202,
    "о": 5203,
    "bomb@@": 5204,
    "oned": 5205,
    "Eag@@": 5206,
    "destro@@": 5207,
    "fic@@": 5208,
    "Lau@@": 5209,
    "eter": 5210,
    "ор@@": 5211,
    "sun@@": 5212,
    "Egypt": 5213,
    "600": 5214,
    "contrac@@": 5215,
    "Ext@@": 5216,
    "MP@@": 5217,
    "occurred": 5218,
    "Les": 5219,
    "ped@@": 5220,
    "Austria": 5221,
    "ente": 5222,
    "rant": 5223,
    "Americans": 5224,
    "Energy": 5225,
    "tells": 5226,
    "Bil@@": 5227,
    "own@@": 5228,
    "70@@": 5229,
    "Vice": 5230,
    "pet@@": 5231,
    "ague": 5232,
    "journalist": 5233,
    "billion": 5234,
    "hall": 5235,
    "í": 5236,
    "isc@@": 5237,
    "drums": 5238,
    "Edinburgh": 5239,
    "Limited": 5240,
    "Economic": 5241,
    "ility": 5242,
    "Dance": 5243,
    "figures": 5244,
    "rain": 5245,
    "thor@@": 5246,
    "Lieutenant": 5247,
    "Rot@@": 5248,
    "cour@@": 5249,
    "rank": 5250,
    "asing": 5251,
    "rus": 5252,
    "Hav@@": 5253,
    "osa": 5254,
    "last@@": 5255,
    "presence": 5256,
    "Danish": 5257,
    "damage": 5258,
    "Ry@@": 5259,
    "doub@@": 5260,
    "Matthew": 5261,
    "Russell": 5262,
    "Ern@@": 5263,
    "itable": 5264,
    "Five": 5265,
    "Go": 5266,
    "Jason": 5267,
    "farm@@": 5268,
    "Ali": 5269,
    "sequence": 5270,
    "Relig@@": 5271,
    "felt": 5272,
    "contemporary": 5273,
    "overy": 5274,
    "compared": 5275,
    "read": 5276,
    "Kelly": 5277,
    "sing@@": 5278,
    "experim@@": 5279,
    "1909": 5280,
    "boys": 5281,
    "immig@@": 5282,
    "exam@@": 5283,
    "confirmed": 5284,
    "spot": 5285,
    "1907": 5286,
    "Temple": 5287,
    "lu@@": 5288,
    "lag": 5289,
    "oss": 5290,
    "itt": 5291,
    "Heart": 5292,
    "Mik@@": 5293,
    "ums": 5294,
    "itted": 5295,
    "relations": 5296,
    "cancer": 5297,
    "Univers@@": 5298,
    "South@@": 5299,
    "receive": 5300,
    "priv@@": 5301,
    "porting": 5302,
    "osis": 5303,
    "secondary": 5304,
    "fort": 5305,
    "irit": 5306,
    "Cu@@": 5307,
    "unique": 5308,
    "reduced": 5309,
    "Tol@@": 5310,
    "scienti@@": 5311,
    "esses": 5312,
    "Way": 5313,
    "statistics": 5314,
    "Sat@@": 5315,
    "Harris": 5316,
    "connec@@": 5317,
    "Tam@@": 5318,
    "Jeff": 5319,
    "reve@@": 5320,
    "tie": 5321,
    "ando": 5322,
    "propos@@": 5323,
    "suffered": 5324,
    "astro@@": 5325,
    "twice": 5326,
    "greater": 5327,
    "Girl": 5328,
    "mom@@": 5329,
    "sle@@": 5330,
    "Tun@@": 5331,
    "af": 5332,
    "fighting": 5333,
    "ska": 5334,
    "utionary": 5335,
    "Od@@": 5336,
    "CE": 5337,
    "Because": 5338,
    "Base": 5339,
    "anity": 5340,
    "Tem@@": 5341,
    "oral": 5342,
    "iga": 5343,
    "spor@@": 5344,
    "villages": 5345,
    "Albums": 5346,
    "files": 5347,
    "politics": 5348,
    "Will@@": 5349,
    "che@@": 5350,
    "thers": 5351,
    "stic": 5352,
    "strugg@@": 5353,
    "ligh@@": 5354,
    "Seattle": 5355,
    "providing": 5356,
    "å@@": 5357,
    "estim@@": 5358,
    "fans": 5359,
    "SS": 5360,
    "alized": 5361,
    "holds": 5362,
    "taught": 5363,
    "values": 5364,
    "spread": 5365,
    "acked": 5366,
    "oid": 5367,
    "key@@": 5368,
    "tribu@@": 5369,
    "ention": 5370,
    "begin": 5371,
    "Fern@@": 5372,
    "Ball@@": 5373,
    "TA": 5374,
    "engineering": 5375,
    "organizations": 5376,
    "Stre@@": 5377,
    "Robinson": 5378,
    "twenty": 5379,
    "versions": 5380,
    "machine": 5381,
    "acted": 5382,
    "tex@@": 5383,
    "expanded": 5384,
    "Esp@@": 5385,
    "amentary": 5386,
    "fiction": 5387,
    "Fro@@": 5388,
    "tioned": 5389,
    "aste": 5390,
    "esday": 5391,
    "kin@@": 5392,
    "airport": 5393,
    "1901": 5394,
    "moun@@": 5395,
    "Antonio": 5396,
    "global": 5397,
    "Cher@@": 5398,
    "Leb@@": 5399,
    "kh@@": 5400,
    "districts": 5401,
    "Juan": 5402,
    "Eli@@": 5403,
    "minute": 5404,
    "existing": 5405,
    "Senior": 5406,
    "template": 5407,
    "visit": 5408,
    "Ful@@": 5409,
    "ardo": 5410,
    "scoring": 5411,
    "Brow@@": 5412,
    "painting": 5413,
    "Lanc@@": 5414,
    "Standard": 5415,
    "Rud@@": 5416,
    "Officer": 5417,
    "Paul@@": 5418,
    "plane": 5419,
    "Water@@": 5420,
    "pay@@": 5421,
    "Mrs": 5422,
    "Doctor": 5423,
    "eh": 5424,
    "Hop@@": 5425,
    "Forces": 5426,
    "cm": 5427,
    "horse": 5428,
    "card": 5429,
    "buried": 5430,
    "Psych@@": 5431,
    "kept": 5432,
    "antly": 5433,
    "Organ@@": 5434,
    "present@@": 5435,
    "ition": 5436,
    "18th": 5437,
    "theatre": 5438,
    "traffic": 5439,
    "essions": 5440,
    "cab@@": 5441,
    "ont": 5442,
    "tol@@": 5443,
    "AF@@": 5444,
    "deliv@@": 5445,
    "Sarah": 5446,
    "Ukrainian": 5447,
    "tower": 5448,
    "Muslim": 5449,
    "Good@@": 5450,
    "Infantry": 5451,
    "ided": 5452,
    "granted": 5453,
    "resulting": 5454,
    "eigh@@": 5455,
    "ч@@": 5456,
    "sig@@": 5457,
    "something": 5458,
    "Kra@@": 5459,
    "dark": 5460,
    "roll@@": 5461,
    "ouse": 5462,
    "AT": 5463,
    "ario": 5464,
    "Associated": 5465,
    "NBA": 5466,
    "fres@@": 5467,
    "simply": 5468,
    "seats": 5469,
    "stitute": 5470,
    "ен@@": 5471,
    "injury": 5472,
    "quarter": 5473,
    "scientific": 5474,
    "inated": 5475,
    "creation": 5476,
    "racing": 5477,
    "governor": 5478,
    "implem@@": 5479,
    "ić": 5480,
    "recomm@@": 5481,
    "hockey": 5482,
    "resulted": 5483,
    "anks": 5484,
    "vers": 5485,
    "kg": 5486,
    "Nick": 5487,
    "lec@@": 5488,
    "user": 5489,
    "Frank@@": 5490,
    "risk": 5491,
    "ired": 5492,
    "defin@@": 5493,
    "Pin@@": 5494,
    "clin@@": 5495,
    "apolis": 5496,
    "split": 5497,
    "drive": 5498,
    "King@@": 5499,
    "inspired": 5500,
    "ott@@": 5501,
    "oud": 5502,
    "scape": 5503,
    "Jews": 5504,
    "1903": 5505,
    "rative": 5506,
    "dial@@": 5507,
    "ician": 5508,
    "resources": 5509,
    "eland": 5510,
    "engineer": 5511,
    "males": 5512,
    "rooms": 5513,
    "econom@@": 5514,
    "drawn": 5515,
    "Pear@@": 5516,
    "officials": 5517,
    "Lincoln": 5518,
    "environment": 5519,
    "Oklahoma": 5520,
    "eda": 5521,
    "Sound": 5522,
    "oz@@": 5523,
    "Log@@": 5524,
    "forest": 5525,
    "colon@@": 5526,
    "Kol@@": 5527,
    "concert": 5528,
    "nia": 5529,
    "xim@@": 5530,
    "zer": 5531,
    "Pittsburgh": 5532,
    "conduc@@": 5533,
    "appe@@": 5534,
    "Marie": 5535,
    "Former": 5536,
    "chairman": 5537,
    "newly": 5538,
    "Ped@@": 5539,
    "tradition": 5540,
    "Kaz@@": 5541,
    "tac@@": 5542,
    "aware": 5543,
    "ais": 5544,
    "م@@": 5545,
    "ake@@": 5546,
    "fal@@": 5547,
    "Hungarian": 5548,
    "containing": 5549,
    "couple": 5550,
    "Clo@@": 5551,
    "PS@@": 5552,
    "oldest": 5553,
    "conn@@": 5554,
    "44@@": 5555,
    "Tokyo": 5556,
    "phic": 5557,
    "09@@": 5558,
    "surrounding": 5559,
    "bill": 5560,
    "transport": 5561,
    "throp@@": 5562,
    "fer": 5563,
    "bring": 5564,
    "rugby": 5565,
    "Tot@@": 5566,
    "gest": 5567,
    "sche": 5568,
    "rati@@": 5569,
    "heim": 5570,
    "ias": 5571,
    "theme": 5572,
    "NCAA": 5573,
    "iri@@": 5574,
    "acres": 5575,
    "ographi@@": 5576,
    "murder": 5577,
    "Progr@@": 5578,
    "applied": 5579,
    "Gram@@": 5580,
    "Switzerland": 5581,
    "ени@@": 5582,
    "tried": 5583,
    "towns": 5584,
    "Ann": 5585,
    "Miami": 5586,
    "CO": 5587,
    "'.": 5588,
    "documentary": 5589,
    "ker@@": 5590,
    "simul@@": 5591,
    "ried": 5592,
    "Cul@@": 5593,
    "Iowa": 5594,
    "enjo@@": 5595,
    "Transport": 5596,
    "cycle": 5597,
    "ellow": 5598,
    "Alexand@@": 5599,
    "situated": 5600,
    "num@@": 5601,
    "roads": 5602,
    "Anna": 5603,
    "classes": 5604,
    "develop": 5605,
    "Mand@@": 5606,
    "Thompson": 5607,
    "agent": 5608,
    "efs": 5609,
    "sin@@": 5610,
    "qualified": 5611,
    "fri@@": 5612,
    "Publ@@": 5613,
    "Jesus": 5614,
    "800": 5615,
    "ensive": 5616,
    "cut@@": 5617,
    "regions": 5618,
    "uni@@": 5619,
    "hop@@": 5620,
    "1904": 5621,
    "mond": 5622,
    "ound@@": 5623,
    "ois": 5624,
    "younger": 5625,
    "izes": 5626,
    "surg@@": 5627,
    "non@@": 5628,
    "Murray": 5629,
    "memory": 5630,
    "captain": 5631,
    "desc@@": 5632,
    "fly": 5633,
    "hire": 5634,
    "Hotel": 5635,
    "Kin@@": 5636,
    "Greece": 5637,
    "pur": 5638,
    "effort": 5639,
    "custom@@": 5640,
    "safety": 5641,
    "bited": 5642,
    "1902": 5643,
    "Carl": 5644,
    "sty@@": 5645,
    "daily": 5646,
    "completely": 5647,
    "Box": 5648,
    "›": 5649,
    "Arab": 5650,
    "itive": 5651,
    "RC": 5652,
    "DNA": 5653,
    "mary": 5654,
    "ecture": 5655,
    "Pope": 5656,
    "Commonwealth": 5657,
    "journ@@": 5658,
    "Israeli": 5659,
    "launch": 5660,
    "Democr@@": 5661,
    "nuclear": 5662,
    "origin": 5663,
    "Soccer@@": 5664,
    "Elec@@": 5665,
    "mal": 5666,
    "successfully": 5667,
    "deep": 5668,
    "cy": 5669,
    "bound@@": 5670,
    "06@@": 5671,
    "Labour": 5672,
    "hu@@": 5673,
    "sion@@": 5674,
    "Transportation": 5675,
    "Om@@": 5676,
    "TS": 5677,
    "performances": 5678,
    "Chapter": 5679,
    "Native": 5680,
    "oy": 5681,
    "pil@@": 5682,
    "33@@": 5683,
    "finish": 5684,
    "assist@@": 5685,
    "isation": 5686,
    "poly@@": 5687,
    "•": 5688,
    "erous": 5689,
    "Adams": 5690,
    "bow@@": 5691,
    "vot@@": 5692,
    "Baltimore": 5693,
    "rail": 5694,
    "‹": 5695,
    "Square": 5696,
    "ras": 5697,
    "Norman": 5698,
    "sli@@": 5699,
    "Louisiana": 5700,
    "impact": 5701,
    "Dead": 5702,
    "Jordan": 5703,
    "effective": 5704,
    "teaching": 5705,
    "trains": 5706,
    "normal": 5707,
    "lic": 5708,
    "Spring": 5709,
    "Champions": 5710,
    "bin@@": 5711,
    "Cos@@": 5712,
    "rett": 5713,
    "Alabama": 5714,
    "occupied": 5715,
    "Tex@@": 5716,
    "facility": 5717,
    "ods": 5718,
    "Wild@@": 5719,
    "Ukraine": 5720,
    "Net@@": 5721,
    "legisl@@": 5722,
    "prepar@@": 5723,
    "arrested": 5724,
    "Beg@@": 5725,
    "ony@@": 5726,
    "showed": 5727,
    "situation": 5728,
    "obtained": 5729,
    "Class@@": 5730,
    "rol": 5731,
    "sy": 5732,
    "pron@@": 5733,
    "Infobox": 5734,
    "gall@@": 5735,
    "enberg": 5736,
    "VI": 5737,
    "Collins": 5738,
    "ment@@": 5739,
    "Ess@@": 5740,
    "ancer": 5741,
    "Rural": 5742,
    "want": 5743,
    "bir@@": 5744,
    "LLC": 5745,
    "Lan@@": 5746,
    "Da@@": 5747,
    "update": 5748,
    "allowing": 5749,
    "Girls": 5750,
    "oni": 5751,
    "transfer": 5752,
    "competi@@": 5753,
    "materials": 5754,
    "ogen@@": 5755,
    "bom@@": 5756,
    "Cow@@": 5757,
    "Daw@@": 5758,
    "ID": 5759,
    "generation": 5760,
    "ooth": 5761,
    "bor": 5762,
    "marks": 5763,
    "August@@": 5764,
    "needs": 5765,
    "Stev@@": 5766,
    "brand": 5767,
    "etta": 5768,
    "\"\".": 5769,
    "spons@@": 5770,
    "88@@": 5771,
    "block": 5772,
    "Pierre": 5773,
    "tropical": 5774,
    "ift": 5775,
    "eam": 5776,
    "temple": 5777,
    "Grant": 5778,
    "cam@@": 5779,
    "girls": 5780,
    "Argentina": 5781,
    "reading": 5782,
    "correc@@": 5783,
    "advanced": 5784,
    "Youth": 5785,
    "iny": 5786,
    "hands": 5787,
    "Chairman": 5788,
    "sense": 5789,
    "stood": 5790,
    "scrip@@": 5791,
    "seg@@": 5792,
    "atened": 5793,
    "Study": 5794,
    "chosen": 5795,
    "José": 5796,
    "musician": 5797,
    "suggested": 5798,
    "Nelson": 5799,
    "verse": 5800,
    "edited": 5801,
    "obs": 5802,
    "some@@": 5803,
    "oa": 5804,
    "ς": 5805,
    "basic": 5806,
    "Cric@@": 5807,
    "SS@@": 5808,
    "sixth": 5809,
    "exchange": 5810,
    "application": 5811,
    "Row@@": 5812,
    "22@@": 5813,
    "ι@@": 5814,
    "employed": 5815,
    "Rav@@": 5816,
    "Margaret": 5817,
    "commander": 5818,
    "cs": 5819,
    "elect": 5820,
    "opposed": 5821,
    "Basketball": 5822,
    "crime": 5823,
    "selling": 5824,
    "Can": 5825,
    "armed": 5826,
    "Lov@@": 5827,
    "}\\": 5828,
    "household": 5829,
    "Ther@@": 5830,
    "itz@@": 5831,
    "Rober@@": 5832,
    "Campbell": 5833,
    "Li": 5834,
    "drug": 5835,
    "clud@@": 5836,
    "industrial": 5837,
    "tar": 5838,
    "IL@@": 5839,
    "headquarters": 5840,
    "Cultural": 5841,
    "Wood": 5842,
    "Ve@@": 5843,
    "anth@@": 5844,
    "architecture": 5845,
    "agre@@": 5846,
    "Play": 5847,
    "Race": 5848,
    "judge": 5849,
    "Authority": 5850,
    "fted": 5851,
    "inning": 5852,
    "NBC": 5853,
    "Down@@": 5854,
    "Sud@@": 5855,
    "loo@@": 5856,
    "legi@@": 5857,
    "Boy": 5858,
    "anch@@": 5859,
    "clim@@": 5860,
    "authority": 5861,
    "chen": 5862,
    "learning": 5863,
    "lined": 5864,
    "wick": 5865,
    "phase": 5866,
    "ital": 5867,
    "faced": 5868,
    "premi@@": 5869,
    "án@@": 5870,
    "collabor@@": 5871,
    "[@@": 5872,
    "Stewart": 5873,
    "SC": 5874,
    "succeeded": 5875,
    "Fried@@": 5876,
    "Jes@@": 5877,
    "ressed": 5878,
    "Iraq": 5879,
    "reason": 5880,
    "Mayor": 5881,
    "nin@@": 5882,
    "screen": 5883,
    "sure": 5884,
    "ipp@@": 5885,
    "comple@@": 5886,
    "34@@": 5887,
    "Maj@@": 5888,
    "note": 5889,
    "Sing@@": 5890,
    "ults": 5891,
    "peace": 5892,
    "iced": 5893,
    "painter": 5894,
    "wil@@": 5895,
    "Roy": 5896,
    "abol@@": 5897,
    "mayor": 5898,
    "phy@@": 5899,
    "sexual": 5900,
    "journal": 5901,
    "bound": 5902,
    "Winners": 5903,
    "follow": 5904,
    "brothers": 5905,
    "mine": 5906,
    "Broadcasting": 5907,
    "و@@": 5908,
    "count": 5909,
    "Swe@@": 5910,
    "Bla@@": 5911,
    "authorities": 5912,
    "contin@@": 5913,
    "Morgan": 5914,
    "Here": 5915,
    "pilot": 5916,
    "bey": 5917,
    "associ@@": 5918,
    "sand@@": 5919,
    "Jac@@": 5920,
    "1950s": 5921,
    "Mak@@": 5922,
    "76@@": 5923,
    "ect@@": 5924,
    "nom@@": 5925,
    "Christ": 5926,
    "partner": 5927,
    "opposition": 5928,
    "Are": 5929,
    "univers@@": 5930,
    "canc@@": 5931,
    "IB@@": 5932,
    "It@@": 5933,
    "pedia": 5934,
    "Squ@@": 5935,
    "ourney": 5936,
    "bat": 5937,
    "Andy": 5938,
    "joint": 5939,
    "oda": 5940,
    "mas@@": 5941,
    "achieved": 5942,
    "Phil@@": 5943,
    "approved": 5944,
    "Graham": 5945,
    "arm": 5946,
    "9th": 5947,
    "Atlanta": 5948,
    "Communications": 5949,
    "Dublin": 5950,
    "110": 5951,
    "Sac@@": 5952,
    "yers": 5953,
    "winners": 5954,
    "kill": 5955,
    "Prix": 5956,
    "bered": 5957,
    "background": 5958,
    "Imperial": 5959,
    "ographical": 5960,
    "sugg@@": 5961,
    "eather": 5962,
    "ă@@": 5963,
    "Defense": 5964,
    "Wall": 5965,
    "aqu@@": 5966,
    "Oli@@": 5967,
    "Kent": 5968,
    "sam@@": 5969,
    "Meg@@": 5970,
    "athlet@@": 5971,
    "Do": 5972,
    "ere@@": 5973,
    "esis": 5974,
    "Boys": 5975,
    "wings": 5976,
    "ρ@@": 5977,
    "EM@@": 5978,
    "entitled": 5979,
    "ör@@": 5980,
    "Language": 5981,
    "dered": 5982,
    "principal": 5983,
    "Saturday": 5984,
    "Hindu": 5985,
    "lev@@": 5986,
    "Brigade": 5987,
    "Malaysia": 5988,
    "IC": 5989,
    "earning": 5990,
    "camp@@": 5991,
    "Champion": 5992,
    "oning": 5993,
    "perform": 5994,
    "Buil@@": 5995,
    "Mov@@": 5996,
    "hai": 5997,
    "obile": 5998,
    "simple": 5999,
    "att": 6000,
    "zy": 6001,
    "derived": 6002,
    "Garden": 6003,
    "signs": 6004,
    "eves": 6005,
    "ser": 6006,
    "lav@@": 6007,
    "squad": 6008,
    "distingu@@": 6009,
    "methods": 6010,
    "pair": 6011,
    "Contin@@": 6012,
    "anding": 6013,
    "Austin": 6014,
    "Dean": 6015,
    "visited": 6016,
    "Several": 6017,
    "Stars": 6018,
    "Liberal": 6019,
    "guest": 6020,
    "How@@": 6021,
    "nas@@": 6022,
    "surname": 6023,
    "Racing": 6024,
    "Hart@@": 6025,
    "commissioned": 6026,
    "restric@@": 6027,
    "outs": 6028,
    "Ocean": 6029,
    "spar@@": 6030,
    "fif@@": 6031,
    "onto": 6032,
    "Wright": 6033,
    "funding": 6034,
    "tries": 6035,
    "proce@@": 6036,
    "chap@@": 6037,
    "flow": 6038,
    "animals": 6039,
    "Fr@@": 6040,
    "Comics": 6041,
    "Il@@": 6042,
    "Broadway": 6043,
    "boards": 6044,
    "Puerto": 6045,
    "abad": 6046,
    "Stock@@": 6047,
    "protection": 6048,
    "Battalion": 6049,
    "clusive": 6050,
    "Publishers": 6051,
    "consu@@": 6052,
    "usual": 6053,
    "perf@@": 6054,
    "func@@": 6055,
    "powerful": 6056,
    "merged": 6057,
    "architect": 6058,
    "AllMusic": 6059,
    "és": 6060,
    "\"),": 6061,
    "idd@@": 6062,
    "Well@@": 6063,
    "Chronicle": 6064,
    "Notes": 6065,
    "lyrics": 6066,
    "LP": 6067,
    "stay": 6068,
    "xes": 6069,
    "Rou@@": 6070,
    "arch": 6071,
    "conflict": 6072,
    "frequently": 6073,
    "UC@@": 6074,
    "Nation": 6075,
    "omy": 6076,
    "uation": 6077,
    "creating": 6078,
    "Due": 6079,
    "settled": 6080,
    "rator": 6081,
    "Nu@@": 6082,
    "Food": 6083,
    "ament": 6084,
    "Hand@@": 6085,
    "irs": 6086,
    "impres@@": 6087,
    "Confed@@": 6088,
    "rell": 6089,
    "Wa@@": 6090,
    "setting": 6091,
    "defense": 6092,
    "audience": 6093,
    "alia": 6094,
    "thly": 6095,
    "ner@@": 6096,
    "isi@@": 6097,
    "Mississippi": 6098,
    "Hend@@": 6099,
    "Peace": 6100,
    "bought": 6101,
    "vehicle": 6102,
    "them@@": 6103,
    ".”": 6104,
    "ves@@": 6105,
    "oh@@": 6106,
    "write": 6107,
    "udi": 6108,
    "Mail": 6109,
    "Resources": 6110,
    ".),": 6111,
    "Moon": 6112,
    "looking": 6113,
    "Legislative": 6114,
    "guns": 6115,
    "vehicles": 6116,
    "uan": 6117,
    "Episode": 6118,
    "ES": 6119,
    "Referee": 6120,
    "Nam@@": 6121,
    "impl@@": 6122,
    "isher": 6123,
    "News@@": 6124,
    "Guard": 6125,
    "cred@@": 6126,
    "vac@@": 6127,
    "administ@@": 6128,
    "gressive": 6129,
    "1898": 6130,
    "morning": 6131,
    "tress": 6132,
    "aer@@": 6133,
    "Spo@@": 6134,
    "Benn@@": 6135,
    "structures": 6136,
    "Constitution": 6137,
    "proved": 6138,
    "Alfred": 6139,
    "winter": 6140,
    "ble@@": 6141,
    "birds": 6142,
    "В@@": 6143,
    "relatively": 6144,
    "1890": 6145,
    "expansion": 6146,
    "08@@": 6147,
    "beyond": 6148,
    "Knight": 6149,
    "Index": 6150,
    "Aer@@": 6151,
    "Kennedy": 6152,
    "catal@@": 6153,
    "ive": 6154,
    "copies": 6155,
    "Bell@@": 6156,
    "ives": 6157,
    "covers": 6158,
    "liter@@": 6159,
    "disambiguation": 6160,
    "alternative": 6161,
    "matter": 6162,
    "Metropolitan": 6163,
    "star@@": 6164,
    "economy": 6165,
    "fought": 6166,
    "Politics": 6167,
    "supply": 6168,
    "pieces": 6169,
    "Cath@@": 6170,
    "broke": 6171,
    "DA": 6172,
    "enemy": 6173,
    "minist@@": 6174,
    "Singh": 6175,
    "zi@@": 6176,
    "Poly@@": 6177,
    "ū@@": 6178,
    "ologies": 6179,
    "zone": 6180,
    "compet@@": 6181,
    "water@@": 6182,
    "ternal": 6183,
    "tem@@": 6184,
    "kill@@": 6185,
    "cos": 6186,
    "locations": 6187,
    "vis": 6188,
    "returning": 6189,
    "Hus@@": 6190,
    "Engine@@": 6191,
    "challeng@@": 6192,
    "α": 6193,
    "lot@@": 6194,
    "attacked": 6195,
    "Woman": 6196,
    "doing": 6197,
    "{@@": 6198,
    "opping": 6199,
    "Stanley": 6200,
    "event@@": 6201,
    "programming": 6202,
    "sta": 6203,
    "ucc@@": 6204,
    "drew": 6205,
    "ris@@": 6206,
    "motion": 6207,
    "performing": 6208,
    "IF@@": 6209,
    "110@@": 6210,
    "Att@@": 6211,
    "think": 6212,
    "functions": 6213,
    "Sco@@": 6214,
    "foc@@": 6215,
    "formal": 6216,
    "venue": 6217,
    "sac@@": 6218,
    "bands": 6219,
    "Stand@@": 6220,
    "refused": 6221,
    "Aviation": 6222,
    "Systems": 6223,
    "Silver": 6224,
    "scre@@": 6225,
    "torate": 6226,
    "His@@": 6227,
    "prevent": 6228,
    "Concer@@": 6229,
    "Turner": 6230,
    "Orchestra": 6231,
    "agan": 6232,
    "Through": 6233,
    "ression": 6234,
    "Whe@@": 6235,
    "1897": 6236,
    "55@@": 6237,
    "1899": 6238,
    "Angel@@": 6239,
    "96@@": 6240,
    "05@@": 6241,
    "Ple@@": 6242,
    "Colonel": 6243,
    "win@@": 6244,
    "depart@@": 6245,
    "habit@@": 6246,
    "swe@@": 6247,
    "controlled": 6248,
    "spective": 6249,
    "promotion": 6250,
    "roman@@": 6251,
    "citizens": 6252,
    "historian": 6253,
    "theor@@": 6254,
    "rix": 6255,
    "ball@@": 6256,
    "aster@@": 6257,
    "Marshall": 6258,
    "THE": 6259,
    "Trade": 6260,
    "sum": 6261,
    "rip@@": 6262,
    "plus": 6263,
    "holding": 6264,
    "Montreal": 6265,
    "calls": 6266,
    "writ@@": 6267,
    "sian": 6268,
    "attempts": 6269,
    "ki@@": 6270,
    "Portugal": 6271,
    "ي@@": 6272,
    "NO@@": 6273,
    "enth@@": 6274,
    "Reviews": 6275,
    "sav@@": 6276,
    "holder": 6277,
    "ape": 6278,
    "rations": 6279,
    "Barbara": 6280,
    "chemical": 6281,
    "critics": 6282,
    "Barry": 6283,
    "Then": 6284,
    "writers": 6285,
    "amp": 6286,
    "finds": 6287,
    "Vel@@": 6288,
    "greg@@": 6289,
    "driver": 6290,
    "ask": 6291,
    "anny": 6292,
    "Fem@@": 6293,
    "hr@@": 6294,
    "eton": 6295,
    "erved": 6296,
    "Just": 6297,
    "cir@@": 6298,
    "ocr@@": 6299,
    "Reserve": 6300,
    "bits": 6301,
    "mill@@": 6302,
    "Camer@@": 6303,
    "trees": 6304,
    "List@@": 6305,
    "!\".": 6306,
    "determined": 6307,
    "difference": 6308,
    "enter@@": 6309,
    "iser": 6310,
    "Steph@@": 6311,
    "Urban": 6312,
    "charged": 6313,
    "evol@@": 6314,
    "properties": 6315,
    "speech": 6316,
    "Test": 6317,
    "resear@@": 6318,
    "Liverpool": 6319,
    "etic": 6320,
    "alization": 6321,
    "zi": 6322,
    "letters": 6323,
    "Policy": 6324,
    "passes": 6325,
    "advoc@@": 6326,
    "Thur@@": 6327,
    "rist": 6328,
    "yes": 6329,
    "prison@@": 6330,
    "sition": 6331,
    "analy@@": 6332,
    "diff@@": 6333,
    "Arabic": 6334,
    "ashi": 6335,
    "Inst@@": 6336,
    "Patri@@": 6337,
    "Jack@@": 6338,
    "Sky": 6339,
    "represent": 6340,
    "Equ@@": 6341,
    "dropped": 6342,
    "endent": 6343,
    "sust@@": 6344,
    "Id@@": 6345,
    "shared": 6346,
    "separ@@": 6347,
    "bad": 6348,
    "founding": 6349,
    "technical": 6350,
    "Bang@@": 6351,
    "existence": 6352,
    "princ@@": 6353,
    "ven": 6354,
    "ipe": 6355,
    "display": 6356,
    "Auth@@": 6357,
    "origin@@": 6358,
    "ento": 6359,
    "Initi@@": 6360,
    "abilities": 6361,
    "educational": 6362,
    "cycl@@": 6363,
    "killing": 6364,
    "sson": 6365,
    "extensive": 6366,
    "Rio": 6367,
    "Cleveland": 6368,
    "uting": 6369,
    "climate": 6370,
    "uster": 6371,
    "descri@@": 6372,
    "refers": 6373,
    "emo@@": 6374,
    "uty": 6375,
    "Ath@@": 6376,
    "anian": 6377,
    "joining": 6378,
    "Vari@@": 6379,
    "pg": 6380,
    "question": 6381,
    "Ward": 6382,
    "headed": 6383,
    "aissance": 6384,
    "tian": 6385,
    "Pul@@": 6386,
    "agen": 6387,
    "ced": 6388,
    "grounds": 6389,
    "BO@@": 6390,
    "nec@@": 6391,
    "subsequent": 6392,
    "identity": 6393,
    "Sor@@": 6394,
    "Complete": 6395,
    "eu": 6396,
    "settl@@": 6397,
    "Morris": 6398,
    "Def@@": 6399,
    "Kum@@": 6400,
    "Baker": 6401,
    "Future": 6402,
    "\").": 6403,
    "oratory": 6404,
    "1895": 6405,
    "gene": 6406,
    "Connecticut": 6407,
    "ecular": 6408,
    "ün@@": 6409,
    "guil@@": 6410,
    "Unit": 6411,
    "Gall@@": 6412,
    "й@@": 6413,
    "Whi@@": 6414,
    "yellow": 6415,
    "quar@@": 6416,
    "maximum": 6417,
    "weather": 6418,
    "multi@@": 6419,
    "category": 6420,
    "ameter": 6421,
    "Billy": 6422,
    "‎@@": 6423,
    "Benjamin": 6424,
    "Literature": 6425,
    "Eff@@": 6426,
    "seud@@": 6427,
    "where@@": 6428,
    "1896": 6429,
    "leads": 6430,
    "ourn@@": 6431,
    "occurs": 6432,
    "Wed@@": 6433,
    "ley@@": 6434,
    "ield": 6435,
    "х": 6436,
    "translation": 6437,
    "converted": 6438,
    "Abd@@": 6439,
    "Victor": 6440,
    "Jimmy": 6441,
    "rel": 6442,
    "Nation@@": 6443,
    "bo": 6444,
    "Bowl": 6445,
    "institutions": 6446,
    "Mit@@": 6447,
    "predic@@": 6448,
    "highway": 6449,
    "rint": 6450,
    "ctic": 6451,
    "unable": 6452,
    "Mig@@": 6453,
    "Once": 6454,
    "Eug@@": 6455,
    "Hugh": 6456,
    "phone": 6457,
    "DS": 6458,
    "distinc@@": 6459,
    "Opera": 6460,
    "inhabitants": 6461,
    "touch@@": 6462,
    "ird": 6463,
    "Sid@@": 6464,
    "Р@@": 6465,
    "cel@@": 6466,
    "attribu@@": 6467,
    "Audi@@": 6468,
    "NR@@": 6469,
    "Ze@@": 6470,
    "agon@@": 6471,
    "Conservation": 6472,
    "PR@@": 6473,
    "patients": 6474,
    "Carlos": 6475,
    "powers": 6476,
    "zen": 6477,
    "Dark": 6478,
    "ž@@": 6479,
    "Capital": 6480,
    "attempted": 6481,
    "iler": 6482,
    "chron@@": 6483,
    "uments": 6484,
    "Belgium": 6485,
    "urs": 6486,
    "Arkansas": 6487,
    "wit@@": 6488,
    "48@@": 6489,
    "indust@@": 6490,
    "Jar@@": 6491,
    "mind": 6492,
    "Soccer": 6493,
    "USS": 6494,
    "enses": 6495,
    "pes": 6496,
    "IO@@": 6497,
    "keting": 6498,
    "farm": 6499,
    "UEFA": 6500,
    "worldwide": 6501,
    "opera": 6502,
    "Fall": 6503,
    "angel@@": 6504,
    "Deut@@": 6505,
    "condition": 6506,
    "thin@@": 6507,
    "ck@@": 6508,
    "translated": 6509,
    "Kel@@": 6510,
    "really": 6511,
    "Len@@": 6512,
    "Advanced": 6513,
    "aces": 6514,
    "multi": 6515,
    "AR": 6516,
    "Representatives": 6517,
    "Indonesia": 6518,
    "zo": 6519,
    "Dallas": 6520,
    "Quebec": 6521,
    "sat@@": 6522,
    "honor": 6523,
    "Steven": 6524,
    "1885": 6525,
    "Athletic": 6526,
    "wind": 6527,
    "regim@@": 6528,
    "CEO": 6529,
    "Welsh": 6530,
    "О@@": 6531,
    "aying": 6532,
    "uma": 6533,
    "の@@": 6534,
    "Ric@@": 6535,
    "acre": 6536,
    "sector": 6537,
    "exhibition": 6538,
    "fleet": 6539,
    "Bag@@": 6540,
    "Denmark": 6541,
    "Schol@@": 6542,
    "factory": 6543,
    "loan": 6544,
    "Fred": 6545,
    "FL": 6546,
    "Mes@@": 6547,
    "acking": 6548,
    "ware": 6549,
    "Kos@@": 6550,
    "lik@@": 6551,
    "rone": 6552,
    "Mission": 6553,
    "А@@": 6554,
    "eks": 6555,
    "diplom@@": 6556,
    "public@@": 6557,
    "combat": 6558,
    "Wars": 6559,
    "bodies": 6560,
    "11th": 6561,
    "belong@@": 6562,
    "someone": 6563,
    "contact": 6564,
    "representing": 6565,
    "specif@@": 6566,
    "introduction": 6567,
    "phen@@": 6568,
    "Mé@@": 6569,
    "Sax@@": 6570,
    "ingen": 6571,
    "Command": 6572,
    "Players": 6573,
    "UR@@": 6574,
    "Serbian": 6575,
    "classical": 6576,
    "disp@@": 6577,
    "entering": 6578,
    "Hit@@": 6579,
    "receiving": 6580,
    "bal": 6581,
    "Expl@@": 6582,
    "Section": 6583,
    "Carter": 6584,
    "bin": 6585,
    "recru@@": 6586,
    "divid@@": 6587,
    "price": 6588,
    "Wild": 6589,
    "Imp@@": 6590,
    "teenth": 6591,
    "iti": 6592,
    "Upon": 6593,
    "Pad@@": 6594,
    "Single": 6595,
    "Head@@": 6596,
    "Ji@@": 6597,
    "pup@@": 6598,
    "bol@@": 6599,
    "Romanian": 6600,
    "leg": 6601,
    "violence": 6602,
    "target": 6603,
    "Brothers": 6604,
    "ampton": 6605,
    "ン@@": 6606,
    "Lit@@": 6607,
    "pion@@": 6608,
    "Ten": 6609,
    "PM": 6610,
    "Commander": 6611,
    "Fant@@": 6612,
    "Lud@@": 6613,
    "PR": 6614,
    "Scre@@": 6615,
    "Tamil": 6616,
    "ín": 6617,
    "passing": 6618,
    "adj@@": 6619,
    "ager": 6620,
    "starts": 6621,
    "laid": 6622,
    "achelor": 6623,
    "Adv@@": 6624,
    "Franklin": 6625,
    "users": 6626,
    "religion": 6627,
    "achiev@@": 6628,
    "aten": 6629,
    "Chem@@": 6630,
    "emic": 6631,
    "eted": 6632,
    "Keith": 6633,
    "centuries": 6634,
    "ika": 6635,
    "rare": 6636,
    "resc@@": 6637,
    "ocracy": 6638,
    "Schi@@": 6639,
    "straight": 6640,
    "Ever@@": 6641,
    "Twitter": 6642,
    "images": 6643,
    "17th": 6644,
    "negoti@@": 6645,
    "Top@@": 6646,
    "dog": 6647,
    "Johnny": 6648,
    "altern@@": 6649,
    "cust@@": 6650,
    "lem": 6651,
    "heard": 6652,
    "Clin@@": 6653,
    "Nig@@": 6654,
    "chers": 6655,
    "sell": 6656,
    "Lane": 6657,
    "comic": 6658,
    "archit@@": 6659,
    "offices": 6660,
    "Flight": 6661,
    "weapons": 6662,
    "GA": 6663,
    "planning": 6664,
    "url": 6665,
    "Vid@@": 6666,
    "illing": 6667,
    "Pon@@": 6668,
    "zes": 6669,
    "author@@": 6670,
    "Aqu@@": 6671,
    "Utah": 6672,
    "Shak@@": 6673,
    "script": 6674,
    "ervation": 6675,
    "hotel": 6676,
    "conver@@": 6677,
    "len": 6678,
    "alled": 6679,
    "ş@@": 6680,
    "roun@@": 6681,
    "Control": 6682,
    "Ancient": 6683,
    "Lost": 6684,
    "Pel@@": 6685,
    "receiv@@": 6686,
    "DE@@": 6687,
    "hem@@": 6688,
    "posi@@": 6689,
    "cra@@": 6690,
    "Disney": 6691,
    "IUCN": 6692,
    "Mitchell": 6693,
    "pool": 6694,
    "Code": 6695,
    "Directory": 6696,
    "Kun@@": 6697,
    "connection": 6698,
    "choice": 6699,
    "Warren": 6700,
    "bad@@": 6701,
    "increasing": 6702,
    "dit": 6703,
    "qui@@": 6704,
    "ission": 6705,
    "developing": 6706,
    "indi@@": 6707,
    "ruc@@": 6708,
    "stand@@": 6709,
    "failure": 6710,
    "faces": 6711,
    "focused": 6712,
    "guide": 6713,
    "profit": 6714,
    "bronze": 6715,
    "1893": 6716,
    "angle": 6717,
    "publ@@": 6718,
    "Jazz": 6719,
    "ints": 6720,
    "missed": 6721,
    "Professional": 6722,
    "hyth@@": 6723,
    "ful@@": 6724,
    "rial": 6725,
    "ó": 6726,
    "Micro@@": 6727,
    "lam@@": 6728,
    "Cum@@": 6729,
    "osed": 6730,
    "43@@": 6731,
    "Bed@@": 6732,
    "uro": 6733,
    "domestic": 6734,
    "Emer@@": 6735,
    "Railroad": 6736,
    "solution": 6737,
    "ident": 6738,
    "Number": 6739,
    "1889": 6740,
    "Advent@@": 6741,
    "Work": 6742,
    "ford@@": 6743,
    "SO@@": 6744,
    "sue": 6745,
    "clusion": 6746,
    "ë@@": 6747,
    "Form@@": 6748,
    "ials": 6749,
    "Operation": 6750,
    "programme": 6751,
    "Ind@@": 6752,
    "fuel": 6753,
    "literary": 6754,
    "shortly": 6755,
    "apy": 6756,
    "\"\"": 6757,
    "rot@@": 6758,
    "Fo@@": 6759,
    "temperature": 6760,
    "Rest@@": 6761,
    "herself": 6762,
    "reasons": 6763,
    "urn": 6764,
    "theastern": 6765,
    "emen": 6766,
    "passenger": 6767,
    "Rain@@": 6768,
    "instruc@@": 6769,
    "ailing": 6770,
    "Sloven@@": 6771,
    "retirement": 6772,
    "requires": 6773,
    "utions": 6774,
    "П@@": 6775,
    "convic@@": 6776,
    "Low@@": 6777,
    "Arg@@": 6778,
    "mist@@": 6779,
    "Karl": 6780,
    "Computer": 6781,
    "loy@@": 6782,
    "inem@@": 6783,
    "ović": 6784,
    "Scar@@": 6785,
    "Fab@@": 6786,
    "pro": 6787,
    "Phys@@": 6788,
    "independence": 6789,
    "111": 6790,
    "class@@": 6791,
    "consisted": 6792,
    "selection": 6793,
    "neigh@@": 6794,
    "Amazon": 6795,
    "duction": 6796,
    "Gabri@@": 6797,
    "Short": 6798,
    "titude": 6799,
    "Wayne": 6800,
    "Judge": 6801,
    "10th": 6802,
    "annon": 6803,
    "Six": 6804,
    "Neil": 6805,
    "believe": 6806,
    "atters": 6807,
    "mach@@": 6808,
    "quite": 6809,
    "iff": 6810,
    "Birmingham": 6811,
    "royal": 6812,
    "Rub@@": 6813,
    "meant": 6814,
    "ditional": 6815,
    "MC": 6816,
    "step": 6817,
    "producing": 6818,
    "prov@@": 6819,
    "Phy@@": 6820,
    "classification": 6821,
    "emphas@@": 6822,
    "eting": 6823,
    "ô@@": 6824,
    "recognition": 6825,
    "anning": 6826,
    "ups": 6827,
    "Roberts": 6828,
    "bird": 6829,
    "rism": 6830,
    "Sz@@": 6831,
    "index": 6832,
    "Pass@@": 6833,
    "steel": 6834,
    "nic@@": 6835,
    "Proc@@": 6836,
    "Int@@": 6837,
    "Buddhi@@": 6838,
    "ilian": 6839,
    "obj@@": 6840,
    "IP": 6841,
    "quir@@": 6842,
    "slightly": 6843,
    "mort@@": 6844,
    "rend@@": 6845,
    "Techn@@": 6846,
    "Metro": 6847,
    "Action": 6848,
    "Bak@@": 6849,
    "Prem@@": 6850,
    "ante": 6851,
    "ban": 6852,
    "olic": 6853,
    "glass": 6854,
    "design@@": 6855,
    "Track": 6856,
    "Organization": 6857,
    "brown": 6858,
    "105": 6859,
    "rics": 6860,
    "factor": 6861,
    "poetry": 6862,
    "thes@@": 6863,
    "returns": 6864,
    "jazz": 6865,
    "Midd@@": 6866,
    "ellite": 6867,
    "regarding": 6868,
    "OF": 6869,
    "16th": 6870,
    "file": 6871,
    "Multi@@": 6872,
    "shape": 6873,
    "Palace": 6874,
    "walls": 6875,
    "Nicholas": 6876,
    "ny@@": 6877,
    "Hungary": 6878,
    "height": 6879,
    "heads": 6880,
    "compri@@": 6881,
    "Willi@@": 6882,
    "surance": 6883,
    "ng": 6884,
    "trying": 6885,
    "abandoned": 6886,
    "emy": 6887,
    "pass@@": 6888,
    "funds": 6889,
    "Princess": 6890,
    "nor": 6891,
    "incorporates": 6892,
    "Larry": 6893,
    "Shel@@": 6894,
    "ification": 6895,
    "aro": 6896,
    "Globe": 6897,
    "ived": 6898,
    "Kl@@": 6899,
    "contained": 6900,
    "why": 6901,
    "injured": 6902,
    "sul@@": 6903,
    "Camp": 6904,
    "storm": 6905,
    "eye": 6906,
    "wer": 6907,
    "standards": 6908,
    "otic": 6909,
    "intro@@": 6910,
    "Has@@": 6911,
    "Stri@@": 6912,
    "К@@": 6913,
    "ener": 6914,
    "scenes": 6915,
    "ju@@": 6916,
    "arrang@@": 6917,
    "lip@@": 6918,
    "ynam@@": 6919,
    "orer": 6920,
    "ب@@": 6921,
    "Lanka": 6922,
    "Housing": 6923,
    "Che@@": 6924,
    "exist": 6925,
    "т": 6926,
    "Hills": 6927,
    "influenced": 6928,
    "ags": 6929,
    "CC@@": 6930,
    "petition": 6931,
    "porter": 6932,
    "ów": 6933,
    "consecutive": 6934,
    "Craig": 6935,
    "Brazilian": 6936,
    "gender": 6937,
    "Hans": 6938,
    "aud@@": 6939,
    "ques": 6940,
    "uration": 6941,
    "eway": 6942,
    "Contemporary": 6943,
    "pm": 6944,
    "empty": 6945,
    "ricane": 6946,
    "tivity": 6947,
    "Article": 6948,
    "entrance": 6949,
    "Announ@@": 6950,
    "obi@@": 6951,
    "pack@@": 6952,
    "antine": 6953,
    "Finnish": 6954,
    "execu@@": 6955,
    "applications": 6956,
    "merce": 6957,
    "iron": 6958,
    "Enter@@": 6959,
    "poss@@": 6960,
    "expressed": 6961,
    "answ@@": 6962,
    "esh@@": 6963,
    "sale": 6964,
    "owners": 6965,
    "Hind@@": 6966,
    "ege": 6967,
    "ны@@": 6968,
    "Manag@@": 6969,
    "documents": 6970,
    "negative": 6971,
    "consist@@": 6972,
    "Tournament": 6973,
    "Lang@@": 6974,
    "candidates": 6975,
    "Charlie": 6976,
    "1892": 6977,
    "stic@@": 6978,
    "TV@@": 6979,
    "wave": 6980,
    "Bloom@@": 6981,
    "Cemetery": 6982,
    "toward": 6983,
    "establishment": 6984,
    "vill@@": 6985,
    "@": 6986,
    "supporting": 6987,
    "contributed": 6988,
    "representative": 6989,
    "hen": 6990,
    "lets": 6991,
    "ال@@": 6992,
    "Ci@@": 6993,
    "Mountains": 6994,
    "«": 6995,
    "lav": 6996,
    "Athletics": 6997,
    "adi": 6998,
    "serious": 6999,
    "rants": 7000,
    "pit@@": 7001,
    "rear": 7002,
    "Lloyd": 7003,
    "Delhi": 7004,
    "slo@@": 7005,
    "registered": 7006,
    "Ton@@": 7007,
    "Appl@@": 7008,
    "sch": 7009,
    "Prior": 7010,
    "getting": 7011,
    "drin@@": 7012,
    "territ@@": 7013,
    "secret": 7014,
    "mitted": 7015,
    "chem@@": 7016,
    "carry": 7017,
    "ze@@": 7018,
    "130": 7019,
    "tus": 7020,
    "week@@": 7021,
    "dram@@": 7022,
    "→": 7023,
    "king@@": 7024,
    "1894": 7025,
    "foundation": 7026,
    "imming": 7027,
    "owski": 7028,
    "lists": 7029,
    "Jay": 7030,
    "Deputy": 7031,
    "prize": 7032,
    "mph": 7033,
    "statement": 7034,
    "protect": 7035,
    "anal@@": 7036,
    "Handbook": 7037,
    "escape": 7038,
    "Classic": 7039,
    "jer@@": 7040,
    "ista": 7041,
    "stands": 7042,
    "accur@@": 7043,
    "Qualif@@": 7044,
    "discipl@@": 7045,
    "short@@": 7046,
    "1891": 7047,
    "Bapti@@": 7048,
    "occur": 7049,
    "Vas@@": 7050,
    "broken": 7051,
    "inaug@@": 7052,
    "possibly": 7053,
    "Plan": 7054,
    "operate": 7055,
    "animal": 7056,
    "Jerusalem": 7057,
    "Crown": 7058,
    "Municipal": 7059,
    "investigation": 7060,
    "sought": 7061,
    "Admir@@": 7062,
    "Jon": 7063,
    "liber@@": 7064,
    "AG@@": 7065,
    "ould": 7066,
    "Cricket": 7067,
    "ensions": 7068,
    "Rail@@": 7069,
    "BI": 7070,
    "gain": 7071,
    "alis": 7072,
    "sters": 7073,
    "Portland": 7074,
    "vice": 7075,
    "Phil": 7076,
    "causes": 7077,
    "Griff@@": 7078,
    "hist@@": 7079,
    "haw@@": 7080,
    "Institu@@": 7081,
    "uki": 7082,
    "tot@@": 7083,
    "stadium": 7084,
    "cha": 7085,
    "harmon@@": 7086,
    "augh@@": 7087,
    "Batt@@": 7088,
    "Environmental": 7089,
    "thwest": 7090,
    "Dig@@": 7091,
    "tons": 7092,
    "lawyer": 7093,
    "merch@@": 7094,
    "fications": 7095,
    "km²": 7096,
    "strateg@@": 7097,
    "meth@@": 7098,
    "Compan@@": 7099,
    "arily": 7100,
    "Seven": 7101,
    "1888": 7102,
    "olf": 7103,
    "Stor@@": 7104,
    "gi": 7105,
    "chain": 7106,
    "pedition": 7107,
    "Finland": 7108,
    "ν@@": 7109,
    "dae": 7110,
    "Training": 7111,
    "Dram@@": 7112,
    "Alliance": 7113,
    "Bernard": 7114,
    "Prac@@": 7115,
    "Senator": 7116,
    "Andr@@": 7117,
    "Romania": 7118,
    "Islam": 7119,
    "asks": 7120,
    "draft": 7121,
    "ogra@@": 7122,
    "isa": 7123,
    "Upper": 7124,
    "invited": 7125,
    "utation": 7126,
    "ahead": 7127,
    "collected": 7128,
    "Rac@@": 7129,
    "advance": 7130,
    "Cycl@@": 7131,
    "wi@@": 7132,
    "Arab@@": 7133,
    "crimin@@": 7134,
    "Din@@": 7135,
    "ε@@": 7136,
    "Pop@@": 7137,
    "olo": 7138,
    "locomo@@": 7139,
    "Beat@@": 7140,
    "earing": 7141,
    "yo": 7142,
    "Iron": 7143,
    "equal": 7144,
    "courses": 7145,
    "less@@": 7146,
    "12th": 7147,
    "promote": 7148,
    "agency": 7149,
    "avoid": 7150,
    "Las": 7151,
    "Part@@": 7152,
    "ultimately": 7153,
    "ME@@": 7154,
    "Why": 7155,
    "Pom@@": 7156,
    "importance": 7157,
    "DO@@": 7158,
    "isions": 7159,
    "con": 7160,
    "ulated": 7161,
    "Associ@@": 7162,
    "Late": 7163,
    "hr": 7164,
    "ceremony": 7165,
    "Financial": 7166,
    "ace@@": 7167,
    "tos": 7168,
    "Bus@@": 7169,
    "decor@@": 7170,
    "Territ@@": 7171,
    "roof": 7172,
    "scheduled": 7173,
    "abor@@": 7174,
    "Tower": 7175,
    "foot@@": 7176,
    "internal": 7177,
    "0000@@": 7178,
    "ère": 7179,
    "ectural": 7180,
    "hits": 7181,
    "gal@@": 7182,
    "Madrid": 7183,
    "mean": 7184,
    "assive": 7185,
    "Blues": 7186,
    "inher@@": 7187,
    "ife": 7188,
    "TE@@": 7189,
    "appropri@@": 7190,
    "Mark@@": 7191,
    "Though": 7192,
    "Emp@@": 7193,
    "140": 7194,
    "enger": 7195,
    "Apple": 7196,
    "icking": 7197,
    "environmental": 7198,
    "Guil@@": 7199,
    "HS": 7200,
    "orary": 7201,
    "maintained": 7202,
    "establish": 7203,
    "transl@@": 7204,
    "Emil@@": 7205,
    "UN": 7206,
    "trained": 7207,
    "anced": 7208,
    "prin@@": 7209,
    "ander@@": 7210,
    "dium": 7211,
    "Friday": 7212,
    "Pir@@": 7213,
    "Movement": 7214,
    "Fed@@": 7215,
    "din": 7216,
    "umin@@": 7217,
    "seconds": 7218,
    "objects": 7219,
    "elig@@": 7220,
    "sections": 7221,
    "700": 7222,
    "emed": 7223,
    "fit": 7224,
    "–@@": 7225,
    "erra": 7226,
    "Stage": 7227,
    "fan": 7228,
    "Austrian": 7229,
    "Archi@@": 7230,
    "othy": 7231,
    "Chel@@": 7232,
    "Convention": 7233,
    "…": 7234,
    "motor@@": 7235,
    "Roman@@": 7236,
    "Defence": 7237,
    "specifically": 7238,
    "voted": 7239,
    "Susan": 7240,
    "Plant": 7241,
    "ideas": 7242,
    "ima": 7243,
    "ос@@": 7244,
    "Primary": 7245,
    "cus@@": 7246,
    "Franc@@": 7247,
    "decades": 7248,
    "Baron": 7249,
    "103": 7250,
    "acid": 7251,
    "php": 7252,
    "adult": 7253,
    "strength": 7254,
    "armac@@": 7255,
    "inian": 7256,
    "Parish": 7257,
    "ronic": 7258,
    "Gur@@": 7259,
    "Buc@@": 7260,
    "gun@@": 7261,
    "CE@@": 7262,
    "stru@@": 7263,
    "eos": 7264,
    "Jerry": 7265,
    "Rick": 7266,
    "Carl@@": 7267,
    "educated": 7268,
    "loss@@": 7269,
    "Theory": 7270,
    "Que@@": 7271,
    "lier": 7272,
    "speaking": 7273,
    "songwriter": 7274,
    "tz": 7275,
    "Archae@@": 7276,
    "Freedom": 7277,
    "1861": 7278,
    "Communist": 7279,
    "missions": 7280,
    "Glasgow": 7281,
    "eties": 7282,
    "anned": 7283,
    "Brooklyn": 7284,
    "aming": 7285,
    "counter@@": 7286,
    "NY@@": 7287,
    "evel@@": 7288,
    "lled": 7289,
    "^@@": 7290,
    "isms": 7291,
    "Parker": 7292,
    "seems": 7293,
    "encoun@@": 7294,
    "quest": 7295,
    "stit@@": 7296,
    "1880": 7297,
    "yce": 7298,
    "fine": 7299,
    "child@@": 7300,
    "Ken": 7301,
    "Pav@@": 7302,
    "ource": 7303,
    "Gray": 7304,
    "causing": 7305,
    "Windows": 7306,
    "occup@@": 7307,
    "Van@@": 7308,
    "otes": 7309,
    "heavily": 7310,
    "juri@@": 7311,
    "dry": 7312,
    "Pop": 7313,
    "aled": 7314,
    "aceae": 7315,
    "Gulf": 7316,
    "yal": 7317,
    "н": 7318,
    "ype": 7319,
    "talk": 7320,
    "offs": 7321,
    "ku": 7322,
    "rison": 7323,
    "greatest": 7324,
    "Cooper": 7325,
    "dges": 7326,
    "Bulletin": 7327,
    "113@@": 7328,
    "rane": 7329,
    "crete": 7330,
    "Cad@@": 7331,
    "aph@@": 7332,
    "Tax@@": 7333,
    "Rev": 7334,
    "watch": 7335,
    "know@@": 7336,
    "Yam@@": 7337,
    "ood@@": 7338,
    "taining": 7339,
    "Wikimedia": 7340,
    "ruled": 7341,
    "didn": 7342,
    "ashed": 7343,
    "Exp@@": 7344,
    "Altern@@": 7345,
    "vity": 7346,
    "Environment": 7347,
    "Taiwan": 7348,
    "reality": 7349,
    "Members": 7350,
    "kl@@": 7351,
    "Hab@@": 7352,
    "Bron@@": 7353,
    "tial": 7354,
    "liqu@@": 7355,
    "lib@@": 7356,
    "presidential": 7357,
    "95@@": 7358,
    "75@@": 7359,
    "78@@": 7360,
    "Popul@@": 7361,
    "respond@@": 7362,
    "Sak@@": 7363,
    "borne": 7364,
    "Vienna": 7365,
    ",'": 7366,
    "biography": 7367,
    "Elementary": 7368,
    "од@@": 7369,
    "web@@": 7370,
    "shore": 7371,
    "Ara@@": 7372,
    "Chang@@": 7373,
    "address": 7374,
    "Stud@@": 7375,
    "htm": 7376,
    "engines": 7377,
    "%.": 7378,
    "bet": 7379,
    "volunte@@": 7380,
    "improve": 7381,
    "docum@@": 7382,
    "installed": 7383,
    "ession@@": 7384,
    "Numbers": 7385,
    "yon": 7386,
    "000@@": 7387,
    "incident": 7388,
    "Hunter": 7389,
    "Thus": 7390,
    "Oliver": 7391,
    "Full": 7392,
    "northeast": 7393,
    "budget": 7394,
    "junction": 7395,
    "nie": 7396,
    "Bible": 7397,
    "engaged": 7398,
    "resigned": 7399,
    "reaching": 7400,
    "ко@@": 7401,
    "160": 7402,
    "Child": 7403,
    "humans": 7404,
    "ince": 7405,
    "GE@@": 7406,
    "flying": 7407,
    "Market": 7408,
    "adop@@": 7409,
    "junior": 7410,
    "meters": 7411,
    "AB@@": 7412,
    "John@@": 7413,
    "Voice": 7414,
    "?\"": 7415,
    "ounded": 7416,
    "MTV": 7417,
    "unt": 7418,
    "affected": 7419,
    "iz": 7420,
    "Carol@@": 7421,
    "Aar@@": 7422,
    "Type": 7423,
    "acher": 7424,
    "99@@": 7425,
    "encer": 7426,
    "corner": 7427,
    "charges": 7428,
    "symp@@": 7429,
    "ros": 7430,
    "homes": 7431,
    "electronic": 7432,
    "OR": 7433,
    "strike": 7434,
    "Cathedral": 7435,
    "peak": 7436,
    "102": 7437,
    "emble": 7438,
    "Front": 7439,
    "municipal": 7440,
    "ec": 7441,
    "finishing": 7442,
    "consisting": 7443,
    "Bio@@": 7444,
    "skills": 7445,
    "decre@@": 7446,
    "ancest@@": 7447,
    "alp@@": 7448,
    "mosph@@": 7449,
    "Artist": 7450,
    "ugh@@": 7451,
    "entially": 7452,
    "Tech": 7453,
    "exerc@@": 7454,
    "announc@@": 7455,
    "succ@@": 7456,
    "rad": 7457,
    "entirely": 7458,
    "clos@@": 7459,
    "dg@@": 7460,
    "я@@": 7461,
    "Bush": 7462,
    "lex": 7463,
    "Biographical": 7464,
    "uri": 7465,
    "MO@@": 7466,
    "paintings": 7467,
    "TR@@": 7468,
    "etti": 7469,
    "showing": 7470,
    "regarded": 7471,
    "ghton": 7472,
    "Brit@@": 7473,
    "opportunity": 7474,
    "signal": 7475,
    "calcul@@": 7476,
    "Let": 7477,
    "tune": 7478,
    "isol@@": 7479,
    "Zone": 7480,
    "bottom": 7481,
    "gang": 7482,
    "path": 7483,
    "Bangladesh": 7484,
    "Wang": 7485,
    "itter": 7486,
    "Peters@@": 7487,
    "Cle@@": 7488,
    "Model": 7489,
    "filled": 7490,
    "Harrison": 7491,
    "sus@@": 7492,
    "extension": 7493,
    "Studios": 7494,
    "tes@@": 7495,
    "Wind@@": 7496,
    "organ": 7497,
    "falls": 7498,
    "device": 7499,
    "rose": 7500,
    "sub": 7501,
    "Richmond": 7502,
    "twelve": 7503,
    "aine": 7504,
    "frame": 7505,
    "Happ@@": 7506,
    "save": 7507,
    "sym@@": 7508,
    "islands": 7509,
    "compete": 7510,
    "ал@@": 7511,
    "Thailand": 7512,
    "rar@@": 7513,
    "light@@": 7514,
    "Oak@@": 7515,
    "pel@@": 7516,
    "Fif@@": 7517,
    "NHL": 7518,
    "describes": 7519,
    "GB@@": 7520,
    "σ@@": 7521,
    "break@@": 7522,
    "brain": 7523,
    "Chand@@": 7524,
    "eases": 7525,
    "Maz@@": 7526,
    "Glen@@": 7527,
    "champions": 7528,
    "ts@@": 7529,
    "residence": 7530,
    "ectiv@@": 7531,
    "favor@@": 7532,
    "brig@@": 7533,
    "Every@@": 7534,
    "auth@@": 7535,
    "dé@@": 7536,
    "althy": 7537,
    "oria": 7538,
    "nur@@": 7539,
    "hired": 7540,
    "recip@@": 7541,
    "Greg": 7542,
    "replace": 7543,
    "observed": 7544,
    "diction": 7545,
    "Dennis": 7546,
    "1887": 7547,
    "improved": 7548,
    "object": 7549,
    "Ele@@": 7550,
    "Jeff@@": 7551,
    "duty": 7552,
    "adow": 7553,
    "insula": 7554,
    "ensed": 7555,
    "Robin": 7556,
    "1930s": 7557,
    "brief": 7558,
    "Dub@@": 7559,
    "nothing": 7560,
    "intelligence": 7561,
    "anga": 7562,
    "104": 7563,
    "Yale": 7564,
    "accident": 7565,
    "Terry": 7566,
    "lah": 7567,
    "Some@@": 7568,
    "costs": 7569,
    "Wolf@@": 7570,
    "dam": 7571,
    "personnel": 7572,
    "ema": 7573,
    "til": 7574,
    "cricket": 7575,
    "1886": 7576,
    "MS@@": 7577,
    "kee": 7578,
    "dest@@": 7579,
    "Viol@@": 7580,
    "mm@@": 7581,
    "Zim@@": 7582,
    "theast": 7583,
    "Warner": 7584,
    "combination": 7585,
    "employees": 7586,
    "moth": 7587,
    "alition": 7588,
    "sched@@": 7589,
    "Barn@@": 7590,
    "distributed": 7591,
    "1870": 7592,
    "mit@@": 7593,
    "Jon@@": 7594,
    "past@@": 7595,
    "vised": 7596,
    "hibition": 7597,
    "forc@@": 7598,
    "167": 7599,
    "pon@@": 7600,
    "Hill@@": 7601,
    "contributions": 7602,
    "divisions": 7603,
    "kets": 7604,
    "Fut@@": 7605,
    "Wag@@": 7606,
    "Routledge": 7607,
    "Alice": 7608,
    "106": 7609,
    "esi@@": 7610,
    "ogn@@": 7611,
    "Main@@": 7612,
    "manufac@@": 7613,
    "mobile": 7614,
    "resistance": 7615,
    "stages": 7616,
    "Lis@@": 7617,
    "ete": 7618,
    "Days": 7619,
    "fem@@": 7620,
    "expression": 7621,
    "atch@@": 7622,
    "hundred": 7623,
    "casting": 7624,
    "shaped": 7625,
    "Sev@@": 7626,
    "125": 7627,
    "reserve": 7628,
    "age@@": 7629,
    "singing": 7630,
    "inn": 7631,
    "heat": 7632,
    "Philippine": 7633,
    "amat@@": 7634,
    "20s": 7635,
    "closely": 7636,
    "TO@@": 7637,
    "ê@@": 7638,
    "enne": 7639,
    "Labor": 7640,
    "neg@@": 7641,
    "plot": 7642,
    "Studio": 7643,
    "turns": 7644,
    "Lower": 7645,
    "dea@@": 7646,
    "bot": 7647,
    "Facebook": 7648,
    "northwest": 7649,
    "demol@@": 7650,
    "bach": 7651,
    "Evol@@": 7652,
    "Ottoman": 7653,
    "Day@@": 7654,
    "ocks": 7655,
    "Salv@@": 7656,
    "Get": 7657,
    "onym@@": 7658,
    "Performance": 7659,
    "Vancouver": 7660,
    "encing": 7661,
    "manag@@": 7662,
    "rt": 7663,
    "ga@@": 7664,
    "ل@@": 7665,
    "Hebrew": 7666,
    "lam": 7667,
    "lay": 7668,
    "persons": 7669,
    "zy@@": 7670,
    "extra": 7671,
    "<": 7672,
    "Small": 7673,
    "lington": 7674,
    "chair": 7675,
    "soccer": 7676,
    "Wes@@": 7677,
    "edo": 7678,
    "ар@@": 7679,
    "composition": 7680,
    "idel@@": 7681,
    "easily": 7682,
    "13th": 7683,
    "construc@@": 7684,
    "IP@@": 7685,
    "curr@@": 7686,
    "lit": 7687,
    "stores": 7688,
    "missing": 7689,
    "Dest@@": 7690,
    "guard": 7691,
    "compan@@": 7692,
    "porters": 7693,
    "Lithu@@": 7694,
    "1865": 7695,
    "communication": 7696,
    "Venezu@@": 7697,
    "15th": 7698,
    "λ@@": 7699,
    "flat": 7700,
    "ushed": 7701,
    "Vincent": 7702,
    "Trophy": 7703,
    "Cook": 7704,
    "stan@@": 7705,
    "Stan@@": 7706,
    "LO@@": 7707,
    "sting": 7708,
    "Ant@@": 7709,
    "Trump": 7710,
    "sq": 7711,
    "differ@@": 7712,
    "gath@@": 7713,
    "1000": 7714,
    "prob@@": 7715,
    "Common": 7716,
    "Chile": 7717,
    "Intelligence": 7718,
    "fashion": 7719,
    "constituency": 7720,
    "apping": 7721,
    "rebel@@": 7722,
    "wick@@": 7723,
    "advantage": 7724,
    "essor": 7725,
    "endor@@": 7726,
    "iop@@": 7727,
    "equivalent": 7728,
    "iden": 7729,
    "mac@@": 7730,
    "ridge": 7731,
    "sor": 7732,
    "recor@@": 7733,
    "anese": 7734,
    "estyle": 7735,
    "sight": 7736,
    "ome@@": 7737,
    "Max@@": 7738,
    "Wing": 7739,
    "bow": 7740,
    "urg@@": 7741,
    "min": 7742,
    "mill": 7743,
    "DJ": 7744,
    "etary": 7745,
    "Case": 7746,
    "Alg@@": 7747,
    "genous": 7748,
    "XX@@": 7749,
    "Biology": 7750,
    "quarter@@": 7751,
    "Osc@@": 7752,
    "Naz@@": 7753,
    "Pain@@": 7754,
    "mathb@@": 7755,
    "apped": 7756,
    "Astron@@": 7757,
    "indicated": 7758,
    "Saints": 7759,
    "woo@@": 7760,
    "Fitz@@": 7761,
    "fund@@": 7762,
    "grave": 7763,
    "techniques": 7764,
    "veter@@": 7765,
    "cards": 7766,
    "’@@": 7767,
    "Integ@@": 7768,
    "princip@@": 7769,
    "Stuart": 7770,
    "Archit@@": 7771,
    "IL": 7772,
    "neighborhood": 7773,
    "ن@@": 7774,
    "erc@@": 7775,
    "lb": 7776,
    "nan": 7777,
    "1881": 7778,
    "Secret": 7779,
    "ial@@": 7780,
    "freedom": 7781,
    "fired": 7782,
    "oli": 7783,
    "actual": 7784,
    "accused": 7785,
    "Illust@@": 7786,
    "churches": 7787,
    "Universal": 7788,
    "Guy": 7789,
    "Quarter@@": 7790,
    "asts": 7791,
    "uries": 7792,
    "circum@@": 7793,
    "simil@@": 7794,
    "107": 7795,
    "%@@": 7796,
    "ji@@": 7797,
    "terror@@": 7798,
    "Herbert": 7799,
    "earliest": 7800,
    "Hudson": 7801,
    "esa": 7802,
    "Father": 7803,
    "indicate": 7804,
    "Jenn@@": 7805,
    "philosophy": 7806,
    "Hug@@": 7807,
    "stating": 7808,
    "Technical": 7809,
    "alry": 7810,
    "proced@@": 7811,
    "Diam@@": 7812,
    "Dod@@": 7813,
    "asa": 7814,
    "ospit@@": 7815,
    "biggest": 7816,
    "invasion": 7817,
    "108": 7818,
    "coal": 7819,
    "reduc@@": 7820,
    "Watch": 7821,
    "criminal": 7822,
    "eval@@": 7823,
    "pain@@": 7824,
    "Original": 7825,
    "Exper@@": 7826,
    "Theater": 7827,
    "commune": 7828,
    "117@@": 7829,
    "Yan@@": 7830,
    "Even": 7831,
    "weekly": 7832,
    "Microsoft": 7833,
    "symb@@": 7834,
    "Draft": 7835,
    "Administ@@": 7836,
    "Bristol": 7837,
    "Fund": 7838,
    "Vit@@": 7839,
    "109": 7840,
    "lov@@": 7841,
    "Clim@@": 7842,
    "hosts": 7843,
    "enting": 7844,
    "mund": 7845,
    "reduce": 7846,
    "interior": 7847,
    "With@@": 7848,
    "Introduction": 7849,
    "dar@@": 7850,
    "membership": 7851,
    "ethnic": 7852,
    "!\"": 7853,
    "Right": 7854,
    "briefly": 7855,
    "ient": 7856,
    "iples": 7857,
    "description": 7858,
    "valley": 7859,
    "endment": 7860,
    "satis@@": 7861,
    "wine": 7862,
    "aj": 7863,
    "chro@@": 7864,
    "thouse": 7865,
    "seventh": 7866,
    "theater": 7867,
    "Ali@@": 7868,
    "demand": 7869,
    "Nom@@": 7870,
    "Garc@@": 7871,
    "ribu@@": 7872,
    "100@@": 7873,
    "Eri@@": 7874,
    "liance": 7875,
    "deploy@@": 7876,
    "regularly": 7877,
    "Franç@@": 7878,
    "theat@@": 7879,
    "flag": 7880,
    "Yorkshire": 7881,
    "send": 7882,
    "ī@@": 7883,
    "resid@@": 7884,
    "rop@@": 7885,
    "itual": 7886,
    "banks": 7887,
    "ectively": 7888,
    "anniversary": 7889,
    "set@@": 7890,
    "eption": 7891,
    "challenge": 7892,
    "rity": 7893,
    "items": 7894,
    "erve": 7895,
    "participate": 7896,
    "argued": 7897,
    "Nazi": 7898,
    "14th": 7899,
    "examples": 7900,
    "Fig@@": 7901,
    "factors": 7902,
    "1884": 7903,
    "Hawaii": 7904,
    "nationally": 7905,
    "omm@@": 7906,
    "Rico": 7907,
    "ovo": 7908,
    "CNN": 7909,
    "Wer@@": 7910,
    "remov@@": 7911,
    "employment": 7912,
    "attached": 7913,
    "adjacent": 7914,
    "Lag@@": 7915,
    "interests": 7916,
    "Kings": 7917,
    "PO@@": 7918,
    "painted": 7919,
    "Mong@@": 7920,
    "Maine": 7921,
    "Kenn@@": 7922,
    "document": 7923,
    "ui": 7924,
    "Treas@@": 7925,
    "ouring": 7926,
    "Tab@@": 7927,
    "chose": 7928,
    "capture": 7929,
    "diffic@@": 7930,
    "shooting": 7931,
    "township": 7932,
    "rez": 7933,
    "lan": 7934,
    "Next": 7935,
    "substanti@@": 7936,
    "starred": 7937,
    "Let@@": 7938,
    "Orange": 7939,
    "pas@@": 7940,
    "κ@@": 7941,
    "dating": 7942,
    "Branch": 7943,
    "ighting": 7944,
    "Liter@@": 7945,
    "subsi@@": 7946,
    "understanding": 7947,
    "gly": 7948,
    "Hem@@": 7949,
    "Nomin@@": 7950,
    "opposite": 7951,
    "Scientific": 7952,
    "Gener@@": 7953,
    "archae@@": 7954,
    "reti@@": 7955,
    "Broad@@": 7956,
    "Ny@@": 7957,
    "Nak@@": 7958,
    "Conservative": 7959,
    "subur@@": 7960,
    "contain": 7961,
    "oner": 7962,
    "print": 7963,
    "cho": 7964,
    "ower": 7965,
    "thetic": 7966,
    "Rail": 7967,
    "Identi@@": 7968,
    "Hampshire": 7969,
    "DP": 7970,
    "uv@@": 7971,
    "112": 7972,
    "oba": 7973,
    "Azerbai@@": 7974,
    "racial": 7975,
    "naval": 7976,
    "partial": 7977,
    "Colon@@": 7978,
    "Orthodox": 7979,
    "stan": 7980,
    "ready": 7981,
    "rh@@": 7982,
    "Drag@@": 7983,
    "Syria": 7984,
    "Falls": 7985,
    "anist": 7986,
    "Revol@@": 7987,
    "1864": 7988,
    "raft": 7989,
    "survived": 7990,
    "actors": 7991,
    "Gy@@": 7992,
    "collap@@": 7993,
    "Sug@@": 7994,
    "tak@@": 7995,
    "fel@@": 7996,
    "....": 7997,
    "audio": 7998,
    "clar@@": 7999,
    "Stanford": 8000,
    "eville": 8001,
    "Release": 8002,
    "medium": 8003,
    "audi@@": 8004,
    "stem@@": 8005,
    "tennis": 8006,
    "eme": 8007,
    "publications": 8008,
    "Us": 8009,
    "Sign@@": 8010,
    "walk": 8011,
    "tising": 8012,
    "*@@": 8013,
    "Ten@@": 8014,
    "Ice": 8015,
    "innov@@": 8016,
    "appl@@": 8017,
    "chance": 8018,
    "six@@": 8019,
    "wounded": 8020,
    "Harold": 8021,
    "seas": 8022,
    "deleg@@": 8023,
    "د@@": 8024,
    "Nad@@": 8025,
    "investment": 8026,
    "vit@@": 8027,
    "passengers": 8028,
    "categ@@": 8029,
    "Challenge": 8030,
    "Production": 8031,
    "View": 8032,
    "mining": 8033,
    "utt@@": 8034,
    "Cob@@": 8035,
    "Bomb@@": 8036,
    "Rolling": 8037,
    "anus": 8038,
    "slow": 8039,
    "Ron": 8040,
    "Charlotte": 8041,
    "calling": 8042,
    "plate": 8043,
    "agricultural": 8044,
    "keeper": 8045,
    "Bour@@": 8046,
    "Mess@@": 8047,
    "behavior": 8048,
    "abled": 8049,
    "boats": 8050,
    "southeast": 8051,
    "thri@@": 8052,
    "strac@@": 8053,
    "rin": 8054,
    "secretary": 8055,
    "ци@@": 8056,
    "trip": 8057,
    "py@@": 8058,
    "heritage": 8059,
    "picture": 8060,
    "ator@@": 8061,
    "lap": 8062,
    "añ@@": 8063,
    "Princeton": 8064,
    "Edwards": 8065,
    "guar@@": 8066,
    "consol@@": 8067,
    "HP": 8068,
    "Trail": 8069,
    "NASA": 8070,
    "Minor": 8071,
    "decade": 8072,
    "pin@@": 8073,
    "180": 8074,
    "typical": 8075,
    "Strateg@@": 8076,
    "Lea@@": 8077,
    "innings": 8078,
    "coordin@@": 8079,
    "Tas@@": 8080,
    "Fine": 8081,
    "Hann@@": 8082,
    "archived": 8083,
    "dynam@@": 8084,
    "Spr@@": 8085,
    "pick": 8086,
    "linked": 8087,
    "archy": 8088,
    "operates": 8089,
    "WA": 8090,
    "lar": 8091,
    "fts": 8092,
    "adem@@": 8093,
    "musicians": 8094,
    "academ@@": 8095,
    "lers": 8096,
    "ucle@@": 8097,
    "ulu": 8098,
    "oy@@": 8099,
    "03@@": 8100,
    "Leader": 8101,
    "distinct": 8102,
    "aughters": 8103,
    "\"[": 8104,
    "Hein@@": 8105,
    "Marvel": 8106,
    "East@@": 8107,
    "oding": 8108,
    "citiz@@": 8109,
    "Ron@@": 8110,
    "HMS": 8111,
    "justice": 8112,
    "Storm": 8113,
    "Attendance": 8114,
    "experi@@": 8115,
    "organisation": 8116,
    "iding": 8117,
    "guitarist": 8118,
    "Constitu@@": 8119,
    "extrem@@": 8120,
    "AF": 8121,
    "س@@": 8122,
    "agn@@": 8123,
    "1882": 8124,
    "113": 8125,
    "Victorian": 8126,
    "Sons": 8127,
    "priest": 8128,
    "goods": 8129,
    "escap@@": 8130,
    "employ@@": 8131,
    "ć": 8132,
    "Where": 8133,
    "purchase": 8134,
    "Smith@@": 8135,
    "southwest": 8136,
    "imag@@": 8137,
    "xon": 8138,
    "visual": 8139,
    "ified": 8140,
    "iy@@": 8141,
    "prev@@": 8142,
    "Mack@@": 8143,
    "athan": 8144,
    "Issue": 8145,
    "Pay@@": 8146,
    "Perry": 8147,
    "Alberta": 8148,
    "ferred": 8149,
    "respect": 8150,
    "Croatian": 8151,
    "JSTOR": 8152,
    "concluded": 8153,
    "udes": 8154,
    "Gonz@@": 8155,
    "Guit@@": 8156,
    "driving": 8157,
    "covering": 8158,
    "ennial": 8159,
    "Civ@@": 8160,
    "mic": 8161,
    "iciency": 8162,
    "lla": 8163,
    "Luis": 8164,
    "edic@@": 8165,
    "Construction": 8166,
    "Arena": 8167,
    "Afghanistan": 8168,
    "frequ@@": 8169,
    "115": 8170,
    "scri@@": 8171,
    "66@@": 8172,
    "leton": 8173,
    "ș@@": 8174,
    "Thre@@": 8175,
    "ishment": 8176,
    "prote@@": 8177,
    "Gir@@": 8178,
    "releases": 8179,
    "Assistant": 8180,
    "teachers": 8181,
    "delivered": 8182,
    "astery": 8183,
    "tail": 8184,
    "alties": 8185,
    "Indians": 8186,
    "exist@@": 8187,
    "CR@@": 8188,
    "PI": 8189,
    "Hob@@": 8190,
    "Kle@@": 8191,
    "Nova": 8192,
    "kar@@": 8193,
    "papers": 8194,
    "sal": 8195,
    "crisis": 8196,
    "astron@@": 8197,
    "Catherine": 8198,
    "Phoenix": 8199,
    "antry": 8200,
    "otherwise": 8201,
    "oul": 8202,
    "pap@@": 8203,
    "isters": 8204,
    "partnership": 8205,
    "Dream": 8206,
    "}{": 8207,
    "Eg@@": 8208,
    "Laura": 8209,
    "collaboration": 8210,
    "Mother": 8211,
    "Flo@@": 8212,
    "signing": 8213,
    "perhaps": 8214,
    "Bog@@": 8215,
    "committed": 8216,
    "ла@@": 8217,
    "vin@@": 8218,
    "cell@@": 8219,
    "Boy@@": 8220,
    "на": 8221,
    "Orleans": 8222,
    "vo": 8223,
    "Atlas": 8224,
    "classic": 8225,
    "CS": 8226,
    "Advis@@": 8227,
    "sens@@": 8228,
    "Seb@@": 8229,
    "Proceedings": 8230,
    "Gru@@": 8231,
    "Govern@@": 8232,
    "Theod@@": 8233,
    "lus@@": 8234,
    "Dec": 8235,
    "·": 8236,
    "arding": 8237,
    "Laur@@": 8238,
    "IV@@": 8239,
    "measures": 8240,
    "impro@@": 8241,
    "extremely": 8242,
    "HO@@": 8243,
    "illed": 8244,
    "Commissioner": 8245,
    "Architecture": 8246,
    "bab@@": 8247,
    "1860": 8248,
    "Territorial": 8249,
    "kings": 8250,
    "thqu@@": 8251,
    "designs": 8252,
    "Key": 8253,
    "1863": 8254,
    "AFL": 8255,
    "recept@@": 8256,
    "об@@": 8257,
    "Feature": 8258,
    "degrees": 8259,
    "Haz@@": 8260,
    "Bes@@": 8261,
    "nickn@@": 8262,
    "Bad": 8263,
    "Tow@@": 8264,
    "etown": 8265,
    "reaction": 8266,
    "enda": 8267,
    "request": 8268,
    "Hut@@": 8269,
    "Show@@": 8270,
    "Phi@@": 8271,
    "Kenneth": 8272,
    "atically": 8273,
    "Celeb@@": 8274,
    "ordinary": 8275,
    "represents": 8276,
    "1862": 8277,
    "Murphy": 8278,
    "leges": 8279,
    "maintain": 8280,
    "Electric": 8281,
    "Clif@@": 8282,
    "releg@@": 8283,
    "notably": 8284,
    "ung@@": 8285,
    "Gregory": 8286,
    "1883": 8287,
    "Brig@@": 8288,
    "fixed": 8289,
    "Antar@@": 8290,
    "contest": 8291,
    "businesses": 8292,
    "ither": 8293,
    "tified": 8294,
    "endence": 8295,
    "Adelaide": 8296,
    "div@@": 8297,
    "cler@@": 8298,
    "chapter": 8299,
    "Around": 8300,
    "ighter": 8301,
    "purposes": 8302,
    "expos@@": 8303,
    "Helen": 8304,
    "114": 8305,
    "attend": 8306,
    "show@@": 8307,
    "Economics": 8308,
    "Gill@@": 8309,
    "diary": 8310,
    "Princip@@": 8311,
    "questions": 8312,
    "Zo@@": 8313,
    "dang@@": 8314,
    "appointment": 8315,
    "Kim@@": 8316,
    "sburg": 8317,
    "xed": 8318,
    "Marc": 8319,
    "Jacob": 8320,
    "Pos@@": 8321,
    "Meth@@": 8322,
    "Nov": 8323,
    "estant": 8324,
    "139": 8325,
    "AV@@": 8326,
    "ample": 8327,
    "shops": 8328,
    "premiered": 8329,
    "enty": 8330,
    "MD": 8331,
    "arc@@": 8332,
    "си@@": 8333,
    "residential": 8334,
    "fran@@": 8335,
    "Pak@@": 8336,
    "Monday": 8337,
    "opol@@": 8338,
    "ME": 8339,
    "Parks": 8340,
    "shor@@": 8341,
    "Price": 8342,
    "М@@": 8343,
    "Analysis": 8344,
    "screen@@": 8345,
    "medicine": 8346,
    "CB@@": 8347,
    "Clinton": 8348,
    "iki": 8349,
    "clusi@@": 8350,
    "asses": 8351,
    "Vil@@": 8352,
    "Side": 8353,
    "designer": 8354,
    "Missing": 8355,
    "oming": 8356,
    "improv@@": 8357,
    "boo@@": 8358,
    "nik": 8359,
    "Nigeria": 8360,
    "require": 8361,
    "1878": 8362,
    "reign": 8363,
    "Rob": 8364,
    "Colum@@": 8365,
    "fram@@": 8366,
    "Alaska": 8367,
    "struction": 8368,
    "Back@@": 8369,
    "tices": 8370,
    "Ut@@": 8371,
    "damaged": 8372,
    "Buck@@": 8373,
    "eased": 8374,
    "Milan": 8375,
    "acon": 8376,
    "Barcelona": 8377,
    "Yugos@@": 8378,
    "tenance": 8379,
    "Viv@@": 8380,
    "Kas@@": 8381,
    "Elections": 8382,
    "thod@@": 8383,
    "Bail@@": 8384,
    "backing": 8385,
    "pitch@@": 8386,
    "determin@@": 8387,
    "pati@@": 8388,
    "carrying": 8389,
    "nat@@": 8390,
    "enko": 8391,
    "arity": 8392,
    "PD@@": 8393,
    "hot": 8394,
    "Greater": 8395,
    "Fis@@": 8396,
    "essment": 8397,
    "fra@@": 8398,
    "pical": 8399,
    "kilomet@@": 8400,
    "formally": 8401,
    "hair": 8402,
    "tioning": 8403,
    "cited": 8404,
    "Farm": 8405,
    "77@@": 8406,
    "Thom@@": 8407,
    "117": 8408,
    "Citiz@@": 8409,
    "measure": 8410,
    "tham": 8411,
    "campaig@@": 8412,
    "Encyclop@@": 8413,
    "ь": 8414,
    "Dim@@": 8415,
    "Game@@": 8416,
    "idence": 8417,
    "panic": 8418,
    "deg@@": 8419,
    "Tob@@": 8420,
    "Á@@": 8421,
    "Dick": 8422,
    "Count": 8423,
    "shall": 8424,
    "TH@@": 8425,
    "legislation": 8426,
    "iTunes": 8427,
    "visible": 8428,
    "sequences": 8429,
    "prepared": 8430,
    "Radi@@": 8431,
    "coverage": 8432,
    "Ralph": 8433,
    "temper@@": 8434,
    "tionary": 8435,
    "Nan@@": 8436,
    "turing": 8437,
    "publishing": 8438,
    "milli@@": 8439,
    "Current": 8440,
    "bb@@": 8441,
    "credit": 8442,
    "cav@@": 8443,
    "Planet": 8444,
    "Cit@@": 8445,
    "Past": 8446,
    "Industrial": 8447,
    "anni": 8448,
    "ско@@": 8449,
    "Blood": 8450,
    "Kit@@": 8451,
    "elds": 8452,
    "gone": 8453,
    "anic": 8454,
    "Elli@@": 8455,
    "Friends": 8456,
    "expres@@": 8457,
    "Magic": 8458,
    "olds": 8459,
    "Rangers": 8460,
    "faculty": 8461,
    "inity": 8462,
    "Change": 8463,
    "fair": 8464,
    "Dro@@": 8465,
    "line@@": 8466,
    "fr@@": 8467,
    "arranged": 8468,
    "caught": 8469,
    "Springer": 8470,
    "determine": 8471,
    "uda": 8472,
    "ß@@": 8473,
    "SE": 8474,
    "mina": 8475,
    "classified": 8476,
    "Call": 8477,
    "eval": 8478,
    "cover@@": 8479,
    "garden": 8480,
    "anwhile": 8481,
    "dden": 8482,
    "las@@": 8483,
    "induc@@": 8484,
    "Mut@@": 8485,
    "Repor@@": 8486,
    "EU": 8487,
    "Vla@@": 8488,
    "resses": 8489,
    "found@@": 8490,
    "ographer": 8491,
    "renov@@": 8492,
    "Leonard": 8493,
    "Ball": 8494,
    "120@@": 8495,
    "drop": 8496,
    "parli@@": 8497,
    "Mall@@": 8498,
    "experienced": 8499,
    "Faculty": 8500,
    "runner": 8501,
    "ranking": 8502,
    "survey": 8503,
    "controversi@@": 8504,
    "Hir@@": 8505,
    "stable": 8506,
    "Nebraska": 8507,
    "argu@@": 8508,
    "Slov@@": 8509,
    "Artists": 8510,
    "tied": 8511,
    "Sult@@": 8512,
    "84@@": 8513,
    "oi": 8514,
    "endar": 8515,
    "broad": 8516,
    "fi": 8517,
    "bid": 8518,
    "routes": 8519,
    "Lak@@": 8520,
    "esman": 8521,
    "Ox@@": 8522,
    "aft": 8523,
    "emor@@": 8524,
    "nomination": 8525,
    "advent@@": 8526,
    "unction": 8527,
    "Operations": 8528,
    "lows": 8529,
    "Car": 8530,
    "Version": 8531,
    "sla@@": 8532,
    "194@@": 8533,
    "Magn@@": 8534,
    "resi@@": 8535,
    "Recording": 8536,
    "prime": 8537,
    "Kap@@": 8538,
    "laun@@": 8539,
    "rivers": 8540,
    "involving": 8541,
    "sects": 8542,
    "Safety": 8543,
    "fro@@": 8544,
    "physics": 8545,
    "Sean": 8546,
    "protected": 8547,
    "act@@": 8548,
    "behavi@@": 8549,
    "gan": 8550,
    "kid@@": 8551,
    "praised": 8552,
    "Oblast": 8553,
    "eyes": 8554,
    "surve@@": 8555,
    "stery": 8556,
    "kar": 8557,
    "restored": 8558,
    "ionally": 8559,
    "neighbor@@": 8560,
    "commission": 8561,
    "Nob@@": 8562,
    "Academic": 8563,
    "ordin@@": 8564,
    "Justin": 8565,
    "wed@@": 8566,
    "thous@@": 8567,
    "ancell@@": 8568,
    "exec@@": 8569,
    "Fron@@": 8570,
    "learned": 8571,
    "courts": 8572,
    "Campaign": 8573,
    "reser@@": 8574,
    "sus": 8575,
    "contrast": 8576,
    "Dick@@": 8577,
    "65@@": 8578,
    "rejected": 8579,
    "devices": 8580,
    "las": 8581,
    "121": 8582,
    "Н@@": 8583,
    "Honor": 8584,
    "Transl@@": 8585,
    "Rogers": 8586,
    "Egyptian": 8587,
    "av": 8588,
    "Exam@@": 8589,
    "Hope": 8590,
    "Store": 8591,
    "perior": 8592,
    "icop@@": 8593,
    "breaking": 8594,
    "wich": 8595,
    "cill@@": 8596,
    "ough@@": 8597,
    "frag@@": 8598,
    "...@@": 8599,
    "sur": 8600,
    "Nac@@": 8601,
    "Vik@@": 8602,
    "Students": 8603,
    "hat": 8604,
    "Off": 8605,
    "135": 8606,
    "provincial": 8607,
    "mmer": 8608,
    "philos@@": 8609,
    "Oct": 8610,
    "Beijing": 8611,
    "Bar": 8612,
    "TER@@": 8613,
    "Chemistry": 8614,
    "accommod@@": 8615,
    "overed": 8616,
    "diversity": 8617,
    "Cinema": 8618,
    "CL@@": 8619,
    "Wis@@": 8620,
    "Gilbert": 8621,
    "poverty": 8622,
    "Stef@@": 8623,
    "accompanied": 8624,
    "mode": 8625,
    "Arn@@": 8626,
    "Belgian": 8627,
    "ossi@@": 8628,
    "Voc@@": 8629,
    "sees": 8630,
    "Inside": 8631,
    "Seg@@": 8632,
    "1879": 8633,
    "attan": 8634,
    "valu@@": 8635,
    "Symphony": 8636,
    "Sky@@": 8637,
    "ф@@": 8638,
    "iling": 8639,
    "install@@": 8640,
    "Diocese": 8641,
    "logy": 8642,
    "promot@@": 8643,
    "Run": 8644,
    "rob@@": 8645,
    "Napol@@": 8646,
    "rastructure": 8647,
    "Greg@@": 8648,
    "ación": 8649,
    "Obama": 8650,
    "norm@@": 8651,
    "ibility": 8652,
    "ensure": 8653,
    "storage": 8654,
    "hu": 8655,
    "ellec@@": 8656,
    "hn": 8657,
    "thousands": 8658,
    "stret@@": 8659,
    "Private": 8660,
    "Virgin": 8661,
    "hua": 8662,
    "endo": 8663,
    "technique": 8664,
    "skin": 8665,
    "Pan": 8666,
    "Cz@@": 8667,
    "colonial": 8668,
    "diagn@@": 8669,
    "spoken": 8670,
    "mart": 8671,
    "Manual": 8672,
    "changing": 8673,
    "Dow@@": 8674,
    "Berkeley": 8675,
    "universities": 8676,
    "Tul@@": 8677,
    "establ@@": 8678,
    "responsibility": 8679,
    "anner": 8680,
    "markets": 8681,
    "Lav@@": 8682,
    "Costa": 8683,
    "lear@@": 8684,
    "franchise": 8685,
    "aked": 8686,
    "depth": 8687,
    "victims": 8688,
    "chemistry": 8689,
    "Olymp@@": 8690,
    "Fiction": 8691,
    "debate": 8692,
    "OC@@": 8693,
    "1876": 8694,
    "wear": 8695,
    "omin@@": 8696,
    "colum@@": 8697,
    "tank": 8698,
    "nell": 8699,
    "debuted": 8700,
    "Serbia": 8701,
    "aman": 8702,
    "meets": 8703,
    "qi": 8704,
    "Gaz@@": 8705,
    "gressional": 8706,
    "Ray@@": 8707,
    "μ@@": 8708,
    "Post@@": 8709,
    "Physics": 8710,
    "Hou@@": 8711,
    "option": 8712,
    "Boo@@": 8713,
    "ulate": 8714,
    "organiz@@": 8715,
    "athle@@": 8716,
    "Warri@@": 8717,
    "aspects": 8718,
    "bling": 8719,
    "requirements": 8720,
    "Films": 8721,
    "struck": 8722,
    "acro@@": 8723,
    "ли@@": 8724,
    "Represent@@": 8725,
    "essels": 8726,
    "dition": 8727,
    "Luke": 8728,
    "versy": 8729,
    "Living": 8730,
    "erv@@": 8731,
    "fielder": 8732,
    "Pengu@@": 8733,
    "element": 8734,
    "Arnold": 8735,
    "landing": 8736,
    "udi@@": 8737,
    "Argent@@": 8738,
    "appearing": 8739,
    "keeping": 8740,
    "Won@@": 8741,
    "gay": 8742,
    "Colombia": 8743,
    "Cov@@": 8744,
    "annes": 8745,
    "Bobby": 8746,
    "relative": 8747,
    "Cot@@": 8748,
    "ashes": 8749,
    "testing": 8750,
    "pattern": 8751,
    "Yos@@": 8752,
    "announ@@": 8753,
    "enth": 8754,
    "ahn": 8755,
    "admitted": 8756,
    "Big@@": 8757,
    "peti@@": 8758,
    "defensive": 8759,
    "Econom@@": 8760,
    "Ja@@": 8761,
    "subjects": 8762,
    "Tennis": 8763,
    "message": 8764,
    "quarters": 8765,
    "1871": 8766,
    "aux": 8767,
    "Travel": 8768,
    "Allmusic": 8769,
    "leagues": 8770,
    "sanc@@": 8771,
    "safe": 8772,
    "institution": 8773,
    "Variety": 8774,
    "facts": 8775,
    "waters": 8776,
    "Mar": 8777,
    "iring": 8778,
    "suggests": 8779,
    "context": 8780,
    "interested": 8781,
    "Bis@@": 8782,
    "rich@@": 8783,
    "publisher": 8784,
    "assumed": 8785,
    "sin": 8786,
    "lls": 8787,
    "Dakota": 8788,
    "critic": 8789,
    "hero": 8790,
    "Hung": 8791,
    "Caribbean": 8792,
    "lane": 8793,
    "shed": 8794,
    "ester@@": 8795,
    "offensive": 8796,
    "dam@@": 8797,
    "task": 8798,
    "dynasty": 8799,
    "lst": 8800,
    "Nur@@": 8801,
    "entional": 8802,
    "Raymond": 8803,
    "sz@@": 8804,
    "separated": 8805,
    "Canal": 8806,
    "rystal": 8807,
    "Malay@@": 8808,
    "severe": 8809,
    "Butler": 8810,
    "bec@@": 8811,
    "Phillips": 8812,
    "122": 8813,
    "politic@@": 8814,
    "powered": 8815,
    "cham@@": 8816,
    "cat": 8817,
    "Kom@@": 8818,
    "uss": 8819,
    "assistance": 8820,
    "asser@@": 8821,
    "Masters": 8822,
    "Horse": 8823,
    "cha@@": 8824,
    "Leon@@": 8825,
    "zing": 8826,
    "cup": 8827,
    "iness": 8828,
    "vidence": 8829,
    "alco@@": 8830,
    "adapted": 8831,
    "Fair": 8832,
    "phy": 8833,
    "ograph@@": 8834,
    "destruc@@": 8835,
    "Bulgarian": 8836,
    "ign": 8837,
    "1875": 8838,
    "xi@@": 8839,
    "ival": 8840,
    "ematical": 8841,
    "retained": 8842,
    "го": 8843,
    "illy": 8844,
    "ditionally": 8845,
    "policies": 8846,
    "add": 8847,
    "string": 8848,
    "thday": 8849,
    "conduct": 8850,
    "1867": 8851,
    "Indep@@": 8852,
    "IX": 8853,
    "ruption": 8854,
    "cous@@": 8855,
    "netic": 8856,
    "duced": 8857,
    "poem": 8858,
    "manuscrip@@": 8859,
    "crossing": 8860,
    "Prad@@": 8861,
    "inist": 8862,
    "nations": 8863,
    "sident": 8864,
    "rows": 8865,
    "Evening": 8866,
    "BM@@": 8867,
    "Fact@@": 8868,
    "orig@@": 8869,
    "ache": 8870,
    "Trinity": 8871,
    "stopped": 8872,
    "Tat@@": 8873,
    "Jen@@": 8874,
    "bone": 8875,
    "Aber@@": 8876,
    "ION": 8877,
    "Motor@@": 8878,
    "enton": 8879,
    "ranean": 8880,
    "icon": 8881,
    "enders": 8882,
    "oj@@": 8883,
    "Buffalo": 8884,
    "Agriculture": 8885,
    "Journ@@": 8886,
    "Muhammad": 8887,
    "inct": 8888,
    "Hod@@": 8889,
    "bear@@": 8890,
    "Catalogue": 8891,
    "sie": 8892,
    "Aircraft": 8893,
    "Legisl@@": 8894,
    "definition": 8895,
    "entertainment": 8896,
    "relation": 8897,
    "veget@@": 8898,
    "duties": 8899,
    "Jennifer": 8900,
    "column": 8901,
    "Sent@@": 8902,
    "chy": 8903,
    "rein@@": 8904,
    "Jefferson": 8905,
    "ı": 8906,
    "invest@@": 8907,
    "fund": 8908,
    "scheme": 8909,
    "replac@@": 8910,
    "^": 8911,
    "capable": 8912,
    "Band@@": 8913,
    "Struc@@": 8914,
    "estiv@@": 8915,
    "infl@@": 8916,
    "reform": 8917,
    "novels": 8918,
    "legen@@": 8919,
    "ubs": 8920,
    "arrival": 8921,
    "Jama@@": 8922,
    "Fle@@": 8923,
    "Son": 8924,
    "wan": 8925,
    "ffer@@": 8926,
    "Š@@": 8927,
    "Ottawa": 8928,
    "Slav@@": 8929,
    "fair@@": 8930,
    "claim@@": 8931,
    "ре@@": 8932,
    "differences": 8933,
    "holm": 8934,
    "04@@": 8935,
    "Was": 8936,
    "Wit@@": 8937,
    "Letters": 8938,
    "Bart@@": 8939,
    "bour": 8940,
    "VII": 8941,
    "Blu@@": 8942,
    "imum": 8943,
    "chan@@": 8944,
    "Thai": 8945,
    "Baby": 8946,
    "bacter@@": 8947,
    "feel": 8948,
    "Provinc@@": 8949,
    "Sullivan": 8950,
    "unt@@": 8951,
    "lun@@": 8952,
    "assembly": 8953,
    "1877": 8954,
    "1850": 8955,
    "Newspapers": 8956,
    "1868": 8957,
    "Hans@@": 8958,
    "Gust@@": 8959,
    "window": 8960,
    "Philosophy": 8961,
    "tub@@": 8962,
    "Aust@@": 8963,
    "Beng@@": 8964,
    "Guinea": 8965,
    "limit": 8966,
    "Municipality": 8967,
    "Yu@@": 8968,
    "ricity": 8969,
    "ownership": 8970,
    "Dani@@": 8971,
    "Fir@@": 8972,
    "Baron@@": 8973,
    "sley": 8974,
    "businessman": 8975,
    "\";": 8976,
    "Feb": 8977,
    "const@@": 8978,
    "ograph": 8979,
    "evening": 8980,
    "cos@@": 8981,
    "Reading": 8982,
    "restaurant": 8983,
    "ounced": 8984,
    "eld@@": 8985,
    "threat": 8986,
    "Bibli@@": 8987,
    "Parli@@": 8988,
    "Coach": 8989,
    "ér@@": 8990,
    "icks": 8991,
    "ST": 8992,
    "Originally": 8993,
    "etry": 8994,
    "tories": 8995,
    "neut@@": 8996,
    "newspapers": 8997,
    "sung": 8998,
    "beauti@@": 8999,
    "iden@@": 9000,
    "span": 9001,
    "band@@": 9002,
    "lling": 9003,
    "fill": 9004,
    "tempor@@": 9005,
    "opinion": 9006,
    "youn@@": 9007,
    "Hughes": 9008,
    "Grace": 9009,
    "Harvey": 9010,
    "neuro@@": 9011,
    "EC": 9012,
    "IF": 9013,
    "ан@@": 9014,
    "medieval": 9015,
    "blog": 9016,
    "Higher": 9017,
    "mail": 9018,
    "1007": 9019,
    "sett@@": 9020,
    "GO@@": 9021,
    "instruments": 9022,
    "Jacques": 9023,
    "wood@@": 9024,
    "Clarke": 9025,
    "114@@": 9026,
    "wild": 9027,
    "Name": 9028,
    "divor@@": 9029,
    "aments": 9030,
    "stud@@": 9031,
    "utili@@": 9032,
    "Watson": 9033,
    "Maced@@": 9034,
    "Treaty": 9035,
    "umni": 9036,
    "Iranian": 9037,
    "Fres@@": 9038,
    "Forum": 9039,
    "resolution": 9040,
    "uble": 9041,
    "Capit@@": 9042,
    "crip@@": 9043,
    "frequency": 9044,
    "chest@@": 9045,
    "champion@@": 9046,
    "consci@@": 9047,
    "onents": 9048,
    "79@@": 9049,
    "Anti": 9050,
    "suicide": 9051,
    "Mars": 9052,
    "Icel@@": 9053,
    "Achi@@": 9054,
    "eme@@": 9055,
    "parallel": 9056,
    "Short@@": 9057,
    "Six@@": 9058,
    "Cuba": 9059,
    "sci@@": 9060,
    "flows": 9061,
    "Ges@@": 9062,
    "TO": 9063,
    "mounted": 9064,
    "Armenian": 9065,
    "Cross@@": 9066,
    "asi": 9067,
    "photo": 9068,
    "popularity": 9069,
    "soil": 9070,
    "für": 9071,
    "Neuro@@": 9072,
    "ayan": 9073,
    "resol@@": 9074,
    "Lisa": 9075,
    "bic@@": 9076,
    "EC@@": 9077,
    "inson": 9078,
    "Sut@@": 9079,
    "Investig@@": 9080,
    "dreds": 9081,
    "Ratings": 9082,
    "processes": 9083,
    "significantly": 9084,
    "fter": 9085,
    "atively": 9086,
    "reb@@": 9087,
    "grown": 9088,
    "Colin": 9089,
    "Vegas": 9090,
    "practices": 9091,
    "evolution": 9092,
    "Hell@@": 9093,
    "ien": 9094,
    "downtown": 9095,
    "Saf@@": 9096,
    "Todd": 9097,
    "modified": 9098,
    "progress": 9099,
    "RA": 9100,
    "bility": 9101,
    "Planning": 9102,
    "forests": 9103,
    "Pictures": 9104,
    "Bengal": 9105,
    "replacement": 9106,
    "Mass": 9107,
    "roughly": 9108,
    "Madison": 9109,
    "bringing": 9110,
    "Kab@@": 9111,
    "box@@": 9112,
    "eers": 9113,
    "wants": 9114,
    "oustic": 9115,
    "successor": 9116,
    "mate": 9117,
    "hensive": 9118,
    "auc@@": 9119,
    "pole": 9120,
    "rum": 9121,
    "municip@@": 9122,
    "oth@@": 9123,
    "streets": 9124,
    "isition": 9125,
    "faith": 9126,
    "deep@@": 9127,
    "kov@@": 9128,
    "phosph@@": 9129,
    "Against": 9130,
    "Amsterdam": 9131,
    "steps": 9132,
    "genetic": 9133,
    "deal@@": 9134,
    "Lic@@": 9135,
    "ta@@": 9136,
    "Somer@@": 9137,
    "esn": 9138,
    "surroun@@": 9139,
    "Sah@@": 9140,
    "gie": 9141,
    "correspon@@": 9142,
    ")\",": 9143,
    "drawing": 9144,
    "adding": 9145,
    "raise": 9146,
    "Additionally": 9147,
    "Palest@@": 9148,
    "gom@@": 9149,
    "lose": 9150,
    "photos": 9151,
    "cricket@@": 9152,
    "clear@@": 9153,
    "na@@": 9154,
    "Sle@@": 9155,
    "Spring@@": 9156,
    "mption": 9157,
    "crash": 9158,
    "Non": 9159,
    "inch": 9160,
    "Dragon": 9161,
    "huge": 9162,
    "constant": 9163,
    "plic@@": 9164,
    "components": 9165,
    "strategy": 9166,
    "rival": 9167,
    "Suz@@": 9168,
    "anon": 9169,
    "parliament": 9170,
    "ft@@": 9171,
    "kness": 9172,
    "camera": 9173,
    "Pod@@": 9174,
    "scholars": 9175,
    "21st": 9176,
    "defeating": 9177,
    "Lepidoptera": 9178,
    "eenth": 9179,
    "instance": 9180,
    "än@@": 9181,
    "brick": 9182,
    "ret": 9183,
    "pursu@@": 9184,
    "Rach@@": 9185,
    "hol": 9186,
    "Ronald": 9187,
    "Kö@@": 9188,
    "fr": 9189,
    "optera": 9190,
    "asters": 9191,
    "ushing": 9192,
    "Nevada": 9193,
    "driven": 9194,
    "activist": 9195,
    "occupation": 9196,
    "rons": 9197,
    "%,": 9198,
    "Brisbane": 9199,
    "nomin@@": 9200,
    "SH": 9201,
    "tack@@": 9202,
    "ن": 9203,
    "1873": 9204,
    "1872": 9205,
    "Reuters": 9206,
    "Grove": 9207,
    "assass@@": 9208,
    "versus": 9209,
    "iday": 9210,
    "Dy@@": 9211,
    "360": 9212,
    "Protection": 9213,
    "fighter": 9214,
    "fictional": 9215,
    "adron": 9216,
    "compos@@": 9217,
    "goal@@": 9218,
    "aint": 9219,
    "sex@@": 9220,
    "labor": 9221,
    "explained": 9222,
    "symbol": 9223,
    "Abra@@": 9224,
    "filed": 9225,
    "И@@": 9226,
    "Jose": 9227,
    "elsen": 9228,
    "1874": 9229,
    "Finance": 9230,
    "narrow": 9231,
    "may@@": 9232,
    "Cable": 9233,
    "Denver": 9234,
    "м": 9235,
    "amps": 9236,
    "compilation": 9237,
    "ka@@": 9238,
    "rington": 9239,
    ")}": 9240,
    "Serge@@": 9241,
    "World@@": 9242,
    "Mechan@@": 9243,
    "Athens": 9244,
    "Lod@@": 9245,
    "ken@@": 9246,
    "printed": 9247,
    "chann@@": 9248,
    "tell": 9249,
    "Hat@@": 9250,
    "soldi@@": 9251,
    "Raf@@": 9252,
    "ety": 9253,
    "regiment": 9254,
    "LC": 9255,
    "ledge": 9256,
    "jects": 9257,
    "Nepal": 9258,
    "qualifying": 9259,
    "RAF": 9260,
    "kan": 9261,
    "ш@@": 9262,
    "jun@@": 9263,
    "Within": 9264,
    "Eddie": 9265,
    "Vent@@": 9266,
    "Dead@@": 9267,
    "sychiat@@": 9268,
    "idents": 9269,
    "ис@@": 9270,
    "Fleet": 9271,
    "Ast@@": 9272,
    "Voivodeship": 9273,
    "Delta": 9274,
    "concerns": 9275,
    "eum": 9276,
    "etings": 9277,
    "endants": 9278,
    "Holland": 9279,
    "Mediter@@": 9280,
    "je@@": 9281,
    "Ö@@": 9282,
    "Reporter": 9283,
    "orchestra": 9284,
    "treat@@": 9285,
    "grow": 9286,
    "arship": 9287,
    "Sund@@": 9288,
    "Spar@@": 9289,
    "novel@@": 9290,
    "windows": 9291,
    "absor@@": 9292,
    "Gazetteer": 9293,
    "gy@@": 9294,
    "Mend@@": 9295,
    "nal": 9296,
    "Et@@": 9297,
    "Gene": 9298,
    "cath@@": 9299,
    "akh@@": 9300,
    "temporary": 9301,
    "McCar@@": 9302,
    "Kr@@": 9303,
    "peaked": 9304,
    "gregation": 9305,
    "offering": 9306,
    "proper": 9307,
    "Munic@@": 9308,
    "fishing": 9309,
    "wig": 9310,
    "joins": 9311,
    "Palestine": 9312,
    "jum@@": 9313,
    "118": 9314,
    "feld": 9315,
    "kinson": 9316,
    "friendly": 9317,
    "imprison@@": 9318,
    "movies": 9319,
    "Tai@@": 9320,
    "Angel": 9321,
    "volumes": 9322,
    "happened": 9323,
    "flowers": 9324,
    "conven@@": 9325,
    "ING": 9326,
    "Pep@@": 9327,
    "extrac@@": 9328,
    "soundtrack": 9329,
    "Hub@@": 9330,
    "forcement": 9331,
    "geon": 9332,
    "equipped": 9333,
    "learn": 9334,
    "competitions": 9335,
    "oples": 9336,
    "ially": 9337,
    "Derby": 9338,
    "ML": 9339,
    "Bras@@": 9340,
    "Attorney": 9341,
    "AB": 9342,
    "Hond@@": 9343,
    "plain": 9344,
    "Cincinnati": 9345,
    "Britann@@": 9346,
    "coastal": 9347,
    "Hamp@@": 9348,
    "Mass@@": 9349,
    "Nich@@": 9350,
    "ы@@": 9351,
    "Yor@@": 9352,
    "Educ@@": 9353,
    "itan": 9354,
    "icians": 9355,
    "ń@@": 9356,
    "Rat@@": 9357,
    "Cub@@": 9358,
    "ə@@": 9359,
    "ж@@": 9360,
    "care@@": 9361,
    "famil@@": 9362,
    "itary": 9363,
    "tow@@": 9364,
    "regist@@": 9365,
    "rs": 9366,
    "house@@": 9367,
    "Conserv@@": 9368,
    "199@@": 9369,
    "gress": 9370,
    "ference": 9371,
    "craft": 9372,
    "Penn@@": 9373,
    "uters": 9374,
    "consi@@": 9375,
    "scen@@": 9376,
    "Plan@@": 9377,
    "inema": 9378,
    "foun@@": 9379,
    "ld": 9380,
    "~": 9381,
    "stem": 9382,
    "declar@@": 9383,
    "Barb@@": 9384,
    "ques@@": 9385,
    "heav@@": 9386,
    "tom": 9387,
    "step@@": 9388,
    "complet@@": 9389,
    "pper": 9390,
    "bers": 9391,
    "dge": 9392,
    "programm@@": 9393,
    "hous@@": 9394,
    "riage": 9395,
    "flow@@": 9396,
    "distribu@@": 9397,
    "Ira@@": 9398,
    "gin@@": 9399,
    "relation@@": 9400,
    "apers": 9401,
    "Aff@@": 9402,
    "great@@": 9403,
    "modi@@": 9404,
    "CN@@": 9405,
    "lad@@": 9406,
    "old@@": 9407,
    "Oper@@": 9408,
    "gard@@": 9409,
    "Indones@@": 9410,
    "attle": 9411,
    "ementary": 9412,
    "ocese": 9413,
    "rough": 9414,
    "jected": 9415,
    "lv@@": 9416,
    "Epis@@": 9417,
    "confir@@": 9418,
    "ت@@": 9419,
    "Curr@@": 9420,
    "Americ@@": 9421,
    "Dut@@": 9422,
    "ogether": 9423,
    "sb@@": 9424,
    "ece": 9425,
    "Alber@@": 9426,
    "ongs": 9427,
    "angu@@": 9428,
    "commissi@@": 9429,
    "orge": 9430,
    "Sul@@": 9431,
    "ц@@": 9432,
    "NAS@@": 9433,
    "Armen@@": 9434,
    "gir@@": 9435,
    "HL": 9436,
    "Gul@@": 9437,
    "agricul@@": 9438,
    "Glo@@": 9439,
    "buil@@": 9440,
    "occ@@": 9441,
    "yond": 9442,
    "Hig@@": 9443,
    "weap@@": 9444,
    "イ@@": 9445,
    "ourth": 9446,
    "pson": 9447,
    "⁡": 9448,
    "Gab@@": 9449,
    "ricul@@": 9450,
    "Sym@@": 9451,
    "opportun@@": 9452,
    "Prof@@": 9453,
    "ific@@": 9454,
    "Т@@": 9455,
    "wr@@": 9456,
    "fore": 9457,
    "Musli@@": 9458,
    "sport@@": 9459,
    "issi@@": 9460,
    "Alex@@": 9461,
    "pointed": 9462,
    "Croati@@": 9463,
    "there@@": 9464,
    "Б@@": 9465,
    "iment": 9466,
    "uclear": 9467,
    "Atl@@": 9468,
    "ț@@": 9469,
    "hind": 9470,
    "Bill@@": 9471,
    "patter@@": 9472,
    "ucky": 9473,
    "ported": 9474,
    "ubl@@": 9475,
    "י@@": 9476,
    "Pier@@": 9477,
    "ğ@@": 9478,
    "π@@": 9479,
    "ject": 9480,
    "erb@@": 9481,
    "wan@@": 9482,
    "uge": 9483,
    "libr@@": 9484,
    "sidential": 9485,
    "ā": 9486,
    "Tha@@": 9487,
    "ν": 9488,
    "onds": 9489,
    "visions": 9490,
    "大@@": 9491,
    "ember": 9492,
    "flic@@": 9493,
    "provinc@@": 9494,
    "acter@@": 9495,
    "tware": 9496,
    "nex@@": 9497,
    "mic@@": 9498,
    "jus@@": 9499,
    "Anton@@": 9500,
    "restling": 9501,
    "η@@": 9502,
    "rom": 9503,
    "mess@@": 9504,
    "х@@": 9505,
    "Nev@@": 9506,
    "ा": 9507,
    "»": 9508,
    "к": 9509,
    "Num@@": 9510,
    "Famil@@": 9511,
    "uals": 9512,
    "ulp@@": 9513,
    "aim": 9514,
    "immedi@@": 9515,
    "ă": 9516,
    "sportation": 9517,
    "Austral@@": 9518,
    "fed@@": 9519,
    "ease": 9520,
    "succe@@": 9521,
    "Tok@@": 9522,
    "ū": 9523,
    "soft": 9524,
    "Classi@@": 9525,
    "amil@@": 9526,
    "sible": 9527,
    "eutenant": 9528,
    "roug@@": 9529,
    "kel@@": 9530,
    "Д@@": 9531,
    "fail@@": 9532,
    "&@@": 9533,
    "§": 9534,
    "eli": 9535,
    "ons@@": 9536,
    "necess@@": 9537,
    "endance": 9538,
    "hout": 9539,
    "ondary": 9540,
    "amous": 9541,
    "у": 9542,
    "nic": 9543,
    "Scot@@": 9544,
    "Chron@@": 9545,
    "aller": 9546,
    "і@@": 9547,
    "aci@@": 9548,
    "ع@@": 9549,
    "nam": 9550,
    "anta": 9551,
    "atis@@": 9552,
    "Newsp@@": 9553,
    "big@@": 9554,
    "ESP@@": 9555,
    "ę@@": 9556,
    "lear": 9557,
    "possib@@": 9558,
    "aning": 9559,
    "ī": 9560,
    "à@@": 9561,
    "hamm@@": 9562,
    "--@@": 9563,
    "divers@@": 9564,
    "Princ@@": 9565,
    "г": 9566,
    "poin@@": 9567,
    "ś@@": 9568,
    "ulty": 9569,
    "studi@@": 9570,
    "，": 9571,
    "edia": 9572,
    "ו@@": 9573,
    "î@@": 9574,
    "Ital@@": 9575,
    "ス@@": 9576,
    "oppos@@": 9577,
    "uter": 9578,
    "incorpor@@": 9579,
    "Indust@@": 9580,
    "Rog@@": 9581,
    "Trin@@": 9582,
    "atic@@": 9583,
    "Bib@@": 9584,
    "ラ@@": 9585,
    "kil@@": 9586,
    "Avi@@": 9587,
    "stal": 9588,
    "subst@@": 9589,
    "peror": 9590,
    "ouse@@": 9591,
    "ð@@": 9592,
    "Develop@@": 9593,
    "ë": 9594,
    "enna": 9595,
    "opher": 9596,
    "ル@@": 9597,
    "Are@@": 9598,
    "Goo@@": 9599,
    "alion": 9600,
    "ovi@@": 9601,
    "ause": 9602,
    "Č@@": 9603,
    "Philipp@@": 9604,
    "uated": 9605,
    "near@@": 9606,
    "istan": 9607,
    "ί@@": 9608,
    "provid@@": 9609,
    "lowing": 9610,
    "display@@": 9611,
    "artment": 9612,
    "ego": 9613,
    "ooks": 9614,
    "ecu@@": 9615,
    "З@@": 9616,
    "maj@@": 9617,
    "Viet@@": 9618,
    "・": 9619,
    "wise": 9620,
    "Corpor@@": 9621,
    "Alf@@": 9622,
    "Pac@@": 9623,
    "Quar@@": 9624,
    "υ@@": 9625,
    "umes": 9626,
    "л": 9627,
    "Dic@@": 9628,
    "signific@@": 9629,
    "eas@@": 9630,
    "saf@@": 9631,
    "gary": 9632,
    "emetery": 9633,
    "»@@": 9634,
    "rement": 9635,
    "Libr@@": 9636,
    "р": 9637,
    "Slo@@": 9638,
    "|@@": 9639,
    "ror@@": 9640,
    "ы": 9641,
    "ebook": 9642,
    "aul": 9643,
    "engine@@": 9644,
    "olas": 9645,
    "ي": 9646,
    "Г@@": 9647,
    "hters": 9648,
    "institu@@": 9649,
    "tera": 9650,
    "ought": 9651,
    "itte@@": 9652,
    "mercial": 9653,
    "atics": 9654,
    "Freder@@": 9655,
    "्": 9656,
    "İ@@": 9657,
    "guit@@": 9658,
    "ount": 9659,
    "Gon@@": 9660,
    "Anth@@": 9661,
    "Republ@@": 9662,
    "unte@@": 9663,
    "า@@": 9664,
    "beg@@": 9665,
    "keep@@": 9666,
    "š": 9667,
    "Colomb@@": 9668,
    "Moun@@": 9669,
    "リ@@": 9670,
    "ی@@": 9671,
    "antic": 9672,
    "amme": 9673,
    "friend@@": 9674,
    "wealth": 9675,
    "ː@@": 9676,
    "restaur@@": 9677,
    "PM@@": 9678,
    "engers": 9679,
    "statis@@": 9680,
    "Agricul@@": 9681,
    "Trib@@": 9682,
    "environ@@": 9683,
    "Amaz@@": 9684,
    "€": 9685,
    "Chin@@": 9686,
    "ynasty": 9687,
    "د": 9688,
    "iver@@": 9689,
    "other@@": 9690,
    "№": 9691,
    "Aus@@": 9692,
    "ա@@": 9693,
    "、": 9694,
    "ř@@": 9695,
    "Scienti@@": 9696,
    "edral": 9697,
    "ɔ@@": 9698,
    "Nep@@": 9699,
    "ricts": 9700,
    "ه": 9701,
    "gh": 9702,
    "memb@@": 9703,
    "cerem@@": 9704,
    "bell": 9705,
    "ews": 9706,
    "sep@@": 9707,
    "perial": 9708,
    "Chic@@": 9709,
    "pow@@": 9710,
    "Turk@@": 9711,
    "conflic@@": 9712,
    "erine": 9713,
    "188@@": 9714,
    "198@@": 9715,
    "tually": 9716,
    "iversary": 9717,
    "follow@@": 9718,
    "partn@@": 9719,
    "etting": 9720,
    "γ@@": 9721,
    "Contro@@": 9722,
    "merc@@": 9723,
    "BN": 9724,
    "echn@@": 9725,
    "resist@@": 9726,
    "havi@@": 9727,
    "attemp@@": 9728,
    "ة": 9729,
    "alo": 9730,
    "ensity": 9731,
    "cric@@": 9732,
    "Bob@@": 9733,
    "中@@": 9734,
    "Rang@@": 9735,
    "Hist@@": 9736,
    "Brook@@": 9737,
    "—@@": 9738,
    "ッ@@": 9739,
    "aband@@": 9740,
    "odd": 9741,
    "β": 9742,
    "dou@@": 9743,
    "presents": 9744,
    "conclud@@": 9745,
    "Budd@@": 9746,
    "ش@@": 9747,
    "lins": 9748,
    "indep@@": 9749,
    "simp@@": 9750,
    "shoo@@": 9751,
    "ю@@": 9752,
    "187@@": 9753,
    "alif@@": 9754,
    "max@@": 9755,
    "ح@@": 9756,
    "189@@": 9757,
    "Stu@@": 9758,
    "atin": 9759,
    "him@@": 9760,
    "sof@@": 9761,
    "ر": 9762,
    "bud@@": 9763,
    "Recor@@": 9764,
    "mas": 9765,
    "Prov@@": 9766,
    "ア@@": 9767,
    "Priv@@": 9768,
    "Philli@@": 9769,
    "hus@@": 9770,
    "ï@@": 9771,
    "rict": 9772,
    "Phili@@": 9773,
    "Champ@@": 9774,
    "unic@@": 9775,
    "ropolitan": 9776,
    "Α@@": 9777,
    "oper": 9778,
    "km@@": 9779,
    "pers@@": 9780,
    "accep@@": 9781,
    "Sci@@": 9782,
    "Guar@@": 9783,
    "Л@@": 9784,
    "Chan@@": 9785,
    "osph@@": 9786,
    "gan@@": 9787,
    "ronze": 9788,
    "Micha@@": 9789,
    "rug@@": 9790,
    "descrip@@": 9791,
    "wind@@": 9792,
    "SN": 9793,
    "ople": 9794,
    "ć@@": 9795,
    "rements": 9796,
    "Chall@@": 9797,
    "Satur@@": 9798,
    "ergy": 9799,
    "Ral@@": 9800,
    "ه@@": 9801,
    "consec@@": 9802,
    "promin@@": 9803,
    "⋅": 9804,
    "ɛ@@": 9805,
    "Lew@@": 9806,
    "rance": 9807,
    "Aug@@": 9808,
    "rele@@": 9809,
    "Hawai@@": 9810,
    "ufac@@": 9811,
    "ffic": 9812,
    "Ill@@": 9813,
    "Matthe@@": 9814,
    "perman@@": 9815,
    "achers": 9816,
    "cept": 9817,
    "ý": 9818,
    "spok@@": 9819,
    "年@@": 9820,
    "Jew@@": 9821,
    "lywood": 9822,
    "ά@@": 9823,
    "Academ@@": 9824,
    "ashion": 9825,
    "ف@@": 9826,
    "vel": 9827,
    "Orig@@": 9828,
    "rd": 9829,
    "Miss@@": 9830,
    "д": 9831,
    "ト@@": 9832,
    "lyn": 9833,
    "stly": 9834,
    "ą@@": 9835,
    "cc@@": 9836,
    "с": 9837,
    "Compl@@": 9838,
    "tionally": 9839,
    "Lep@@": 9840,
    "arran@@": 9841,
    "ч": 9842,
    "did@@": 9843,
    "mp": 9844,
    "bol": 9845,
    "ropol@@": 9846,
    "atab@@": 9847,
    "Nel@@": 9848,
    "Poli@@": 9849,
    "egra@@": 9850,
    "日@@": 9851,
    "approxim@@": 9852,
    "ě@@": 9853,
    "world@@": 9854,
    "duce": 9855,
    "ources": 9856,
    "partic@@": 9857,
    "olution": 9858,
    "contem@@": 9859,
    "ength": 9860,
    "Offic@@": 9861,
    "vey": 9862,
    "δ@@": 9863,
    "ghts": 9864,
    "allow@@": 9865,
    "Islam@@": 9866,
    "oci@@": 9867,
    "east@@": 9868,
    "bourne": 9869,
    "Ž@@": 9870,
    "Đ@@": 9871,
    "asons": 9872,
    "Langu@@": 9873,
    "requi@@": 9874,
    "Hous@@": 9875,
    "Afgh@@": 9876,
    "Jim@@": 9877,
    "song@@": 9878,
    "ú": 9879,
    "omen": 9880,
    "stems": 9881,
    "urches": 9882,
    "icide": 9883,
    "å": 9884,
    "Heb@@": 9885,
    "र": 9886,
    "proper@@": 9887,
    "ensus": 9888,
    "advant@@": 9889,
    "Ł@@": 9890,
    "iter@@": 9891,
    "ق@@": 9892,
    "enge": 9893,
    "「": 9894,
    "ό@@": 9895,
    "fiel@@": 9896,
    "ج@@": 9897,
    "197@@": 9898,
    "Ark@@": 9899,
    "bec": 9900,
    "ishers": 9901,
    "purch@@": 9902,
    "⁄": 9903,
    "シ@@": 9904,
    "usin@@": 9905,
    "Hud@@": 9906,
    "nition": 9907,
    "ク@@": 9908,
    "ż@@": 9909,
    "Vinc@@": 9910,
    "plom@@": 9911,
    "uled": 9912,
    "ʻ@@": 9913,
    "Е@@": 9914,
    "Norw@@": 9915,
    "intel@@": 9916,
    "odes@@": 9917,
    "ی": 9918,
    "Jus@@": 9919,
    "Sain@@": 9920,
    "rying": 9921,
    "typ@@": 9922,
    "hammad": 9923,
    "195@@": 9924,
    "DV@@": 9925,
    "Serv@@": 9926,
    "Buff@@": 9927,
    "新@@": 9928,
    "ordinates": 9929,
    "owa": 9930,
    "inging": 9931,
    "polic@@": 9932,
    "ö": 9933,
    "deter@@": 9934,
    "Ф@@": 9935,
    "Strat@@": 9936,
    "Ō@@": 9937,
    "loyd": 9938,
    "∂": 9939,
    "อ@@": 9940,
    "rid": 9941,
    "Commissi@@": 9942,
    "//": 9943,
    "π": 9944,
    "Chronic@@": 9945,
    "У@@": 9946,
    "kra@@": 9947,
    "人@@": 9948,
    "rough@@": 9949,
    "relig@@": 9950,
    "aig@@": 9951,
    "Canadi@@": 9952,
    "Intro@@": 9953,
    "quart@@": 9954,
    "oman": 9955,
    "Ç@@": 9956,
    "タ@@": 9957,
    "assum@@": 9958,
    "…@@": 9959,
    "国@@": 9960,
    "О": 9961,
    "Treat@@": 9962,
    "া": 9963,
    "θ": 9964,
    "abeth": 9965,
    "irc@@": 9966,
    "ω@@": 9967,
    "ร@@": 9968,
    "wth": 9969,
    "estic": 9970,
    "eign": 9971,
    "ä": 9972,
    "asion": 9973,
    "occur@@": 9974,
    "rought": 9975,
    "tern@@": 9976,
    "ר@@": 9977,
    "Found@@": 9978,
    "เ@@": 9979,
    "́": 9980,
    "Way@@": 9981,
    "tivities": 9982,
    "undred": 9983,
    "istry": 9984,
    "μ": 9985,
    "Mary@@": 9986,
    ";@@": 9987,
    "chang@@": 9988,
    "õ@@": 9989,
    "`": 9990,
    "eae": 9991,
    "opin@@": 9992,
    "ob": 9993,
    "்": 9994,
    "edings": 9995,
    "Mond@@": 9996,
    "vived": 9997,
    "Å@@": 9998,
    "iversities": 9999,
    "η": 10000,
    "ك@@": 10001,
    "ń": 10002,
    "rely": 10003,
    "burgh": 10004,
    "elf": 10005,
    "ē@@": 10006,
    "issu@@": 10007,
    "amin": 10008,
    "ё@@": 10009,
    "έ@@": 10010,
    "É": 10011,
    "đ@@": 10012,
    "Ś@@": 10013,
    "tled": 10014,
    "Jacqu@@": 10015,
    "success@@": 10016,
    "λ": 10017,
    "ension": 10018,
    "sour@@": 10019,
    "gram": 10020,
    "You@@": 10021,
    "ones@@": 10022,
    "θ@@": 10023,
    "196@@": 10024,
    "arded": 10025,
    "Ü@@": 10026,
    "Refer@@": 10027,
    "avail@@": 10028,
    "ز@@": 10029,
    "coast@@": 10030,
    "م": 10031,
    "193@@": 10032,
    "ー": 10033,
    "iddle": 10034,
    "レ@@": 10035,
    "Assist@@": 10036,
    "individ@@": 10037,
    "iques": 10038,
    "Ott@@": 10039,
    "unications": 10040,
    "∈": 10041,
    "ü": 10042,
    "ifer": 10043,
    "Cali@@": 10044,
    "versi@@": 10045,
    "ι": 10046,
    "Jord@@": 10047,
    "ъ@@": 10048,
    "aughter": 10049,
    "Francis@@": 10050,
    "Ч@@": 10051,
    "מ@@": 10052,
    "ools": 10053,
    "א@@": 10054,
    "Σ@@": 10055,
    "∑": 10056,
    "Afric@@": 10057,
    "auti@@": 10058,
    "ン": 10059,
    "ş": 10060,
    "apti@@": 10061,
    "incor@@": 10062,
    "classi@@": 10063,
    "ל@@": 10064,
    "stitu@@": 10065,
    "kshire": 10066,
    ">@@": 10067,
    "ل": 10068,
    "uten@@": 10069,
    "elve": 10070,
    "iversity": 10071,
    "ysis": 10072,
    "Veg@@": 10073,
    "ロ@@": 10074,
    "ific": 10075,
    "ジ@@": 10076,
    "（": 10077,
    "ockey": 10078,
    "accor@@": 10079,
    "adel@@": 10080,
    "ا": 10081,
    "ド@@": 10082,
    "マ@@": 10083,
    "oundtrack": 10084,
    "č": 10085,
    "ב@@": 10086,
    "Europe@@": 10087,
    "blast": 10088,
    "tained": 10089,
    "本@@": 10090,
    "lish": 10091,
    "emati@@": 10092,
    "contr@@": 10093,
    "Π@@": 10094,
    "½": 10095,
    "Harv@@": 10096,
    "Μ@@": 10097,
    "tish": 10098,
    "urity": 10099,
    "น@@": 10100,
    "Dak@@": 10101,
    "一@@": 10102,
    "defe@@": 10103,
    "フ@@": 10104,
    "ω": 10105,
    "に@@": 10106,
    "debu@@": 10107,
    "ј@@": 10108,
    "ε": 10109,
    "ि": 10110,
    "خ@@": 10111,
    "σ": 10112,
    "lead@@": 10113,
    "щ@@": 10114,
    "キ@@": 10115,
    "epis@@": 10116,
    "Intel@@": 10117,
    "ɪ@@": 10118,
    "Origin@@": 10119,
    "è": 10120,
    "isl@@": 10121,
    "rench": 10122,
    "power@@": 10123,
    "が@@": 10124,
    "ה@@": 10125,
    "Ε@@": 10126,
    "Ş@@": 10127,
    "ml": 10128,
    "」": 10129,
    "point@@": 10130,
    "ت": 10131,
    "コ@@": 10132,
    "镇": 10133,
    "ayl@@": 10134,
    "Adel@@": 10135,
    "Iri@@": 10136,
    "Rug@@": 10137,
    "business@@": 10138,
    "candi@@": 10139,
    "《": 10140,
    "क": 10141,
    "Κ@@": 10142,
    "न": 10143,
    "ง@@": 10144,
    "公@@": 10145,
    "ival@@": 10146,
    "月@@": 10147,
    "ether": 10148,
    "い@@": 10149,
    "Mex@@": 10150,
    "ambig@@": 10151,
    "Accor@@": 10152,
    "eces": 10153,
    "tings": 10154,
    "ə": 10155,
    "​": 10156,
    "eved": 10157,
    "ο": 10158,
    "б": 10159,
    "ween": 10160,
    "capac@@": 10161,
    "footb@@": 10162,
    "Lincol@@": 10163,
    "이@@": 10164,
    "Minn@@": 10165,
    "β@@": 10166,
    "υ": 10167,
    "Columb@@": 10168,
    "͡": 10169,
    "unds": 10170,
    "ั": 10171,
    "call@@": 10172,
    "⟩": 10173,
    "como@@": 10174,
    "Rout@@": 10175,
    "э@@": 10176,
    "mater@@": 10177,
    "Wash@@": 10178,
    "バ@@": 10179,
    "aff": 10180,
    "と@@": 10181,
    "γ": 10182,
    "ש@@": 10183,
    "Ó@@": 10184,
    "opul@@": 10185,
    "্": 10186,
    "iland": 10187,
    "hig@@": 10188,
    "compil@@": 10189,
    "blems": 10190,
    "∞": 10191,
    "А": 10192,
    "ţ@@": 10193,
    "„": 10194,
    "aylor": 10195,
    "Ø@@": 10196,
    "オ@@": 10197,
    "φ@@": 10198,
    "Isra@@": 10199,
    "ł": 10200,
    "reau": 10201,
    "ก@@": 10202,
    "山@@": 10203,
    "ה": 10204,
    "<@@": 10205,
    "Amer@@": 10206,
    "ø": 10207,
    "ő@@": 10208,
    "Σ": 10209,
    "่": 10210,
    "第@@": 10211,
    "gressi@@": 10212,
    "⟨": 10213,
    "offici@@": 10214,
    "≤": 10215,
    "UE@@": 10216,
    "ャ@@": 10217,
    "Finn@@": 10218,
    "カ@@": 10219,
    "nd": 10220,
    "stop@@": 10221,
    "Connec@@": 10222,
    "erland": 10223,
    "ρ": 10224,
    "：": 10225,
    "arrest@@": 10226,
    "liest": 10227,
    "Memb@@": 10228,
    "Ο@@": 10229,
    "त": 10230,
    "Braz@@": 10231,
    "グ@@": 10232,
    "oen@@": 10233,
    "ト": 10234,
    "Margar@@": 10235,
    "desig@@": 10236,
    "נ@@": 10237,
    "े": 10238,
    "ص@@": 10239,
    "eff": 10240,
    "egraph": 10241,
    "ス": 10242,
    "franchi@@": 10243,
    "デ@@": 10244,
    "χ@@": 10245,
    "的@@": 10246,
    "elor": 10247,
    "з": 10248,
    "Lond@@": 10249,
    "dow": 10250,
    "occer@@": 10251,
    "Τ@@": 10252,
    "timately": 10253,
    "Municip@@": 10254,
    "NCA@@": 10255,
    "ò": 10256,
    "な@@": 10257,
    "portun@@": 10258,
    "文@@": 10259,
    "ร": 10260,
    "chair@@": 10261,
    "র": 10262,
    "spired": 10263,
    "ת": 10264,
    "ิ": 10265,
    "Ι@@": 10266,
    "asty": 10267,
    "ß": 10268,
    "uscrip@@": 10269,
    "ύ@@": 10270,
    "²": 10271,
    "サ@@": 10272,
    "itiz@@": 10273,
    "。": 10274,
    "گ@@": 10275,
    "overn@@": 10276,
    "Anal@@": 10277,
    "efly": 10278,
    "Tenn@@": 10279,
    "Swed@@": 10280,
    "ý@@": 10281,
    "#@@": 10282,
    "上@@": 10283,
    "alle@@": 10284,
    "ィ@@": 10285,
    "Oreg@@": 10286,
    "±": 10287,
    "ր@@": 10288,
    "Fic@@": 10289,
    "∗": 10290,
    "ी": 10291,
    "学@@": 10292,
    "を@@": 10293,
    "स": 10294,
    "rees": 10295,
    "ո@@": 10296,
    "IMD@@": 10297,
    "Repres@@": 10298,
    "テ@@": 10299,
    "espec@@": 10300,
    "म": 10301,
    "ww@@": 10302,
    "し@@": 10303,
    "ニ@@": 10304,
    "rence": 10305,
    "В": 10306,
    "ル": 10307,
    "ivers@@": 10308,
    "天@@": 10309,
    "sychi@@": 10310,
    "た@@": 10311,
    "preme": 10312,
    "agues": 10313,
    "小@@": 10314,
    "Stew@@": 10315,
    "Revi@@": 10316,
    "inners": 10317,
    "appoint@@": 10318,
    "ミ@@": 10319,
    "alth": 10320,
    "ュ@@": 10321,
    "giv@@": 10322,
    "Sovi@@": 10323,
    "ư@@": 10324,
    "ɛ": 10325,
    "haps": 10326,
    "ù": 10327,
    "expan@@": 10328,
    "aught": 10329,
    "ή@@": 10330,
    "Ó": 10331,
    "》": 10332,
    "้": 10333,
    "ک@@": 10334,
    "ì": 10335,
    "プ@@": 10336,
    "أ@@": 10337,
    "Lith@@": 10338,
    "Iran@@": 10339,
    "ა@@": 10340,
    "ɡ@@": 10341,
    "出@@": 10342,
    "import@@": 10343,
    "φ": 10344,
    "δ": 10345,
    "ি": 10346,
    "ò@@": 10347,
    "aide": 10348,
    "で@@": 10349,
    "ب": 10350,
    "Ν@@": 10351,
    "ナ@@": 10352,
    "）": 10353,
    "₹": 10354,
    "osen": 10355,
    "高@@": 10356,
    "ì@@": 10357,
    "cyclo@@": 10358,
    "三@@": 10359,
    "inea": 10360,
    "王@@": 10361,
    "entioned": 10362,
    "Eliz@@": 10363,
    "Х@@": 10364,
    "overty": 10365,
    "Victor@@": 10366,
    "Ú@@": 10367,
    "∫": 10368,
    "arist": 10369,
    "Chair@@": 10370,
    "Δ": 10371,
    "南@@": 10372,
    "Δ@@": 10373,
    "selves": 10374,
    "ط@@": 10375,
    "Glas@@": 10376,
    "Í@@": 10377,
    "phony": 10378,
    "ע@@": 10379,
    "道": 10380,
    "י": 10381,
    "losoph@@": 10382,
    "ं": 10383,
    "atured": 10384,
    "子@@": 10385,
    "merly": 10386,
    "Ż@@": 10387,
    "്": 10388,
    "村": 10389,
    "و": 10390,
    "apol@@": 10391,
    "メ@@": 10392,
    "oday": 10393,
    "ে": 10394,
    "cow": 10395,
    "itage": 10396,
    "名@@": 10397,
    "ź": 10398,
    "ら@@": 10399,
    "ม@@": 10400,
    "ブ@@": 10401,
    "子": 10402,
    "ė": 10403,
    "ウ@@": 10404,
    "ビ@@": 10405,
    "田@@": 10406,
    "ilities": 10407,
    "ώ@@": 10408,
    "τ": 10409,
    "Kent@@": 10410,
    "ϕ": 10411,
    "Egyp@@": 10412,
    "海@@": 10413,
    "ி": 10414,
    "♠": 10415,
    "“@@": 10416,
    "Gord@@": 10417,
    "bean": 10418,
    "ल": 10419,
    "ם": 10420,
    "commod@@": 10421,
    "~@@": 10422,
    "ệ@@": 10423,
    "Dall@@": 10424,
    "equival@@": 10425,
    "icy": 10426,
    "ն@@": 10427,
    "ê": 10428,
    "ș": 10429,
    "strat@@": 10430,
    "sibility": 10431,
    "東@@": 10432,
    "『": 10433,
    "ム@@": 10434,
    "С": 10435,
    "ennis": 10436,
    "は@@": 10437,
    "progr@@": 10438,
    "ю": 10439,
    "北@@": 10440,
    "offic@@": 10441,
    "ե@@": 10442,
    "ː": 10443,
[...]
